{
  "version": "1.0",
  "truncation": null,
  "padding": null,
  "added_tokens": [
    {
      "id": 0,
      "content": "<pad>",
      "single_word": false,
      "lstrip": false,
      "rstrip": false,
      "normalized": false,
      "special": true
    },
    {
      "id": 1,
      "content": "<bos>",
      "single_word": false,
      "lstrip": false,
      "rstrip": false,
      "normalized": false,
      "special": true
    },
    {
      "id": 2,
      "content": "<eos>",
      "single_word": false,
      "lstrip": false,
      "rstrip": false,
      "normalized": false,
      "special": true
    },
    {
      "id": 3,
      "content": "<unk>",
      "single_word": false,
      "lstrip": false,
      "rstrip": false,
      "normalized": false,
      "special": true
    },
    {
      "id": 4,
      "content": "<mask>",
      "single_word": false,
      "lstrip": false,
      "rstrip": false,
      "normalized": false,
      "special": true
    }
  ],
  "normalizer": {
    "type": "NFKC"
  },
  "pre_tokenizer": null,
  "post_processor": null,
  "decoder": null,
  "model": {
    "type": "Unigram",
    "unk_id": 3,
    "vocab": [
      [
        "<pad>",
        0.0
      ],
      [
        "<bos>",
        0.0
      ],
      [
        "<eos>",
        0.0
      ],
      [
        "<unk>",
        0.0
      ],
      [
        "<mask>",
        0.0
      ],
      [
        "の",
        -3.170988524143336
      ],
      [
        "。",
        -3.266573305435694
      ],
      [
        "を",
        -3.533725701832868
      ],
      [
        "、",
        -3.754860454966952
      ],
      [
        "に",
        -3.7549102648098316
      ],
      [
        "は",
        -3.988401778014633
      ],
      [
        "が",
        -4.156316833266682
      ],
      [
        "と",
        -4.238573455866958
      ],
      [
        " ",
        -4.776354187863526
      ],
      [
        "で",
        -4.926060238795985
      ],
      [
        "る",
        -4.992361893730909
      ],
      [
        "した",
        -5.09119517203447
      ],
      [
        "た",
        -5.0989994610756675
      ],
      [
        "も",
        -5.149894685526724
      ],
      [
        "は、",
        -5.166162409522617
      ],
      [
        "い",
        -5.198704438672785
      ],
      [
        "である",
        -5.336773851204621
      ],
      [
        "や",
        -5.389435678189285
      ],
      [
        "ー",
        -5.4561513647099815
      ],
      [
        "て",
        -5.467289094440529
      ],
      [
        "った",
        -5.4999572474001415
      ],
      [
        "な",
        -5.50600984132233
      ],
      [
        "する",
        -5.559830711760952
      ],
      [
        "から",
        -5.570103957827583
      ],
      [
        "神",
        -5.584099321227941
      ],
      [
        "「",
        -5.639005607742986
      ],
      [
        "ス",
        -5.666785407255375
      ],
      [
        "く",
        -5.697617472046417
      ],
      [
        "この",
        -5.737508216267075
      ],
      [
        "が、",
        -5.771542847223289
      ],
      [
        "」",
        -5.774219209568506
      ],
      [
        "し",
        -5.795904012334834
      ],
      [
        "り",
        -5.8218147333951435
      ],
      [
        "ら",
        -5.825901073916635
      ],
      [
        "か",
        -5.850128794710918
      ],
      [
        "・",
        -5.879728060469633
      ],
      [
        "し、",
        -5.926942748840331
      ],
      [
        "ン",
        -5.93298719125776
      ],
      [
        "その",
        -5.946496158297018
      ],
      [
        "として",
        -5.9715652885593205
      ],
      [
        "して",
        -5.992034689627417
      ],
      [
        "き",
        -6.0009923125320785
      ],
      [
        "神話",
        -6.06182941509892
      ],
      [
        "という",
        -6.069655072593284
      ],
      [
        "れ",
        -6.0925308240300415
      ],
      [
        "人",
        -6.09313523377589
      ],
      [
        "者",
        -6.101698032712023
      ],
      [
        "ア",
        -6.104129968109933
      ],
      [
        "う",
        -6.121481394656732
      ],
      [
        "イ",
        -6.126172805748408
      ],
      [
        "って",
        -6.1339480900976975
      ],
      [
        "で、",
        -6.196732833155736
      ],
      [
        "え",
        -6.20155186422848
      ],
      [
        "ま",
        -6.234588453519833
      ],
      [
        "大",
        -6.2482740629412294
      ],
      [
        "ル",
        -6.252437302743034
      ],
      [
        "わ",
        -6.278685888346413
      ],
      [
        "め",
        -6.299163684279045
      ],
      [
        "神々",
        -6.312865004791282
      ],
      [
        "ト",
        -6.3229468308005385
      ],
      [
        "された",
        -6.3309450434940775
      ],
      [
        "地",
        -6.337604115695162
      ],
      [
        "女神",
        -6.339327357619848
      ],
      [
        "す",
        -6.37969202945056
      ],
      [
        "ゼウス",
        -6.3807588974204945
      ],
      [
        "ない",
        -6.392059117551852
      ],
      [
        "一",
        -6.412688853936963
      ],
      [
        "王",
        -6.420562292124598
      ],
      [
        "であった",
        -6.431167859072295
      ],
      [
        "によって",
        -6.433035065618671
      ],
      [
        "出",
        -6.452996540801735
      ],
      [
        "ラ",
        -6.485892973634909
      ],
      [
        "とされる",
        -6.488325605516459
      ],
      [
        "ゼウスは",
        -6.490617532151011
      ],
      [
        "  ",
        -6.516965171219814
      ],
      [
        "もの",
        -6.525747871978351
      ],
      [
        "さ",
        -6.540116002453109
      ],
      [
        "つ",
        -6.553377063728056
      ],
      [
        "名",
        -6.572715241221703
      ],
      [
        "であり、",
        -6.577566872624243
      ],
      [
        "語",
        -6.582795969445273
      ],
      [
        "み",
        -6.588377362452707
      ],
      [
        "カ",
        -6.598232204363187
      ],
      [
        "また、",
        -6.599188248410429
      ],
      [
        "生",
        -6.60529813645515
      ],
      [
        "上",
        -6.605842256281449
      ],
      [
        "の神",
        -6.607324166822014
      ],
      [
        "ている",
        -6.6143149929807175
      ],
      [
        "リ",
        -6.626854912889981
      ],
      [
        "こと",
        -6.630002865594828
      ],
      [
        "ロ",
        -6.63299653048763
      ],
      [
        "には",
        -6.640528971576418
      ],
      [
        "子",
        -6.654789994013674
      ],
      [
        "1",
        -6.664401190219074
      ],
      [
        "方",
        -6.675779813193864
      ],
      [
        "また",
        -6.6779944370826785
      ],
      [
        "り、",
        -6.680346452233736
      ],
      [
        "られた",
        -6.683515157767817
      ],
      [
        "の女神",
        -6.684272045190803
      ],
      [
        "話",
        -6.6902982276721055
      ],
      [
        "など",
        -6.6945964424961035
      ],
      [
        "だ",
        -6.702644862754908
      ],
      [
        "作",
        -6.706369867709036
      ],
      [
        "年",
        -6.707124790401754
      ],
      [
        "ド",
        -6.708714508883355
      ],
      [
        "たち",
        -6.712579400270227
      ],
      [
        "ク",
        -6.733421469570125
      ],
      [
        "いた",
        -6.736347288002577
      ],
      [
        "2",
        -6.737302876065723
      ],
      [
        "せ",
        -6.740460796888167
      ],
      [
        "』",
        -6.748089185115826
      ],
      [
        "エ",
        -6.7623281657833845
      ],
      [
        "ち",
        -6.766750219541743
      ],
      [
        "オ",
        -6.773699093253737
      ],
      [
        "海",
        -6.774066893265719
      ],
      [
        "シ",
        -6.774311620317971
      ],
      [
        "『",
        -6.7776152797995275
      ],
      [
        "的",
        -6.785370015885301
      ],
      [
        "世界",
        -6.785704192566067
      ],
      [
        "テ",
        -6.786949885709092
      ],
      [
        "では",
        -6.7913613567881495
      ],
      [
        "アプロディーテー",
        -6.79716951441735
      ],
      [
        "戦",
        -6.797709036234682
      ],
      [
        "英雄",
        -6.811667668561712
      ],
      [
        "け",
        -6.82097245329155
      ],
      [
        "において",
        -6.832476983548434
      ],
      [
        "アテーナー",
        -6.842690531606996
      ],
      [
        "じ",
        -6.843850685935456
      ],
      [
        "ていた",
        -6.845168984196618
      ],
      [
        "中",
        -6.865696215534461
      ],
      [
        "ポセイドーン",
        -6.870924382881916
      ],
      [
        "ヘーラクレースは",
        -6.875212778440338
      ],
      [
        "している",
        -6.881250046088728
      ],
      [
        "マ",
        -6.881550226681192
      ],
      [
        "クロノス",
        -6.894212408414075
      ],
      [
        "書",
        -6.894213898288533
      ],
      [
        "的な",
        -6.898778430573148
      ],
      [
        "女",
        -6.918687125930773
      ],
      [
        "説",
        -6.91918884641909
      ],
      [
        "知",
        -6.919859334933774
      ],
      [
        "ペルセポネー",
        -6.927049000747406
      ],
      [
        "族",
        -6.932773601351942
      ],
      [
        "ギリシア神話",
        -6.943415960490183
      ],
      [
        "レ",
        -6.943608155198521
      ],
      [
        "間",
        -6.944742320013529
      ],
      [
        "していた",
        -6.945143845124844
      ],
      [
        "事",
        -6.946410321574282
      ],
      [
        "ゼウスの",
        -6.958142245919896
      ],
      [
        "パ",
        -6.9594097797089525
      ],
      [
        "母",
        -6.959633951336822
      ],
      [
        "全",
        -6.959847105330968
      ],
      [
        "家",
        -6.960026378154625
      ],
      [
        "3",
        -6.960026378154911
      ],
      [
        "死",
        -6.9606976456445295
      ],
      [
        "より",
        -6.9687862099193785
      ],
      [
        "来",
        -6.971971561475651
      ],
      [
        "とも",
        -6.972618566919067
      ],
      [
        "後",
        -6.974493103047505
      ],
      [
        "行",
        -6.980390852000413
      ],
      [
        "られ",
        -6.991445011401161
      ],
      [
        "ヘーラー",
        -6.997130673446718
      ],
      [
        "彼女",
        -7.003001966948676
      ],
      [
        "がある",
        -7.011659367642453
      ],
      [
        "ポ",
        -7.014101585662485
      ],
      [
        "時代",
        -7.0174603918669956
      ],
      [
        "なかった",
        -7.017559366632249
      ],
      [
        "となった",
        -7.017843605553702
      ],
      [
        "び",
        -7.030218833645023
      ],
      [
        "歌",
        -7.030476852762388
      ],
      [
        "の娘",
        -7.036928685959983
      ],
      [
        "ため、",
        -7.041515731007996
      ],
      [
        "世紀",
        -7.044950259914927
      ],
      [
        "ギリシア",
        -7.0539108224888505
      ],
      [
        "トロイア",
        -7.0595910336668855
      ],
      [
        "見",
        -7.059751817531649
      ],
      [
        "下",
        -7.060108127591976
      ],
      [
        "物語",
        -7.0643059837944255
      ],
      [
        "物",
        -7.068193782083295
      ],
      [
        "デーメーテール",
        -7.076838587819183
      ],
      [
        "デ",
        -7.087929917683214
      ],
      [
        "山",
        -7.090440446202859
      ],
      [
        "天",
        -7.090499554953335
      ],
      [
        "形",
        -7.09430661638049
      ],
      [
        "入",
        -7.105319391699686
      ],
      [
        "分",
        -7.105420035842549
      ],
      [
        "島",
        -7.1061956168470894
      ],
      [
        "人間",
        -7.107780319789672
      ],
      [
        "」と",
        -7.114491317097471
      ],
      [
        "アポローン",
        -7.120053000881159
      ],
      [
        "記",
        -7.121989468046515
      ],
      [
        "、その",
        -7.126447965860975
      ],
      [
        "ヘーラクレース",
        -7.137107546234891
      ],
      [
        "ディオニューソス",
        -7.138271306286376
      ],
      [
        "アレース",
        -7.138282608007123
      ],
      [
        "され、",
        -7.153878669008497
      ],
      [
        "ピ",
        -7.154664747075554
      ],
      [
        "目",
        -7.154664748909322
      ],
      [
        "アルテミス",
        -7.154745038166201
      ],
      [
        "神々の",
        -7.1580012002734685
      ],
      [
        "ヘルメース",
        -7.165006743527708
      ],
      [
        "父",
        -7.171084638859094
      ],
      [
        "発",
        -7.1711169845549065
      ],
      [
        "んだ",
        -7.172424419868013
      ],
      [
        "大地",
        -7.175343577847105
      ],
      [
        "力",
        -7.177391550199257
      ],
      [
        "娘",
        -7.180778458358418
      ],
      [
        "ず",
        -7.1843120468932025
      ],
      [
        "それ",
        -7.186989686174083
      ],
      [
        "明",
        -7.188137973128641
      ],
      [
        "数",
        -7.188166613477685
      ],
      [
        "体",
        -7.188214443262533
      ],
      [
        "タ",
        -7.188278329601691
      ],
      [
        "愛",
        -7.200998019022443
      ],
      [
        "不",
        -7.2045591583327075
      ],
      [
        "作品",
        -7.205575980551988
      ],
      [
        "的に",
        -7.217160684580905
      ],
      [
        "しかし、",
        -7.218526469543098
      ],
      [
        "える",
        -7.219970838631897
      ],
      [
        "ッ",
        -7.22160104575121
      ],
      [
        "4",
        -7.221790279946198
      ],
      [
        "対",
        -7.22251152130233
      ],
      [
        "訳",
        -7.223019028125429
      ],
      [
        "される",
        -7.226524467661758
      ],
      [
        "ウ",
        -7.2362023942533
      ],
      [
        "レー",
        -7.241918805649162
      ],
      [
        "っている",
        -7.250590737715357
      ],
      [
        "られ、",
        -7.253765174361057
      ],
      [
        "とする",
        -7.257966740723083
      ],
      [
        "叙事詩",
        -7.258953301091308
      ],
      [
        "解",
        -7.259104767778678
      ],
      [
        "三",
        -7.277623286635327
      ],
      [
        "とした",
        -7.278108912606078
      ],
      [
        "では、",
        -7.278618195948708
      ],
      [
        "オデュッセウス",
        -7.284848923805867
      ],
      [
        "れた",
        -7.288944214725657
      ],
      [
        "ガイア",
        -7.292016802498064
      ],
      [
        "メ",
        -7.29281899727228
      ],
      [
        "ことを",
        -7.295084941745252
      ],
      [
        "プ",
        -7.295123324912451
      ],
      [
        "原",
        -7.295912146638661
      ],
      [
        "ウーラノス",
        -7.29648086666281
      ],
      [
        "集",
        -7.305449743374593
      ],
      [
        "妻",
        -7.307407677452435
      ],
      [
        "殺",
        -7.309496025933236
      ],
      [
        "ヘ",
        -7.315717904231974
      ],
      [
        "ニ",
        -7.315721242747781
      ],
      [
        "祭",
        -7.315721980394387
      ],
      [
        "冥府",
        -7.315721980436404
      ],
      [
        "ネ",
        -7.332552964537559
      ],
      [
        "巻",
        -7.335329823531706
      ],
      [
        "これ",
        -7.3382274049260525
      ],
      [
        "ース",
        -7.341048478419897
      ],
      [
        "後に",
        -7.342055698429472
      ],
      [
        "古代ギリシア",
        -7.342537960335237
      ],
      [
        "こ",
        -7.34805947594475
      ],
      [
        "身",
        -7.354459046734442
      ],
      [
        "実",
        -7.355174096498917
      ],
      [
        "頭",
        -7.3552996155792485
      ],
      [
        "アルゴナウタイ",
        -7.355329823531637
      ],
      [
        "ヘーパイストス",
        -7.359601959279436
      ],
      [
        "の息子",
        -7.36025802460509
      ],
      [
        "ホメーロス",
        -7.3684129961456915
      ],
      [
        "これを",
        -7.371022945278895
      ],
      [
        "本",
        -7.374698720296335
      ],
      [
        "ティーターン",
        -7.375734232258498
      ],
      [
        "半",
        -7.375737979163426
      ],
      [
        "彼",
        -7.3765915244855425
      ],
      [
        "しかし",
        -7.381132363600404
      ],
      [
        "々",
        -7.385432498071305
      ],
      [
        "にも",
        -7.38931245353211
      ],
      [
        "第",
        -7.390214340284677
      ],
      [
        "詩",
        -7.3930270221026255
      ],
      [
        "ナ",
        -7.393820605942272
      ],
      [
        "ミ",
        -7.396567077418687
      ],
      [
        "無",
        -7.396571320130281
      ],
      [
        "火",
        -7.396571320130292
      ],
      [
        "像",
        -7.396571320130295
      ],
      [
        "時",
        -7.400664751534703
      ],
      [
        "ハーデース",
        -7.403560720360655
      ],
      [
        "そ",
        -7.410529656690644
      ],
      [
        "前",
        -7.410634819971859
      ],
      [
        "代",
        -7.41475777239169
      ],
      [
        ")",
        -7.416500987040298
      ],
      [
        "教",
        -7.417665268384799
      ],
      [
        "信仰",
        -7.417847802641533
      ],
      [
        "空",
        -7.41784791587496
      ],
      [
        "理",
        -7.417847915874983
      ],
      [
        "は「",
        -7.420685897926812
      ],
      [
        "んで",
        -7.4224925938749955
      ],
      [
        "リス",
        -7.424641059491001
      ],
      [
        "でも",
        -7.437004889032945
      ],
      [
        "性",
        -7.437993635213411
      ],
      [
        "5",
        -7.438295595609988
      ],
      [
        "自",
        -7.439208713638284
      ],
      [
        "合",
        -7.439275517149344
      ],
      [
        "ティ",
        -7.439571053611946
      ],
      [
        "矢",
        -7.43958704629626
      ],
      [
        "産",
        -7.439587046309753
      ],
      [
        "冥界",
        -7.439606682113528
      ],
      [
        "なく",
        -7.44087986995079
      ],
      [
        "主",
        -7.461145846408192
      ],
      [
        "ように",
        -7.463863043594052
      ],
      [
        "神殿",
        -7.4642197874823655
      ],
      [
        "通",
        -7.467866075676011
      ],
      [
        "への",
        -7.4696360852644865
      ],
      [
        "を持つ",
        -7.474067811163074
      ],
      [
        "との間に",
        -7.477708926062
      ],
      [
        "お",
        -7.4789286777384945
      ],
      [
        "たちは",
        -7.479612302414049
      ],
      [
        "ば",
        -7.481693804728268
      ],
      [
        "彼は",
        -7.48317629335609
      ],
      [
        "気",
        -7.48418102518136
      ],
      [
        "系",
        -7.484323047863027
      ],
      [
        "む",
        -7.48450606231967
      ],
      [
        "フ",
        -7.484536526817703
      ],
      [
        "柱",
        -7.4845365315304395
      ],
      [
        "の王",
        -7.486100251030612
      ],
      [
        "き、",
        -7.490915971835309
      ],
      [
        "古代",
        -7.496149793687843
      ],
      [
        "美",
        -7.505531919681313
      ],
      [
        "ために",
        -7.506454985420631
      ],
      [
        "変",
        -7.507115554918856
      ],
      [
        "強",
        -7.507780228225849
      ],
      [
        "馬",
        -7.507792355204733
      ],
      [
        "ること",
        -7.510917751281768
      ],
      [
        "伝",
        -7.512965616598391
      ],
      [
        "について",
        -7.5150618404095
      ],
      [
        "付け",
        -7.515890931929984
      ],
      [
        "の姿",
        -7.5168980377572
      ],
      [
        "ため",
        -7.5220597512902305
      ],
      [
        "ローマ",
        -7.526662507358732
      ],
      [
        "二",
        -7.5267405962799145
      ],
      [
        "祖",
        -7.528140369866925
      ],
      [
        "れる",
        -7.528844710940318
      ],
      [
        "開",
        -7.531601879022244
      ],
      [
        "結婚",
        -7.531739722723774
      ],
      [
        "ペ",
        -7.533831991185156
      ],
      [
        "手",
        -7.538779398074968
      ],
      [
        "ゼウスと",
        -7.541933158263591
      ],
      [
        "へと",
        -7.542354555791691
      ],
      [
        "トス",
        -7.54335642709728
      ],
      [
        "ある",
        -7.552491686238382
      ],
      [
        "立",
        -7.554103204250794
      ],
      [
        "による",
        -7.5552804086466345
      ],
      [
        "長",
        -7.555639003132452
      ],
      [
        "夫",
        -7.555992122924632
      ],
      [
        "ヘクトール",
        -7.555992123734706
      ],
      [
        "における",
        -7.5559923127662865
      ],
      [
        "ネー",
        -7.559462414373511
      ],
      [
        "いて",
        -7.560792054014432
      ],
      [
        "怒り",
        -7.565766822333343
      ],
      [
        "成",
        -7.579927358557377
      ],
      [
        "戦争",
        -7.5806471493242675
      ],
      [
        "異",
        -7.580963177212497
      ],
      [
        "次",
        -7.580981868605173
      ],
      [
        "船",
        -7.580992122272297
      ],
      [
        "着",
        -7.580992122924682
      ],
      [
        "残",
        -7.580992122924686
      ],
      [
        "ぶ",
        -7.5809921229247
      ],
      [
        "ギガース",
        -7.58099218352222
      ],
      [
        "イア",
        -7.584364612927309
      ],
      [
        "オリュンポス",
        -7.5864002225837455
      ],
      [
        "奪",
        -7.589159716363825
      ],
      [
        "しい",
        -7.590720566446935
      ],
      [
        "まで",
        -7.5929905431338565
      ],
      [
        "されている",
        -7.59609037614305
      ],
      [
        "ど",
        -7.602352814548972
      ],
      [
        "学",
        -7.603925143116355
      ],
      [
        "始",
        -7.604722994781909
      ],
      [
        "元",
        -7.6054936791546055
      ],
      [
        "国",
        -7.606110532030069
      ],
      [
        "要",
        -7.6066306791328095
      ],
      [
        "ム",
        -7.606630974785848
      ],
      [
        "サ",
        -7.6066309794195766
      ],
      [
        "定",
        -7.606631984228022
      ],
      [
        "意",
        -7.606633148231413
      ],
      [
        "の子",
        -7.608032645717834
      ],
      [
        "アテーナーは",
        -7.610553978930266
      ],
      [
        "っていた",
        -7.613471618373479
      ],
      [
        "だった",
        -7.616870168077265
      ],
      [
        "期",
        -7.621096319387784
      ],
      [
        "あ",
        -7.629973717612529
      ],
      [
        "当",
        -7.631876279560725
      ],
      [
        "日",
        -7.632220632073384
      ],
      [
        "牛",
        -7.632915123602504
      ],
      [
        "戦い",
        -7.640382682062288
      ],
      [
        "えた",
        -7.653257548533501
      ],
      [
        "げ",
        -7.658574195506327
      ],
      [
        "星",
        -7.6595696712445775
      ],
      [
        "面",
        -7.659651686485397
      ],
      [
        "ブ",
        -7.659975518136495
      ],
      [
        "水",
        -7.65997596506644
      ],
      [
        "岩",
        -7.659975965066442
      ],
      [
        "怪物",
        -7.66007823756518
      ],
      [
        "となる",
        -7.66204418759604
      ],
      [
        "自分",
        -7.664113378453305
      ],
      [
        "ウス",
        -7.665273636327741
      ],
      [
        "文",
        -7.670555999411517
      ],
      [
        "多",
        -7.683755260568871
      ],
      [
        "『イーリアス』",
        -7.684269887018168
      ],
      [
        "帰",
        -7.687194558167796
      ],
      [
        "座",
        -7.687746103454377
      ],
      [
        "ヘーシオドス",
        -7.6877489031175426
      ],
      [
        "ダ",
        -7.687750132558037
      ],
      [
        "示",
        -7.6877537428441824
      ],
      [
        "エロース",
        -7.6877559276488805
      ],
      [
        "と共に",
        -7.687950246850725
      ],
      [
        "9",
        -7.691514493448924
      ],
      [
        "よう",
        -7.693245722613362
      ],
      [
        "取り",
        -7.696801635562792
      ],
      [
        "おり、",
        -7.701279993221424
      ],
      [
        "の名",
        -7.704874762032574
      ],
      [
        "心",
        -7.706212736080399
      ],
      [
        "落",
        -7.710409767389973
      ],
      [
        "生まれた",
        -7.711149948610912
      ],
      [
        "聖",
        -7.7162060844303495
      ],
      [
        "プロメーテウス",
        -7.716325171454712
      ],
      [
        "関係",
        -7.716330103953739
      ],
      [
        "巨人",
        -7.7173293240711125
      ],
      [
        "同",
        -7.718801544543407
      ],
      [
        "だけ",
        -7.719378241601845
      ],
      [
        "ず、",
        -7.7195624705214945
      ],
      [
        "ーン",
        -7.724429552219947
      ],
      [
        "と、",
        -7.724497016634887
      ],
      [
        "ラー",
        -7.733468405777856
      ],
      [
        "ゼウスに",
        -7.7348640858040465
      ],
      [
        "を受け",
        -7.738904445737944
      ],
      [
        "コ",
        -7.741128292915523
      ],
      [
        "子供",
        -7.7411339155270635
      ],
      [
        "古",
        -7.744891421037971
      ],
      [
        "崇拝",
        -7.745330967519884
      ],
      [
        "交",
        -7.7453346953257896
      ],
      [
        "軍",
        -7.7455541019794305
      ],
      [
        "初",
        -7.7456279861745205
      ],
      [
        "高",
        -7.745717767487374
      ],
      [
        "と考えられる",
        -7.74572474901541
      ],
      [
        "セ",
        -7.7457362118246245
      ],
      [
        "罰",
        -7.745736936121489
      ],
      [
        "ニュンペー",
        -7.7457369361215225
      ],
      [
        "河",
        -7.74573693612153
      ],
      [
        "両",
        -7.74573693612153
      ],
      [
        "様々な",
        -7.745738419226236
      ],
      [
        "起源",
        -7.745861217986833
      ],
      [
        "られている",
        -7.748424838399858
      ],
      [
        "させた",
        -7.75137920199173
      ],
      [
        "い、",
        -7.759474009219782
      ],
      [
        "彼の",
        -7.771770312885632
      ],
      [
        "多くの",
        -7.771947905165652
      ],
      [
        "テー",
        -7.772551447819699
      ],
      [
        "持",
        -7.7731772831078665
      ],
      [
        "も、",
        -7.773823502327315
      ],
      [
        "化",
        -7.775287496123811
      ],
      [
        "意味",
        -7.775785671242321
      ],
      [
        "使",
        -7.7760209135163025
      ],
      [
        "ジ",
        -7.776039962956634
      ],
      [
        "ところ",
        -7.776046717205576
      ],
      [
        "古典",
        -7.776209122164504
      ],
      [
        " - ",
        -7.777279174499869
      ],
      [
        "などの",
        -7.777287605276481
      ],
      [
        "不死",
        -7.777745544860335
      ],
      [
        "リア",
        -7.782805554186831
      ],
      [
        "もある",
        -7.7916049275820365
      ],
      [
        "」という",
        -7.79363244323424
      ],
      [
        "アテーナイ",
        -7.7956233394246475
      ],
      [
        "決",
        -7.80578507858149
      ],
      [
        "別",
        -7.80584732234116
      ],
      [
        "内",
        -7.807121446376043
      ],
      [
        "ゴ",
        -7.807288691163282
      ],
      [
        "仕",
        -7.807289966424451
      ],
      [
        "外",
        -7.807289966424555
      ],
      [
        "テューポーン",
        -7.807289966424564
      ],
      [
        "従",
        -7.80728996642457
      ],
      [
        "演",
        -7.807289966424598
      ],
      [
        "かれ",
        -7.809915684795634
      ],
      [
        "へ",
        -7.813349570933668
      ],
      [
        "ヘーラクレースの",
        -7.818701152136103
      ],
      [
        "があり、",
        -7.820573700394895
      ],
      [
        "の中で",
        -7.8221047322727735
      ],
      [
        "ケ",
        -7.824863778848332
      ],
      [
        "取",
        -7.827000554590044
      ],
      [
        "ゼウスが",
        -7.829775858571843
      ],
      [
        "ディ",
        -7.8310754861820655
      ],
      [
        "アキレウス",
        -7.83788010585573
      ],
      [
        "著",
        -7.83837136747594
      ],
      [
        "投げ",
        -7.839175842137961
      ],
      [
        "キ",
        -7.839547684889901
      ],
      [
        "6",
        -7.839547714994675
      ],
      [
        "8",
        -7.839547714994705
      ],
      [
        "術",
        -7.839548030600858
      ],
      [
        "倒",
        -7.839548030892104
      ],
      [
        "7",
        -7.839548030940789
      ],
      [
        "兄弟",
        -7.839626772417919
      ],
      [
        "引き",
        -7.840681628556247
      ],
      [
        "人の",
        -7.841203496820636
      ],
      [
        "ヘーラクレースが",
        -7.843109182838676
      ],
      [
        "ヘーラーは",
        -7.844372900231241
      ],
      [
        "殺した",
        -7.850148863693212
      ],
      [
        "を見",
        -7.851648450898477
      ],
      [
        "させ",
        -7.8517667616592774
      ],
      [
        "息子",
        -7.855588706239277
      ],
      [
        "めた",
        -7.862607044911842
      ],
      [
        "金",
        -7.872374508520666
      ],
      [
        "グ",
        -7.872881357003552
      ],
      [
        "ボ",
        -7.87288136427396
      ],
      [
        "達",
        -7.87288136427399
      ],
      [
        "キュクロープス",
        -7.8728813642740105
      ],
      [
        "先",
        -7.872881364274045
      ],
      [
        "版",
        -7.872881364274051
      ],
      [
        "アポロドーロス",
        -7.872881364275919
      ],
      [
        "タルタロス",
        -7.872881365185079
      ],
      [
        "伝承",
        -7.873003540800461
      ],
      [
        "女性",
        -7.874435130897391
      ],
      [
        "人間の",
        -7.8753145650430545
      ],
      [
        "イオス",
        -7.876898975746762
      ],
      [
        "っ",
        -7.877683308271855
      ],
      [
        "イー",
        -7.8786001850167136
      ],
      [
        "には、",
        -7.892037245785183
      ],
      [
        "させる",
        -7.892574166226173
      ],
      [
        "として、",
        -7.896116072327301
      ],
      [
        "加",
        -7.907324211518521
      ],
      [
        "広",
        -7.907364114812591
      ],
      [
        "終",
        -7.907364122894531
      ],
      [
        "戻",
        -7.9073641228947
      ],
      [
        "末",
        -7.907364122894704
      ],
      [
        "建",
        -7.907364122894715
      ],
      [
        "ほど",
        -7.907498205907045
      ],
      [
        "連れ",
        -7.90938908789736
      ],
      [
        "これに",
        -7.914649398187914
      ],
      [
        "をもうけた",
        -7.914760774098644
      ],
      [
        "リー",
        -7.923074128419946
      ],
      [
        "があった",
        -7.9240676836570465
      ],
      [
        "権",
        -7.930799226224488
      ],
      [
        "になった",
        -7.9348517268594545
      ],
      [
        "けた",
        -7.938458301302835
      ],
      [
        "、そして",
        -7.941031032569641
      ],
      [
        "造",
        -7.942686691802811
      ],
      [
        "べ",
        -7.942791029112096
      ],
      [
        "木",
        -7.943077493328092
      ],
      [
        "闘",
        -7.943078408484332
      ],
      [
        "渡",
        -7.943078408604116
      ],
      [
        "重",
        -7.943078408608612
      ],
      [
        "ヘーリオス",
        -7.943080249717462
      ],
      [
        "オス",
        -7.949444489044481
      ],
      [
        "そして",
        -7.9552055871167715
      ],
      [
        "アル",
        -7.9574814910066065
      ],
      [
        "にある",
        -7.960164393120972
      ],
      [
        "ようになった",
        -7.960314311780091
      ],
      [
        "学者",
        -7.961976729312059
      ],
      [
        "、「",
        -7.972322649583754
      ],
      [
        "しく",
        -7.972785177590735
      ],
      [
        "されて",
        -7.9770858107038265
      ],
      [
        "得",
        -7.979606681111811
      ],
      [
        "結",
        -7.979693293015655
      ],
      [
        "命",
        -7.9799756674764595
      ],
      [
        "激",
        -7.9801146326444155
      ],
      [
        "紀元前",
        -7.980114828390649
      ],
      [
        "アガメムノーン",
        -7.980115445645989
      ],
      [
        "予言",
        -7.980115445665335
      ],
      [
        "歴史",
        -7.980132021547402
      ],
      [
        "これは",
        -7.981975487441586
      ],
      [
        "トロイア戦争",
        -7.9886267360427965
      ],
      [
        "地上",
        -7.9971269121088095
      ],
      [
        "かけ",
        -7.999279563271736
      ],
      [
        "姿",
        -7.999423623044306
      ],
      [
        "通り",
        -8.008094014585843
      ],
      [
        "になる",
        -8.008588704621847
      ],
      [
        "としての",
        -8.009805468129949
      ],
      [
        "が生まれた",
        -8.009984162261677
      ],
      [
        "近",
        -8.01700104614236
      ],
      [
        "有",
        -8.01765092186076
      ],
      [
        "撃",
        -8.018344130996274
      ],
      [
        "口",
        -8.018488932656789
      ],
      [
        "ズ",
        -8.018576540735214
      ],
      [
        "野",
        -8.018576977926429
      ],
      [
        "象",
        -8.018576983375896
      ],
      [
        "素",
        -8.018576984107167
      ],
      [
        "s",
        -8.018576984107565
      ],
      [
        "判",
        -8.018576984107572
      ],
      [
        "道",
        -8.018576984107575
      ],
      [
        "ラテン語",
        -8.018577031445833
      ],
      [
        "都市",
        -8.018619007654323
      ],
      [
        "知られる",
        -8.018678849945493
      ],
      [
        "これらの",
        -8.01900552999815
      ],
      [
        "カオス",
        -8.02008505320914
      ],
      [
        "パリス",
        -8.020340187071483
      ],
      [
        "にあって",
        -8.020719117952439
      ],
      [
        "されていた",
        -8.021097341300342
      ],
      [
        "み、",
        -8.021296484014114
      ],
      [
        "コス",
        -8.023250713480653
      ],
      [
        "人物",
        -8.032159585381727
      ],
      [
        "アー",
        -8.035676577392916
      ],
      [
        "ん",
        -8.036188572994437
      ],
      [
        "、また",
        -8.05116952402469
      ],
      [
        "アポローンは",
        -8.055817267988669
      ],
      [
        "の間",
        -8.056138094877799
      ],
      [
        "動",
        -8.05751032238896
      ],
      [
        "民",
        -8.057559400729701
      ],
      [
        "格",
        -8.057969245974144
      ],
      [
        "宇宙",
        -8.058039499548448
      ],
      [
        "ガ",
        -8.058054416556757
      ],
      [
        "思",
        -8.058324065989561
      ],
      [
        "情",
        -8.058576217330254
      ],
      [
        "姉",
        -8.058576926597775
      ],
      [
        "光",
        -8.058576984078783
      ],
      [
        "蛇",
        -8.058576984107315
      ],
      [
        "難",
        -8.0585769841075
      ],
      [
        "優",
        -8.058576984107551
      ],
      [
        "置",
        -8.058576984107557
      ],
      [
        "等",
        -8.058576984107567
      ],
      [
        "ぎ",
        -8.058576984107571
      ],
      [
        "白",
        -8.058576984107592
      ],
      [
        "言葉",
        -8.058576984169406
      ],
      [
        "打ち",
        -8.059272957460957
      ],
      [
        "それを",
        -8.066012037782174
      ],
      [
        "彼ら",
        -8.067565831683632
      ],
      [
        "ガイアは",
        -8.068737215755213
      ],
      [
        "の子孫",
        -8.06998957233415
      ],
      [
        "際に",
        -8.075786717394367
      ],
      [
        "後、",
        -8.07778971000555
      ],
      [
        "文学",
        -8.0829299605573
      ],
      [
        "ムーサ",
        -8.095249174498669
      ],
      [
        "場",
        -8.098516984994886
      ],
      [
        "行われ",
        -8.098872014282826
      ],
      [
        "ろ",
        -8.099457453190498
      ],
      [
        "狂",
        -8.099648753209184
      ],
      [
        "源",
        -8.100066523268413
      ],
      [
        "返",
        -8.100243554182086
      ],
      [
        "度",
        -8.10024365077376
      ],
      [
        "風",
        -8.100243650774203
      ],
      [
        "隠",
        -8.100243650774232
      ],
      [
        "仲",
        -8.100243650774232
      ],
      [
        "メネラーオス",
        -8.10024365101168
      ],
      [
        "巨大な",
        -8.100248268370482
      ],
      [
        "日本",
        -8.10126409679049
      ],
      [
        "オリュンポスの神々",
        -8.102968986133646
      ],
      [
        "なお",
        -8.107924850811004
      ],
      [
        "流",
        -8.122138164748275
      ],
      [
        "力を",
        -8.126808543707323
      ],
      [
        "詩人",
        -8.131773146413472
      ],
      [
        "ポセイドーンは",
        -8.137049429073494
      ],
      [
        "『オデュッセイア』",
        -8.138271814400792
      ],
      [
        "ペー",
        -8.139620425088527
      ],
      [
        "モ",
        -8.140130462958759
      ],
      [
        "能",
        -8.143646073375624
      ],
      [
        "チ",
        -8.143721910503357
      ],
      [
        "信",
        -8.143721911091717
      ],
      [
        "向",
        -8.143721911643773
      ],
      [
        "ギガントマキアー",
        -8.143721911643777
      ],
      [
        "頃",
        -8.143721911643791
      ],
      [
        "石",
        -8.143721911643794
      ],
      [
        "育",
        -8.1437219116438
      ],
      [
        "位",
        -8.143721911643812
      ],
      [
        "何",
        -8.143721911643814
      ],
      [
        "回",
        -8.14372191164382
      ],
      [
        "エジプト",
        -8.14372191372342
      ],
      [
        "と呼ばれる",
        -8.143806575128679
      ],
      [
        "文献",
        -8.14381748136124
      ],
      [
        "を生んだ",
        -8.143828816915617
      ],
      [
        "に対して",
        -8.144689408910478
      ],
      [
        "ソス",
        -8.147120697982684
      ],
      [
        "であるが、",
        -8.147127561266565
      ],
      [
        "生き",
        -8.155878561903236
      ],
      [
        "らせ",
        -8.155952683975496
      ],
      [
        "ものである",
        -8.158028386338394
      ],
      [
        "王権",
        -8.158936626309735
      ],
      [
        "いる",
        -8.165486370530465
      ],
      [
        "付",
        -8.173360134974303
      ],
      [
        "伝え",
        -8.176628581203152
      ],
      [
        "ソ",
        -8.185631149908366
      ],
      [
        "すること",
        -8.185838886380845
      ],
      [
        "彼を",
        -8.185936815938478
      ],
      [
        "ノ",
        -8.187347118881572
      ],
      [
        "悲劇",
        -8.188087649713138
      ],
      [
        "恋",
        -8.18839174319995
      ],
      [
        "義",
        -8.188563813013499
      ],
      [
        "劇",
        -8.188728908234397
      ],
      [
        "各",
        -8.188814951119275
      ],
      [
        "所",
        -8.188856426099685
      ],
      [
        "武",
        -8.189024247123603
      ],
      [
        "弟",
        -8.189064709301041
      ],
      [
        "川",
        -8.189176457098297
      ],
      [
        "ティーターノマキアー",
        -8.189176457098336
      ],
      [
        "ミュケーナイ",
        -8.189176457098343
      ],
      [
        "失",
        -8.189176457098371
      ],
      [
        "アドーニス",
        -8.189176457216291
      ],
      [
        "イアーソーン",
        -8.189176458462985
      ],
      [
        "勝利",
        -8.189216406830408
      ],
      [
        "多数の",
        -8.189344559571637
      ],
      [
        "再び",
        -8.189998464458265
      ],
      [
        "一方",
        -8.196831783111588
      ],
      [
        "あった",
        -8.207761109531432
      ],
      [
        "バ",
        -8.213030115838981
      ],
      [
        "怒",
        -8.2177626061919
      ],
      [
        "だが、",
        -8.223681932970647
      ],
      [
        "ノー",
        -8.23500589690119
      ],
      [
        "勢",
        -8.2357053083564
      ],
      [
        "用",
        -8.235844289219818
      ],
      [
        "持ち",
        -8.23639477035498
      ],
      [
        "食",
        -8.236431082636443
      ],
      [
        "共",
        -8.236454986785148
      ],
      [
        "守",
        -8.236668506888984
      ],
      [
        "ぐ",
        -8.236794985204112
      ],
      [
        "ご",
        -8.236795504717357
      ],
      [
        "跡",
        -8.236795504717373
      ],
      [
        "e",
        -8.236795504717378
      ],
      [
        "陣",
        -8.236795504717382
      ],
      [
        "旅",
        -8.236795504717392
      ],
      [
        "約",
        -8.236795504717396
      ],
      [
        "暴",
        -8.236795504717403
      ],
      [
        "抗",
        -8.236795504717412
      ],
      [
        "士",
        -8.236795504717445
      ],
      [
        "アルゴス",
        -8.236797462786411
      ],
      [
        "そこで",
        -8.236825665240866
      ],
      [
        "武器",
        -8.236955161586003
      ],
      [
        "を意味する",
        -8.236978715494818
      ],
      [
        "さらに",
        -8.237234148761146
      ],
      [
        "英語",
        -8.237244474940876
      ],
      [
        "のあいだ",
        -8.237444531940262
      ],
      [
        "場合",
        -8.237487185071016
      ],
      [
        "成立",
        -8.237830255200262
      ],
      [
        "こうして",
        -8.238866001781544
      ],
      [
        "を持ち、",
        -8.23907024279504
      ],
      [
        "人々",
        -8.242179911151045
      ],
      [
        "出来",
        -8.242458085885069
      ],
      [
        "によれば、",
        -8.245427617858242
      ],
      [
        "多く",
        -8.249302624029573
      ],
      [
        "でもある",
        -8.249671753853875
      ],
      [
        "存在した",
        -8.255260657910963
      ],
      [
        "の詩人",
        -8.258114008222053
      ],
      [
        "続",
        -8.265744755058115
      ],
      [
        "ており、",
        -8.265839337371183
      ],
      [
        "その後、",
        -8.267310479007133
      ],
      [
        " 『",
        -8.272779667201052
      ],
      [
        "のか",
        -8.274975017861657
      ],
      [
        "19",
        -8.279074284472076
      ],
      [
        "デーメーテールは",
        -8.28151109506734
      ],
      [
        "再",
        -8.285890006405307
      ],
      [
        "男",
        -8.286187626398881
      ],
      [
        "題",
        -8.286193682952668
      ],
      [
        "様",
        -8.286334668566834
      ],
      [
        "ノス",
        -8.286589193276171
      ],
      [
        "小",
        -8.286795502520526
      ],
      [
        "ヴ",
        -8.286795503648433
      ],
      [
        "西",
        -8.286795504380077
      ],
      [
        "遠",
        -8.28679550471733
      ],
      [
        "皮",
        -8.286795504717373
      ],
      [
        "鳥",
        -8.28679550471742
      ],
      [
        "オーケアノス",
        -8.286795504721745
      ],
      [
        "テーレマコス",
        -8.286795505307467
      ],
      [
        "ヘスティアー",
        -8.286795506604726
      ],
      [
        "コルキス",
        -8.286795509378976
      ],
      [
        "黄金の",
        -8.28680180432202
      ],
      [
        "ティーターン神族",
        -8.286804832914957
      ],
      [
        "食べ",
        -8.287178750327119
      ],
      [
        "となり、",
        -8.287408314572499
      ],
      [
        "美しい",
        -8.287965150365142
      ],
      [
        "とともに",
        -8.28820674887271
      ],
      [
        "伝説",
        -8.288987897563224
      ],
      [
        "現",
        -8.289210460050462
      ],
      [
        "12",
        -8.289335023675797
      ],
      [
        "』『",
        -8.292258465829999
      ],
      [
        "一つ",
        -8.296443991359673
      ],
      [
        "ではない",
        -8.296444803408686
      ],
      [
        "求め",
        -8.297310444246754
      ],
      [
        "名前",
        -8.30420552614994
      ],
      [
        "あるいは",
        -8.307221613916816
      ],
      [
        "続け",
        -8.308298833602265
      ],
      [
        "ギリシア語",
        -8.31627701565315
      ],
      [
        "てしまった",
        -8.329559955025555
      ],
      [
        "生まれ",
        -8.332852176027313
      ],
      [
        "世",
        -8.337089203606498
      ],
      [
        "争",
        -8.338300328015718
      ],
      [
        "親",
        -8.338633787514985
      ],
      [
        "想",
        -8.339089787411066
      ],
      [
        "霊",
        -8.339272028519964
      ],
      [
        "音",
        -8.339287529933394
      ],
      [
        "住",
        -8.339355432720595
      ],
      [
        "勝",
        -8.339380588832494
      ],
      [
        "処",
        -8.339417362343392
      ],
      [
        "土",
        -8.339426491861431
      ],
      [
        "ァ",
        -8.339427083664111
      ],
      [
        "総",
        -8.339427083664734
      ],
      [
        "深",
        -8.339427083664738
      ],
      [
        "礼",
        -8.339427083664752
      ],
      [
        "=",
        -8.339427083664761
      ],
      [
        "足",
        -8.339427083664761
      ],
      [
        "反",
        -8.339427083664772
      ],
      [
        "念",
        -8.339427083664777
      ],
      [
        "論",
        -8.339427083664777
      ],
      [
        "進",
        -8.339427083664782
      ],
      [
        "概説 ",
        -8.339427083728129
      ],
      [
        "記述",
        -8.339942898496357
      ],
      [
        "の守護神",
        -8.340834329514431
      ],
      [
        "レアー",
        -8.34111365403032
      ],
      [
        "となっ",
        -8.342878727816458
      ],
      [
        "ともされる",
        -8.342911977546715
      ],
      [
        "ようと",
        -8.344518530663493
      ],
      [
        "助け",
        -8.348141943502384
      ],
      [
        "第1",
        -8.355933113125728
      ],
      [
        "かれた",
        -8.358868284957437
      ],
      [
        "特",
        -8.370742359635539
      ],
      [
        "よ",
        -8.380980800627391
      ],
      [
        "その後",
        -8.385786699801903
      ],
      [
        "助",
        -8.390491599912076
      ],
      [
        "部",
        -8.39234170052432
      ],
      [
        "正",
        -8.394265977208372
      ],
      [
        "攻",
        -8.394643405774765
      ],
      [
        "参",
        -8.394917652499508
      ],
      [
        "ね",
        -8.394982638797135
      ],
      [
        "ゲ",
        -8.39498263882855
      ],
      [
        "応",
        -8.394982639120279
      ],
      [
        "青",
        -8.394982639206052
      ],
      [
        "眼",
        -8.394982639219318
      ],
      [
        "衆",
        -8.394982639220276
      ],
      [
        "収",
        -8.394982639220293
      ],
      [
        "ヘカトンケイル",
        -8.394982639220297
      ],
      [
        "破",
        -8.394982639220302
      ],
      [
        "根",
        -8.394982639220302
      ],
      [
        "祀",
        -8.394982639220304
      ],
      [
        "恵",
        -8.394982639220304
      ],
      [
        "端",
        -8.394982639220313
      ],
      [
        "願",
        -8.394982639220322
      ],
      [
        "弓",
        -8.394982639220345
      ],
      [
        "突",
        -8.394982639220347
      ],
      [
        "東",
        -8.394982639220359
      ],
      [
        "メドゥーサ",
        -8.394982639221286
      ],
      [
        "とも言える",
        -8.394982639221519
      ],
      [
        "パトロクロス",
        -8.394982639224047
      ],
      [
        "の誕生",
        -8.394982640020043
      ],
      [
        "オーリーオーン",
        -8.394982641243141
      ],
      [
        "メーティス",
        -8.394984509833485
      ],
      [
        "音楽",
        -8.395130184409162
      ],
      [
        "競技",
        -8.39513930200524
      ],
      [
        "原初の",
        -8.395148912214358
      ],
      [
        "運命",
        -8.395194020922215
      ],
      [
        "構成",
        -8.395358185713649
      ],
      [
        "同様",
        -8.395493525445058
      ],
      [
        "てしまう",
        -8.395514457412972
      ],
      [
        "現代",
        -8.395678410201022
      ],
      [
        "人類",
        -8.396640202897096
      ],
      [
        "リオス",
        -8.39706941131768
      ],
      [
        "当時",
        -8.397284584118841
      ],
      [
        "ような",
        -8.399693650418381
      ],
      [
        "そう",
        -8.401177749272787
      ],
      [
        "を与え",
        -8.40290656699267
      ],
      [
        "オデュッセウスは",
        -8.41607528587209
      ],
      [
        "ことができ",
        -8.432329477528995
      ],
      [
        "ヘーパイストスは",
        -8.441101594382769
      ],
      [
        "と同一視され",
        -8.44579504461355
      ],
      [
        "指",
        -8.45313071059661
      ],
      [
        "新",
        -8.453256941636596
      ],
      [
        "創",
        -8.453436860032797
      ],
      [
        "婚",
        -8.45345928925269
      ],
      [
        "技",
        -8.45364004357324
      ],
      [
        "滅",
        -8.453757812847453
      ],
      [
        "づ",
        -8.453806041773053
      ],
      [
        "毒",
        -8.453806168594898
      ],
      [
        "絶",
        -8.453806168631953
      ],
      [
        "法",
        -8.453806168632031
      ],
      [
        "装",
        -8.45380616863206
      ],
      [
        "許",
        -8.453806168632072
      ],
      [
        "首",
        -8.453806168632076
      ],
      [
        "威",
        -8.453806168632077
      ],
      [
        "議",
        -8.453806168632081
      ],
      [
        "揺",
        -8.453806168632093
      ],
      [
        "番",
        -8.453806168632097
      ],
      [
        "必",
        -8.4538061686321
      ],
      [
        "服",
        -8.4538061686321
      ],
      [
        "聞",
        -8.453806168632106
      ],
      [
        "勇",
        -8.453806168632118
      ],
      [
        "和",
        -8.453806168632182
      ],
      [
        "デルポイ",
        -8.453806183866952
      ],
      [
        "メーデイア",
        -8.453806588982413
      ],
      [
        "イーオー",
        -8.45381537049556
      ],
      [
        "山脈",
        -8.453835401095438
      ],
      [
        "有名な",
        -8.453884861668062
      ],
      [
        "翻訳",
        -8.45396630847771
      ],
      [
        "文字",
        -8.453995623289421
      ],
      [
        "結果",
        -8.454137657793433
      ],
      [
        "攻撃",
        -8.454166075234035
      ],
      [
        "文化",
        -8.454752838639411
      ],
      [
        "少年",
        -8.454990322623729
      ],
      [
        "クレ",
        -8.46012752325213
      ],
      [
        "の子である",
        -8.463329364217776
      ],
      [
        "に登場する",
        -8.483805540112959
      ],
      [
        "イソップ",
        -8.48655465674947
      ],
      [
        "できる",
        -8.491986911225311
      ],
      [
        "切",
        -8.50656405114792
      ],
      [
        "相",
        -8.512722863061033
      ],
      [
        "少",
        -8.515047207217592
      ],
      [
        "与",
        -8.51520380415564
      ],
      [
        "基",
        -8.515642148659962
      ],
      [
        "果",
        -8.515918250875178
      ],
      [
        "諸",
        -8.5161071322207
      ],
      [
        "経",
        -8.51617613533082
      ],
      [
        "治",
        -8.516303153176679
      ],
      [
        "普",
        -8.5163048936796
      ],
      [
        "血",
        -8.516306149152964
      ],
      [
        "雷",
        -8.51630614933894
      ],
      [
        "密",
        -8.516306168630592
      ],
      [
        "月",
        -8.516306168631917
      ],
      [
        "点",
        -8.516306168632019
      ],
      [
        "路",
        -8.516306168632038
      ],
      [
        "色",
        -8.516306168632063
      ],
      [
        "ヌ",
        -8.516306168632065
      ],
      [
        "傷",
        -8.516306168632067
      ],
      [
        "夜",
        -8.51630616863207
      ],
      [
        "敵",
        -8.516306168632074
      ],
      [
        "惑",
        -8.51630616863208
      ],
      [
        "良",
        -8.516306168632081
      ],
      [
        "属",
        -8.516306168632088
      ],
      [
        "背",
        -8.516306168632093
      ],
      [
        "草",
        -8.516306168632095
      ],
      [
        "腕",
        -8.516306168632104
      ],
      [
        "鎧",
        -8.516306168632106
      ],
      [
        "とも呼ばれ",
        -8.516306168632198
      ],
      [
        "最初に",
        -8.516306168649232
      ],
      [
        "の象徴",
        -8.516306169835472
      ],
      [
        "フランス",
        -8.516306209149223
      ],
      [
        "例えば",
        -8.516307271240578
      ],
      [
        "ヘレネー",
        -8.516307922588943
      ],
      [
        "は、ギリシア神話に登場する",
        -8.51631421135631
      ],
      [
        "他方、",
        -8.516321246147124
      ],
      [
        "を持った",
        -8.51656477715515
      ],
      [
        "男性",
        -8.517071346297586
      ],
      [
        "父親",
        -8.517253732483743
      ],
      [
        "性格",
        -8.517267340988456
      ],
      [
        "同じ",
        -8.518592806137459
      ],
      [
        "上げ",
        -8.51958137825517
      ],
      [
        "このような",
        -8.52012761611509
      ],
      [
        "ゼウスたち",
        -8.52212737623372
      ],
      [
        "切り",
        -8.526144095988528
      ],
      [
        "子供たち",
        -8.526324858382576
      ],
      [
        "二人",
        -8.5294177463822
      ],
      [
        "であり",
        -8.541608708692578
      ],
      [
        "女たち",
        -8.542486214373561
      ],
      [
        "のなか",
        -8.543356173584401
      ],
      [
        "とのあいだに",
        -8.570462933454332
      ],
      [
        "苦",
        -8.579755107351014
      ],
      [
        "守護",
        -8.58135974551071
      ],
      [
        "打",
        -8.581798281267469
      ],
      [
        "表",
        -8.582026178318781
      ],
      [
        "羊",
        -8.582100060215442
      ],
      [
        "十",
        -8.582954166327063
      ],
      [
        "具",
        -8.582962849654203
      ],
      [
        "例",
        -8.582971656707846
      ],
      [
        "ハ",
        -8.5829721256759
      ],
      [
        "花",
        -8.582972782525736
      ],
      [
        "故",
        -8.582972835298737
      ],
      [
        "問",
        -8.582972835298737
      ],
      [
        "譚",
        -8.582972835298753
      ],
      [
        "報",
        -8.582972835298769
      ],
      [
        "画",
        -8.582972835298774
      ],
      [
        "オウィディウス",
        -8.582972835298774
      ],
      [
        "o",
        -8.582972835298776
      ],
      [
        "序",
        -8.582972835298781
      ],
      [
        "青銅の",
        -8.582972835315942
      ],
      [
        "最初の",
        -8.58297283541485
      ],
      [
        "すなわち",
        -8.582972917561042
      ],
      [
        "アトラース",
        -8.582972929458547
      ],
      [
        "および",
        -8.582973466098016
      ],
      [
        "を通じて",
        -8.582973633202942
      ],
      [
        "セメレー",
        -8.58297398900992
      ],
      [
        "イタケー",
        -8.58297427748137
      ],
      [
        "テティス",
        -8.582985351384773
      ],
      [
        "すべて",
        -8.582986874937113
      ],
      [
        "写本",
        -8.583291101957652
      ],
      [
        "クレーテー島",
        -8.583295274985499
      ],
      [
        "コレー",
        -8.58467906931828
      ],
      [
        "一部",
        -8.585027753777347
      ],
      [
        "別名",
        -8.586113062357224
      ],
      [
        "視",
        -8.592166838393469
      ],
      [
        "-",
        -8.651425531457923
      ],
      [
        "巨",
        -8.651832782485055
      ],
      [
        "引",
        -8.651834601674905
      ],
      [
        "起",
        -8.653526988921044
      ],
      [
        "アカイア",
        -8.653680133178767
      ],
      [
        "オルペウス",
        -8.653772695485696
      ],
      [
        "テミス",
        -8.654055889384717
      ],
      [
        "a",
        -8.654255356102096
      ],
      [
        "混",
        -8.65440140665797
      ],
      [
        "ヒュドラー",
        -8.654401406681947
      ],
      [
        "態",
        -8.65440140672693
      ],
      [
        "ョ",
        -8.654401406727256
      ],
      [
        "将",
        -8.654401406727317
      ],
      [
        "舞",
        -8.654401406727317
      ],
      [
        "好",
        -8.654401406727319
      ],
      [
        "養",
        -8.65440140672734
      ],
      [
        "飾",
        -8.654401406727345
      ],
      [
        "婦",
        -8.654401406727349
      ],
      [
        "機",
        -8.654401406727354
      ],
      [
        "悪",
        -8.65440140672736
      ],
      [
        "選",
        -8.65440140672736
      ],
      [
        "魔",
        -8.65440140672736
      ],
      [
        "担",
        -8.654401406727372
      ],
      [
        "アスクレーピオス",
        -8.654401406727391
      ],
      [
        ":",
        -8.654401406727404
      ],
      [
        "ルネサンス",
        -8.654401406761538
      ],
      [
        "ディオメーデース",
        -8.654401406815527
      ],
      [
        "と言われ",
        -8.654401407409189
      ],
      [
        "エウローペー",
        -8.65440140869662
      ],
      [
        "ダプネー",
        -8.65440238116241
      ],
      [
        "ここで",
        -8.654429206949633
      ],
      [
        "関連",
        -8.654482166204033
      ],
      [
        "わせた",
        -8.654482202279976
      ],
      [
        "今日",
        -8.654643707414102
      ],
      [
        "代表",
        -8.655072070256146
      ],
      [
        "に対する",
        -8.655109835403026
      ],
      [
        "イソップ寓話",
        -8.689684695626582
      ],
      [
        "流れ",
        -8.691431581886148
      ],
      [
        "登場",
        -8.693114635094059
      ],
      [
        "寓話集",
        -8.694568956813892
      ],
      [
        "になって",
        -8.695024399421063
      ],
      [
        "類",
        -8.729009101146566
      ],
      [
        "構",
        -8.73042524326342
      ],
      [
        "止",
        -8.730780601821769
      ],
      [
        "典",
        -8.73088501180214
      ],
      [
        "容",
        -8.730900057745242
      ],
      [
        "競",
        -8.73110525405831
      ],
      [
        "市",
        -8.73123879570286
      ],
      [
        "欲",
        -8.731322981358787
      ],
      [
        "毛",
        -8.731324409106861
      ],
      [
        "ベ",
        -8.731324460926249
      ],
      [
        "焼",
        -8.731324483455062
      ],
      [
        "ぼ",
        -8.731324483543798
      ],
      [
        "ユ",
        -8.731324483642785
      ],
      [
        "百",
        -8.73132448364914
      ],
      [
        "乳",
        -8.731324483650406
      ],
      [
        "状",
        -8.73132448365044
      ],
      [
        "完",
        -8.73132448365044
      ],
      [
        "衣",
        -8.73132448365044
      ],
      [
        "閉",
        -8.731324483650447
      ],
      [
        "害",
        -8.73132448365045
      ],
      [
        "壊",
        -8.73132448365045
      ],
      [
        "万",
        -8.731324483650454
      ],
      [
        "貴",
        -8.731324483650456
      ],
      [
        "消",
        -8.731324483650457
      ],
      [
        "逆",
        -8.731324483650463
      ],
      [
        "帯",
        -8.731324483650479
      ],
      [
        "エリクトニオス",
        -8.731324483650479
      ],
      [
        "泉",
        -8.731324483650491
      ],
      [
        "肉",
        -8.731324483650491
      ],
      [
        "農",
        -8.7313244836505
      ],
      [
        "獣",
        -8.731324483650502
      ],
      [
        "兜",
        -8.731324483650509
      ],
      [
        "オリュンピア",
        -8.731324483661808
      ],
      [
        "プラトーン",
        -8.731324489069184
      ],
      [
        "表記される",
        -8.731325193020632
      ],
      [
        "あまり",
        -8.731367936997183
      ],
      [
        "牡牛",
        -8.731425885838334
      ],
      [
        "を持っていた",
        -8.73146283509867
      ],
      [
        "に入れ",
        -8.736100034109992
      ],
      [
        "われている",
        -8.792576960584945
      ],
      [
        "求",
        -8.797083523327629
      ],
      [
        "てきた",
        -8.804679805653482
      ],
      [
        "をもうけ",
        -8.808398205861646
      ],
      [
        "寄",
        -8.8114734956219
      ],
      [
        "活",
        -8.812876346965997
      ],
      [
        "述",
        -8.813809125740558
      ],
      [
        "真",
        -8.813988086097098
      ],
      [
        "更",
        -8.81408594473138
      ],
      [
        "確",
        -8.814106868767745
      ],
      [
        "救",
        -8.814358793319316
      ],
      [
        "器",
        -8.814373396890957
      ],
      [
        "精",
        -8.814408488297307
      ],
      [
        "テーバイ",
        -8.81455633184095
      ],
      [
        "敗",
        -8.814651896842395
      ],
      [
        "ギ",
        -8.814655104246345
      ],
      [
        "由",
        -8.814657361287741
      ],
      [
        "ざ",
        -8.814657816875643
      ],
      [
        "栄",
        -8.814657816922708
      ],
      [
        "嫌",
        -8.814657816944111
      ],
      [
        "複",
        -8.814657816979228
      ],
      [
        "祈",
        -8.81465781698226
      ],
      [
        "林",
        -8.814657816983809
      ],
      [
        "誰",
        -8.814657816983875
      ],
      [
        "厳",
        -8.814657816983878
      ],
      [
        "策",
        -8.814657816983893
      ],
      [
        "転",
        -8.814657816983898
      ],
      [
        "負",
        -8.814657816983898
      ],
      [
        "編",
        -8.814657816983898
      ],
      [
        "医",
        -8.8146578169839
      ],
      [
        "誓",
        -8.814657816983912
      ],
      [
        "友",
        -8.814657816983912
      ],
      [
        "角",
        -8.814657816983917
      ],
      [
        "直",
        -8.81465781698392
      ],
      [
        "盾",
        -8.814657816983921
      ],
      [
        "探",
        -8.814657816983921
      ],
      [
        "制",
        -8.814657816983924
      ],
      [
        "カッサンドラー",
        -8.814657816983926
      ],
      [
        "笑",
        -8.814657816983932
      ],
      [
        "魂",
        -8.814657816983935
      ],
      [
        "ビ",
        -8.81465781698395
      ],
      [
        "計",
        -8.81465781698395
      ],
      [
        "映",
        -8.814657816983953
      ],
      [
        "鹿",
        -8.814657816983955
      ],
      [
        "感",
        -8.814657816983962
      ],
      [
        "曲",
        -8.814657816984013
      ],
      [
        "ペルセウス",
        -8.814657818460677
      ],
      [
        "春",
        -8.814657819212863
      ],
      [
        "ミーノース",
        -8.814657837263324
      ],
      [
        "スパルタ",
        -8.814657850659184
      ],
      [
        "をもたらす",
        -8.814657852907402
      ],
      [
        "オリュンポス十二神の一柱",
        -8.814657853762608
      ],
      [
        "金羊毛",
        -8.814657898001759
      ],
      [
        "に由来する",
        -8.814658272680004
      ],
      [
        "大きな",
        -8.814793776715813
      ],
      [
        "精霊",
        -8.814907087655008
      ],
      [
        "とも考えられ",
        -8.814937092931086
      ],
      [
        "主張",
        -8.815049281037066
      ],
      [
        "内容",
        -8.815119309289287
      ],
      [
        "エウリュ",
        -8.81512110609012
      ],
      [
        "系統",
        -8.81514216953357
      ],
      [
        "地母神",
        -8.817086546163395
      ],
      [
        "このとき",
        -8.82960361026803
      ],
      [
        "に捧げ",
        -8.894902884002462
      ],
      [
        "陸",
        -8.903557262756035
      ],
      [
        "孫",
        -8.903748444828617
      ],
      [
        "界",
        -8.90435340424014
      ],
      [
        "運",
        -8.905214873928294
      ],
      [
        "楽",
        -8.90532116602693
      ],
      [
        "r",
        -8.905379256519101
      ],
      [
        "役",
        -8.905436092161544
      ],
      [
        "継",
        -8.9055643774597
      ],
      [
        "公",
        -8.905565499061055
      ],
      [
        "妹",
        -8.905566773786267
      ],
      [
        "古代オリンピック",
        -8.905566907892197
      ],
      [
        "組",
        -8.905566907893238
      ],
      [
        "料",
        -8.905566907893244
      ],
      [
        "居",
        -8.905566907893247
      ],
      [
        "赤",
        -8.905566907893247
      ],
      [
        "満",
        -8.905566907893249
      ],
      [
        "単",
        -8.905566907893252
      ],
      [
        "ニュムペー",
        -8.905566907893254
      ],
      [
        "為",
        -8.905566907893263
      ],
      [
        "嘆",
        -8.905566907893263
      ],
      [
        "四",
        -8.905566907893263
      ],
      [
        "季",
        -8.905566907893268
      ],
      [
        "眠",
        -8.905566907893274
      ],
      [
        "i",
        -8.905566907893276
      ],
      [
        "業",
        -8.905566907893288
      ],
      [
        "槍",
        -8.90556690789333
      ],
      [
        "富",
        -8.905566907893354
      ],
      [
        "エピソード",
        -8.905566907903383
      ],
      [
        "概要 ",
        -8.90556690790392
      ],
      [
        "アクロポリス",
        -8.905566907912986
      ],
      [
        "アルクメーネー",
        -8.90556690824111
      ],
      [
        "クリューセー",
        -8.905566908473153
      ],
      [
        "エウリュステウス",
        -8.905566909977622
      ],
      [
        "アルゴー船",
        -8.905566910345703
      ],
      [
        "ケイローン",
        -8.905566911897006
      ],
      [
        "アタマース",
        -8.9055669168537
      ],
      [
        "セイレーン",
        -8.905566924737606
      ],
      [
        "カリストー",
        -8.905566956203536
      ],
      [
        "といわれる",
        -8.905567541038097
      ],
      [
        "イタリア",
        -8.905572232733132
      ],
      [
        "活躍",
        -8.90557523885456
      ],
      [
        "ポントス",
        -8.90557679137983
      ],
      [
        "どのような",
        -8.905603598911025
      ],
      [
        "パラス",
        -8.905605587154469
      ],
      [
        "レートー",
        -8.905608900607431
      ],
      [
        "領域",
        -8.90563945015659
      ],
      [
        "異なる",
        -8.905675730160967
      ],
      [
        "口承",
        -8.905780645611852
      ],
      [
        "ともいわれ",
        -8.906019932221003
      ],
      [
        "更に、",
        -8.906193540958164
      ],
      [
        "ホメーロスの叙事詩",
        -8.906353046525581
      ],
      [
        "が多い",
        -8.907190814789402
      ],
      [
        "ことから、",
        -8.917756150815324
      ],
      [
        "しまった",
        -8.928545566630373
      ],
      [
        "連",
        -8.999407404838937
      ],
      [
        "統",
        -9.004411504716723
      ],
      [
        "十二神",
        -9.005039802627838
      ],
      [
        "散",
        -9.005076710481177
      ],
      [
        "悲",
        -9.005251616779915
      ],
      [
        "護",
        -9.005293077837091
      ],
      [
        "紀",
        -9.00532553508722
      ],
      [
        "割",
        -9.00542234714427
      ],
      [
        "還",
        -9.005458629692162
      ],
      [
        "長母音を省略して",
        -9.005490384508853
      ],
      [
        "史",
        -9.005520706016839
      ],
      [
        "退",
        -9.005561990767475
      ],
      [
        "社",
        -9.005566906033328
      ],
      [
        "絵",
        -9.005566906474273
      ],
      [
        "ぬ",
        -9.00556690714527
      ],
      [
        "ゥ",
        -9.005566907892259
      ],
      [
        "テーテュース",
        -9.005566907893892
      ],
      [
        "永",
        -9.005566907893986
      ],
      [
        "嵐",
        -9.005566907894005
      ],
      [
        "若",
        -9.005566907894005
      ],
      [
        "老",
        -9.005566907894021
      ],
      [
        "m",
        -9.005566907894025
      ],
      [
        "酒",
        -9.005566907894034
      ],
      [
        "材",
        -9.005566907894035
      ],
      [
        "と呼ばれ、",
        -9.005566907894035
      ],
      [
        "歩",
        -9.005566907894037
      ],
      [
        "腹",
        -9.005566907894037
      ],
      [
        "注",
        -9.005566907894037
      ],
      [
        "洞",
        -9.00556690789404
      ],
      [
        "葬",
        -9.00556690789404
      ],
      [
        "除",
        -9.005566907894043
      ],
      [
        "底",
        -9.005566907894043
      ],
      [
        "節",
        -9.005566907894043
      ],
      [
        "抱",
        -9.005566907894046
      ],
      [
        "猛",
        -9.005566907894048
      ],
      [
        "似",
        -9.005566907894053
      ],
      [
        "t",
        -9.005566907894053
      ],
      [
        "ハルピュイア",
        -9.005566907894053
      ],
      [
        "官",
        -9.005566907894059
      ],
      [
        "吐",
        -9.005566907894064
      ],
      [
        "牧",
        -9.005566907894064
      ],
      [
        "危",
        -9.005566907894064
      ],
      [
        "犬",
        -9.005566907894071
      ],
      [
        "熱",
        -9.005566907894094
      ],
      [
        "篇",
        -9.005566907894167
      ],
      [
        "ヨーロッパ",
        -9.005566907894694
      ],
      [
        "ヘレニズム",
        -9.005566907894702
      ],
      [
        "エピメーテウス",
        -9.005566907894833
      ],
      [
        "ラーオメドーン",
        -9.005566907895709
      ],
      [
        "アイエーテース",
        -9.005566907919853
      ],
      [
        "ギャラリー",
        -9.00556690795425
      ],
      [
        "プリクソス",
        -9.005566910551497
      ],
      [
        "しばしば",
        -9.005566933224236
      ],
      [
        "アルカディア",
        -9.00556746180835
      ],
      [
        "求婚者",
        -9.005567523816634
      ],
      [
        "テーセウス",
        -9.005567678781402
      ],
      [
        "起こった",
        -9.005570813367665
      ],
      [
        "ヘーシオドスの『神統記』",
        -9.005584977955262
      ],
      [
        "もっとも",
        -9.005613485595306
      ],
      [
        "イルカ",
        -9.005616035706517
      ],
      [
        "に関する",
        -9.005651775411483
      ],
      [
        "と同じく",
        -9.005833258434423
      ],
      [
        "を指す",
        -9.00663855193659
      ],
      [
        "際",
        -9.009011607956449
      ],
      [
        "の中心",
        -9.043142502050028
      ],
      [
        "本来は",
        -9.045734035483886
      ],
      [
        "そこに",
        -9.06197735345524
      ],
      [
        "なってしま",
        -9.08215612004708
      ],
      [
        "アイネイアース",
        -9.113950171004763
      ],
      [
        "しまい、",
        -9.114983920246408
      ],
      [
        "読",
        -9.115215967812821
      ],
      [
        "洋",
        -9.115468602854113
      ],
      [
        "兄",
        -9.116395660445583
      ],
      [
        "関",
        -9.116435052420602
      ],
      [
        "雄",
        -9.116593536166084
      ],
      [
        "断",
        -9.116602761546998
      ],
      [
        "『神統記』",
        -9.116657828058395
      ],
      [
        "贈",
        -9.116675316804672
      ],
      [
        "常",
        -9.116675586791516
      ],
      [
        "讃",
        -9.116678019006445
      ],
      [
        "裁",
        -9.11667801900758
      ],
      [
        "型",
        -9.116678019007589
      ],
      [
        "防",
        -9.116678019007596
      ],
      [
        "呪",
        -9.116678019007596
      ],
      [
        "デーイアネイラ",
        -9.116678019007598
      ],
      [
        "智",
        -9.1166780190076
      ],
      [
        "限",
        -9.116678019007603
      ],
      [
        "宝",
        -9.116678019007605
      ],
      [
        "p",
        -9.116678019007608
      ],
      [
        "輝",
        -9.116678019007608
      ],
      [
        "『ビブリオテーケー』",
        -9.116678019007608
      ],
      [
        "壮",
        -9.116678019007615
      ],
      [
        "働",
        -9.116678019007615
      ],
      [
        "敬",
        -9.116678019007615
      ],
      [
        "独",
        -9.116678019007615
      ],
      [
        "証",
        -9.116678019007619
      ],
      [
        "離",
        -9.116678019007619
      ],
      [
        "設",
        -9.116678019007619
      ],
      [
        "c",
        -9.116678019007622
      ],
      [
        "観",
        -9.116678019007622
      ],
      [
        "盛",
        -9.116678019007622
      ],
      [
        "ニュクス",
        -9.116678019007622
      ],
      [
        "習",
        -9.116678019007626
      ],
      [
        "興",
        -9.116678019007626
      ],
      [
        "頂",
        -9.116678019007626
      ],
      [
        "程",
        -9.116678019007626
      ],
      [
        "奥",
        -9.11667801900763
      ],
      [
        "プシューケー",
        -9.116678019007631
      ],
      [
        "翼",
        -9.116678019007633
      ],
      [
        "科",
        -9.116678019007633
      ],
      [
        "犯",
        -9.116678019007633
      ],
      [
        "森",
        -9.116678019007637
      ],
      [
        "脚",
        -9.116678019007637
      ],
      [
        "妃",
        -9.11667801900764
      ],
      [
        "傍",
        -9.116678019007642
      ],
      [
        "師",
        -9.116678019007646
      ],
      [
        "疑",
        -9.116678019007646
      ],
      [
        "盗",
        -9.116678019007649
      ],
      [
        "接",
        -9.116678019007649
      ],
      [
        "違",
        -9.116678019007649
      ],
      [
        "銀",
        -9.11667801900766
      ],
      [
        "極",
        -9.116678019007676
      ],
      [
        "幸",
        -9.116678019007699
      ],
      [
        "ヒッポリュテー",
        -9.116678019007725
      ],
      [
        "ケンタウロス",
        -9.116678019009365
      ],
      [
        "考古学",
        -9.11667801905581
      ],
      [
        "パンドーラー",
        -9.116678019063954
      ],
      [
        "オリエント",
        -9.116678019087889
      ],
      [
        "ケルベロス",
        -9.116678019378218
      ],
      [
        "キリスト教",
        -9.116678021459512
      ],
      [
        "トラーキア",
        -9.116678025702113
      ],
      [
        "ピーネウス",
        -9.116678028869847
      ],
      [
        "モイライ",
        -9.116678039327867
      ],
      [
        "プリアモス",
        -9.116678497138265
      ],
      [
        "紀元前6世紀",
        -9.116679151497426
      ],
      [
        "オリーブ",
        -9.116679936092003
      ],
      [
        "ネーレウス",
        -9.116680339879622
      ],
      [
        "の始まり",
        -9.116680505738847
      ],
      [
        "メンテー",
        -9.116685669636833
      ],
      [
        "主要な",
        -9.116689191919829
      ],
      [
        "十二の神",
        -9.116706209641018
      ],
      [
        "ウーラノスとガイア",
        -9.116741853365971
      ],
      [
        "数々の",
        -9.117036768827148
      ],
      [
        "始まっ",
        -9.1221093110004
      ],
      [
        "イーリアス』と『オデュッセイア』",
        -9.131346048025698
      ],
      [
        "オイディプース",
        -9.231070903626257
      ],
      [
        "ほ",
        -9.238205289212251
      ],
      [
        "航",
        -9.240493384176478
      ],
      [
        "識",
        -9.240625560435683
      ],
      [
        "件",
        -9.240661592294698
      ],
      [
        "式",
        -9.240792734190393
      ],
      [
        "張",
        -9.24107857775447
      ],
      [
        "圏",
        -9.241519720644973
      ],
      [
        "オデュッセイア",
        -9.241554282308282
      ],
      [
        "域",
        -9.2415765417351
      ],
      [
        "領",
        -9.241576541735103
      ],
      [
        "黄",
        -9.241661660764258
      ],
      [
        "非",
        -9.24167526340115
      ],
      [
        "図",
        -9.241677955514376
      ],
      [
        "配",
        -9.241678018683313
      ],
      [
        "尽",
        -9.241678018691367
      ],
      [
        "陥",
        -9.241678018864919
      ],
      [
        "条",
        -9.241678018930017
      ],
      [
        "刺",
        -9.241678019015175
      ],
      [
        "ムネーモシュネー",
        -9.241678019016623
      ],
      [
        "案",
        -9.241678019016664
      ],
      [
        "列",
        -9.241678019016684
      ],
      [
        "ふ",
        -9.241678019016685
      ],
      [
        "拠",
        -9.241678019016698
      ],
      [
        "恨",
        -9.241678019016703
      ],
      [
        "松",
        -9.241678019016707
      ],
      [
        "償",
        -9.241678019016707
      ],
      [
        "執",
        -9.241678019016707
      ],
      [
        "猪",
        -9.241678019016708
      ],
      [
        "築",
        -9.24167801901671
      ],
      [
        "脱",
        -9.241678019016712
      ],
      [
        "d",
        -9.241678019016717
      ],
      [
        "勲",
        -9.241678019016717
      ],
      [
        "奴",
        -9.241678019016717
      ],
      [
        "秘",
        -9.241678019016721
      ],
      [
        "サテュロス",
        -9.241678019016721
      ],
      [
        "ザグレウス",
        -9.241678019016721
      ],
      [
        "ガニュメーデース",
        -9.241678019016724
      ],
      [
        "台",
        -9.241678019016726
      ],
      [
        "純",
        -9.241678019016726
      ],
      [
        "寝",
        -9.241678019016726
      ],
      [
        "羅",
        -9.241678019016728
      ],
      [
        "薬",
        -9.24167801901673
      ],
      [
        "炎",
        -9.241678019016732
      ],
      [
        "順",
        -9.241678019016733
      ],
      [
        "鍛",
        -9.241678019016735
      ],
      [
        "調",
        -9.241678019016737
      ],
      [
        "アムピトリーテー",
        -9.241678019016739
      ],
      [
        "憎",
        -9.241678019016744
      ],
      [
        "禁",
        -9.241678019016744
      ],
      [
        "鷲",
        -9.241678019016748
      ],
      [
        "被",
        -9.24167801901675
      ],
      [
        "と呼ばれた",
        -9.241678019016753
      ],
      [
        "掛",
        -9.241678019016758
      ],
      [
        "冠",
        -9.241678019016758
      ],
      [
        "熊",
        -9.241678019016764
      ],
      [
        "声",
        -9.241678019016764
      ],
      [
        "整",
        -9.24167801901677
      ],
      [
        "枝",
        -9.241678019016774
      ],
      [
        "並",
        -9.2416780190168
      ],
      [
        "量",
        -9.24167801901682
      ],
      [
        "雑",
        -9.241678019016835
      ],
      [
        "アトランティス",
        -9.241678019017101
      ],
      [
        "群",
        -9.241678019017158
      ],
      [
        "ユーピテル",
        -9.241678019029404
      ],
      [
        "ネストール王",
        -9.241678019038169
      ],
      [
        "アルキノオス",
        -9.24167801916984
      ],
      [
        "射殺され",
        -9.241678019308308
      ],
      [
        "アイスキュロス",
        -9.241678020319227
      ],
      [
        "テッサリア",
        -9.24167802099403
      ],
      [
        "イーアペトス",
        -9.241678021735165
      ],
      [
        "コリントス",
        -9.241678028042466
      ],
      [
        "イーリオス勢",
        -9.241678276041172
      ],
      [
        "それぞれ",
        -9.241678383723391
      ],
      [
        "に命じて",
        -9.24167868806036
      ],
      [
        "アイギス",
        -9.241679567114309
      ],
      [
        "の美しさ",
        -9.241680561305888
      ],
      [
        "ヘカテー",
        -9.241682415819483
      ],
      [
        "アテーネー",
        -9.241683650302564
      ],
      [
        "タロース",
        -9.241685109351897
      ],
      [
        "15世紀",
        -9.241685203222762
      ],
      [
        "ひとつ",
        -9.241691247456593
      ],
      [
        "レーダー",
        -9.241693308544614
      ],
      [
        "アイアース",
        -9.241698027049436
      ],
      [
        "であろう",
        -9.2417114876715
      ],
      [
        "伝えられる",
        -9.241742259706568
      ],
      [
        "交わって",
        -9.242149501516513
      ],
      [
        "体系的",
        -9.242172899017387
      ],
      [
        "捧げる",
        -9.256807810488972
      ],
      [
        "他",
        -9.259568361730535
      ],
      [
        "写",
        -9.261871094602778
      ],
      [
        "落とされ",
        -9.26917013572232
      ],
      [
        "殿",
        -9.368213480844966
      ],
      [
        "怪",
        -9.3799630518558
      ],
      [
        "認",
        -9.38261650812888
      ],
      [
        "英",
        -9.383012750605017
      ],
      [
        "承",
        -9.383633241239403
      ],
      [
        "今",
        -9.384032863987228
      ],
      [
        "ゼ",
        -9.384054733574505
      ],
      [
        "字",
        -9.384055192915103
      ],
      [
        "樹",
        -9.384063697598231
      ],
      [
        "都",
        -9.384370618675248
      ],
      [
        "冥",
        -9.38439798507232
      ],
      [
        "病",
        -9.384527438069554
      ],
      [
        "宮",
        -9.384531168746115
      ],
      [
        "魅",
        -9.384534806060978
      ],
      [
        "ャ",
        -9.384535158034858
      ],
      [
        "圧",
        -9.38453516168559
      ],
      [
        "醜",
        -9.38453516184347
      ],
      [
        "修",
        -9.384535161873881
      ],
      [
        "細",
        -9.384535161873881
      ],
      [
        "l",
        -9.384535161873885
      ],
      [
        "範",
        -9.384535161873885
      ],
      [
        "恩",
        -9.384535161873888
      ],
      [
        "筋",
        -9.384535161873888
      ],
      [
        "包",
        -9.384535161873888
      ],
      [
        "改",
        -9.384535161873888
      ],
      [
        "遊",
        -9.384535161873888
      ],
      [
        "アンキーセース",
        -9.38453516187389
      ],
      [
        "固",
        -9.384535161873895
      ],
      [
        "短",
        -9.384535161873902
      ],
      [
        "布",
        -9.384535161873902
      ],
      [
        "劣",
        -9.384535161873911
      ],
      [
        "製",
        -9.38453516187392
      ],
      [
        "贄",
        -9.38453516187392
      ],
      [
        "奏",
        -9.38453516187392
      ],
      [
        "生け捕り",
        -9.384535161873922
      ],
      [
        "丘",
        -9.384535161873927
      ],
      [
        "騙",
        -9.384535161873929
      ],
      [
        "早",
        -9.384535161873933
      ],
      [
        "シーシュポス",
        -9.38453516187395
      ],
      [
        "波",
        -9.38453516187396
      ],
      [
        "ι",
        -9.38453516187399
      ],
      [
        "『ホメーロス風讃歌』",
        -9.384535161874478
      ],
      [
        "ペロポネーソス",
        -9.384535161875068
      ],
      [
        "アウゲイアース",
        -9.384535161876398
      ],
      [
        "繁",
        -9.38453516191149
      ],
      [
        "ヒュペリーオーン",
        -9.384535161913654
      ],
      [
        "房",
        -9.38453516191372
      ],
      [
        "円",
        -9.384535161913776
      ],
      [
        "貰",
        -9.384535161913798
      ],
      [
        "規",
        -9.384535161913801
      ],
      [
        "沈",
        -9.384535161913801
      ],
      [
        "ウェルギリウス",
        -9.384535161913801
      ],
      [
        "剣",
        -9.384535161913808
      ],
      [
        "皆",
        -9.38453516191381
      ],
      [
        "号",
        -9.38453516191381
      ],
      [
        "鎌",
        -9.384535161913815
      ],
      [
        "掌",
        -9.384535161913819
      ],
      [
        "※",
        -9.384535161913824
      ],
      [
        "拒",
        -9.384535161913826
      ],
      [
        "罪",
        -9.384535161913828
      ],
      [
        "弱",
        -9.384535161913828
      ],
      [
        "瞬",
        -9.384535161913828
      ],
      [
        "易",
        -9.384535161913828
      ],
      [
        "偶",
        -9.384535161913833
      ],
      [
        "迫",
        -9.384535161913837
      ],
      [
        "率",
        -9.384535161913837
      ],
      [
        "髪",
        -9.384535161913837
      ],
      [
        "y",
        -9.384535161913837
      ],
      [
        "赴",
        -9.384535161913837
      ],
      [
        "効",
        -9.384535161913837
      ],
      [
        "驚",
        -9.384535161913837
      ],
      [
        "アマゾーン",
        -9.384535161984685
      ],
      [
        "ポリュペーモス",
        -9.3845351620684
      ],
      [
        "描かれてい",
        -9.384535162213325
      ],
      [
        "レームノス島",
        -9.384535162813073
      ],
      [
        "ペーネロペー",
        -9.384535162824193
      ],
      [
        "ほとんど",
        -9.384535164760141
      ],
      [
        "小アジア",
        -9.38453516845294
      ],
      [
        "おそらく",
        -9.38453520575966
      ],
      [
        "図書館",
        -9.384535235110398
      ],
      [
        "兄弟姉妹",
        -9.384535378247516
      ],
      [
        "イオールコス",
        -9.384535425715066
      ],
      [
        "をめぐって",
        -9.384535542750674
      ],
      [
        "キルケー",
        -9.384536704273554
      ],
      [
        "カドモス",
        -9.384538877741834
      ],
      [
        "を引き起こ",
        -9.384553858420913
      ],
      [
        "挙げられ",
        -9.384557200867444
      ],
      [
        "を発見し",
        -9.384693335073374
      ],
      [
        "明らかに",
        -9.384784084095498
      ],
      [
        "起こし",
        -9.385681404699664
      ],
      [
        "ばれてい",
        -9.387530524328673
      ],
      [
        "駆",
        -9.549716163584769
      ],
      [
        "可",
        -9.550892415598367
      ],
      [
        "片",
        -9.551085707450486
      ],
      [
        "城",
        -9.551167225575362
      ],
      [
        "挙",
        -9.551175661640148
      ],
      [
        "了",
        -9.551201408350513
      ],
      [
        "祝",
        -9.551201587996829
      ],
      [
        "握",
        -9.551201828540547
      ],
      [
        "哀",
        -9.551201828540547
      ],
      [
        "輪",
        -9.551201828540547
      ],
      [
        "を繰り広げ",
        -9.55120182854055
      ],
      [
        "覆",
        -9.551201828540552
      ],
      [
        "荒",
        -9.551201828540552
      ],
      [
        "貞",
        -9.551201828540556
      ],
      [
        "エイレイテュイア",
        -9.551201828540556
      ],
      [
        "工",
        -9.551201828540558
      ],
      [
        "豪",
        -9.551201828540558
      ],
      [
        "リビュア",
        -9.551201828540558
      ],
      [
        "顔",
        -9.551201828540561
      ],
      [
        "笛",
        -9.551201828540563
      ],
      [
        "譲",
        -9.551201828540563
      ],
      [
        "華",
        -9.551201828540563
      ],
      [
        "酬",
        -9.551201828540568
      ],
      [
        "致",
        -9.551201828540574
      ],
      [
        "辺",
        -9.551201828540574
      ],
      [
        "偽",
        -9.551201828540574
      ],
      [
        "児",
        -9.551201828540574
      ],
      [
        "庫",
        -9.551201828540579
      ],
      [
        "昇",
        -9.551201828540595
      ],
      [
        "牝",
        -9.5512018285406
      ],
      [
        "幾",
        -9.551201828540652
      ],
      [
        "膨",
        -9.551201828540655
      ],
      [
        "ε",
        -9.551201828540687
      ],
      [
        "筑摩書房",
        -9.551201828540831
      ],
      [
        "ペラスゴイ人",
        -9.551201828540837
      ],
      [
        "カリュプソー",
        -9.551201828546093
      ],
      [
        "オリュムポス",
        -9.551201828549457
      ],
      [
        "アケローオス",
        -9.551201828567542
      ],
      [
        "換",
        -9.551201828575179
      ],
      [
        "獲",
        -9.55120182857632
      ],
      [
        "擬",
        -9.55120182858027
      ],
      [
        "童",
        -9.551201828580385
      ],
      [
        "門",
        -9.551201828580394
      ],
      [
        "派",
        -9.551201828580423
      ],
      [
        "否",
        -9.551201828580437
      ],
      [
        "敷",
        -9.551201828580446
      ],
      [
        "村",
        -9.551201828580446
      ],
      [
        "鳴",
        -9.551201828580451
      ],
      [
        "弾",
        -9.551201828580457
      ],
      [
        "模",
        -9.551201828580457
      ],
      [
        "掟",
        -9.551201828580462
      ],
      [
        "兵",
        -9.551201828580462
      ],
      [
        "杖",
        -9.551201828580462
      ],
      [
        "却",
        -9.551201828580465
      ],
      [
        "梟",
        -9.551201828580473
      ],
      [
        "覚",
        -9.551201828580473
      ],
      [
        "麗",
        -9.551201828580478
      ],
      [
        "賊",
        -9.551201828580478
      ],
      [
        "労",
        -9.551201828580478
      ],
      [
        "商",
        -9.55120182858048
      ],
      [
        "善",
        -9.551201828580483
      ],
      [
        "蘇",
        -9.551201828580483
      ],
      [
        "ポリュデウケース",
        -9.551201828580483
      ],
      [
        "籠",
        -9.551201828580488
      ],
      [
        "採",
        -9.551201828580488
      ],
      [
        "エレウシースの秘儀",
        -9.551201828580488
      ],
      [
        "嫁",
        -9.551201828580492
      ],
      [
        "催",
        -9.551201828580492
      ],
      [
        "涙",
        -9.551201828580492
      ],
      [
        "評",
        -9.551201828580503
      ],
      [
        "段",
        -9.551201828580503
      ],
      [
        "エピテトン",
        -9.551201828613797
      ],
      [
        "ドードーナ",
        -9.55120182879559
      ],
      [
        "アイギーナ",
        -9.551201830176527
      ],
      [
        "シケリア島",
        -9.551201830935662
      ],
      [
        "あらゆる",
        -9.551201837165996
      ],
      [
        "ディオーネー",
        -9.551201844158879
      ],
      [
        "ヘーベー",
        -9.551201858484152
      ],
      [
        "ヘーロース",
        -9.551201865631919
      ],
      [
        "『変身物語』",
        -9.551201919201677
      ],
      [
        "にちなんで",
        -9.551207080407499
      ],
      [
        "恐",
        -9.693636289018114
      ],
      [
        "貌",
        -9.735094868908668
      ],
      [
        "献",
        -9.750725970934148
      ],
      [
        "摘",
        -9.75098750950733
      ],
      [
        "猟",
        -9.751152502291415
      ],
      [
        "刻",
        -9.751166488306644
      ],
      [
        "ひ",
        -9.751179838407246
      ],
      [
        "質",
        -9.751200910069949
      ],
      [
        "館",
        -9.751201723015983
      ],
      [
        "殴",
        -9.751201762271037
      ],
      [
        "縛",
        -9.751201786917123
      ],
      [
        "ゆ",
        -9.751201818052259
      ],
      [
        "呑",
        -9.751201827350737
      ],
      [
        "冒",
        -9.751201828241305
      ],
      [
        "葉",
        -9.751201828245243
      ],
      [
        "『アエネーイス』",
        -9.751201828540546
      ],
      [
        "審",
        -9.751201828540548
      ],
      [
        "囲",
        -9.751201828540548
      ],
      [
        "売",
        -9.751201828540548
      ],
      [
        "球",
        -9.751201828540548
      ],
      [
        "イストミア大祭",
        -9.751201828540548
      ],
      [
        "アイギュプトス",
        -9.751201828540548
      ],
      [
        "網",
        -9.751201828540552
      ],
      [
        "軽",
        -9.751201828540555
      ],
      [
        "漏",
        -9.751201828540555
      ],
      [
        "ヒュアキントス",
        -9.751201828540555
      ],
      [
        "十二の功業",
        -9.751201828540555
      ],
      [
        "パウサニアース",
        -9.751201828540559
      ],
      [
        "雨",
        -9.751201828540562
      ],
      [
        "福",
        -9.751201828540562
      ],
      [
        "腰",
        -9.751201828540568
      ],
      [
        "霧",
        -9.751201828540568
      ],
      [
        "鳩",
        -9.751201828540568
      ],
      [
        "察",
        -9.751201828540571
      ],
      [
        "髭",
        -9.751201828540573
      ],
      [
        "折",
        -9.751201828540573
      ],
      [
        "余",
        -9.751201828540573
      ],
      [
        "肝",
        -9.751201828540573
      ],
      [
        "艦",
        -9.751201828540573
      ],
      [
        "朝",
        -9.751201828540587
      ],
      [
        "寿",
        -9.751201828540593
      ],
      [
        "宣",
        -9.751201828540593
      ],
      [
        "弁",
        -9.751201828540598
      ],
      [
        "隊",
        -9.751201828540612
      ],
      [
        "踊",
        -9.75120182854062
      ],
      [
        "ヘスペリデス",
        -9.751201828540662
      ],
      [
        "テイレシアース",
        -9.751201828540681
      ],
      [
        "潮",
        -9.751201828540706
      ],
      [
        "δ",
        -9.751201828540793
      ],
      [
        "パイアーケス人",
        -9.75120182854087
      ],
      [
        "テーバイ攻めの七将",
        -9.751201828541078
      ],
      [
        "メレアグロス",
        -9.751201828543701
      ],
      [
        "高津春繁",
        -9.75120182854389
      ],
      [
        "デウカリオーン",
        -9.751201828545689
      ],
      [
        "カリュブディス",
        -9.751201828546003
      ],
      [
        "アルケースティス",
        -9.751201828551583
      ],
      [
        "マケドニア",
        -9.751201828554457
      ],
      [
        "困",
        -9.751201828580214
      ],
      [
        "丸",
        -9.751201828580415
      ],
      [
        "灰",
        -9.751201828580427
      ],
      [
        "アムピトリュオーン",
        -9.75120182858044
      ],
      [
        "貸",
        -9.751201828580447
      ],
      [
        "己",
        -9.751201828580452
      ],
      [
        "勃",
        -9.75120182858046
      ],
      [
        "A",
        -9.751201828580466
      ],
      [
        "層",
        -9.751201828580468
      ],
      [
        "私",
        -9.751201828580472
      ],
      [
        "隻",
        -9.751201828580472
      ],
      [
        "脅",
        -9.751201828580479
      ],
      [
        "席",
        -9.751201828580479
      ],
      [
        "庭",
        -9.751201828580479
      ],
      [
        "怖",
        -9.75120182858048
      ],
      [
        "階",
        -9.751201828580484
      ],
      [
        "卵",
        -9.751201828580484
      ],
      [
        "砕",
        -9.751201828580484
      ],
      [
        "園",
        -9.751201828580484
      ],
      [
        "肩",
        -9.751201828580484
      ],
      [
        "謀",
        -9.751201828580484
      ],
      [
        "句",
        -9.751201828580484
      ],
      [
        "ミニュアース",
        -9.751201828580488
      ],
      [
        "奇",
        -9.751201828580491
      ],
      [
        "積",
        -9.751201828580491
      ],
      [
        "準",
        -9.751201828580495
      ],
      [
        "竜",
        -9.751201828580497
      ],
      [
        "塞",
        -9.751201828580497
      ],
      [
        "骨",
        -9.751201828580504
      ],
      [
        "望",
        -9.751201828580504
      ],
      [
        "御",
        -9.751201828580504
      ],
      [
        "酔",
        -9.751201828580504
      ],
      [
        "賛",
        -9.751201828580504
      ],
      [
        "胸",
        -9.751201828580504
      ],
      [
        "アクタイオーン",
        -9.751201828583584
      ],
      [
        "ロバート・",
        -9.751201828686717
      ],
      [
        "オレステース",
        -9.751201828704199
      ],
      [
        "ギリシャ",
        -9.751201828900301
      ],
      [
        "プロメテウス",
        -9.751201829635704
      ],
      [
        "ゲーリュオーン",
        -9.751201830030878
      ],
      [
        "エキドナ",
        -9.75120183503381
      ],
      [
        "ムーシケー",
        -9.75120183585425
      ],
      [
        "タンタロス",
        -9.75120183744935
      ],
      [
        "ペロプス",
        -9.751201859983098
      ],
      [
        "アンタイオス",
        -9.751201860554415
      ],
      [
        "カストール",
        -9.751201876147283
      ],
      [
        "と思われる",
        -9.75120192048726
      ],
      [
        "と見なされ",
        -9.752345160136361
      ],
      [
        "発見され",
        -9.753801365570954
      ],
      [
        "息",
        -9.999901318795729
      ],
      [
        "翻",
        -10.000451991184299
      ],
      [
        "利",
        -10.000957998016897
      ],
      [
        "亡",
        -10.00097532539843
      ],
      [
        "互",
        -10.001064350954149
      ],
      [
        "歴",
        -10.001077143778495
      ],
      [
        "狩",
        -10.001138573338487
      ],
      [
        "捧",
        -10.001164704497912
      ],
      [
        "挿",
        -10.001201824748733
      ],
      [
        "奮",
        -10.001201827607556
      ],
      [
        "降",
        -10.001201828244346
      ],
      [
        "喧",
        -10.001201828540546
      ],
      [
        "吊",
        -10.001201828540546
      ],
      [
        "詰",
        -10.001201828540546
      ],
      [
        "呉",
        -10.001201828540552
      ],
      [
        "衝",
        -10.001201828540552
      ],
      [
        "災",
        -10.001201828540552
      ],
      [
        "覧",
        -10.001201828540552
      ],
      [
        "織",
        -10.001201828540552
      ],
      [
        "悩",
        -10.001201828540552
      ],
      [
        "課",
        -10.001201828540552
      ],
      [
        "裏",
        -10.001201828540552
      ],
      [
        "壺",
        -10.001201828540552
      ],
      [
        "罠",
        -10.001201828540552
      ],
      [
        "鷹",
        -10.001201828540552
      ],
      [
        "涎",
        -10.001201828540552
      ],
      [
        "嘘",
        -10.001201828540559
      ],
      [
        "往",
        -10.001201828540559
      ],
      [
        "賭",
        -10.001201828540559
      ],
      [
        "級",
        -10.001201828540559
      ],
      [
        "移",
        -10.001201828540559
      ],
      [
        "南",
        -10.001201828540559
      ],
      [
        "Hercule",
        -10.001201828540559
      ],
      [
        "到",
        -10.001201828540562
      ],
      [
        "土井晩翠 訳『イーリアス",
        -10.001201828540562
      ],
      [
        "匹",
        -10.001201828540566
      ],
      [
        "預",
        -10.001201828540566
      ],
      [
        "蔵",
        -10.001201828540566
      ],
      [
        "C",
        -10.001201828540566
      ],
      [
        "n",
        -10.001201828540566
      ],
      [
        "ヘーラクレイダイ",
        -10.001201828540566
      ],
      [
        "吟",
        -10.001201828540575
      ],
      [
        "恥",
        -10.001201828540575
      ],
      [
        "簡",
        -10.001201828540575
      ],
      [
        "床",
        -10.001201828540575
      ],
      [
        "粗",
        -10.001201828540584
      ],
      [
        "キタイローン山",
        -10.001201828540584
      ],
      [
        "依",
        -10.001201828540587
      ],
      [
        "欺",
        -10.00120182854059
      ],
      [
        "箱",
        -10.00120182854059
      ],
      [
        "載",
        -10.00120182854059
      ],
      [
        "監",
        -10.001201828540603
      ],
      [
        "斧",
        -10.001201828540607
      ],
      [
        "才",
        -10.001201828540616
      ],
      [
        "メリケルテース",
        -10.001201828540623
      ],
      [
        "泡",
        -10.00120182854064
      ],
      [
        "ς",
        -10.001201828540655
      ],
      [
        "η",
        -10.00120182854068
      ],
      [
        "魚",
        -10.001201828540864
      ],
      [
        "ポイボス・アポローン",
        -10.00120182854105
      ],
      [
        "ヒッポリュトス",
        -10.001201828541108
      ],
      [
        "『仕事と日々』",
        -10.00120182854133
      ],
      [
        "『名婦列伝』",
        -10.001201828541447
      ],
      [
        "の圧勝に終わっ",
        -10.001201828541857
      ],
      [
        "ミネルウァ",
        -10.001201828543863
      ],
      [
        "ヘリコーン山",
        -10.001201828544101
      ],
      [
        "アープレーイウス",
        -10.001201828544714
      ],
      [
        "レクトリュオーン",
        -10.001201828544737
      ],
      [
        "密通現場を",
        -10.001201828547158
      ],
      [
        "ギガンテス",
        -10.001201828552595
      ],
      [
        "エウリピデス",
        -10.001201828555548
      ],
      [
        "プレイアデス",
        -10.001201828565186
      ],
      [
        "延",
        -10.001201828580399
      ],
      [
        "I",
        -10.001201828580406
      ],
      [
        "米",
        -10.001201828580419
      ],
      [
        "徒",
        -10.001201828580438
      ],
      [
        "筆",
        -10.001201828580438
      ],
      [
        "粒",
        -10.001201828580447
      ],
      [
        "談",
        -10.00120182858045
      ],
      [
        "慣",
        -10.001201828580456
      ],
      [
        "夢",
        -10.001201828580456
      ],
      [
        "千",
        -10.001201828580463
      ],
      [
        "渦",
        -10.001201828580463
      ],
      [
        "七",
        -10.00120182858047
      ],
      [
        "速",
        -10.001201828580472
      ],
      [
        "仇",
        -10.001201828580472
      ],
      [
        "慰",
        -10.001201828580472
      ],
      [
        "裸",
        -10.001201828580479
      ],
      [
        "刊",
        -10.001201828580479
      ],
      [
        "既",
        -10.001201828580479
      ],
      [
        "凶",
        -10.001201828580479
      ],
      [
        "ピューティア大祭",
        -10.001201828580479
      ],
      [
        "添",
        -10.001201828580488
      ],
      [
        "屋",
        -10.001201828580488
      ],
      [
        "顕",
        -10.001201828580488
      ],
      [
        "g",
        -10.001201828580488
      ],
      [
        "誌",
        -10.001201828580488
      ],
      [
        "赦",
        -10.001201828580488
      ],
      [
        "H",
        -10.001201828580495
      ],
      [
        "辞",
        -10.001201828580495
      ],
      [
        "欠",
        -10.001201828580495
      ],
      [
        "アレクサンドリア",
        -10.001201828580495
      ],
      [
        "盃",
        -10.001201828580498
      ],
      [
        "クリュタイムネーストラー",
        -10.001201828580498
      ],
      [
        "胎",
        -10.001201828580504
      ],
      [
        "境",
        -10.001201828580504
      ],
      [
        "脂",
        -10.001201828580504
      ],
      [
        "沼",
        -10.001201828580504
      ],
      [
        "P",
        -10.001201828580504
      ],
      [
        "タインヘーヴェル",
        -10.001201828580504
      ],
      [
        "ソピステース",
        -10.001201828582747
      ],
      [
        "ヘーロドトス",
        -10.001201828602237
      ],
      [
        "ティーリュンス",
        -10.001201828730514
      ],
      [
        "神として崇拝され",
        -10.005070301348418
      ],
      [
        "備",
        -10.296066821622878
      ],
      [
        "吹",
        -10.331964498030883
      ],
      [
        "品",
        -10.33330882923326
      ],
      [
        "浮",
        -10.333950031230591
      ],
      [
        "帝",
        -10.334022330868898
      ],
      [
        "牡",
        -10.334034454915379
      ],
      [
        "登",
        -10.33422125972432
      ],
      [
        "壁",
        -10.334459795656683
      ],
      [
        "彫",
        -10.334472100724211
      ],
      [
        "陽",
        -10.334535161578996
      ],
      [
        "ミュルミドーン",
        -10.33453516187388
      ],
      [
        "L",
        -10.334535161873882
      ],
      [
        "臭",
        -10.334535161873882
      ],
      [
        "ロドスのアポローニオス",
        -10.334535161873882
      ],
      [
        "呉茂一 訳『イーリアス ",
        -10.334535161873884
      ],
      [
        "癒",
        -10.334535161873887
      ],
      [
        "舎",
        -10.334535161873887
      ],
      [
        "契",
        -10.334535161873887
      ],
      [
        "淵",
        -10.334535161873887
      ],
      [
        "卓",
        -10.334535161873887
      ],
      [
        "替",
        -10.334535161873887
      ],
      [
        "芽",
        -10.334535161873887
      ],
      [
        "温",
        -10.334535161873887
      ],
      [
        "E",
        -10.334535161873887
      ],
      [
        "アガメムノン",
        -10.334535161873887
      ],
      [
        "穴",
        -10.334535161873893
      ],
      [
        "黙",
        -10.334535161873893
      ],
      [
        "凡",
        -10.334535161873898
      ],
      [
        "択",
        -10.334535161873898
      ],
      [
        "左",
        -10.334535161873898
      ],
      [
        "五",
        -10.334535161873898
      ],
      [
        "八",
        -10.334535161873898
      ],
      [
        "巧",
        -10.334535161873898
      ],
      [
        "君",
        -10.334535161873898
      ],
      [
        "勤",
        -10.334535161873898
      ],
      [
        "砂",
        -10.334535161873898
      ],
      [
        "D",
        -10.334535161873898
      ],
      [
        "遅",
        -10.334535161873898
      ],
      [
        "豚",
        -10.334535161873898
      ],
      [
        "保",
        -10.334535161873903
      ],
      [
        "釘",
        -10.334535161873903
      ],
      [
        "噴",
        -10.334535161873909
      ],
      [
        "紅",
        -10.334535161873909
      ],
      [
        "陶",
        -10.334535161873909
      ],
      [
        "尾",
        -10.334535161873909
      ],
      [
        "軸",
        -10.334535161873909
      ],
      [
        "アレクサンドレイア",
        -10.334535161873916
      ],
      [
        "賞",
        -10.334535161873921
      ],
      [
        "右",
        -10.334535161873921
      ],
      [
        "アルファベット",
        -10.334535161873921
      ],
      [
        "クリューサーオール",
        -10.334535161873923
      ],
      [
        "玉",
        -10.334535161873932
      ],
      [
        "律",
        -10.334535161873944
      ],
      [
        "ῆ",
        -10.334535161873944
      ],
      [
        "『伊曾保物語』",
        -10.334535161873944
      ],
      [
        "競技の優勝者には、",
        -10.334535161873944
      ],
      [
        "無敵の力を得る",
        -10.334535161873955
      ],
      [
        "京",
        -10.334535161873966
      ],
      [
        "博",
        -10.334535161873966
      ],
      [
        "世界古典文学全集 ",
        -10.334535161873966
      ],
      [
        "仮",
        -10.334535161873989
      ],
      [
        "α",
        -10.334535161873989
      ],
      [
        "薄",
        -10.334535161874
      ],
      [
        "ポリュボーテース",
        -10.334535161874005
      ],
      [
        "楯",
        -10.334535161874012
      ],
      [
        "名馬アレイオーン",
        -10.334535161874012
      ],
      [
        "塩",
        -10.334535161874044
      ],
      [
        "俗",
        -10.334535161874056
      ],
      [
        "狭",
        -10.334535161874056
      ],
      [
        "関連 --- ",
        -10.334535161874056
      ],
      [
        "ο",
        -10.3345351618741
      ],
      [
        "戯",
        -10.3345351618741
      ],
      [
        "ネッソスがデーイアネイラを",
        -10.334535161874225
      ],
      [
        "院",
        -10.334535161874303
      ],
      [
        "エーレクトラー",
        -10.33453516187469
      ],
      [
        "卷・希臘篇』 近代社 192",
        -10.334535161874864
      ],
      [
        "津",
        -10.334535161907812
      ],
      [
        "鶏",
        -10.3345351619136
      ],
      [
        "エリュシクトーン",
        -10.334535161913612
      ],
      [
        "憐",
        -10.334535161913617
      ],
      [
        "趣",
        -10.33453516191368
      ],
      [
        "ヨハネス・ツェツェース",
        -10.33453516191368
      ],
      [
        "潰",
        -10.334535161913724
      ],
      [
        "額",
        -10.334535161913724
      ],
      [
        "カライスとゼーテースが",
        -10.334535161913735
      ],
      [
        "伐",
        -10.334535161913747
      ],
      [
        "納",
        -10.334535161913747
      ],
      [
        "冷",
        -10.334535161913758
      ],
      [
        "冬",
        -10.334535161913763
      ],
      [
        "媚",
        -10.33453516191377
      ],
      [
        "章",
        -10.33453516191377
      ],
      [
        "怠",
        -10.33453516191377
      ],
      [
        "田",
        -10.33453516191378
      ],
      [
        "虐",
        -10.334535161913792
      ],
      [
        "職",
        -10.334535161913792
      ],
      [
        "ヤ",
        -10.334535161913792
      ],
      [
        "標",
        -10.334535161913792
      ],
      [
        "幼",
        -10.334535161913792
      ],
      [
        "腿",
        -10.334535161913792
      ],
      [
        ",",
        -10.334535161913792
      ],
      [
        "慮",
        -10.334535161913792
      ],
      [
        "墜",
        -10.334535161913792
      ],
      [
        "ディオスクーロイ",
        -10.334535161913792
      ],
      [
        "占",
        -10.334535161913804
      ],
      [
        "堂",
        -10.334535161913804
      ],
      [
        "拾",
        -10.334535161913804
      ],
      [
        "帽",
        -10.334535161913804
      ],
      [
        "フリードリヒ・ニーチェ",
        -10.334535161913804
      ],
      [
        "カリュドーンの猪狩り",
        -10.334535161913804
      ],
      [
        "踵",
        -10.334535161913815
      ],
      [
        "休",
        -10.334535161913815
      ],
      [
        "轟",
        -10.334535161913815
      ],
      [
        "凌",
        -10.334535161913815
      ],
      [
        "后",
        -10.334535161913815
      ],
      [
        "ē",
        -10.334535161913815
      ],
      [
        "M",
        -10.334535161913815
      ],
      [
        "責",
        -10.334535161913815
      ],
      [
        "疲",
        -10.334535161913815
      ],
      [
        "虚",
        -10.334535161913815
      ],
      [
        "鴉",
        -10.334535161913815
      ],
      [
        "インド・ヨーロッパ語族系",
        -10.334535161913815
      ],
      [
        "湖",
        -10.334535161913825
      ],
      [
        "六",
        -10.334535161913825
      ],
      [
        "遇",
        -10.334535161913825
      ],
      [
        "溶",
        -10.334535161913825
      ],
      [
        "ジブラルタル海峡",
        -10.334535161913825
      ],
      [
        "町",
        -10.33453516191383
      ],
      [
        "弄",
        -10.334535161913836
      ],
      [
        "蝋",
        -10.334535161913836
      ],
      [
        "伺",
        -10.334535161913836
      ],
      [
        "濃",
        -10.334535161913836
      ],
      [
        "隙",
        -10.334535161913836
      ],
      [
        "拳",
        -10.334535161913836
      ],
      [
        "客",
        -10.334535161913836
      ],
      [
        "免",
        -10.334535161913836
      ],
      [
        "携",
        -10.334535161913836
      ],
      [
        "済",
        -10.334535161913836
      ],
      [
        "協",
        -10.334535161913836
      ],
      [
        "幹",
        -10.334535161913836
      ],
      [
        "胃",
        -10.334535161913836
      ],
      [
        "』岩波書店〈岩波文庫〉、19",
        -10.334535161913836
      ],
      [
        "オーケアニデス",
        -10.334535161913836
      ],
      [
        "に引きずり出され",
        -10.334535167580357
      ],
      [
        "車",
        -10.833387211415712
      ],
      [
        "韻",
        -10.834045762495586
      ],
      [
        "係",
        -10.834425410269763
      ],
      [
        "樫",
        -10.834518927113626
      ],
      [
        "ぞ",
        -10.834533395226366
      ],
      [
        "慢",
        -10.834535128915846
      ],
      [
        "響",
        -10.83453516158147
      ],
      [
        "予",
        -10.834535161583558
      ],
      [
        "拝",
        -10.834535161584794
      ],
      [
        "快",
        -10.834535161781861
      ],
      [
        "副",
        -10.83453516187388
      ],
      [
        "厚",
        -10.834535161873886
      ],
      [
        "撲",
        -10.834535161873886
      ],
      [
        "狙",
        -10.834535161873886
      ],
      [
        "小川政恭 訳『イーリアス ",
        -10.834535161873886
      ],
      [
        "偵",
        -10.834535161873895
      ],
      [
        "雲",
        -10.834535161873895
      ],
      [
        "没",
        -10.834535161873895
      ],
      [
        "刑",
        -10.834535161873895
      ],
      [
        "灯",
        -10.834535161873895
      ],
      [
        "啓",
        -10.834535161873895
      ],
      [
        "姫",
        -10.834535161873895
      ],
      [
        "況",
        -10.834535161873895
      ],
      [
        "蛮",
        -10.834535161873895
      ],
      [
        "学術出版会〈西洋古典叢書〉、20",
        -10.834535161873895
      ],
      [
        "は、サモトラケのアリスタルコス",
        -10.834535161873895
      ],
      [
        " Cyclops",
        -10.834535161873895
      ],
      [
        "の三代にわたる政権交代劇を",
        -10.834535161873895
      ],
      [
        "、見渡す限りの天地",
        -10.834535161873895
      ],
      [
        "楽人デーモドコスが",
        -10.834535161873895
      ],
      [
        "アルゴスの全ての眼を眠らせると、",
        -10.834535161873903
      ],
      [
        "λ",
        -10.834535161873912
      ],
      [
        "忌",
        -10.834535161873912
      ],
      [
        "惨",
        -10.834535161873912
      ],
      [
        "貧",
        -10.834535161873912
      ],
      [
        "猫",
        -10.834535161873912
      ],
      [
        "寧",
        -10.834535161873912
      ],
      [
        "惹",
        -10.834535161873912
      ],
      [
        "塚",
        -10.834535161873912
      ],
      [
        "蒙",
        -10.834535161873912
      ],
      [
        "泣",
        -10.834535161873912
      ],
      [
        "話を始める契機としての重要な宣言",
        -10.834535161873912
      ],
      [
        "ジェームズ・フレイザーは",
        -10.834535161873912
      ],
      [
        "「アルゲイポンテース」",
        -10.834535161873912
      ],
      [
        "救出の任をヘルメースに命じ",
        -10.834535161873912
      ],
      [
        "貢",
        -10.83453516187393
      ],
      [
        "爪",
        -10.83453516187393
      ],
      [
        "叫",
        -10.83453516187393
      ],
      [
        "叔",
        -10.83453516187393
      ],
      [
        "蓄",
        -10.83453516187393
      ],
      [
        "昼",
        -10.83453516187393
      ],
      [
        "九",
        -10.83453516187393
      ],
      [
        "ベン・エドウィン・ペリーの",
        -10.83453516187393
      ],
      [
        " Ἀργοναύτ",
        -10.83453516187393
      ],
      [
        "ポイニーケー王アゲーノール",
        -10.83453516187393
      ],
      [
        "虻",
        -10.83453516187395
      ],
      [
        "隆",
        -10.83453516187395
      ],
      [
        "曾",
        -10.83453516187395
      ],
      [
        "偉",
        -10.83453516187395
      ],
      [
        "茶",
        -10.83453516187395
      ],
      [
        "『エソポのハブラス",
        -10.83453516187395
      ],
      [
        "走",
        -10.834535161873967
      ],
      [
        "跨",
        -10.834535161873967
      ],
      [
        "ーオース、セレーネー、ヘーリオス",
        -10.834535161873976
      ],
      [
        "晩",
        -10.834535161873987
      ],
      [
        "トマス・ブルフィンチ",
        -10.834535161873987
      ],
      [
        "煽",
        -10.834535161874022
      ],
      [
        "邸",
        -10.834535161874022
      ],
      [
        "慈",
        -10.834535161874042
      ],
      [
        "エミル・シャンブリ",
        -10.83453516187406
      ],
      [
        "戸",
        -10.834535161874097
      ],
      [
        "適",
        -10.834535161874133
      ],
      [
        "ύ",
        -10.834535161874133
      ],
      [
        "φ",
        -10.83453516187417
      ],
      [
        "Ἀ",
        -10.83453516187417
      ],
      [
        "τ",
        -10.83453516187417
      ],
      [
        "アニメーション テレビアニメ『",
        -10.83453516187417
      ],
      [
        "狡",
        -10.834535161874188
      ],
      [
        "蛙",
        -10.834535161874445
      ],
      [
        "店",
        -10.834535161874463
      ],
      [
        "鼎",
        -10.834535161874463
      ],
      [
        "年 『古典劇大系 第",
        -10.83453516187505
      ],
      [
        "[著作は散逸] ",
        -10.834535161877689
      ],
      [
        "、ヘーラクレースにとどめを刺され",
        -10.834535161881373
      ],
      [
        "ヨ",
        -10.834535161909836
      ],
      [
        "烈",
        -10.834535161913202
      ],
      [
        "苛",
        -10.834535161913202
      ],
      [
        "ハーデース・ポセイドン・ゼウスの",
        -10.834535161913543
      ],
      [
        "校",
        -10.834535161913582
      ],
      [
        "S",
        -10.834535161913598
      ],
      [
        "劫",
        -10.834535161913637
      ],
      [
        "磨",
        -10.83453516191367
      ],
      [
        "狼",
        -10.83453516191369
      ],
      [
        "の『通俗伊蘇普物語』",
        -10.83453516191369
      ],
      [
        "アウクスブルク校訂本を",
        -10.83453516191369
      ],
      [
        "頑",
        -10.834535161913708
      ],
      [
        "汚",
        -10.834535161913726
      ],
      [
        "杯",
        -10.834535161913726
      ],
      [
        "鎖",
        -10.834535161913745
      ],
      [
        "丈",
        -10.834535161913763
      ],
      [
        "殊",
        -10.834535161913763
      ],
      [
        "微",
        -10.834535161913763
      ],
      [
        "k",
        -10.834535161913763
      ],
      [
        "郭",
        -10.834535161913763
      ],
      [
        "崎",
        -10.834535161913763
      ],
      [
        "志",
        -10.834535161913763
      ],
      [
        "香",
        -10.834535161913763
      ],
      [
        "鉱",
        -10.834535161913763
      ],
      [
        "励",
        -10.834535161913763
      ],
      [
        "謳",
        -10.834535161913763
      ],
      [
        "静",
        -10.834535161913763
      ],
      [
        "棄",
        -10.834535161913763
      ],
      [
        "地球や全宇宙、そしてその根源",
        -10.834535161913763
      ],
      [
        "ヘルメース・トリスメギストス",
        -10.834535161913763
      ],
      [
        "谷",
        -10.834535161913772
      ],
      [
        "遷",
        -10.834535161913783
      ],
      [
        "羽",
        -10.834535161913783
      ],
      [
        "R",
        -10.834535161913783
      ],
      [
        "ピエール・グリマル",
        -10.834535161913783
      ],
      [
        "ā",
        -10.8345351619138
      ],
      [
        "急",
        -10.8345351619138
      ],
      [
        "紐",
        -10.8345351619138
      ],
      [
        "克",
        -10.8345351619138
      ],
      [
        "任",
        -10.8345351619138
      ],
      [
        "彩",
        -10.8345351619138
      ],
      [
        "牙",
        -10.8345351619138
      ],
      [
        "請",
        -10.8345351619138
      ],
      [
        "熟",
        -10.8345351619138
      ],
      [
        "亀",
        -10.8345351619138
      ],
      [
        "ν",
        -10.8345351619138
      ],
      [
        "カリュドーン王オイネウス",
        -10.8345351619138
      ],
      [
        "『ピューティア第四祝勝歌』",
        -10.8345351619138
      ],
      [
        "テュロス王アゲーノール",
        -10.8345351619138
      ],
      [
        "対して反乱を起こしたこともあり、",
        -10.8345351619138
      ],
      [
        "掲",
        -10.83453516191381
      ],
      [
        "孤",
        -10.83453516191381
      ],
      [
        "椅子」に捕らわれていたテーセウス",
        -10.83453516191381
      ],
      [
        "廃",
        -10.834535161913818
      ],
      [
        "即",
        -10.834535161913818
      ],
      [
        "#",
        -10.834535161913818
      ],
      [
        "播",
        -10.834535161913818
      ],
      [
        "腐",
        -10.834535161913818
      ],
      [
        "低",
        -10.834535161913818
      ],
      [
        "りとあらゆる地形を引き裂きながら",
        -10.834535161913818
      ],
      [
        "、古代ギリシア語ラテン翻字: ",
        -10.834535161913818
      ],
      [
        "鎌でウーラノスの男性器を切り落と",
        -10.834535161913818
      ],
      [
        "蟹",
        -10.834535161913823
      ],
      [
        "「ゴールデン・フリース」",
        -10.834535161913827
      ],
      [
        "てヘーラーに近付き犯そうとした",
        -10.834535161913827
      ],
      [
        "泥",
        -10.834535161913838
      ],
      [
        "昔",
        -10.834535161913838
      ],
      [
        "拘",
        -10.834535161913838
      ],
      [
        "搭",
        -10.834535161913838
      ],
      [
        "刃",
        -10.834535161913838
      ],
      [
        "屈",
        -10.834535161913838
      ],
      [
        "晴",
        -10.834535161913838
      ],
      [
        "頁",
        -10.834535161913838
      ],
      [
        "臨",
        -10.834535161913838
      ],
      [
        "縄",
        -10.834535161913838
      ],
      [
        "減",
        -10.834535161913838
      ],
      [
        "吉",
        -10.834535161913838
      ],
      [
        "革",
        -10.834535161913838
      ],
      [
        "累",
        -10.834535161913838
      ],
      [
        "浄",
        -10.834535161913838
      ],
      [
        "稀",
        -10.834535161913838
      ],
      [
        "雅",
        -10.834535161913838
      ],
      [
        "涜",
        -10.834535161913838
      ],
      [
        "煙",
        -10.834535161913838
      ],
      [
        "忍",
        -10.834535161913838
      ],
      [
        "秀",
        -10.834535161913838
      ],
      [
        "緒",
        -10.834535161913838
      ],
      [
        "牢",
        -10.834535161913838
      ],
      [
        "垂",
        -10.834535161913838
      ],
      [
        "松平千秋 訳『イリアス ",
        -10.834535161913838
      ],
      [
        "イシュタルやアスタルテー",
        -10.834535161913838
      ],
      [
        "ィーターン族をタルタロスに幽閉し",
        -10.834535161913838
      ],
      [
        "抗議に行くが、ゼウスは取り合わず",
        -10.834535161913838
      ],
      [
        "夫として不釣合いではない」と発言",
        -10.834535161913838
      ],
      [
        "の兄であり、3つの頭を持つ犬の",
        -10.834535161913838
      ],
      [
        "グーテンベルク21",
        -10.834535161913838
      ],
      [
        "『アルゴナウティカ』 ",
        -10.834535161913838
      ],
      [
        "ディオニューシア祭において",
        -10.834535161913838
      ],
      [
        "ペロポンネーソス半島",
        -10.834535161913838
      ],
      [
        "シケリアのディオドーロス",
        -10.834535161913838
      ],
      [
        "ティチェリの『ヴィーナスの誕生』",
        -10.834535178425615
      ],
      [
        " Argonauta",
        -10.834535624700507
      ],
      [
        "μ",
        -11.789504844639142
      ],
      [
        "比",
        -11.789604844639141
      ],
      [
        "琥",
        -11.789704844639141
      ],
      [
        "牲",
        -11.789804844639143
      ],
      [
        "訪",
        -11.789904844639143
      ],
      [
        "振",
        -11.790004844639142
      ],
      [
        "霆",
        -11.790104844639142
      ],
      [
        "繰",
        -11.790204844639142
      ],
      [
        "籍",
        -11.790304844639142
      ],
      [
        "以",
        -11.790404844639141
      ],
      [
        "O",
        -11.790504844639143
      ],
      [
        "宇",
        -11.790604844639143
      ],
      [
        "窮",
        -11.790704844639142
      ],
      [
        "騎",
        -11.790804844639142
      ],
      [
        "把",
        -11.790904844639142
      ],
      [
        "因",
        -11.791004844639142
      ],
      [
        "暮",
        -11.791104844639142
      ],
      [
        "萄",
        -11.791204844639141
      ],
      [
        "誘",
        -11.791304844639143
      ],
      [
        "窟",
        -11.791404844639143
      ],
      [
        "釈",
        -11.791504844639142
      ],
      [
        "存",
        -11.791604844639142
      ],
      [
        "封",
        -11.791704844639142
      ],
      [
        "薔",
        -11.791804844639142
      ],
      [
        "耐",
        -11.791904844639141
      ],
      [
        "鎮",
        -11.792004844639143
      ],
      [
        "覇",
        -11.792104844639143
      ],
      [
        "超",
        -11.792204844639143
      ],
      [
        "飢",
        -11.792304844639142
      ],
      [
        "誇",
        -11.792404844639142
      ],
      [
        "盲",
        -11.792504844639142
      ],
      [
        "榴",
        -11.792604844639142
      ],
      [
        "囚",
        -11.792704844639141
      ],
      [
        "翁",
        -11.792804844639143
      ],
      [
        "娠",
        -11.792904844639143
      ],
      [
        "峡",
        -11.793004844639142
      ],
      [
        "Ὀ",
        -11.793104844639142
      ],
      [
        "嘩",
        -11.793204844639142
      ],
      [
        "飼",
        -11.793304844639142
      ],
      [
        "釣",
        -11.793404844639142
      ],
      [
        "太",
        -11.793504844639143
      ],
      [
        "尊",
        -11.793604844639143
      ],
      [
        "纏",
        -11.793704844639143
      ],
      [
        "財",
        -11.793804844639142
      ],
      [
        "迎",
        -11.793904844639142
      ],
      [
        "射",
        -11.794004844639142
      ],
      [
        "捨",
        -11.794104844639142
      ],
      [
        "誤",
        -11.794204844639141
      ],
      [
        "触",
        -11.794304844639143
      ],
      [
        "液",
        -11.794404844639143
      ],
      [
        "炬",
        -11.794504844639143
      ],
      [
        "訂",
        -11.794604844639142
      ],
      [
        "去",
        -11.794704844639142
      ],
      [
        "募",
        -11.794804844639142
      ],
      [
        "掻",
        -11.794904844639142
      ],
      [
        "辿",
        -11.795004844639143
      ],
      [
        "飛",
        -11.795104844639143
      ],
      [
        "及",
        -11.795204844639143
      ],
      [
        "岸",
        -11.795304844639142
      ],
      [
        "ザ",
        -11.795404844639142
      ],
      [
        "K",
        -11.795504844639142
      ],
      [
        "供",
        -11.795604844639142
      ],
      [
        "翠",
        -11.795704844639141
      ],
      [
        "冑",
        -11.795804844639143
      ],
      [
        "γ",
        -11.795904844639143
      ],
      [
        "踏",
        -11.796004844639143
      ],
      [
        "晒",
        -11.796104844639142
      ],
      [
        "檎",
        -11.796204844639142
      ],
      [
        "泳",
        -11.796304844639142
      ],
      [
        "崩",
        -11.796404844639142
      ],
      [
        "虜",
        -11.796504844639143
      ],
      [
        "侯",
        -11.796604844639143
      ],
      [
        "σ",
        -11.796704844639143
      ],
      [
        "刷",
        -11.796804844639142
      ],
      [
        "討",
        -11.796904844639142
      ],
      [
        "希",
        -11.797004844639142
      ],
      [
        "洗",
        -11.797104844639142
      ],
      [
        "ィ",
        -11.797204844639142
      ],
      [
        "雀",
        -11.797304844639143
      ],
      [
        "避",
        -11.797404844639143
      ],
      [
        "井",
        -11.797504844639143
      ],
      [
        "汲",
        -11.797604844639142
      ],
      [
        "奈",
        -11.797704844639142
      ],
      [
        "司",
        -11.797804844639142
      ],
      [
        "補",
        -11.797904844639142
      ],
      [
        "捜",
        -11.798004844639143
      ],
      [
        "皿",
        -11.798104844639143
      ],
      [
        "殖",
        -11.798204844639143
      ],
      [
        "照",
        -11.798304844639143
      ],
      [
        "冨",
        -11.798404844639142
      ],
      [
        "扱",
        -11.798504844639142
      ],
      [
        "姻",
        -11.798604844639142
      ],
      [
        "斐",
        -11.798704844639142
      ],
      [
        "栽",
        -11.798804844639143
      ],
      [
        "如",
        -11.798904844639143
      ],
      [
        "卷",
        -11.799004844639143
      ],
      [
        "婆",
        -11.799104844639142
      ],
      [
        "会",
        -11.799204844639142
      ],
      [
        "掴",
        -11.799304844639142
      ],
      [
        "葡",
        -11.799404844639142
      ],
      [
        "秩",
        -11.799504844639142
      ],
      [
        "叡",
        -11.799604844639143
      ],
      [
        "該",
        -11.799704844639143
      ],
      [
        "諾",
        -11.799804844639143
      ],
      [
        "唱",
        -11.799904844639142
      ],
      [
        "鉛",
        -11.800004844639142
      ],
      [
        "宴",
        -11.800104844639142
      ],
      [
        "0",
        -11.800204844639142
      ],
      [
        "考",
        -11.800304844639143
      ],
      [
        "忠",
        -11.800404844639143
      ],
      [
        "庇",
        -11.800504844639143
      ],
      [
        "渉",
        -11.800604844639142
      ],
      [
        "奉",
        -11.800704844639142
      ],
      [
        "薇",
        -11.800804844639142
      ],
      [
        "曙",
        -11.800904844639142
      ],
      [
        "犠",
        -11.801004844639142
      ],
      [
        "儀",
        -11.801104844639143
      ],
      [
        "寓",
        -11.801204844639143
      ],
      [
        "紹",
        -11.801304844639143
      ],
      [
        "徨",
        -11.801404844639142
      ],
      [
        "召",
        -11.801504844639142
      ],
      [
        "誦",
        -11.801604844639142
      ],
      [
        "練",
        -11.801704844639142
      ],
      [
        "辱",
        -11.801804844639143
      ],
      [
        "絞",
        -11.801904844639143
      ],
      [
        "虹",
        -11.802004844639143
      ],
      [
        "詳",
        -11.802104844639143
      ],
      [
        "竪",
        -11.802204844639142
      ],
      [
        "徴",
        -11.802304844639142
      ],
      [
        "印",
        -11.802404844639142
      ],
      [
        "績",
        -11.802504844639142
      ],
      [
        "府",
        -11.802604844639143
      ],
      [
        "遂",
        -11.802704844639143
      ],
      [
        "歳",
        -11.802804844639143
      ],
      [
        "珀",
        -11.802904844639142
      ],
      [
        "局",
        -11.803004844639142
      ],
      [
        "ヒ",
        -11.803104844639142
      ],
      [
        "管",
        -11.803204844639142
      ],
      [
        "妥",
        -11.803304844639143
      ],
      [
        "追",
        -11.803404844639143
      ],
      [
        "団",
        -11.803504844639143
      ],
      [
        "暖",
        -11.803604844639143
      ],
      [
        "浴",
        -11.803704844639142
      ],
      [
        "餌",
        -11.803804844639142
      ],
      [
        "給",
        -11.803904844639142
      ],
      [
        "捕",
        -11.804004844639142
      ],
      [
        "襲",
        -11.804104844639143
      ],
      [
        "遙",
        -11.804204844639143
      ],
      [
        "資",
        -11.804304844639143
      ],
      [
        "銅",
        -11.804404844639143
      ],
      [
        "浸",
        -11.804504844639142
      ],
      [
        "援",
        -11.804604844639142
      ],
      [
        "批",
        -11.804704844639142
      ],
      [
        "饗",
        -11.804804844639143
      ],
      [
        "挑",
        -11.804904844639143
      ],
      [
        "復",
        -11.805004844639143
      ],
      [
        "芸",
        -11.805104844639143
      ],
      [
        "穀",
        -11.805204844639142
      ],
      [
        "ェ",
        -11.805304844639142
      ],
      [
        "平",
        -11.805404844639142
      ],
      [
        "儲",
        -11.805504844639142
      ],
      [
        "央",
        -11.805604844639143
      ],
      [
        "埋",
        -11.805704844639143
      ],
      [
        "杉",
        -11.805804844639143
      ],
      [
        "景",
        -11.805904844639143
      ],
      [
        "称",
        -11.806004844639142
      ],
      [
        "餓",
        -11.806104844639142
      ],
      [
        "漲",
        -11.806204844639142
      ],
      [
        "寒",
        -11.806304844639142
      ],
      [
        "送",
        -11.806404844639143
      ],
      [
        "惧",
        -11.806504844639143
      ],
      [
        "掘",
        -11.806604844639143
      ],
      [
        "u",
        -11.806704844639142
      ],
      [
        "ぜ",
        -11.806804844639142
      ],
      [
        "糸",
        -11.806904844639142
      ],
      [
        "憶",
        -11.807004844639142
      ],
      [
        "瀚",
        -11.807104844639143
      ],
      [
        "鉄",
        -11.807204844639143
      ],
      [
        "区",
        -11.807304844639143
      ],
      [
        "抜",
        -11.807404844639143
      ],
      [
        "借",
        -11.807504844639142
      ],
      [
        "安",
        -11.807604844639142
      ],
      [
        "浩",
        -11.807704844639142
      ],
      [
        "艱",
        -11.807804844639142
      ],
      [
        "夏",
        -11.807904844639143
      ],
      [
        "待",
        -11.808004844639143
      ],
      [
        "礎",
        -11.808104844639143
      ],
      [
        "垣",
        -11.808204844639143
      ],
      [
        "/",
        -11.808304844639142
      ],
      [
        "纂",
        -11.808404844639142
      ],
      [
        "箇",
        -11.808504844639142
      ],
      [
        "介",
        -11.808604844639143
      ],
      [
        "畏",
        -11.808704844639143
      ],
      [
        "崇",
        -11.808804844639143
      ],
      [
        "粟",
        -11.808904844639143
      ],
      [
        "旋",
        -11.809004844639142
      ],
      [
        "滴",
        -11.809104844639142
      ],
      [
        "漂",
        -11.809204844639142
      ],
      [
        "矛",
        -11.809304844639142
      ],
      [
        "在",
        -11.809404844639143
      ],
      [
        "獰",
        -11.809504844639143
      ],
      [
        "録",
        -11.809604844639143
      ],
      [
        "葦",
        -11.809704844639143
      ],
      [
        "吸",
        -11.809804844639142
      ],
      [
        "験",
        -11.809904844639142
      ],
      [
        "瞳",
        -11.810004844639142
      ],
      [
        "逃",
        -11.810104844639142
      ],
      [
        "告",
        -11.810204844639143
      ],
      [
        "叩",
        -11.810304844639143
      ],
      [
        "琴",
        -11.810404844639143
      ],
      [
        "周",
        -11.810504844639143
      ],
      [
        "研",
        -11.810604844639142
      ],
      [
        "ワ",
        -11.810704844639142
      ],
      [
        "壇",
        -11.810804844639142
      ],
      [
        "溢",
        -11.810904844639143
      ],
      [
        "娯",
        -11.811004844639143
      ],
      [
        "臘",
        -11.811104844639143
      ],
      [
        "絡",
        -11.811204844639143
      ],
      [
        "街",
        -11.811304844639142
      ],
      [
        "申",
        -11.811404844639142
      ],
      [
        "描",
        -11.811504844639142
      ],
      [
        "妨",
        -11.811604844639142
      ],
      [
        "誉",
        -11.811704844639143
      ],
      [
        "筑",
        -11.811804844639143
      ],
      [
        "沐",
        -11.811904844639143
      ],
      [
        "俳",
        -11.812004844639143
      ],
      [
        "隷",
        -11.812104844639142
      ],
      [
        "賢",
        -11.812204844639142
      ],
      [
        "鏤",
        -11.812304844639142
      ],
      [
        "双",
        -11.812404844639142
      ],
      [
        "束",
        -11.812504844639143
      ],
      [
        "冶",
        -11.812604844639143
      ],
      [
        "乗",
        -11.812704844639143
      ],
      [
        "導",
        -11.812804844639142
      ],
      [
        "仙",
        -11.812904844639142
      ],
      [
        "禿",
        -11.813004844639142
      ],
      [
        "h",
        -11.813104844639142
      ],
      [
        "宗",
        -11.813204844639143
      ],
      [
        "停",
        -11.813304844639143
      ],
      [
        "就",
        -11.813404844639143
      ],
      [
        "錬",
        -11.813504844639143
      ],
      [
        "懲",
        -11.813604844639142
      ],
      [
        "訴",
        -11.813704844639142
      ],
      [
        "雌",
        -11.813804844639142
      ],
      [
        "盤",
        -11.813904844639142
      ],
      [
        "符",
        -11.814004844639143
      ],
      [
        "唯",
        -11.814104844639143
      ],
      [
        "沸",
        -11.814204844639143
      ],
      [
        "慧",
        -11.814304844639143
      ],
      [
        "侵",
        -11.814404844639142
      ],
      [
        "展",
        -11.814504844639142
      ],
      [
        "懇",
        -11.814604844639142
      ],
      [
        "巫",
        -11.814704844639142
      ],
      [
        "概",
        -11.814804844639143
      ],
      [
        "込",
        -11.814904844639143
      ],
      [
        "最",
        -11.815004844639143
      ],
      [
        "遺",
        -11.815104844639142
      ],
      [
        "棍",
        -11.815204844639142
      ],
      [
        "黒",
        -11.815304844639142
      ],
      [
        "託",
        -11.815404844639142
      ],
      [
        "浪",
        -11.815504844639143
      ],
      [
        "増",
        -11.815604844639143
      ],
      [
        "推",
        -11.815704844639143
      ],
      [
        "毎",
        -11.815804844639143
      ],
      [
        "我",
        -11.815904844639142
      ],
      [
        "療",
        -11.816004844639142
      ],
      [
        "幽",
        -11.816104844639142
      ],
      [
        "捉",
        -11.816204844639142
      ],
      [
        "遭",
        -11.816304844639143
      ],
      [
        "裂",
        -11.816404844639143
      ],
      [
        "獅",
        -11.816504844639143
      ],
      [
        "磔",
        -11.816604844639143
      ],
      [
        "忘",
        -11.816704844639142
      ],
      [
        "妬",
        -11.816804844639142
      ],
      [
        "務",
        -11.816904844639142
      ],
      [
        "巡",
        -11.817004844639142
      ],
      [
        "?",
        -11.817104844639143
      ],
      [
        "潔",
        -11.817204844639143
      ],
      [
        "至",
        -11.817304844639143
      ],
      [
        "莫",
        -11.817404844639142
      ],
      [
        "留",
        -11.817504844639142
      ],
      [
        "省",
        -11.817604844639142
      ],
      [
        "ょ",
        -11.817704844639142
      ],
      [
        "悔",
        -11.817804844639143
      ],
      [
        "剛",
        -11.817904844639143
      ],
      [
        "+",
        -11.818004844639143
      ],
      [
        "獄",
        -11.818104844639143
      ],
      [
        "穣",
        -11.818204844639142
      ],
      [
        "宿",
        -11.818304844639142
      ],
      [
        "洪",
        -11.818404844639142
      ],
      [
        "豊",
        -11.818504844639142
      ],
      [
        "衛",
        -11.818604844639143
      ],
      [
        "沿",
        -11.818704844639143
      ],
      [
        "買",
        -11.818804844639143
      ],
      [
        "影",
        -11.818904844639142
      ],
      [
        "倫",
        -11.819004844639142
      ],
      [
        "支",
        -11.819104844639142
      ],
      [
        "坊",
        -11.819204844639142
      ],
      [
        "廻",
        -11.819304844639143
      ],
      [
        "翌",
        -11.819404844639143
      ],
      [
        "掃",
        -11.819504844639143
      ],
      [
        "押",
        -11.819604844639143
      ],
      [
        "植",
        -11.819704844639142
      ],
      [
        "険",
        -11.819804844639142
      ],
      [
        "侍",
        -11.819904844639142
      ],
      [
        "痕",
        -11.820004844639142
      ],
      [
        ".",
        -11.820104844639143
      ],
      [
        "柘",
        -11.820204844639143
      ],
      [
        "稲",
        -11.820304844639143
      ],
      [
        "般",
        -11.820404844639143
      ],
      [
        "牽",
        -11.820504844639142
      ],
      [
        "途",
        -11.820604844639142
      ],
      [
        "刀",
        -11.820704844639142
      ],
      [
        "誕",
        -11.820804844639142
      ],
      [
        "拉",
        -11.820904844639143
      ],
      [
        "詞",
        -11.821004844639143
      ],
      [
        "拐",
        -11.821104844639143
      ],
      [
        "歓",
        -11.821204844639142
      ],
      [
        "沌",
        -11.821304844639142
      ],
      [
        "譜",
        -11.821404844639142
      ],
      [
        "暦",
        -11.821504844639142
      ],
      [
        "側",
        -11.821604844639143
      ],
      [
        "茂",
        -11.821704844639143
      ],
      [
        "桂",
        -11.821804844639143
      ],
      [
        "北",
        -11.821904844639143
      ],
      [
        "差",
        -11.822004844639142
      ],
      [
        "燃",
        -11.822104844639142
      ],
      [
        "甘",
        -11.822204844639142
      ],
      [
        "ρ",
        -11.822304844639142
      ],
      [
        "焉",
        -11.822404844639143
      ],
      [
        "呼",
        -11.822504844639143
      ],
      [
        "言",
        -11.822604844639143
      ],
      [
        "朗",
        -11.822704844639143
      ],
      [
        "較",
        -11.822804844639142
      ],
      [
        "嫉",
        -11.822904844639142
      ],
      [
        "ォ",
        -11.823004844639142
      ],
      [
        "迷",
        -11.823104844639142
      ],
      [
        "遡",
        -11.823204844639143
      ],
      [
        "頼",
        -11.823304844639143
      ],
      [
        "粋",
        -11.823404844639143
      ],
      [
        "答",
        -11.823504844639142
      ],
      [
        "緯",
        -11.823604844639142
      ],
      [
        "ホ",
        -11.823704844639142
      ],
      [
        "叉",
        -11.823804844639142
      ],
      [
        "惚",
        -11.823904844639143
      ],
      [
        "試",
        -11.824004844639143
      ],
      [
        "個",
        -11.824104844639143
      ],
      [
        "潤",
        -11.824204844639143
      ],
      [
        "乞",
        -11.824304844639142
      ],
      [
        "伸",
        -11.824404844639142
      ],
      [
        "叶",
        -11.824504844639142
      ],
      [
        "枯",
        -11.824604844639142
      ],
      [
        "拭",
        -11.824704844639143
      ],
      [
        "露",
        -11.824804844639143
      ],
      [
        "漠",
        -11.824904844639143
      ],
      [
        "縦",
        -11.825004844639142
      ],
      [
        "騰",
        -11.825104844639142
      ],
      [
        "妙",
        -11.825204844639142
      ],
      [
        "員",
        -11.825304844639142
      ],
      [
        "凄",
        -11.825404844639142
      ],
      [
        "政",
        -11.825504844639143
      ],
      [
        "恭",
        -11.825604844639143
      ],
      [
        "敢",
        -11.825704844639143
      ],
      [
        "越",
        -11.825804844639142
      ],
      [
        "笏",
        -11.825904844639142
      ],
      [
        "乱",
        -11.826004844639142
      ],
      [
        "珍",
        -11.826104844639142
      ],
      [
        "略",
        -11.826204844639143
      ],
      [
        "憂",
        -11.826304844639143
      ],
      [
        "伴",
        -11.826404844639143
      ],
      [
        "朴",
        -11.826504844639143
      ],
      [
        "震",
        -11.826604844639142
      ],
      [
        "勧",
        -11.826704844639142
      ],
      [
        "誠",
        -11.826804844639142
      ],
      [
        "b",
        -11.826904844639142
      ],
      [
        "析",
        -11.827004844639143
      ],
      [
        "遍",
        -11.827104844639143
      ],
      [
        "喜",
        -11.827204844639143
      ],
      [
        "倣",
        -11.827304844639142
      ],
      [
        "炉",
        -11.827404844639142
      ],
      [
        "暗",
        -11.827504844639142
      ],
      [
        "味",
        -11.827604844639142
      ],
      [
        "究",
        -11.827704844639143
      ],
      [
        "征",
        -11.827804844639143
      ],
      [
        "戮",
        -11.827904844639143
      ],
      [
        "過",
        -11.828004844639143
      ],
      [
        "郎",
        -11.828104844639142
      ],
      [
        "講",
        -11.828204844639142
      ],
      [
        "卿",
        -11.828304844639142
      ],
      [
        "剥",
        -11.828404844639142
      ],
      [
        "耕",
        -11.828504844639143
      ],
      [
        "腱",
        -11.828604844639143
      ],
      [
        "抵",
        -11.828704844639143
      ],
      [
        "飲",
        -11.828804844639143
      ],
      [
        "臓",
        -11.828904844639142
      ],
      [
        "仰",
        -11.829004844639142
      ],
      [
        "提",
        -11.829104844639142
      ],
      [
        "聴",
        -11.829204844639142
      ],
      [
        "培",
        -11.829304844639143
      ],
      [
        "投",
        -11.829404844639143
      ],
      [
        "畜",
        -11.829504844639143
      ],
      [
        "宰",
        -11.829604844639142
      ],
      [
        "未",
        -11.829704844639142
      ],
      [
        "夥",
        -11.829804844639142
      ],
      [
        "招",
        -11.829904844639142
      ],
      [
        "抒",
        -11.830004844639143
      ],
      [
        "妊",
        -11.830104844639143
      ],
      [
        "令",
        -11.830204844639143
      ],
      [
        "涯",
        -11.830304844639143
      ],
      [
        "功",
        -11.830404844639142
      ],
      [
        "含",
        -11.830504844639142
      ],
      [
        "授",
        -11.830604844639142
      ],
      [
        "叢",
        -11.830704844639142
      ],
      [
        "攫",
        -11.830804844639143
      ],
      [
        "椅",
        -11.830904844639143
      ],
      [
        "操",
        -11.831004844639143
      ],
      [
        "袋",
        -11.831104844639142
      ],
      [
        "寵",
        -11.831204844639142
      ],
      [
        "讐",
        -11.831304844639142
      ],
      [
        "〈",
        -11.831404844639142
      ],
      [
        "裔",
        -11.831504844639142
      ],
      [
        "侮",
        -11.831604844639143
      ],
      [
        "彷",
        -11.831704844639143
      ],
      [
        "鉢",
        -11.831804844639143
      ],
      [
        "唆",
        -11.831904844639142
      ],
      [
        "郷",
        -11.832004844639142
      ],
      [
        "然",
        -11.832104844639142
      ],
      [
        "喩",
        -11.832204844639142
      ],
      [
        "甲",
        -11.832304844639143
      ],
      [
        "驢",
        -11.832404844639143
      ],
      [
        "臥",
        -11.832504844639143
      ],
      [
        "放",
        -11.832604844639143
      ],
      [
        "畔",
        -11.832704844639142
      ],
      [
        "帥",
        -11.832804844639142
      ],
      [
        "乙",
        -11.832904844639142
      ],
      [
        "受",
        -11.832923554699583
      ],
      [
        "欧",
        -11.833004844639142
      ],
      [
        "払",
        -11.833104844639143
      ],
      [
        "種",
        -11.833204844639143
      ],
      [
        "測",
        -11.833304844639143
      ],
      [
        "咲",
        -11.833404844639142
      ],
      [
        "褥",
        -11.833504844639142
      ],
      [
        "環",
        -11.833604844639142
      ],
      [
        "ツ",
        -11.833704844639142
      ],
      [
        "脈",
        -11.833741800255364
      ],
      [
        "叱",
        -11.833804844639143
      ],
      [
        "繋",
        -11.833904844639143
      ],
      [
        "棒",
        -11.834004844639143
      ],
      [
        "ュ",
        -11.834104844639143
      ],
      [
        "簒",
        -11.834204844639142
      ],
      [
        "哲",
        -11.834304844639142
      ],
      [
        "躍",
        -11.834391172462952
      ],
      [
        "瞭",
        -11.834404844639142
      ],
      [
        "疫",
        -11.834452418862929
      ],
      [
        "饒",
        -11.834504844639142
      ],
      [
        "遣",
        -11.834506613070019
      ],
      [
        "叙",
        -11.834532486493318
      ],
      [
        "傲",
        -11.834535077751267
      ],
      [
        "線",
        -11.83453516021131
      ],
      [
        "B",
        -11.834535160211358
      ],
      [
        "ゾ",
        -11.83453516072801
      ],
      [
        "宙",
        -11.834535161603522
      ],
      [
        "閲",
        -11.834535161873887
      ],
      [
        "廣",
        -11.8345351618739
      ],
      [
        "珠",
        -11.8345351618739
      ],
      [
        "饌",
        -11.8345351618739
      ],
      [
        "溺",
        -11.8345351618739
      ],
      [
        "塗",
        -11.8345351618739
      ],
      [
        "憑",
        -11.834535161873923
      ],
      [
        "染",
        -11.834535161873923
      ],
      [
        "焔",
        -11.834535161873923
      ],
      [
        "淑",
        -11.834535161873923
      ],
      [
        "濁",
        -11.834535161873923
      ],
      [
        "伏",
        -11.834535161873923
      ],
      [
        "紆",
        -11.834535161873923
      ],
      [
        "錐",
        -11.834535161873923
      ],
      [
        "瑚",
        -11.834535161873923
      ],
      [
        "棲",
        -11.834535161873923
      ],
      [
        "淫",
        -11.834535161873923
      ],
      [
        "鼻",
        -11.834535161873923
      ],
      [
        "庁",
        -11.834535161873923
      ],
      [
        "便",
        -11.834535161873923
      ],
      [
        "勘",
        -11.834535161873923
      ],
      [
        "僭",
        -11.834535161873923
      ],
      [
        "胆",
        -11.834535161873923
      ],
      [
        "淡",
        -11.834535161873923
      ],
      [
        "濤",
        -11.834535161873923
      ],
      [
        "遁",
        -11.834535161873923
      ],
      [
        "謬",
        -11.834535161873923
      ],
      [
        "徳",
        -11.834535161873923
      ],
      [
        "枚",
        -11.834535161873923
      ],
      [
        "姪",
        -11.834535161873923
      ],
      [
        "膝",
        -11.834535161873923
      ],
      [
        "脳",
        -11.834535161873923
      ],
      [
        "貨",
        -11.834535161873923
      ],
      [
        "架",
        -11.834535161873923
      ],
      [
        "邪",
        -11.834535161873923
      ],
      [
        "堕",
        -11.834535161873923
      ],
      [
        "猾",
        -11.834535161873923
      ],
      [
        "紛",
        -11.834535161873923
      ],
      [
        "肯",
        -11.834535161873923
      ],
      [
        "緩",
        -11.834535161873923
      ],
      [
        "ḗ",
        -11.834535161873923
      ],
      [
        "雪",
        -11.834535161873923
      ],
      [
        "施",
        -11.834535161873923
      ],
      [
        "鎚",
        -11.834535161873923
      ],
      [
        "筈",
        -11.83453516187397
      ],
      [
        "随",
        -11.83453516187397
      ],
      [
        "ά",
        -11.83453516187397
      ],
      [
        "票",
        -11.83453516187397
      ],
      [
        "酌",
        -11.83453516187397
      ],
      [
        "縮",
        -11.83453516187397
      ],
      [
        "拮",
        -11.83453516187397
      ],
      [
        "埒",
        -11.83453516187397
      ],
      [
        "蒐",
        -11.83453516187397
      ],
      [
        "ω",
        -11.83453516187397
      ],
      [
        "χ",
        -11.83453516187397
      ],
      [
        "抄",
        -11.83453516187397
      ],
      [
        "悶",
        -11.83453516187397
      ],
      [
        "刈",
        -11.83453516187397
      ],
      [
        "陵",
        -11.83453516187397
      ],
      [
        "扮",
        -11.83453516187397
      ],
      [
        "邦",
        -11.83453516187397
      ],
      [
        "虔",
        -11.83453516187397
      ],
      [
        "懐",
        -11.83453516187397
      ],
      [
        "ϊ",
        -11.83453516187397
      ],
      [
        "蔓",
        -11.83453516187397
      ],
      [
        "捏",
        -11.83453516187397
      ],
      [
        "岬",
        -11.83453516187397
      ],
      [
        "喉",
        -11.83453516187397
      ],
      [
        "鍋",
        -11.83453516187397
      ],
      [
        "柄",
        -11.83453516187397
      ],
      [
        "叛",
        -11.83453516187397
      ],
      [
        "喰",
        -11.83453516187397
      ],
      [
        "烏",
        -11.83453516187397
      ],
      [
        "]",
        -11.83453516187397
      ],
      [
        "鍮",
        -11.83453516187397
      ],
      [
        "酸",
        -11.83453516187397
      ],
      [
        "偏",
        -11.83453516187397
      ],
      [
        "旗",
        -11.83453516187397
      ],
      [
        "肪",
        -11.83453516187397
      ],
      [
        "縁",
        -11.83453516187397
      ],
      [
        "曖",
        -11.83453516187397
      ],
      [
        "僧",
        -11.83453516187397
      ],
      [
        "歪",
        -11.83453516187397
      ],
      [
        "[",
        -11.83453516187397
      ],
      [
        "櫂",
        -11.83453516187397
      ],
      [
        "眷",
        -11.834535161874015
      ],
      [
        "糺",
        -11.834535161874063
      ],
      [
        "”",
        -11.834535161874063
      ],
      [
        "“",
        -11.834535161874063
      ],
      [
        "ὰ",
        -11.834535161874063
      ],
      [
        "項",
        -11.834535161874063
      ],
      [
        "Π",
        -11.834535161874063
      ],
      [
        "π",
        -11.834535161874063
      ],
      [
        "湯",
        -11.834535161874063
      ],
      [
        "姦",
        -11.834535161874063
      ],
      [
        "θ",
        -11.834535161874063
      ],
      [
        "慶",
        -11.834535161874063
      ],
      [
        "衡",
        -11.834535161874063
      ],
      [
        "畑",
        -11.834535161874063
      ],
      [
        "幅",
        -11.834535161874063
      ],
      [
        "巣",
        -11.834535161874063
      ],
      [
        "徐",
        -11.834535161874157
      ],
      [
        "咎",
        -11.834535161874157
      ],
      [
        "干",
        -11.834535161874157
      ],
      [
        "ᾰ",
        -11.834535161874157
      ],
      [
        "兼",
        -11.83453516187425
      ],
      [
        "宅",
        -11.83453516187425
      ],
      [
        "靭",
        -11.83453516187425
      ],
      [
        "緊",
        -11.83453516187425
      ],
      [
        "窺",
        -11.83453516187425
      ],
      [
        "丹",
        -11.83453516187425
      ],
      [
        "ῠ",
        -11.83453516187425
      ],
      [
        "餐",
        -11.83453516187425
      ],
      [
        "佳",
        -11.83453516187425
      ],
      [
        "虎",
        -11.834535161874438
      ],
      [
        "豹",
        -11.83453516187453
      ],
      [
        "ί",
        -11.834535161874625
      ],
      [
        "江",
        -11.834535161874625
      ],
      [
        "詐",
        -11.834535161874625
      ],
      [
        "漁",
        -11.834535161874625
      ],
      [
        "猥",
        -11.834535161874625
      ],
      [
        "學",
        -11.834535161875
      ],
      [
        "蜂",
        -11.83453516187612
      ],
      [
        "旨",
        -11.834535161913088
      ],
      [
        "T",
        -11.834535161913276
      ],
      [
        "渾",
        -11.834535161913276
      ],
      [
        "拡",
        -11.834535161913369
      ],
      [
        "膚",
        -11.834535161913463
      ],
      [
        "鏡",
        -11.834535161913463
      ],
      [
        "貪",
        -11.834535161913463
      ],
      [
        "頓",
        -11.834535161913463
      ],
      [
        "藉",
        -11.834535161913557
      ],
      [
        "髄",
        -11.83453516191365
      ],
      [
        "排",
        -11.83453516191365
      ],
      [
        "毬",
        -11.83453516191365
      ],
      [
        "耽",
        -11.83453516191365
      ],
      [
        "逞",
        -11.83453516191365
      ],
      [
        "巌",
        -11.83453516191365
      ],
      [
        "睦",
        -11.83453516191365
      ],
      [
        "塵",
        -11.83453516191365
      ],
      [
        "漕",
        -11.83453516191365
      ],
      [
        "伽",
        -11.83453516191365
      ],
      [
        "蒸",
        -11.83453516191365
      ],
      [
        "燼",
        -11.83453516191365
      ],
      [
        "焦",
        -11.83453516191365
      ],
      [
        "岐",
        -11.83453516191365
      ],
      [
        "噺",
        -11.83453516191365
      ],
      [
        "幕",
        -11.83453516191365
      ],
      [
        "楠",
        -11.83453516191365
      ],
      [
        "酷",
        -11.83453516191365
      ],
      [
        "裕",
        -11.83453516191365
      ],
      [
        "州",
        -11.83453516191365
      ],
      [
        "蔦",
        -11.83453516191365
      ],
      [
        "貫",
        -11.83453516191365
      ],
      [
        "専",
        -11.83453516191365
      ],
      [
        "揃",
        -11.83453516191365
      ],
      [
        "膠",
        -11.83453516191365
      ],
      [
        "嘔",
        -11.83453516191365
      ],
      [
        "垢",
        -11.83453516191365
      ],
      [
        "騒",
        -11.83453516191365
      ],
      [
        "凛",
        -11.834535161913697
      ],
      [
        "戚",
        -11.834535161913697
      ],
      [
        "麻",
        -11.834535161913744
      ],
      [
        "臣",
        -11.834535161913744
      ],
      [
        "靴",
        -11.834535161913744
      ],
      [
        "撤",
        -11.834535161913744
      ],
      [
        "価",
        -11.834535161913744
      ],
      [
        "蝠",
        -11.834535161913744
      ],
      [
        "眩",
        -11.834535161913744
      ],
      [
        "秋",
        -11.834535161913744
      ],
      [
        "沢",
        -11.834535161913744
      ],
      [
        "墟",
        -11.834535161913744
      ],
      [
        "委",
        -11.834535161913744
      ],
      [
        "厄",
        -11.834535161913744
      ],
      [
        "荷",
        -11.834535161913744
      ],
      [
        "軌",
        -11.834535161913744
      ],
      [
        "麦",
        -11.834535161913744
      ],
      [
        "謝",
        -11.834535161913744
      ],
      [
        "蛾",
        -11.834535161913744
      ],
      [
        "ぺ",
        -11.834535161913744
      ],
      [
        "勉",
        -11.834535161913744
      ],
      [
        "晰",
        -11.834535161913744
      ],
      [
        "候",
        -11.834535161913744
      ],
      [
        "艫",
        -11.834535161913744
      ],
      [
        "諭",
        -11.834535161913744
      ],
      [
        "穂",
        -11.834535161913744
      ],
      [
        "髏",
        -11.834535161913744
      ],
      [
        "斉",
        -11.834535161913744
      ],
      [
        "粛",
        -11.834535161913744
      ],
      [
        "婿",
        -11.834535161913744
      ],
      [
        "魃",
        -11.834535161913744
      ],
      [
        "蝙",
        -11.834535161913744
      ],
      [
        "咤",
        -11.834535161913744
      ],
      [
        "湧",
        -11.834535161913744
      ],
      [
        "薫",
        -11.834535161913744
      ],
      [
        "芳",
        -11.834535161913744
      ],
      [
        "聳",
        -11.834535161913744
      ],
      [
        "須",
        -11.834535161913744
      ],
      [
        "熔",
        -11.834535161913744
      ],
      [
        "僅",
        -11.834535161913744
      ],
      [
        "於",
        -11.834535161913744
      ],
      [
        "暫",
        -11.834535161913744
      ],
      [
        "昂",
        -11.834535161913744
      ],
      [
        "腸",
        -11.834535161913744
      ],
      [
        "爾",
        -11.834535161913744
      ],
      [
        "孔",
        -11.834535161913744
      ],
      [
        "費",
        -11.834535161913744
      ],
      [
        "阻",
        -11.834535161913744
      ],
      [
        "且",
        -11.834535161913744
      ],
      [
        "旱",
        -11.834535161913744
      ],
      [
        "甥",
        -11.83453516191379
      ],
      [
        "銛",
        -11.83453516191379
      ],
      [
        "é",
        -11.83453516191379
      ],
      [
        "縊",
        -11.83453516191379
      ],
      [
        "謹",
        -11.83453516191379
      ],
      [
        "娼",
        -11.83453516191379
      ],
      [
        "憤",
        -11.83453516191379
      ],
      [
        "鱗",
        -11.83453516191379
      ],
      [
        "髑",
        -11.83453516191379
      ],
      [
        "奸",
        -11.83453516191379
      ],
      [
        "迸",
        -11.83453516191379
      ],
      [
        "J",
        -11.83453516191379
      ],
      [
        "康",
        -11.83453516191379
      ],
      [
        "久",
        -11.83453516191379
      ],
      [
        "障",
        -11.83453516191379
      ],
      [
        "繡",
        -11.83453516191379
      ],
      [
        "粉",
        -11.83453516191379
      ],
      [
        "瀕",
        -11.83453516191379
      ],
      [
        "螺",
        -11.83453516191379
      ],
      [
        "幻",
        -11.83453516191379
      ],
      [
        "慨",
        -11.83453516191379
      ],
      [
        "Z",
        -11.83453516191379
      ],
      [
        "距",
        -11.83453516191379
      ],
      [
        "慕",
        -11.83453516191379
      ],
      [
        "伍",
        -11.83453516191379
      ],
      [
        "驕",
        -11.83453516191379
      ],
      [
        "郊",
        -11.83453516191379
      ],
      [
        "販",
        -11.83453516191379
      ],
      [
        "蛭",
        -11.83453516191379
      ],
      [
        "ぷ",
        -11.83453516191379
      ],
      [
        "v",
        -11.83453516191379
      ],
      [
        "N",
        -11.83453516191379
      ],
      [
        "耀",
        -11.834535161913813
      ],
      [
        "ヶ",
        -11.834535161913813
      ],
      [
        "慎",
        -11.834535161913813
      ],
      [
        "尋",
        -11.834535161913825
      ],
      [
        "脇",
        -11.834535161913825
      ],
      [
        "履",
        -11.834535161913836
      ],
      [
        "査",
        -11.834535161913836
      ],
      [
        "蹟",
        -11.834535161913836
      ],
      [
        "杜",
        -11.834535161913836
      ],
      [
        "拗",
        -11.834535161913836
      ],
      [
        "沓",
        -11.834535161913836
      ],
      [
        "耳",
        -11.834535161913836
      ],
      [
        "嘲",
        -11.834535161913836
      ],
      [
        "V",
        -11.834535161913836
      ],
      [
        "骸",
        -11.834535161913836
      ],
      [
        "峙",
        -11.834535161913836
      ],
      [
        "電",
        -11.834535161913836
      ],
      [
        "誑",
        -11.834535161913836
      ],
      [
        "凋",
        -11.834535161913836
      ],
      [
        "捷",
        -11.834535161913836
      ],
      [
        "脊",
        -11.834535161913836
      ],
      [
        "穫",
        -11.834535161913836
      ],
      [
        "懸",
        -11.834535161913836
      ],
      [
        "ゅ",
        -11.834535161913836
      ],
      [
        "汎",
        -11.834535161913836
      ],
      [
        "需",
        -11.834535161913836
      ],
      [
        "乏",
        -11.834535161913836
      ],
      [
        "但",
        -11.834535161913836
      ],
      [
        "謎",
        -11.834535161913836
      ],
      [
        "俄",
        -11.834535161913836
      ],
      [
        "併",
        -11.834535161913836
      ],
      [
        "尚",
        -11.834535161913836
      ],
      [
        "浜",
        -11.834535161913836
      ],
      [
        "刎",
        -11.834535161913836
      ],
      [
        "梯",
        -11.834535161913836
      ],
      [
        "舵",
        -11.834535161913836
      ],
      [
        "維",
        -11.834535161913836
      ],
      [
        "笠",
        -11.834535161913836
      ],
      [
        "ἄ",
        -11.834535161913836
      ],
      [
        "珊",
        -11.834535161913836
      ],
      [
        "索",
        -11.834535161913836
      ],
      [
        "睾",
        -11.834535161913836
      ],
      [
        "齎",
        -11.834535161913836
      ],
      [
        "洛",
        -11.834535161913836
      ],
      [
        "篤",
        -11.834535161913836
      ],
      [
        "禍",
        -11.834535161913836
      ],
      [
        "狐",
        -11.834535161913836
      ],
      [
        "梅",
        -11.834535161913836
      ],
      [
        "戒",
        -11.834535161913836
      ],
      [
        "舌",
        -11.834535161913836
      ],
      [
        "渇",
        -11.834535161913836
      ],
      [
        "緑",
        -11.834535161913836
      ],
      [
        "歯",
        -11.834535161913836
      ],
      [
        "括",
        -11.834535161913836
      ],
      [
        "薪",
        -11.834535161913836
      ],
      [
        "虫",
        -11.834535161913836
      ],
      [
        "鶴",
        -11.834535161913836
      ],
      [
        "云",
        -11.834535161913836
      ],
      [
        "怨",
        -11.834535161913836
      ],
      [
        "惰",
        -11.834535161913836
      ],
      [
        "擁",
        -11.834535161913836
      ],
      [
        "沖",
        -11.834535161913836
      ],
      [
        "充",
        -11.834535161913836
      ],
      [
        "舟",
        -11.834535161913836
      ],
      [
        "丁",
        -11.834535161913836
      ],
      [
        "湾",
        -11.834535161913836
      ],
      [
        "氏",
        -11.834535161913836
      ],
      [
        "澱",
        -11.834535161913836
      ],
      [
        "噂",
        -11.834535161913836
      ],
      [
        "伯",
        -11.834535161913836
      ],
      [
        "姑",
        -11.834535161913836
      ],
      [
        "鵞",
        -11.834535161913836
      ],
      [
        "釜",
        -11.834535161913836
      ],
      [
        "艶",
        -11.834535161913836
      ],
      [
        "喚",
        -11.834535161913836
      ],
      [
        "迅",
        -11.834535161913836
      ],
      [
        "清",
        -11.834535161913836
      ],
      [
        "兎",
        -11.834535161913836
      ],
      [
        "妖",
        -11.834535161913836
      ],
      [
        "締",
        -11.834535161913836
      ],
      [
        "怯",
        -11.834535161913836
      ],
      [
        "昏",
        -11.834535161913836
      ],
      [
        "亘",
        -11.834535161913836
      ],
      [
        "傑",
        -11.834535161913836
      ],
      [
        "頬",
        -11.834535161913836
      ],
      [
        "箙",
        -11.834535161913836
      ],
      [
        "嚆",
        -11.834535161913836
      ],
      [
        "銘",
        -11.834535161913836
      ],
      [
        "核",
        -11.834535161913836
      ],
      [
        "拷",
        -11.834535161913836
      ],
      [
        "覗",
        -11.834535161913836
      ],
      [
        "*",
        -11.834535161913836
      ],
      [
        "櫚",
        -11.834535161913836
      ],
      [
        "嗜",
        -11.834535161913836
      ],
      [
        "斜",
        -11.834535161913836
      ],
      [
        "喫",
        -11.834535161913836
      ],
      [
        "辣",
        -11.834535161913836
      ],
      [
        "灼",
        -11.834535161913836
      ],
      [
        "摩",
        -11.834535161913836
      ],
      [
        "則",
        -11.834535161913836
      ],
      [
        "蜜",
        -11.834535161913836
      ],
      [
        "蝉",
        -11.834535161913836
      ],
      [
        "慾",
        -11.834535161913836
      ],
      [
        "悉",
        -11.834535161913836
      ],
      [
        "羨",
        -11.834535161913836
      ],
      [
        "胴",
        -11.834535161913836
      ],
      [
        "賤",
        -11.834535161913836
      ],
      [
        "俺",
        -11.834535161913836
      ],
      [
        "w",
        -11.834535161913836
      ],
      [
        "尻",
        -11.834535161913836
      ],
      [
        "堆",
        -11.834535161913836
      ],
      [
        "彙",
        -11.834535161913836
      ],
      [
        "辻",
        -11.834535161913836
      ],
      [
        "簿",
        -11.834535161913836
      ],
      [
        "燭",
        -11.834535161913836
      ],
      [
        "帆",
        -11.834535161913836
      ],
      [
        "倍",
        -11.834535161913836
      ],
      [
        "鍵",
        -11.834535161913836
      ],
      [
        "蠅",
        -11.834535161913836
      ],
      [
        "昧",
        -11.834535161913836
      ],
      [
        "汝",
        -11.834535161913836
      ],
      [
        "蹄",
        -11.834535161913836
      ],
      [
        "鉦",
        -11.834535161913836
      ],
      [
        "讒",
        -11.834535161913836
      ],
      [
        "匿",
        -11.834535161913836
      ],
      [
        "棕",
        -11.834535161913836
      ],
      [
        "娩",
        -11.834535161913836
      ],
      [
        "惜",
        -11.834535161913836
      ],
      [
        "衰",
        -11.834535161913836
      ],
      [
        "室",
        -11.834535161913836
      ],
      [
        "斯",
        -11.834535161913836
      ],
      [
        "鼓",
        -11.834535161913836
      ],
      [
        "燕",
        -11.834535161913836
      ],
      [
        "融",
        -11.834535161913836
      ],
      [
        "頻",
        -11.834535161913836
      ],
      [
        "寛",
        -11.834535161913836
      ],
      [
        "鈴",
        -11.834535161913836
      ],
      [
        "嘉",
        -11.834535161913836
      ],
      [
        "撒",
        -11.834535161913836
      ],
      [
        "斥",
        -11.834535161913836
      ],
      [
        "辛",
        -11.834535161913836
      ],
      [
        "梨",
        -11.834535161913836
      ],
      [
        "G",
        -11.834535161913836
      ],
      [
        "旦",
        -11.834535161913836
      ],
      [
        "諦",
        -11.834535161913836
      ],
      [
        "綻",
        -11.834535161913836
      ],
      [
        "è",
        -11.834535161913836
      ],
      [
        "柳",
        -11.834535161913836
      ],
      [
        "促",
        -11.834535161913836
      ],
      [
        "賠",
        -11.834535161913836
      ],
      [
        "伊",
        -11.834604844639143
      ],
      [
        "逸",
        -11.834704844639143
      ],
      [
        "横",
        -11.834804844639143
      ],
      [
        "庶",
        -11.834904844639142
      ],
      [
        "穏",
        -11.835004844639142
      ],
      [
        "揮",
        -11.835104844639142
      ],
      [
        "壯",
        -11.835204844639142
      ],
      [
        "〉",
        -11.835304844639142
      ],
      [
        "罌",
        -11.835404844639143
      ],
      [
        "届",
        -11.835504844639143
      ],
      [
        "痛",
        -11.835604844639143
      ],
      [
        "警",
        -11.835704844639142
      ],
      [
        "→",
        -11.835704844639142
      ]
    ],
    "byte_fallback": false
  }
}