{
  "version": "1.0",
  "truncation": null,
  "padding": null,
  "added_tokens": [
    {
      "id": 0,
      "content": "<pad>",
      "single_word": false,
      "lstrip": false,
      "rstrip": false,
      "normalized": false,
      "special": true
    },
    {
      "id": 1,
      "content": "<eod>",
      "single_word": false,
      "lstrip": false,
      "rstrip": false,
      "normalized": false,
      "special": true
    },
    {
      "id": 2,
      "content": "<system>",
      "single_word": false,
      "lstrip": false,
      "rstrip": false,
      "normalized": false,
      "special": true
    },
    {
      "id": 3,
      "content": "<assistant>",
      "single_word": false,
      "lstrip": false,
      "rstrip": false,
      "normalized": false,
      "special": true
    },
    {
      "id": 4,
      "content": "<user>",
      "single_word": false,
      "lstrip": false,
      "rstrip": false,
      "normalized": false,
      "special": true
    }
  ],
  "normalizer": {
    "type": "NFKC"
  },
  "pre_tokenizer": {
    "type": "ByteLevel",
    "add_prefix_space": false,
    "trim_offsets": true,
    "use_regex": true
  },
  "post_processor": null,
  "decoder": null,
  "model": {
    "type": "BPE",
    "dropout": null,
    "unk_token": null,
    "continuing_subword_prefix": null,
    "end_of_word_suffix": null,
    "fuse_unk": false,
    "byte_fallback": false,
    "ignore_merges": false,
    "vocab": {
      "<pad>": 0,
      "<eod>": 1,
      "<system>": 2,
      "<assistant>": 3,
      "<user>": 4,
      "!": 5,
      "\"": 6,
      "#": 7,
      "$": 8,
      "%": 9,
      "&": 10,
      "'": 11,
      "(": 12,
      ")": 13,
      "*": 14,
      "+": 15,
      ",": 16,
      "-": 17,
      ".": 18,
      "/": 19,
      "0": 20,
      "1": 21,
      "2": 22,
      "3": 23,
      "4": 24,
      "5": 25,
      "6": 26,
      "7": 27,
      "8": 28,
      "9": 29,
      ":": 30,
      ";": 31,
      "<": 32,
      "=": 33,
      ">": 34,
      "?": 35,
      "@": 36,
      "A": 37,
      "B": 38,
      "C": 39,
      "D": 40,
      "E": 41,
      "F": 42,
      "G": 43,
      "H": 44,
      "I": 45,
      "J": 46,
      "K": 47,
      "L": 48,
      "M": 49,
      "N": 50,
      "O": 51,
      "P": 52,
      "Q": 53,
      "R": 54,
      "S": 55,
      "T": 56,
      "U": 57,
      "V": 58,
      "W": 59,
      "X": 60,
      "Y": 61,
      "Z": 62,
      "[": 63,
      "\\": 64,
      "]": 65,
      "^": 66,
      "_": 67,
      "`": 68,
      "a": 69,
      "b": 70,
      "c": 71,
      "d": 72,
      "e": 73,
      "f": 74,
      "g": 75,
      "h": 76,
      "i": 77,
      "j": 78,
      "k": 79,
      "l": 80,
      "m": 81,
      "n": 82,
      "o": 83,
      "p": 84,
      "q": 85,
      "r": 86,
      "s": 87,
      "t": 88,
      "u": 89,
      "v": 90,
      "w": 91,
      "x": 92,
      "y": 93,
      "z": 94,
      "{": 95,
      "|": 96,
      "}": 97,
      "~": 98,
      "¡": 99,
      "¢": 100,
      "£": 101,
      "¤": 102,
      "¥": 103,
      "¦": 104,
      "§": 105,
      "¨": 106,
      "©": 107,
      "ª": 108,
      "«": 109,
      "¬": 110,
      "®": 111,
      "¯": 112,
      "°": 113,
      "±": 114,
      "²": 115,
      "³": 116,
      "´": 117,
      "µ": 118,
      "¶": 119,
      "·": 120,
      "¸": 121,
      "¹": 122,
      "º": 123,
      "»": 124,
      "¼": 125,
      "½": 126,
      "¾": 127,
      "¿": 128,
      "À": 129,
      "Á": 130,
      "Â": 131,
      "Ã": 132,
      "Ä": 133,
      "Å": 134,
      "Æ": 135,
      "Ç": 136,
      "È": 137,
      "É": 138,
      "Ê": 139,
      "Ë": 140,
      "Ì": 141,
      "Í": 142,
      "Î": 143,
      "Ï": 144,
      "Ð": 145,
      "Ñ": 146,
      "Ò": 147,
      "Ó": 148,
      "Ô": 149,
      "Õ": 150,
      "Ö": 151,
      "×": 152,
      "Ø": 153,
      "Ù": 154,
      "Ú": 155,
      "Û": 156,
      "Ü": 157,
      "Ý": 158,
      "Þ": 159,
      "ß": 160,
      "à": 161,
      "á": 162,
      "â": 163,
      "ã": 164,
      "ä": 165,
      "å": 166,
      "æ": 167,
      "ç": 168,
      "è": 169,
      "é": 170,
      "ê": 171,
      "ë": 172,
      "ì": 173,
      "í": 174,
      "î": 175,
      "ï": 176,
      "ð": 177,
      "ñ": 178,
      "ò": 179,
      "ó": 180,
      "ô": 181,
      "õ": 182,
      "ö": 183,
      "÷": 184,
      "ø": 185,
      "ù": 186,
      "ú": 187,
      "û": 188,
      "ü": 189,
      "ý": 190,
      "þ": 191,
      "ÿ": 192,
      "Ā": 193,
      "ā": 194,
      "Ă": 195,
      "ă": 196,
      "Ą": 197,
      "ą": 198,
      "Ć": 199,
      "ć": 200,
      "Ĉ": 201,
      "ĉ": 202,
      "Ċ": 203,
      "ċ": 204,
      "Č": 205,
      "č": 206,
      "Ď": 207,
      "ď": 208,
      "Đ": 209,
      "đ": 210,
      "Ē": 211,
      "ē": 212,
      "Ĕ": 213,
      "ĕ": 214,
      "Ė": 215,
      "ė": 216,
      "Ę": 217,
      "ę": 218,
      "Ě": 219,
      "ě": 220,
      "Ĝ": 221,
      "ĝ": 222,
      "Ğ": 223,
      "ğ": 224,
      "Ġ": 225,
      "ġ": 226,
      "Ģ": 227,
      "ģ": 228,
      "Ĥ": 229,
      "ĥ": 230,
      "Ħ": 231,
      "ħ": 232,
      "Ĩ": 233,
      "ĩ": 234,
      "Ī": 235,
      "ī": 236,
      "Ĭ": 237,
      "ĭ": 238,
      "Į": 239,
      "į": 240,
      "İ": 241,
      "ı": 242,
      "Ĳ": 243,
      "ĳ": 244,
      "Ĵ": 245,
      "ĵ": 246,
      "Ķ": 247,
      "ķ": 248,
      "ĸ": 249,
      "Ĺ": 250,
      "ĺ": 251,
      "Ļ": 252,
      "ļ": 253,
      "Ľ": 254,
      "ľ": 255,
      "Ŀ": 256,
      "ŀ": 257,
      "Ł": 258,
      "ł": 259,
      "Ń": 260,
      "ãģ": 261,
      "ãĤ": 262,
      "ãĥ": 263,
      "ãĢ": 264,
      "ãģ®": 265,
      "ãĢģ": 266,
      "ãģĦ": 267,
      "ãģ§": 268,
      "ãģĹ": 269,
      "ãģ«": 270,
      "ãģĻ": 271,
      "ãĥ¼": 272,
      "ãĢĤ": 273,
      "ãģ¨": 274,
      "ãģ¦": 275,
      "ãģª": 276,
      "ãĤĭ": 277,
      "ãģŁ": 278,
      "ãĤĴ": 279,
      "ãģ¾": 280,
      "ãģĮ": 281,
      "ãģ¯": 282,
      "ãĥ³": 283,
      "ãģĭ": 284,
      "ãĤĤ": 285,
      "ãĥĪ": 286,
      "ãĤĮ": 287,
      "ãģĨ": 288,
      "ãĤĬ": 289,
      "ãĤ¹": 290,
      "ãģ£": 291,
      "ä¸": 292,
      "ãĤī": 293,
      "ãĢĮ": 294,
      "ãĢį": 295,
      "ãģ§ãģĻ": 296,
      "äº": 297,
      "ãģĵ": 298,
      "ãĥ«": 299,
      "ãĤĵ": 300,
      "ãĤ¤": 301,
      "ãģ¦ãģĦ": 302,
      "ãģĹãģŁ": 303,
      "ãĥĥ": 304,
      "ä»": 305,
      "ãģķ": 306,
      "ãģ¾ãģĻ": 307,
      "ãģı": 308,
      "ãģį": 309,
      "æľ": 310,
      "çĶ": 311,
      "ãģĤ": 312,
      "ãĥ¼ãĥ": 313,
      "ãģĪ": 314,
      "ä½": 315,
      "å¤": 316,
      "ãĥª": 317,
      "ãģ©": 318,
      "ãĤ¢": 319,
      "ãĥ¼ãĤ": 320,
      "ãģĿ": 321,
      "ãĥ©": 322,
      "åħ": 323,
      "åĪ": 324,
      "ãĤĪ": 325,
      "å®": 326,
      "äºº": 327,
      "åı": 328,
      "åĲ": 329,
      "ãĥķ": 330,
      "è¦": 331,
      "ãĤģ": 332,
      "ãģĹãģ¦": 333,
      "ãĤ¯": 334,
      "ãĤĦ": 335,
      "ãģĳ": 336,
      "ãģł": 337,
      "éĸ": 338,
      "ãĤĴæ": 339,
      "ãģ¾ãģĹãģŁ": 340,
      "æĸ": 341,
      "ãĥĹ": 342,
      "ãĤ¿": 343,
      "ãģĻãĤĭ": 344,
      "æĹ": 345,
      "çµ": 346,
      "ãģªãģĦ": 347,
      "æĢ": 348,
      "ãģĭãĤī": 349,
      "ãģĵãģ¨": 350,
      "ãģ¨ãģĦ": 351,
      "ä¼": 352,
      "å¹": 353,
      "ãģĬ": 354,
      "ãĥĩ": 355,
      "ãģ®å": 356,
      "ãĥ¼ãĥĪ": 357,
      "ãģ¦ãģĦãĤĭ": 358,
      "ãģ£ãģŁ": 359,
      "ãĤ·": 360,
      "ãģ£ãģ¦": 361,
      "è¨": 362,
      "ãĥ³ãĥ": 363,
      "**": 364,
      "ãĥ»": 365,
      "ãĤ¹ãĥ": 366,
      "æ°": 367,
      "ãģ¤": 368,
      "è»": 369,
      "çĽ": 370,
      "å¹´": 371,
      "ãģ¨ãģĦãģĨ": 372,
      "ãĥ¬": 373,
      "ãģĽ": 374,
      "éĢ": 375,
      "æĹ¥": 376,
      "åĽ": 377,
      "èģ": 378,
      "ãģ¡": 379,
      "ãģ®æ": 380,
      "ãģ§ãģ¯": 381,
      "åŃ": 382,
      "åł": 383,
      "ãĤı": 384,
      "ãģ¿": 385,
      "èĩ": 386,
      "ãģķãĤĮ": 387,
      "ãĤ³": 388,
      "åĬ": 389,
      "ãĤ¸": 390,
      "è¡": 391,
      "æ¥": 392,
      "éģ": 393,
      "ãĥķãĤ": 394,
      "ãĥĥãĥĪ": 395,
      "äºĭ": 396,
      "åĨ": 397,
      "å½": 398,
      "èĩª": 399,
      "åº": 400,
      "èª": 401,
      "ãģ¦ãģĦãģ¾ãģĻ": 402,
      "æĦ": 403,
      "ãĤ«": 404,
      "ç¤": 405,
      "åĭ": 406,
      "ãĤµ": 407,
      "èĢ": 408,
      "èģ·": 409,
      "å¤§": 410,
      "ä¸Ģ": 411,
      "å¿": 412,
      "ãĤ¤ãĥ": 413,
      "çļ": 414,
      "æī": 415,
      "ãĤĪãģĨ": 416,
      "ãĤ°": 417,
      "ç¤¾": 418,
      "00": 419,
      "ĻĤ": 420,
      "ç´": 421,
      "ãģ§ãģį": 422,
      "çĻ": 423,
      "ãĥ£": 424,
      "è¦ĭ": 425,
      "åĪĨ": 426,
      "ä¸Ĭ": 427,
      "ãģ®ãĥ": 428,
      "ä¼ļ": 429,
      "å¾": 430,
      "æĿ": 431,
      "éĩ": 432,
      "æľ¬": 433,
      "çļĦ": 434,
      "ãģ«ãģª": 435,
      "ãģķãĤĵ": 436,
      "ãģŃ": 437,
      "ãĥŃ": 438,
      "ãģ°": 439,
      "ä»Ĭ": 440,
      "å°": 441,
      "çĽ®": 442,
      "éĽ": 443,
      "ãĥ§": 444,
      "ãģĤãĤĬ": 445,
      "æ°Ĺ": 446,
      "ãģĪãĤĭ": 447,
      "ãĤ£": 448,
      "çķ": 449,
      "ãĢİ": 450,
      "ãĢı": 451,
      "åĩ": 452,
      "æĢ§": 453,
      "ãĤĵãģª": 454,
      "å¼": 455,
      "ãĥĩãĥ¼ãĥĪ": 456,
      "çĶ¨": 457,
      "æ¥Ń": 458,
      "ä»ķ": 459,
      "ãĤŃ": 460,
      "ãĥĨ": 461,
      "ãģªãģ©": 462,
      "åĩº": 463,
      "æĢĿ": 464,
      "ãģ«ãĤĤ": 465,
      "ãģĤãĤĭ": 466,
      "æĥ": 467,
      "ãĢģãĢĮ": 468,
      "éĸĵ": 469,
      "æĻĤ": 470,
      "ä¾": 471,
      "å¥": 472,
      "ãĥĸ": 473,
      "è»¢": 474,
      "ãĤ¨": 475,
      "ãģĺ": 476,
      "ãĥĲ": 477,
      "ä½¿": 478,
      "å¸": 479,
      "åľ": 480,
      "è©": 481,
      "ãĥī": 482,
      "ãģ«ãģ¯": 483,
      "ä»ķäºĭ": 484,
      "çµĲ": 485,
      "ãĥŀ": 486,
      "ãĥĥãĥĹ": 487,
      "ãĥ¥": 488,
      "ä¸Ń": 489,
      "è«": 490,
      "ãĥģ": 491,
      "æĸ¹": 492,
      "çī": 493,
      "ãĥ¼ãĥ«": 494,
      "ãĥ³ãĥĪ": 495,
      "åŃĲ": 496,
      "ãĤīãĤĮ": 497,
      "è»¢èģ·": 498,
      "ãĤĴç": 499,
      "ãģĹãĤ": 500,
      "åħ¥": 501,
      "åĵ": 502,
      "å¯": 503,
      "æĪ": 504,
      "ãģ§ãĤĤ": 505,
      "åĲĪ": 506,
      "åł´": 507,
      "è¡Į": 508,
      "åĽŀ": 509,
      "å®Ł": 510,
      "ãĥĵ": 511,
      "ãģ¾ãģĽ": 512,
      "åĭķ": 513,
      "è¨Ģ": 514,
      "ãĥ¡": 515,
      "ãģŁãĤģ": 516,
      "ãĤ¹ãĥĿ": 517,
      "é«": 518,
      "ãģ©ãĤĵãģª": 519,
      "ãģ¾ãģĽãĤĵ": 520,
      "éĸĭ": 521,
      "ãģļ": 522,
      "åĬĽ": 523,
      "æķ": 524,
      "ãĤ¦": 525,
      "ãĥĳ": 526,
      "çĻº": 527,
      "æĦŁ": 528,
      "æĮ": 529,
      "è¿": 530,
      "åī": 531,
      "ç«": 532,
      ":**": 533,
      "ãĤĤãģ®": 534,
      "çĶŁ": 535,
      "ĩãģĨ": 536,
      "åł±": 537,
      "æīĭ": 538,
      "é«ĺ": 539,
      "æĸ°": 540,
      "å±": 541,
      "è³": 542,
      "ãĤª": 543,
      "ãģ¨ãģĹãģ¦": 544,
      "èĢĥ": 545,
      "åį": 546,
      "ãģ§ãģįãĤĭ": 547,
      "ä¿": 548,
      "è²": 549,
      "è»Ĭ": 550,
      "ãģĹãĤĩãģĨ": 551,
      "ç§": 552,
      "ãĥį": 553,
      "ãģĹãģ¦ãģĦãĤĭ": 554,
      "æĥħ": 555,
      "æľĢ": 556,
      "æĺ": 557,
      "éĿ": 558,
      "ãĤ»": 559,
      "ãĥŁ": 560,
      "åıİ": 561,
      "çı": 562,
      "ä½ľ": 563,
      "è«ĸ": 564,
      "ãĤ´": 565,
      "ãģĿãģ®": 566,
      "åĨĨ": 567,
      "éĥ": 568,
      "ãĥ§ãĥ³": 569,
      "ãĤ¹ãĥĿãĥĥãĥĪ": 570,
      "åĳ": 571,
      "ãģĹãģĦ": 572,
      "ãģ¾ãģ§": 573,
      "ãĤ¤ãĥ³": 574,
      "ãĢħ": 575,
      "ãģ§ãģĹãĤĩãģĨ": 576,
      "ãĤ¹ãĤ¿": 577,
      "ãĥĥãĤ¯": 578,
      "å½ĵ": 579,
      "..": 580,
      "âĢ": 581,
      "çĶ·": 582,
      "ãģ«æ": 583,
      "ãĤ¹ãĥĪ": 584,
      "èĢħ": 585,
      "ãģĦãģ¦": 586,
      "çı¾": 587,
      "ãĥł": 588,
      "ä»£": 589,
      "æĥħåł±": 590,
      "ãģĹãģ¾ãģĻ": 591,
      "ãģ¨æĢĿ": 592,
      "åĽ½": 593,
      "èĩªåĪĨ": 594,
      "çµĲè«ĸ": 595,
      "åĢ": 596,
      "ãģĹãģ¾ãģĹãģŁ": 597,
      "å¯¾": 598,
      "ãĥĩãĥ¼ãĥĪãĤ¹ãĥĿãĥĥãĥĪ": 599,
      "è©±": 600,
      "ãĥ¼ãĤ¸": 601,
      "æ´": 602,
      "éł": 603,
      "ãĤ§": 604,
      "ãĥ³ãĤ°": 605,
      "ãĥĩãĥ¼ãĥĪãĤ¹ãĥĿãĥĥãĥĪãģ§ãģĻ": 606,
      "èº": 607,
      "Ġãģ©ãĤĵãģª": 608,
      "çµĮ": 609,
      "æ§": 610,
      "é¡": 611,
      "ãĤį": 612,
      "ãģĿãģĨ": 613,
      "å¹´åıİ": 614,
      "ä¸ĸ": 615,
      "æľĪ": 616,
      "éļ": 617,
      "ä¸ĩ": 618,
      "ãĥ³ãĥī": 619,
      "ãĥķãĤ¡": 620,
      "å¥³": 621,
      "çĲ": 622,
      "èĥ": 623,
      "ãĥĿ": 624,
      "ãģ®ãģ¯": 625,
      "ä½ĵ": 626,
      "è¦ģ": 627,
      "ãĤ´ãĥ«": 628,
      "æ±": 629,
      "çķĮ": 630,
      "ãĥĭ": 631,
      "ãĤĪãĤĬ": 632,
      "å£": 633,
      "æŀ": 634,
      "ãģĿãĤĮ": 635,
      "èī": 636,
      "éķ": 637,
      "ãģĴ": 638,
      "ãĤ±": 639,
      "ãģĵãĤĮ": 640,
      "åħ¨": 641,
      "åĲĮ": 642,
      "ãģłãģĳ": 643,
      "éķ·": 644,
      "æµ": 645,
      "æŃ": 646,
      "é¨": 647,
      "å¤ļ": 648,
      "ãĥı": 649,
      "ä½ķ": 650,
      "æ°ı": 651,
      "éĢļ": 652,
      "æĦı": 653,
      "æ³": 654,
      "ãģĵãģ®": 655,
      "ãģĵãģ¨ãģĮ": 656,
      "åĸ": 657,
      "ãģĹãģ¦ãģĦãģ¾ãģĻ": 658,
      "ãĤ¤ãĥĪ": 659,
      "æ§ĺ": 660,
      "æĹ¥æľ¬": 661,
      "éĩĳ": 662,
      "çĲĨ": 663,
      "ãģĶ": 664,
      "æĬ": 665,
      "ãĤĵãģ§ãģĻ": 666,
      "éĸ¢": 667,
      "ãĥĨãĤ£": 668,
      "ãĤĭãģ¨": 669,
      "ãģŁãģĦ": 670,
      "ä»¥": 671,
      "å®ļ": 672,
      "åĥ": 673,
      "ç·": 674,
      "ãģªãģı": 675,
      "ãģ£ãģ¦ãģĦãĤĭ": 676,
      "ãĥ¼ãĥī": 677,
      "åĨħ": 678,
      "æĪĲ": 679,
      "åĮ": 680,
      "çĤ": 681,
      "èĢĥãģĪ": 682,
      "åĲĳ": 683,
      "ä¼ļç¤¾": 684,
      "ç«ĭ": 685,
      "èĥ½": 686,
      "é¨ĵ": 687,
      "åķ": 688,
      "çĦ": 689,
      "ãĥ¢": 690,
      "åĪ©": 691,
      "çŁ": 692,
      "ãģ»": 693,
      "ãģĦãģ¾ãģĻ": 694,
      "ãģ§ãģĹãģŁ": 695,
      "ãĤĮãĤĭ": 696,
      "ãĤĮãģ°": 697,
      "ãĤ³ãĥ³": 698,
      "å¸¸": 699,
      "ãģ¹": 700,
      "å¤ĸ": 701,
      "åĵģ": 702,
      "åīį": 703,
      "æ´»": 704,
      "ãģ®ãģĭ": 705,
      "ãģĤãĤĬãģ¾ãģĻ": 706,
      "åĤ": 707,
      "ãĤ½": 708,
      "ãģ®ãģ§": 709,
      "ä¼ģ": 710,
      "ãĤĪãģĨãģª": 711,
      "ãģ¨ãģª": 712,
      "éĻ": 713,
      "åıĸ": 714,
      "çī¹": 715,
      "éĥ¨": 716,
      "?ãĢį": 717,
      "ãģ§ãģĹãĤĩãģĨãģĭ": 718,
      "ç¨": 719,
      "è¶": 720,
      "ãĥ¼ãĤ·": 721,
      "ãĥĲãĤ¤": 722,
      "ãģĹãģĭ": 723,
      "åº¦": 724,
      "çĤ¹": 725,
      "å¢": 726,
      "æİ": 727,
      "è¾": 728,
      "èŃ": 729,
      "ãģĹãģ¾": 730,
      "ãģ£ãģ¦ãģĦ": 731,
      "ãĥĹãĥŃ": 732,
      "èº«": 733,
      "ç©": 734,
      "ãģĹãģ¦ãģĦ": 735,
      "ãĥ¼ãĥł": 736,
      "ãĥ¼ãĤ¿": 737,
      "åĲį": 738,
      "ãĤĴæĮ": 739,
      "åŃ¦": 740,
      "åľ¨": 741,
      "20": 742,
      "oo": 743,
      "å·": 744,
      "çŃ": 745,
      "è£": 746,
      "ãģ§ãģĻãģĮ": 747,
      "ãĥķãĤ©": 748,
      "å¿ĥ": 749,
      "çļĦãģª": 750,
      "ãĤŃãĥ£": 751,
      "ä½¿ãģĪãĤĭ": 752,
      "æł": 753,
      "çĶ»": 754,
      "©Ł": 755,
      "é£": 756,
      "éĿ¢": 757,
      "èĭ": 758,
      "ãģ®ãĥĩãĥ¼ãĥĪãĤ¹ãĥĿãĥĥãĥĪãģ§ãģĻ": 759,
      "ãĥªãĤ¢": 760,
      "ãĥ¼ãĤ¹": 761,
      "ãĤĬãģ¾ãģĹãģŁ": 762,
      "ãĤº": 763,
      "åĬł": 764,
      "åºĹ": 765,
      "æĿ¥": 766,
      "ä»ĬåĽŀ": 767,
      "éĽ»": 768,
      "ãĤ´ãĥ«ãĥķ": 769,
      "åĸ¶": 770,
      "å§": 771,
      "èĤ": 772,
      "ãģŁãģ¡": 773,
      "å¾Į": 774,
      "ãģ«ãĤĤä½¿ãģĪãĤĭ": 775,
      "è¨ĺ": 776,
      "ãĥĩãĥ¼ãĥĪãģ«ãĤĤä½¿ãģĪãĤĭ": 777,
      "åĵ¡": 778,
      "æķ°": 779,
      "ä¿¡": 780,
      "ãģ³": 781,
      "ãģ¸": 782,
      "ãĤ¬": 783,
      "ãģĻãģĻ": 784,
      "èªŀ": 785,
      "ä¸ĸçķĮ": 786,
      "ãģĻãģĻãĤģ": 787,
      "æ¬": 788,
      "ãĥ¯": 789,
      "ãģĬãģĻãģĻãĤģ": 790,
      "ãĤµãĤ¤ãĥĪ": 791,
      "ç§ģ": 792,
      "èī¯": 793,
      "åĮĸ": 794,
      "çŁ¥": 795,
      "¶ãĥ¼": 796,
      "åİ": 797,
      "æ©Ł": 798,
      "èĪ": 799,
      "ãĢĤãĢĮ": 800,
      "ãĥĹãĥ¬": 801,
      "éĢ£": 802,
      "éļĽ": 803,
      "æĽ": 804,
      "ãģ®ç": 805,
      "ãģĭãģ£ãģŁ": 806,
      "ãģĳãĤĭ": 807,
      "éģ¸": 808,
      "ä¾¡": 809,
      "å£²": 810,
      "ãĤĴè¦ĭ": 811,
      "ãĤĬãģ¾ãģĻ": 812,
      "å¼·": 813,
      "åľ°": 814,
      "ãĤīãĤĮãĤĭ": 815,
      "ãĥĽ": 816,
      "ãĥ¼ãĥ³": 817,
      "ãĤĪãģĨãģ«": 818,
      "å°ı": 819,
      "ç¶": 820,
      "ãĥĬ": 821,
      "ãĥİ": 822,
      "ãĥĻ": 823,
      "ãģ¾ãģŁ": 824,
      "ä¸ĭ": 825,
      "åħ¬": 826,
      "åħĪ": 827,
      "çĶ·æĢ§": 828,
      "èŃĺ": 829,
      "ãĤĮãģŁ": 830,
      "ãĤ·ãĥ§": 831,
      "ãĥĸãĥ©": 832,
      "ä¸ĩåĨĨ": 833,
      "ãĥ¦": 834,
      "äººæ°Ĺ": 835,
      "ãĤ·ãĥ£": 836,
      "ãĤ¹ãĥŀ": 837,
      "æı": 838,
      "ãģĦãģŁ": 839,
      "ãģĭãģª": 840,
      "ãĥ¼ãĤ¶ãĥ¼": 841,
      "ãĤ·ãĥ§ãĥ³": 842,
      "æĮģ": 843,
      "æŀľ": 844,
      "æ¨": 845,
      "èĳ": 846,
      "ĿĢ": 847,
      "çµĦ": 848,
      "å¿ħ": 849,
      "éĽĨ": 850,
      "åĳ³": 851,
      "ãĤĴæĮģ": 852,
      "æ¸": 853,
      "ãĤĥ": 854,
      "ãģĦãģĦ": 855,
      "å¤ī": 856,
      "ãģķãĤĮãģŁ": 857,
      "ãĥķãĤ£": 858,
      "ç´ł": 859,
      "ãģ«ãģªãĤĭ": 860,
      "ç¬": 861,
      "è±": 862,
      "ãģªãģŁ": 863,
      "ãģªãĤĵ": 864,
      "ãģ£ãģ¦ãģĦãģ¾ãģĻ": 865,
      "ãĥ©ãĤ¤": 866,
      "ãĥĩãĤ£": 867,
      "åºĥ": 868,
      "æĿ±": 869,
      "æĻĤéĸĵ": 870,
      "çī©": 871,
      "è¿ĳ": 872,
      "ve": 873,
      "ãĥĶ": 874,
      "ãĥľ": 875,
      "ãģĤãģªãģŁ": 876,
      "ãĤ¸ãĥį": 877,
      "000": 878,
      "éĩį": 879,
      "çļĦãģ«": 880,
      "å¼ı": 881,
      "çµĮé¨ĵ": 882,
      "ãĥ¼ãĤ·ãĥ§ãĥ³": 883,
      "Ĥäºº": 884,
      "ãģ§ãģĻãģŃ": 885,
      "æĦŁãģĺ": 886,
      "åķı": 887,
      "10": 888,
      "ãĤĤãģĹ": 889,
      "ä»ĭ": 890,
      "å®¶": 891,
      "å®ī": 892,
      "ä¾Ľ": 893,
      "å¥½": 894,
      "ä¼ģæ¥Ń": 895,
      "ãĢĤãĢį": 896,
      "ãģªãĤī": 897,
      "ãģĮãģĤãĤĭ": 898,
      "ãĤģãģ¦": 899,
      "å¾Ĺ": 900,
      "æĤ": 901,
      "æĶ": 902,
      "ãĥĦ": 903,
      "ãģķãĤī": 904,
      "çĶ°": 905,
      "ãĥ¼ãĤ¯": 906,
      "çĽ¸": 907,
      "èģŀ": 908,
      "ãģ®ä¸Ń": 909,
      "ãģªãģĮ": 910,
      "ãĤģãĤĭ": 911,
      "è¡¨": 912,
      "çĦ¡": 913,
      "å¸¸ãģ«": 914,
      "¹ä»ĭ": 915,
      "åĦ": 916,
      "ãģ®ãģĮ": 917,
      "ãģ«ãĤĪ": 918,
      "ãģ«ãģ¤": 919,
      "ãĥ¼ãĥĲ": 920,
      "åı¯": 921,
      "æ¥½": 922,
      "ç´¹ä»ĭ": 923,
      "ãĤ¶": 924,
      "ãĢģãĢİ": 925,
      "ãģ«ãģĬ": 926,
      "ãģĭãĤĬ": 927,
      "æľŁ": 928,
      "ãĥªãĥ¼": 929,
      "ãģ©ãģĨ": 930,
      "ãĥ©ãĥ³": 931,
      "æīĢ": 932,
      "æ²": 933,
      "æŁ": 934,
      "çľ": 935,
      "ä»ĺ": 936,
      "åĪĿ": 937,
      "å½¼": 938,
      "çķª": 939,
      "ive": 940,
      "ãģ¨ãģ¯": 941,
      "ãĤĴä½¿": 942,
      "å®¢": 943,
      "ãĤ¿ãĥ¼": 944,
      "ãģķãĤĮãĤĭ": 945,
      "å¤§ãģį": 946,
      "çĽ®çļĦ": 947,
      "ç¶ļ": 948,
      "Wi": 949,
      "ä¹": 950,
      "ãĢįãĢĮ": 951,
      "ãģĵãĤį": 952,
      "ãģĪãģ°": 953,
      "è¡ĵ": 954,
      "æĥ³": 955,
      "åĪ©çĶ¨": 956,
      "éħ": 957,
      "ãĥļ": 958,
      "ãĤ¯ãĥĪ": 959,
      "çĻ»": 960,
      "æĪ¦": 961,
      "æĮĩ": 962,
      "çı¾åľ¨": 963,
      "å¥³æĢ§": 964,
      "IN": 965,
      "ãģ«å¯¾": 966,
      "ãģķãģĦ": 967,
      "ãĥªãĥ¼ãĥ": 968,
      "ãĤ¢ãĥĥãĥĹ": 969,
      "è¨Ń": 970,
      "é«ĺãģĦ": 971,
      "âĢķ": 972,
      "åĥį": 973,
      "èĹ": 974,
      "Ģãĥ¼": 975,
      "ãģ§ãģĻãģĭ": 976,
      "ãĤĪãģŃ": 977,
      "ãģłãģ£ãģŁ": 978,
      "èĩªåĭķ": 979,
      "ãģĤãĤĬãģ¾ãģĽãĤĵ": 980,
      "ä»¥ä¸Ĭ": 981,
      "æ¬¡": 982,
      "ãĥ¦ãĥ¼ãĤ¶ãĥ¼": 983,
      "ãĤ¹ãĥŀãĥ¼ãĥĪ": 984,
      "ãĤ¼": 985,
      "ãĤĢ": 986,
      "ãģĦãģ¾ãģĹãģŁ": 987,
      "ãģ«åħ¥": 988,
      "ãģ£ãģ¨": 989,
      "ãĤĵãģ§": 990,
      "ãģıãĤī": 991,
      "ä½į": 992,
      "ãģĿãģĵ": 993,
      "æĸĻ": 994,
      "ãģĵãģ¨ãģ¯": 995,
      "ãģ§ãģ¯ãģªãģĦ": 996,
      "ãĤ«ãĥĥãĥĹ": 997,
      "ãĥīãĥĲãĤ¤": 998,
      "ãĥĵãĤ¸ãĥį": 999,
      "è¾¼": 1000,
      "èĹ¤": 1001,
      "MA": 1002,
      "è¼": 1003,
      "ãģĻãģ": 1004,
      "ãģ¨è¨Ģ": 1005,
      "ãģ¨ãģĵãĤį": 1006,
      "ãĥ©ãĤ¤ãĥ": 1007,
      "æĿĲ": 1008,
      "æĽ¸": 1009,
      "æĻ": 1010,
      "ĭäºº": 1011,
      "Ĵ°": 1012,
      "ł´": 1013,
      "ãĤĮãģ¦": 1014,
      "ãĤ¤ãĥ«": 1015,
      "ä»ĸ": 1016,
      "åĪĩ": 1017,
      "ãĤ¹ãĥĨ": 1018,
      "æĺł": 1019,
      "åıĸãĤĬ": 1020,
      "èĤ²": 1021,
      "11": 1022,
      "æĭ": 1023,
      "çĿĢ": 1024,
      "è§": 1025,
      "èµ": 1026,
      "ãĤ²": 1027,
      "ãģ®ãĤĪãģĨãģª": 1028,
      "ãģĭãģĳ": 1029,
      "ãĤĮãģ¾ãģĽãĤĵ": 1030,
      "ãĥ¼ãĥĹ": 1031,
      "ãģ®æĻĤ": 1032,
      "ãĤıãģĽ": 1033,
      "æ±Ĥäºº": 1034,
      "å¢ĥ": 1035,
      "ãģķãĤīãģ«": 1036,
      "ãģªãģĮãĤī": 1037,
      ":ãĢĮ": 1038,
      "ãģ²": 1039,
      "äº¬": 1040,
      "ãģķãģĽ": 1041,
      "ãĥ¼ãĥĵ": 1042,
      "ãĥ¼ãĤ«": 1043,
      "æĸ¹ãģĮ": 1044,
      "æĬĢ": 1045,
      "èī¯ãģĦ": 1046,
      "èĩªåĭķè»Ĭ": 1047,
      "ãĤ¹ãĥŀãĥ¼ãĥĪãĥķãĤ©": 1048,
      "Ĵ°å¢ĥ": 1049,
      "er": 1050,
      "éĮ": 1051,
      "ãĥ¼ãĥĦ": 1052,
      "ãģ¨ãģĦãģ£ãģŁ": 1053,
      "ãģĬãĤĬ": 1054,
      "ãĥ³ãĥĨ": 1055,
      "ä»ķäºĭãĤĴ": 1056,
      "é¡Į": 1057,
      "å¿ħè¦ģ": 1058,
      "ãĤ«ãĥĥãĥĹãĥ«": 1059,
      "30": 1060,
      "ç¾": 1061,
      "ãģ®ãĤ¢": 1062,
      "ä¸į": 1063,
      "ãģĭãĤīãģ§ãģĻ": 1064,
      "è¨Ī": 1065,
      "ãģķãĤĮãģ¦ãģĦãģ¾ãģĻ": 1066,
      "ãģ«ãĤĤãģĬãģĻãģĻãĤģ": 1067,
      "åĲĪãĤıãģĽ": 1068,
      "ãĢħãģª": 1069,
      "ãģ¨æĢĿãģĦãģ¾ãģĻ": 1070,
      "éĸ¢éĢ£": 1071,
      "åĤ¬": 1072,
      "ãģ«ãģ¤ãģĦãģ¦": 1073,
      "éĮ²": 1074,
      "æĴ": 1075,
      "èĬ": 1076,
      "Ĭ¶": 1077,
      "ãģ§ãģĤãĤĭ": 1078,
      "ãĥĥãĥī": 1079,
      "ãģĿãĤĵãģª": 1080,
      "åı°": 1081,
      "ãĤĴæı": 1082,
      "ãģĵãģ¨ãģ§": 1083,
      "æ°´": 1084,
      "çĽ´": 1085,
      "éĢŁ": 1086,
      "å½¹": 1087,
      "åĭĻ": 1088,
      "ä¸Ģãģ¤": 1089,
      "éĸĭçĻº": 1090,
      "è²·": 1091,
      "æŃ³": 1092,
      "æ°ıãģ¯": 1093,
      "ãĤ·ãĥ§ãĥĥãĥĹ": 1094,
      "ç¬¬": 1095,
      "live": 1096,
      "æ®": 1097,
      "çİ": 1098,
      "ãĤĨ": 1099,
      "ãģ®ãģ§ãģĻ": 1100,
      "ãģ¦ãĤĤ": 1101,
      "ãģ¾ãĤĬ": 1102,
      "ãĥĥãĥģ": 1103,
      "ãģįãģŁ": 1104,
      "åıĤ": 1105,
      "åıĹ": 1106,
      "ãĤĴæİ": 1107,
      "æĹħ": 1108,
      "æĺİ": 1109,
      "ãĤ¤ãĥ³ãĤ¿": 1110,
      "åĦª": 1111,
      "çľŁ": 1112,
      "ãĤ«ãĥĥãĥĹãĥ«ãģ«ãĤĤãģĬãģĻãģĻãĤģ": 1113,
      "ãĤ«ãĥĥãĥĹãĥ«ãģ«ãĤĤãģĬãģĻãģĻãĤģãģ®ãĥĩãĥ¼ãĥĪãĤ¹ãĥĿãĥĥãĥĪãģ§ãģĻ": 1114,
      "ãĢĲ": 1115,
      "ãĢĳ": 1116,
      "ãģĦãĤĭ": 1117,
      "ãģ¨ãĤĤ": 1118,
      "æľī": 1119,
      "ãĤĦãĤĬ": 1120,
      "ãģĵãģ¨ãĤĴ": 1121,
      "ãĥĩãĤ¶": 1122,
      "ãĤµãĥ«": 1123,
      "ä¸ĬãģĴ": 1124,
      "å°ĳ": 1125,
      "å¤ļãģı": 1126,
      "å¢Ĺ": 1127,
      "å§ĭ": 1128,
      "ãĥĸãĥ©ãĥ³ãĥī": 1129,
      "æĿ±äº¬": 1130,
      "éħį": 1131,
      "doo": 1132,
      "¢º": 1133,
      "æ¯": 1134,
      "çĬ¶": 1135,
      "è·": 1136,
      "äºĮ": 1137,
      "ãģıãģł": 1138,
      "ãģĪãģ¦": 1139,
      "éģİ": 1140,
      "åº§": 1141,
      "èª¿": 1142,
      "å±ķ": 1143,
      "è³ĩ": 1144,
      "éĥ½": 1145,
      "Ġãģ©ãĤĵãģªãĥĩãĥ¼ãĥĪãģ«ãĤĤä½¿ãģĪãĤĭ": 1146,
      "Ġãģ©ãĤĵãģªçĽ®çļĦ": 1147,
      "Ġãģ©ãĤĵãģªãĤ«ãĥĥãĥĹãĥ«ãģ«ãĤĤãģĬãģĻãģĻãĤģãģ®ãĥĩãĥ¼ãĥĪãĤ¹ãĥĿãĥĥãĥĪãģ§ãģĻ": 1148,
      "æµ·": 1149,
      "ãģ»ãģ©": 1150,
      "ãĤ³ãĥ³ãĤµãĥ«": 1151,
      "æł¼": 1152,
      "äººæ°Ĺãģ®ãĥĩãĥ¼ãĥĪãĤ¹ãĥĿãĥĥãĥĪãģ§ãģĻ": 1153,
      "åı¯èĥ½": 1154,
      "ãĥ¼ãĤ«ãĥ¼": 1155,
      "ãĤ¹ãĥŀãĥ¼ãĥĪãĥķãĤ©ãĥ³": 1156,
      "livedoo": 1157,
      "Ġãģ©ãĤĵãģªãĥĩãĥ¼ãĥĪãģ«ãĤĤä½¿ãģĪãĤĭäººæ°Ĺãģ®ãĥĩãĥ¼ãĥĪãĤ¹ãĥĿãĥĥãĥĪãģ§ãģĻ": 1158,
      "Ġãģ©ãĤĵãģªçĽ®çļĦãģ®": 1159,
      "livedoor": 1160,
      "!ãĢį": 1161,
      "RS": 1162,
      "ty": 1163,
      "åŀ": 1164,
      "ãģ¶": 1165,
      "ãĥĢ": 1166,
      "ãĥ³ãĤ¹": 1167,
      "ãĤĵãģł": 1168,
      "æľĽ": 1169,
      "ãģĿãģĹãģ¦": 1170,
      "éģĵ": 1171,
      "ãģ«ãģªãģ£ãģ¦": 1172,
      "çµĲæŀľ": 1173,
      "éĸĭåĤ¬": 1174,
      "å¤ļãģĦ": 1175,
      "ãģĹãģĭãģĹ": 1176,
      "ãĥĩãĥ¼ãĥĪãģ«ãĤĤä½¿ãģĪãĤĭãĥĩãĥ¼ãĥĪãĤ¹ãĥĿãĥĥãĥĪãģ§ãģĻ": 1177,
      "ãĤĤãģĹãĤĮãģ¾ãģĽãĤĵ": 1178,
      "ãĥ¼ãĥĵãĤ¹": 1179,
      "Ġãģ©ãĤĵãģªçĽ®çļĦãģ®ãĥĩãĥ¼ãĥĪãģ«ãĤĤä½¿ãģĪãĤĭãĥĩãĥ¼ãĥĪãĤ¹ãĥĿãĥĥãĥĪãģ§ãģĻ": 1180,
      "50": 1181,
      "¥ŀ": 1182,
      "ç¯": 1183,
      "ç³": 1184,
      "ãģ§ãģ®": 1185,
      "ãģĹãģı": 1186,
      "ãģ«ãģ¨": 1187,
      "ãģ¨ãģ®": 1188,
      "ä¸»": 1189,
      "ãĤīãģªãģĦ": 1190,
      "ãģĹãģŁãģĦ": 1191,
      "ãĥĥãĤ·ãĥ§ãĥ³": 1192,
      "ãĤĦãģĻ": 1193,
      "ãĤĴæĬ": 1194,
      "ãģķãĤĮãģ¦ãģĦãĤĭ": 1195,
      "ãĤµãĥ¼ãĥĵãĤ¹": 1196,
      "ä¾ĭ": 1197,
      "éĻĲ": 1198,
      "è£½": 1199,
      "åĸ¶æ¥Ń": 1200,
      "ãĥļãĥ¼ãĤ¸": 1201,
      "ãģıãģłãģķãģĦ": 1202,
      "åŁ": 1203,
      "çĴ°å¢ĥ": 1204,
      "ãĤ®": 1205,
      "ãģªãĤĭ": 1206,
      "ãģŁãģł": 1207,
      "ãĥ³ãĤ¯": 1208,
      "ãĥ³ãĤ¸": 1209,
      "åħĥ": 1210,
      "ãĤ¯ãĥ©": 1211,
      "ãģĳãģ©": 1212,
      "ãĤĴæĦ": 1213,
      "æĸŃ": 1214,
      "ãģĵãģ¨ãģ§ãģĻ": 1215,
      "éĢ²": 1216,
      "å¿ľ": 1217,
      "ãĤ¤ãĥĨ": 1218,
      "ãģ§ãģįãģ¾ãģĻ": 1219,
      "å¾ħ": 1220,
      "å¼ķ": 1221,
      "ä»ķäºĭãģĮ": 1222,
      "å®ŁéļĽ": 1223,
      "è³ª": 1224,
      "ãĤ¹ãĤ¿ãĤ¤ãĥ«": 1225,
      "æ±º": 1226,
      "æ´»åĭķ": 1227,
      "ãģĹãģ¾ãģĨ": 1228,
      "èĭ¥": 1229,
      "åİŁ": 1230,
      "å¥½ãģį": 1231,
      "200": 1232,
      "Ĳä¾Ľ": 1233,
      "łĶ": 1234,
      "ãģŁãĤĬ": 1235,
      "çĶ±": 1236,
      "ãĥ¼ãĥŀ": 1237,
      "ãĥ¼ãĤº": 1238,
      "ãģĻãĤĭãģ¨": 1239,
      "ãĤıãĤĬ": 1240,
      "éģķ": 1241,
      "èª¬": 1242,
      "ç¤¾åĵ¡": 1243,
      "çĻ½": 1244,
      "éĩı": 1245,
      "åĢ¤": 1246,
      "åķĨ": 1247,
      "æĮģãģ¡": 1248,
      "è±¡": 1249,
      "ãģĻãģİ": 1250,
      "ç³»": 1251,
      "ãģ«ãģ¨ãģ£ãģ¦": 1252,
      "æº": 1253,
      "æħ": 1254,
      "è¢": 1255,
      "éŁ": 1256,
      "ãĥĪãĥ¬": 1257,
      "ãĤ¤ãĥ³ãĥĪ": 1258,
      "ãĥªãĥĨãĤ£": 1259,
      "åĪ¥": 1260,
      "å¹³": 1261,
      "æĻĤä»£": 1262,
      "ãĥĸãĥ«": 1263,
      "ãĥ¥ãĤ¢": 1264,
      "å±ĭ": 1265,
      "éĿŀ": 1266,
      "ç¨®": 1267,
      "æ²¢": 1268,
      "ä¹Ĺ": 1269,
      "MAX": 1270,
      "è§£": 1271,
      "©ãģ¿": 1272,
      "ħå½ĵ": 1273,
      "ãĥĴ": 1274,
      "ãģªãģĭãģ£ãģŁ": 1275,
      "ãĤĴä½ľ": 1276,
      "å¤ľ": 1277,
      "è¦ĸ": 1278,
      "ãģĵãģ¨ãĤĤ": 1279,
      "ä¼Ŀ": 1280,
      "ãģ®åł´": 1281,
      "ãģ¡ãĤĥ": 1282,
      "å½±": 1283,
      "è³¼": 1284,
      "æľĢå¤§": 1285,
      "....": 1286,
      "éłŃ": 1287,
      "ãĥĿãĥ¼ãĥĪ": 1288,
      "ä½ĵé¨ĵ": 1289,
      "ãĤĪãĤĬãĤĤ": 1290,
      "åĲĮãģĺ": 1291,
      "æ³ķ": 1292,
      "ãĤ½ãĤ³ãĥ³": 1293,
      "è¶ħ": 1294,
      "WiMAX": 1295,
      "ãĥĵãĤ¸ãĥįãĤ¹": 1296,
      "ãĥĩãĤ¶ãĤ¤ãĥ³": 1297,
      "RSS": 1298,
      "åŀĭ": 1299,
      "1000": 1300,
      "ce": 1301,
      "çģ": 1302,
      "ãģ«è¡Į": 1303,
      "è¦ª": 1304,
      "ãģłãģ¨": 1305,
      "ãĤ·ãĥ³": 1306,
      "ãĤ¸ãĥ£": 1307,
      "ãĤ¸ãĤ§": 1308,
      "éĩİ": 1309,
      "æĻĤãģ«": 1310,
      "è«ĩ": 1311,
      "ãĥģãĥ£": 1312,
      "ãĥķãĤ¡ãĥĥãĤ·ãĥ§ãĥ³": 1313,
      "è¶³": 1314,
      "çŃĶ": 1315,
      "MIN": 1316,
      "ç¹": 1317,
      "ãģ®ãĤĤ": 1318,
      "ãģ®ãģĬ": 1319,
      "ãģ®ãģ§ãģĹãĤĩãģĨãģĭ": 1320,
      "ãģĦãģĭ": 1321,
      "ãģĦãģ¤": 1322,
      "ãĤ¹ãĤŃ": 1323,
      "åĪ¤": 1324,
      "åı£": 1325,
      "è¦³": 1326,
      "ãģĹãģ¦ãĤĤ": 1327,
      "ãģłãģĭãĤī": 1328,
      "ãĥ³ãĥĦ": 1329,
      "ãĤ³ãĥŁ": 1330,
      "èĩªèº«": 1331,
      "ãĥĨãĥ«": 1332,
      "âĢľ": 1333,
      "æĦıèŃĺ": 1334,
      "ãĥĨãĤ£ãĥ³ãĤ°": 1335,
      "ä¼ģçĶ»": 1336,
      "ç©º": 1337,
      "ãĤŃãĥ£ãĥªãĤ¢": 1338,
      "èĪĪ": 1339,
      "èĳī": 1340,
      "æĴ®": 1341,
      "MINI": 1342,
      "19": 1343,
      "æ¼": 1344,
      "æģ": 1345,
      "ç¢º": 1346,
      "é§": 1347,
      "ĻçľŁ": 1348,
      "ãģ®ãĤĪãģĨãģ«": 1349,
      "ãĥ¼ãģ®": 1350,
      "ãģ¦ãģ¿": 1351,
      "ãĤĴåĩº": 1352,
      "ãĤĴè¡Į": 1353,
      "ãģ¾ãģ¨": 1354,
      "åħ±": 1355,
      "ãģĹãģ¦ãģ¿": 1356,
      "æĸ½": 1357,
      "ãĥĹãĥª": 1358,
      "ãģķãĤĮãģ¾ãģĹãģŁ": 1359,
      "åĬ¹": 1360,
      "ç¤º": 1361,
      "ãģĺãĤĥ": 1362,
      "è¨Ģèĳī": 1363,
      "ãģłãģĳãģ§": 1364,
      "åĤĻ": 1365,
      "æ¨Ļ": 1366,
      "å¤§ãģįãģª": 1367,
      "æĬĢè¡ĵ": 1368,
      "ter": 1369,
      "å²": 1370,
      "ç¥ŀ": 1371,
      "çłĶ": 1372,
      "ãģĦãģ¦ãģĦãĤĭ": 1373,
      "ãĤĴå®Ł": 1374,
      "ãģ¾ãģł": 1375,
      "ãĤĤãģ¡": 1376,
      "ãĤĮãģªãģĦ": 1377,
      "ãģĵãģĨ": 1378,
      "ãģįãģ¾ãģĹãģŁ": 1379,
      "çĶ£": 1380,
      "ãģ©ãĤĤ": 1381,
      "äººãģĮ": 1382,
      "ãĥķãĥĪ": 1383,
      "ãģĹãģ¦ãģı": 1384,
      "ãĤ¯ãĥª": 1385,
      "æĸĩ": 1386,
      "æĹ©": 1387,
      "å¿µ": 1388,
      "æīĵ": 1389,
      "æĢĿãģĦ": 1390,
      "å¸Ĥ": 1391,
      "è©¦": 1392,
      "è»¢èģ·ãģ¯": 1393,
      "èĩªåĪĨãģĮ": 1394,
      "è©±ãĤĴ": 1395,
      "ãģĿãģĨãģ§ãģĻ": 1396,
      "èī²": 1397,
      "æµģ": 1398,
      "æ§ĺãĢħãģª": 1399,
      "åĥı": 1400,
      "çĦ¶": 1401,
      "çŃĸ": 1402,
      "éĿŀå¸¸ãģ«": 1403,
      "ãĤĤãģ¡ãĤį": 1404,
      "it": 1405,
      "çĭ": 1406,
      "éŃ": 1407,
      "ĠS": 1408,
      "ãģĲ": 1409,
      "ãģĮè¦ĭ": 1410,
      "åĲĦ": 1411,
      "è¦ļ": 1412,
      "åŃĹ": 1413,
      "æĦĽ": 1414,
      "ãĤ¤ãĥ¡": 1415,
      "ä¸ĬãģĮ": 1416,
      "ãģķãĤĵãģ¯": 1417,
      "çĽ®æ¨Ļ": 1418,
      "è©ķ": 1419,
      "ä¿Ŀ": 1420,
      "è²©": 1421,
      "âĢĿ": 1422,
      "æ³¨": 1423,
      "çī¹ãģ«": 1424,
      "ç©¶": 1425,
      "é£²": 1426,
      "çĻ»åł´": 1427,
      "ãģĿãģĵãģ§": 1428,
      "åıĤåĬł": 1429,
      "ãĤĴæİ¢": 1430,
      "IT": 1431,
      "ON": 1432,
      "on": 1433,
      "¡çĶ¨": 1434,
      "åģ": 1435,
      "åĻ": 1436,
      "èĦ": 1437,
      "ŀ¬": 1438,
      "ãģľ": 1439,
      "ãĥĺ": 1440,
      "ãģĻãģ¹": 1441,
      "ãģ¨ãģį": 1442,
      "ãģªãĤĬ": 1443,
      "ãģ¾ãģļ": 1444,
      "ãģĭãĤĤãģĹãĤĮãģ¾ãģĽãĤĵ": 1445,
      "äºĪ": 1446,
      "ä»¶": 1447,
      "ãģĤãģ£ãģŁ": 1448,
      "ãģĤãĤĮãģ°": 1449,
      "åĪ¶": 1450,
      "ãģ®åŃ": 1451,
      "ãĤ¹ãĥĳ": 1452,
      "ãĤıãģĳ": 1453,
      "éģĭ": 1454,
      "ãĥķãĤ§": 1455,
      "ç¤¾ä¼ļ": 1456,
      "ç´Ħ": 1457,
      "ä»Ĭå¾Į": 1458,
      "ä¾¿": 1459,
      "ãģŁãĤģãģ«": 1460,
      "ãĤ¦ãĤ§": 1461,
      "ãĥĳãĤ½ãĤ³ãĥ³": 1462,
      "è¿Ķ": 1463,
      "ãĤĤãģ®ãģ§ãģĻ": 1464,
      "èĢĥãģĪãĤĭ": 1465,
      "åįĺ": 1466,
      "èºį": 1467,
      "æŃ£": 1468,
      "ook": 1469,
      "è¨ĺäºĭ": 1470,
      "æ¥½ãģĹ": 1471,
      "ãģ«ãģĬãģĦãģ¦": 1472,
      "ãģıãĤīãģĦ": 1473,
      "ãĤĴæĦŁ": 1474,
      "çģ½": 1475,
      "ãĤĤãģ¡ãĤįãĤĵ": 1476,
      "°·": 1477,
      "½®": 1478,
      "æ¡": 1479,
      "è¬": 1480,
      "è°·": 1481,
      "éľ": 1482,
      "ĨæĿ¥": 1483,
      "ãģ¥": 1484,
      "ãĥ¨": 1485,
      "ãģ®ãģ§ãģĻãģĮ": 1486,
      "ãģ¨ãģĭ": 1487,
      "ãģĮãģĤãĤĬãģ¾ãģĻ": 1488,
      "ãģĤãĤĦ": 1489,
      "ãģĪãģŁ": 1490,
      "éĸĢ": 1491,
      "ãĤ¿ãĤ¤": 1492,
      "æĹı": 1493,
      "å¹ħ": 1494,
      "éĢģ": 1495,
      "åŃĺ": 1496,
      "åĭĿ": 1497,
      "ãģ«ãģªãĤĬãģ¾ãģĻ": 1498,
      "éĽ£": 1499,
      "ãĥģãĤ§": 1500,
      "æķĻ": 1501,
      "ãģĵãĤĮãģ¯": 1502,
      "éĿ¢çĻ½": 1503,
      "ä»ĬåĽŀãģ¯": 1504,
      "ãĥĹãĥ¬ãĤ¼": 1505,
      "éĩįè¦ģ": 1506,
      "è¼ī": 1507,
      "åĪ¤æĸŃ": 1508,
      "ãĤ¤ãĥ¡ãĥ¼ãĤ¸": 1509,
      "ãĤĴæĦŁãģĺ": 1510,
      "iP": 1511,
      "¥½": 1512,
      "ªå¼ı": 1513,
      "ãĤĮãģ¦ãģĦãĤĭ": 1514,
      "ãģĹãģŁãĤī": 1515,
      "ãģĪãģ¾ãģĻ": 1516,
      "ãģĿãģ®å": 1517,
      "ãĥ©ãĥ³ãĥī": 1518,
      "å®¹": 1519,
      "å®Į": 1520,
      "äººãģ®": 1521,
      "äººéĸĵ": 1522,
      "ãĤģãģŁ": 1523,
      "ãģĳãģ¦": 1524,
      "çµĤ": 1525,
      "ãĥĩãĥ«": 1526,
      "æĹ¥ãģ«": 1527,
      "æ¥µ": 1528,
      "å½¢": 1529,
      "èªį": 1530,
      "å¤§æīĭ": 1531,
      "å°Ĥ": 1532,
      "çķ¥": 1533,
      "ãĤŃãĥ¥": 1534,
      "åŃĲä¾Ľ": 1535,
      "åŃĲãģ©ãĤĤ": 1536,
      "åł´åĲĪ": 1537,
      "æĸ°ãģĹãģĦ": 1538,
      "åįĬ": 1539,
      "ãģ¨æĢĿãģĨ": 1540,
      "ãĤ´ãĥ«ãĥķãĤ¡": 1541,
      "èĭ±": 1542,
      "ä¾¡åĢ¤": 1543,
      "å°ıæ²¢": 1544,
      "å®¶æĹı": 1545,
      "çķªçµĦ": 1546,
      "ç¾İ": 1547,
      "çİĩ": 1548,
      "è£½åĵģ": 1549,
      "è³¼åħ¥": 1550,
      "è²©å£²": 1551,
      "26": 1552,
      "book": 1553,
      "©ļ": 1554,
      "·±": 1555,
      "åĿ": 1556,
      "é¤": 1557,
      "Ļãĥ³ãĥĪ": 1558,
      "ãģ¯ãĤĬ": 1559,
      "ãģĵãģł": 1560,
      "ãĥªãĥ³ãĤ¯": 1561,
      "ãĥ¼ãĤŃ": 1562,
      "åħ·": 1563,
      "ãĤĦãģ¯ãĤĬ": 1564,
      "ãģĬéĩĳ": 1565,
      "ãģ£ãģ¦ãĤĤ": 1566,
      "ãĥ³ãĥļ": 1567,
      "ãģ§ãģ¯ãģªãģı": 1568,
      "éģĶ": 1569,
      "ãĤ¤ãĥĻãĥ³ãĥĪ": 1570,
      "ãĤ°ãĥŃ": 1571,
      "ãģ®ãĥĵ": 1572,
      "çķ°": 1573,
      "è»¢èģ·æ´»åĭķ": 1574,
      "ãĥ¡ãĥ¼ãĤ«ãĥ¼": 1575,
      "è³ŀ": 1576,
      "ãĤªãĥª": 1577,
      "åĳ¨": 1578,
      "ãĥıãĤ¤ãĥ": 1579,
      "çĲĨçĶ±": 1580,
      "ãĥĽãĥĨãĥ«": 1581,
      "å¤īãĤı": 1582,
      "âĢķâĢķ": 1583,
      "æĺłçĶ»": 1584,
      "èĬ¸": 1585,
      "ãĤ¤ãĥ³ãĤ¿ãĥĵ": 1586,
      "ãĤ¤ãĥĨãĥł": 1587,
      "Fa": 1588,
      "cm": 1589,
      "¢¨": 1590,
      "å¦": 1591,
      "ç®": 1592,
      "ĠĠ": 1593,
      "Ĩ±": 1594,
      "ãģ®ãģĤãĤĭ": 1595,
      "ãģ«éĸ¢": 1596,
      "ãĥ³ãĤ¿": 1597,
      "ãģĭãģĽ": 1598,
      "ãĤĤãģĨ": 1599,
      "æľª": 1600,
      "ãĥªãĤ¹ãĥĪ": 1601,
      "ãĤ¢ãĤ¯": 1602,
      "ãĤ¹ãĥļ": 1603,
      "ãģ¡ãĤī": 1604,
      "ãĤ³ãĥ³ãĥĨ": 1605,
      "ãģ®ãĥĳ": 1606,
      "ãģ«ãģªãĤĬ": 1607,
      "ä»Ĭå¹´": 1608,
      "å°ĨæĿ¥": 1609,
      "éĽ¢": 1610,
      "ãĥŀãĥī": 1611,
      "çĻºæĥ³": 1612,
      "ç«¯": 1613,
      "å±±": 1614,
      "ãĤ»ãĤŃãĥ¥": 1615,
      "...": 1616,
      "åĢĭäºº": 1617,
      "ãĥĭãĥ¥": 1618,
      "ãĤ±ãĥ¼ãĤ·ãĥ§ãĥ³": 1619,
      "éĢļãĤĬ": 1620,
      "é£Ľ": 1621,
      "æ©Łèĥ½": 1622,
      "ãĤ·ãĥ£ãĥĦ": 1623,
      "çµĦãģ¿": 1624,
      "æĤª": 1625,
      "èĤ²ãģ¦": 1626,
      "æµ·å¤ĸ": 1627,
      "cebook": 1628,
      "Facebook": 1629,
      "ãĤ³ãĥ³ãĥĨãĥ³ãĥĦ": 1630,
      "ãĤ»ãĤŃãĥ¥ãĥªãĥĨãĤ£": 1631,
      "UR": 1632,
      "le": 1633,
      "ç¸": 1634,
      "é¢¨": 1635,
      "ãģ®ä»ķäºĭ": 1636,
      "ãģ§ãģĤãĤĬ": 1637,
      "ãĤ¹ãĥª": 1638,
      "ãģĵãģĵ": 1639,
      "ãģĹãģŁãĤĬ": 1640,
      "æľ«": 1641,
      "ãĥ¼ãĥį": 1642,
      "ãģ©ãģĵ": 1643,
      "ãģªãģĦãģ¨": 1644,
      "ä¼ĳ": 1645,
      "ãģĬå®¢": 1646,
      "ãĤ·ãĥ¥": 1647,
      "ãĥ»ãĢĮ": 1648,
      "èª°": 1649,
      "ãĤ«ãĥ¼": 1650,
      "ãĤµãĥĿãĥ¼ãĥĪ": 1651,
      "ç´Ļ": 1652,
      "æľ¬å½ĵ": 1653,
      "ãģ°ãģĭãĤĬ": 1654,
      "æ¥ŃçķĮ": 1655,
      "ä½¿çĶ¨": 1656,
      "ãĤīãĤĮãģŁ": 1657,
      "ãĤ¦ãĥ³": 1658,
      "çĶ·åŃĲ": 1659,
      "ãģĵãĤĮãģ¾ãģ§": 1660,
      "ç·ļ": 1661,
      "ãĤ½ãĥķãĥĪ": 1662,
      "éĥ¨åĪĨ": 1663,
      "ãĥĹãĥŃãĤ¸ãĤ§": 1664,
      "åħ¬å¼ı": 1665,
      "ãĥĩãĤ£ãĤ¢": 1666,
      "livedooræ±Ĥäºº": 1667,
      "ãĤĦãģĻãģĦ": 1668,
      "ä¾ĭãģĪãģ°": 1669,
      "å®ŁéļĽãģ«": 1670,
      "åķĨåĵģ": 1671,
      "éŃħ": 1672,
      "AN": 1673,
      "ni": 1674,
      "¤ľ": 1675,
      "´»": 1676,
      "åĴ": 1677,
      "é»": 1678,
      "éĬ": 1679,
      "ĠB": 1680,
      "ãģ½": 1681,
      "ãģ®ãģ§ãģ¯ãģªãģĦ": 1682,
      "ãģĻãĤĮãģ°": 1683,
      "ãģªãģ®ãģĭ": 1684,
      "ãĤĴãģ¤": 1685,
      "ãģĮãģĤãĤĬ": 1686,
      "ãĢįãĢģ": 1687,
      "ãģıãĤĭ": 1688,
      "ãģ©ãģ®ãĤĪãģĨãģª": 1689,
      "ãĤ¢ãĥ«": 1690,
      "åı²": 1691,
      "ãģĳãģŁ": 1692,
      "ãĤ¿ãĥ³ãĥĪ": 1693,
      "ãĥĩãĥĲãĤ¤": 1694,
      "ãĥĩãĥ¼ãĤ¿": 1695,
      "éĢĨ": 1696,
      "å¿Ĺ": 1697,
      "ãĤ¤ãĥī": 1698,
      "ãģķãĤĵãģĮ": 1699,
      "åĲĪãģĦ": 1700,
      "ãĥ¡ãĥĩãĤ£ãĤ¢": 1701,
      "çĻºå£²": 1702,
      "çĻºè¡¨": 1703,
      "ç«¶": 1704,
      "ãĤªãĥ¼ãĥĹ": 1705,
      "åįĴ": 1706,
      "ãĤ»ãĥ¬": 1707,
      "åĳĬ": 1708,
      "çµĮåĸ¶": 1709,
      "ãĥĿãĤ¤ãĥ³ãĥĪ": 1710,
      "å£«": 1711,
      "æŀļ": 1712,
      "ãĥ¢ãĥĩãĥ«": 1713,
      "æ´»èºį": 1714,
      "ãģ¨ãģªãĤĭ": 1715,
      "ãģĹãģ¦ãģĦãģŁ": 1716,
      "æłªå¼ı": 1717,
      "é£Ł": 1718,
      "éĽ»æ°Ĺ": 1719,
      "ãĥĬãĥ«": 1720,
      "ãĤĴæĮģãģ¤": 1721,
      "ç¬ĳ": 1722,
      "ãģ«ãĤĪãĤĭ": 1723,
      "ãĥ¼ãĥĲãĥ«": 1724,
      "æŁ»": 1725,
      "ä»ĺãģį": 1726,
      "çĻ»éĮ²": 1727,
      "åĥįãģı": 1728,
      "æĭħå½ĵ": 1729,
      "å±ķéĸĭ": 1730,
      "ãĤ³ãĥ³ãĤµãĥ«ãĤ¿ãĥ³ãĥĪ": 1731,
      "è¢«": 1732,
      "æĴ®å½±": 1733,
      "è©ķä¾¡": 1734,
      "ãĤ°ãĥŃãĥ¼ãĥĲãĥ«": 1735,
      "ãĥĹãĥŃãĤ¸ãĤ§ãĤ¯ãĥĪ": 1736,
      "ãĤªãĥ¼ãĥĹãĥ³": 1737,
      "18": 1738,
      "an": 1739,
      "nd": 1740,
      "¿Ģ": 1741,
      "ĩĥ": 1742,
      "ĭãĥ³ãĤ°": 1743,
      "ĿéĽ¢": 1744,
      "ãģĦãģĨ": 1745,
      "ãģĹãģªãģĦ": 1746,
      "ãģŁãģı": 1747,
      "ãĤĴè¶ħ": 1748,
      "ãģ¯ãģļ": 1749,
      "ãĤ¹ãĤ«": 1750,
      "ä¸İ": 1751,
      "ãĤ¤ãĥ³ãĥ": 1752,
      "ãģįãģ¾ãģĻ": 1753,
      "ä½İ": 1754,
      "ãĤ¢ãĥĹãĥª": 1755,
      "ãĤĪãģı": 1756,
      "å®ħ": 1757,
      "äººãģ¯": 1758,
      "åıį": 1759,
      "ãĤĴæ±": 1760,
      "çµ¶": 1761,
      "ãģ®å°": 1762,
      "ãģ£ãģ¦ãģ¿": 1763,
      "è»½": 1764,
      "åĨĻçľŁ": 1765,
      "ãĤµãĤ¤": 1766,
      "ä¸Ģçķª": 1767,
      "ãĤ°ãĥ©": 1768,
      "ç´°": 1769,
      "ãģ«ãģªãģ£ãģŁ": 1770,
      "æ°Ĺãģ«ãģªãĤĭ": 1771,
      "å¼µ": 1772,
      "çīĪ": 1773,
      "ãģŁãĤģãģ®": 1774,
      "åī²": 1775,
      "è²»": 1776,
      "ç§ĺ": 1777,
      "æĥħåł±ãĤĴ": 1778,
      "å¹´åıİãģĮ": 1779,
      "ãģĶç´¹ä»ĭ": 1780,
      "åĨħãģ§": 1781,
      "ç©į": 1782,
      "åŃ¦çĶŁ": 1783,
      "2011": 1784,
      "å·¥": 1785,
      "ãģŁãģ¡ãģĮ": 1786,
      "ãģ¸ãģ®": 1787,
      "ãģĭãģªãĤĬ": 1788,
      "æĤ©ãģ¿": 1789,
      "çĽ¸è«ĩ": 1790,
      "ãĥªãĥ¼ãĥĢãĥ¼": 1791,
      "æĻ®": 1792,
      "ãĤĴæıĲä¾Ľ": 1793,
      "è·ĿéĽ¢": 1794,
      "èª¿æŁ»": 1795,
      "ãĤ¯ãĥ©ãĥĸ": 1796,
      "åģ´": 1797,
      "åĻ¨": 1798,
      "ãģĻãģ¹ãģ¦": 1799,
      "ãĤ´ãĥ«ãĥķãĤ¡ãĥ¼": 1800,
      "åĿĩ": 1801,
      "åĴĮ": 1802,
      "ãĥĩãĥĲãĤ¤ãĤ¹": 1803,
      "Tw": 1804,
      "ee": 1805,
      "fty": 1806,
      "hon": 1807,
      "ç²": 1808,
      "çĨ±": 1809,
      "èı": 1810,
      "èĲ": 1811,
      "é¦": 1812,
      "ĩãĤ£": 1813,
      "ãĥ¤": 1814,
      "ãģĦãģı": 1815,
      "ãģ«åĲĳ": 1816,
      "ãģ¨æĦŁãģĺ": 1817,
      "ãĤĴè¿": 1818,
      "ãģ¦ãģĦãģŁ": 1819,
      "ãģ¦ãģĦãģ¾ãģĹãģŁ": 1820,
      "ãģ¦ãģĦãģªãģĦ": 1821,
      "ãĥĥãĥķ": 1822,
      "ãģıãģªãģĦ": 1823,
      "ãĥ¼ãĥĬ": 1824,
      "ãģĪãģªãģĦ": 1825,
      "ãĥ¼ãĤ½": 1826,
      "ãĥ©ãĤ¤ãĥ³": 1827,
      "è¦§": 1828,
      "ãĤĴæī": 1829,
      "ãĤĴæķ": 1830,
      "ãģ®åĨ": 1831,
      "ãģ®æ±": 1832,
      "ãģ®æĪ": 1833,
      "ãģ§ãģ¯ãģĤãĤĬãģ¾ãģĽãĤĵ": 1834,
      "èª²": 1835,
      "èªĮ": 1836,
      "èªŃ": 1837,
      "ä¸Ĭãģ§": 1838,
      "ãģ«ãģªãĤĬãģ¾ãģĹãģŁ": 1839,
      "å°İ": 1840,
      "çĽ®æĮĩ": 1841,
      "ãĥĸãĥ¬": 1842,
      "ãĥ¥ãĥĭ": 1843,
      "ãģĹãģ¦ãģĦãĤĭãģ®ãģĭ": 1844,
      "ãĤ¹ãĤ¿ãĥĥãĥķ": 1845,
      "æ³ģ": 1846,
      "æĪĲéķ·": 1847,
      "ç«ĭãģ¡": 1848,
      "æİ¡çĶ¨": 1849,
      "ãĥ¼ãĤ¿ãĥ¼": 1850,
      "2010": 1851,
      "ãĤŃãĥ£ãĥ³ãĥļ": 1852,
      "ãĥ¯ãĥ¼ãĤ¯": 1853,
      "ç§ģãģ¯": 1854,
      "ä¾¡æł¼": 1855,
      "ãĥİãĥŀãĥī": 1856,
      "åħ¬éĸĭ": 1857,
      "æĶ¾": 1858,
      "ãģ«ãĤĪãģ£ãģ¦": 1859,
      "ãĥīãĥĲãĤ¤ãĤ¹": 1860,
      "ãĤ²ãĥ¼ãĥł": 1861,
      "ãģķãģĽãĤĭ": 1862,
      "æ®µ": 1863,
      "å¹³åĿĩ": 1864,
      "ãģ®åł´åĲĪ": 1865,
      "ãĤ³ãĥŁãĥ¥ãĥĭ": 1866,
      "å¸Ĥåł´": 1867,
      "itter": 1868,
      "ä¾¿åĪ©": 1869,
      "iPhon": 1870,
      "ãģĵãģłãĤıãĤĬ": 1871,
      "éŃħåĬĽ": 1872,
      "nifty": 1873,
      "æłªå¼ıä¼ļç¤¾": 1874,
      "Twitter": 1875,
      "iPhone": 1876,
      "12": 1877,
      "17": 1878,
      "¡çĲĨ": 1879,
      "ªģ": 1880,
      "½¢": 1881,
      "ĠD": 1882,
      "ĠWiMAX": 1883,
      "ãģĸ": 1884,
      "ãģ¦ãģ¯": 1885,
      "ãģªãĤĵãģ§ãģĻ": 1886,
      "ãĤĴéģ¸": 1887,
      "ãģ¾ãģ¾": 1888,
      "ãĤĤãģĤãĤĬãģ¾ãģĻ": 1889,
      "ãģĵãģª": 1890,
      "ãģįãģŁãģĦ": 1891,
      "ãĥ¼ãĥģ": 1892,
      "ãĥ¼ãĥķ": 1893,
      "ä½ı": 1894,
      "ãĥªãĤ«": 1895,
      "ãĤ¢ãĤ¤ãĥĨãĥł": 1896,
      "ãĥ©ãĤ¯": 1897,
      "äººæĿĲ": 1898,
      "åıĭäºº": 1899,
      "ãĤĴæĭ": 1900,
      "ãĤ¿ãĤ¤ãĥ": 1901,
      "ãģĻãĤĭãģĵãģ¨ãģĮ": 1902,
      "ãģĭãĤīãģ¯": 1903,
      "ãģ®åĸ": 1904,
      "ãĥ¬ãĥĵ": 1905,
      "ãĤıãĤĮ": 1906,
      "ãĤĪãģĨãģ§ãģĻ": 1907,
      "å¾´": 1908,
      "å°±": 1909,
      "éĽĳ": 1910,
      "ä»ķäºĭãģ®": 1911,
      "ãĤ¹ãĥĿãĥ¼ãĥĦ": 1912,
      "ãĤĤãģ®ãģ®": 1913,
      "ãĤªãĥ³": 1914,
      "åį°": 1915,
      "æĺ¨": 1916,
      "ãĥĥãĤ¯ãĤ¹": 1917,
      "âĢ»": 1918,
      "èĩªåĪĨãģ®": 1919,
      "å¥³åŃĲ": 1920,
      "ãĥĿãĥ¼ãĥ«": 1921,
      "ãģĤãģªãģŁãģĮ": 1922,
      "æĻ¯": 1923,
      "æ±Ĥäººæĥħåł±": 1924,
      "ãĤĨãĤĭ": 1925,
      "å°ĳãģĹ": 1926,
      "æ¯İ": 1927,
      "æħĭ": 1928,
      "éŁ³": 1929,
      "ãĥ¥ãĤ¢ãĥ¼": 1930,
      "çłĶç©¶": 1931,
      "é£²ãģ¿": 1932,
      "æ¡Ī": 1933,
      "ãĥģãĤ§ãĥĥãĤ¯": 1934,
      "ãĤ¤ãĥ³ãĤ¿ãĥĵãĥ¥ãĤ¢ãĥ¼": 1935,
      "ãĤ»ãĥ¬ãĤ¯ãĥĪ": 1936,
      "è¢«çģ½": 1937,
      "èĲ½": 1938,
      "ãĤŃãĥ£ãĥ³ãĥļãĥ¼ãĥ³": 1939,
      "16": 1940,
      "CO": 1941,
      "ER": 1942,
      "Fi": 1943,
      "HO": 1944,
      "°ãĤĬ": 1945,
      "ç½®": 1946,
      "éĺ": 1947,
      "Ĳãĥ¼": 1948,
      "ãģ«è¦ĭ": 1949,
      "ãģĻãģĶ": 1950,
      "ãģ¨èĢĥãģĪ": 1951,
      "ãģĮãģĦ": 1952,
      "ãĥ³ãģ®": 1953,
      "ãĤ¹ãĤ¯": 1954,
      "ä¸¦": 1955,
      "ä¸Ī": 1956,
      "ãĤīãģĦ": 1957,
      "ãģ§ãģĻãģĭãĤī": 1958,
      "ãģ§ãģĻãĤĪãģŃ": 1959,
      "ãģĵãģ¡ãĤī": 1960,
      "ãģ¦ãģĦãģı": 1961,
      "ä»»": 1962,
      "ãģįãģ£": 1963,
      "ãĥ¼ãĥĨ": 1964,
      "ãĥ¼ãĥĭãĥ³ãĤ°": 1965,
      "ãĥªãĥĥ": 1966,
      "ãĤ¢ãĤ¤": 1967,
      "ãģĿãĤĤ": 1968,
      "å®¤": 1969,
      "å®®": 1970,
      "äººçĶŁ": 1971,
      "ãĤ¯ãĥŃ": 1972,
      "ãĥĹãĥ©ãĤ¤ãĥ": 1973,
      "ä¼º": 1974,
      "ãģ®å¼": 1975,
      "ãģ®å¾": 1976,
      "ãģ®åĽ": 1977,
      "ãĤ·ãĥ¼": 1978,
      "åĽ²": 1979,
      "ãģ®æĦ": 1980,
      "ãģķãĤĮãģ¾ãģĻ": 1981,
      "ãĤ³ãĥ³ãĥ": 1982,
      "ãĤ¸ãĥ¥": 1983,
      "åĭ¢": 1984,
      "ãĤ¤ãĥ¤": 1985,
      "æ°ĹæĮģãģ¡": 1986,
      "ãĢıãĢİ": 1987,
      "ãĥĨãĥ¬ãĥĵ": 1988,
      "ãĤ¨ãĥ³ãĤ¸": 1989,
      "ä¸ŃåĽ½": 1990,
      "ãĤĴçŀ¬": 1991,
      "æľĢè¿ĳ": 1992,
      "ä½ľåĵģ": 1993,
      "åĢĭ": 1994,
      "å¯¾çŃĸ": 1995,
      "ãĤįãģĨ": 1996,
      "éĢļä¿¡": 1997,
      "éĩĳåŃĲ": 1998,
      "ç·ı": 1999,
      "ãģĹãģ¾ãģ£ãģŁ": 2000,
      "ãģ£ãģ¦ãģĦãģŁ": 2001,
      "å§¿": 2002,
      "å§ī": 2003,
      "ãĥĻãĥ«": 2004,
      "èĳĹ": 2005,
      "ãģªãĤĵãģ¦": 2006,
      "ãĥ©ãĤ¤ãĥķ": 2007,
      "å½¼å¥³": 2008,
      "ãģ«å¯¾ãģĹ": 2009,
      "èµ¤": 2010,
      "ãģ®æĻĤéĸĵ": 2011,
      "åŁº": 2012,
      "çŃĶãģĪ": 2013,
      "èĪĪåĳ³": 2014,
      "å²¡": 2015,
      "ãģ¾ãģļãģ¯": 2016,
      "ãĥĹãĥ¬ãĤ¼ãĥ³ãĥĪ": 2017,
      "Facebookãĥļãĥ¼ãĤ¸": 2018,
      "æľ¬å½ĵãģ«": 2019,
      "ãģŁãģıãģķãĤĵ": 2020,
      "ãĤ»ãĥ¬ãĤ¯ãĥĪãĤ·ãĥ§ãĥĥãĥĹ": 2021,
      "ãĤĴçŀ¬æĻĤãģ«": 2022,
      "IE": 2023,
      "ME": 2024,
      "pe": 2025,
      "å©ļ": 2026,
      "æļ": 2027,
      "ĠC": 2028,
      "ĠP": 2029,
      "ĸãĥ©ãĥ³ãĥī": 2030,
      "ãģ®ãģ«": 2031,
      "ãģ®å¤§": 2032,
      "ãģ®ä¸Ģãģ¤": 2033,
      "ãģ«ãģĤãĤĭ": 2034,
      "ãģ¨ãģ¦ãĤĤ": 2035,
      "ãĤĭãģĵãģ¨ãģĮ": 2036,
      "ãģ¾ãĤĭ": 2037,
      "ãģĮå¢Ĺ": 2038,
      "ãĤ¹ãĥ¼ãĥĦ": 2039,
      "ä¸ī": 2040,
      "ãģĵãģĿ": 2041,
      "ãĥ«ãĥ¼ãĤŃ": 2042,
      "ãģķãģıãĤī": 2043,
      "ãĥ¼ãĥĩãĤ£": 2044,
      "ãĤ¢ãĤ«": 2045,
      "ãĤ¢ãĥ¡": 2046,
      "ãĥ¼ãĤ¬": 2047,
      "åħħ": 2048,
      "è¦ı": 2049,
      "ãģĳãĤĮãģ°": 2050,
      "ãĤĴæ¥½": 2051,
      "ãģ¾ãģĹãģŁãģĮ": 2052,
      "ãĥĹãĥ©ãĤ¤": 2053,
      "ãģ®åº": 2054,
      "ãĤ·ãĤ¹ãĥĨ": 2055,
      "è¨¼": 2056,
      "ãģ¨ãģĦãģĨãģĵãģ¨": 2057,
      "æĹ¥ãģ¯": 2058,
      "ãģ¡ãĤ": 2059,
      "ãĤ¸ãĤ¹ãĤ¿": 2060,
      "éģĬ": 2061,
      "åĨį": 2062,
      "çļĨ": 2063,
      "ãģ®ãĥŀ": 2064,
      "ãĤĴç¶": 2065,
      "æķ´": 2066,
      "çĶŁãģ¾": 2067,
      "èĢħãģ®": 2068,
      "åĢĴ": 2069,
      "ãĥķãĤ¡ãĥ³ãĤ¿": 2070,
      "ä½ķãģĭ": 2071,
      "æĬľ": 2072,
      "ä»¥å¤ĸ": 2073,
      "ç·Ĵ": 2074,
      "åĨħå®¹": 2075,
      "ç«ĭãģ¤": 2076,
      "ãģ¨ãģªãĤĬãģ¾ãģĹãģŁ": 2077,
      "éĻº": 2078,
      "çī¹éĽĨ": 2079,
      "ç¨İ": 2080,
      "è¾Ľ": 2081,
      "èĭ¦": 2082,
      "åĬłãģĪ": 2083,
      "ä»ĬåĽŀãģ®": 2084,
      "è¨ĺéĮ²": 2085,
      "ãģĬãģĻãģĻãĤģãģĻãĤĭ": 2086,
      "å¼·ãģĦ": 2087,
      "ãĥķãĤ£ãĥĥãĥĪ": 2088,
      "ãģ®ä¸Ńãģ§": 2089,
      "å¤§ãģįãģı": 2090,
      "ãģ«å¯¾ãģĹãģ¦": 2091,
      "éĸ¢éĢ£ãĥªãĥ³ãĤ¯": 2092,
      "ãĤ¤ãĥ³ãĤ¿ãĥ¼ãĥį": 2093,
      "ãĤĦãĤĬãģŁãģĦ": 2094,
      "éħįä¿¡": 2095,
      "éģķãģĦ": 2096,
      "ãĥĪãĥ¬ãĥ¼ãĥĭãĥ³ãĤ°": 2097,
      "......": 2098,
      "ãģĺãĤĥãģªãģĦ": 2099,
      "ãģľãģ²": 2100,
      "äºĪå®ļ": 2101,
      "ãģ®åŃĲ": 2102,
      "ãĤ¹ãĥĳãĥ¼ãĤ½": 2103,
      "ãģĬå®¢æ§ĺ": 2104,
      "éĬĢ": 2105,
      "èı¯": 2106,
      "ãĤ³ãĥŁãĥ¥ãĥĭãĤ±ãĥ¼ãĤ·ãĥ§ãĥ³": 2107,
      "ãģįãģ£ãģĭãģĳ": 2108,
      "ãĤ·ãĤ¹ãĥĨãĥł": 2109,
      "ãĤ¸ãĤ¹ãĤ¿ãģķãģıãĤī": 2110,
      "ãĥķãĤ¡ãĥ³ãĤ¿ãĤ¸ãĤ¹ãĤ¿ãģķãģıãĤī": 2111,
      "ãĤ¤ãĥ³ãĤ¿ãĥ¼ãĥįãĥĥãĥĪ": 2112,
      "##": 2113,
      "15": 2114,
      "700": 2115,
      "86": 2116,
      "LE": 2117,
      "es": 2118,
      "in": 2119,
      "ro": 2120,
      "ul": 2121,
      "ªåĬĽ": 2122,
      "ªæµ": 2123,
      "¶æ¥Ń": 2124,
      "âĨ": 2125,
      "çĪ": 2126,
      "çĩĥ": 2127,
      "è¥": 2128,
      "é½¢": 2129,
      "ĠJ": 2130,
      "ãģŀ": 2131,
      "ãģ®ãĤ«": 2132,
      "ãģĹãģķ": 2133,
      "ãģ«ãĤĪãĤĬ": 2134,
      "ãĥ¼ãĤĴ": 2135,
      "ãģ¦ãģĬãĤĬ": 2136,
      "ãĤĴåĪ©çĶ¨": 2137,
      "ãĤĴåıĹ": 2138,
      "ãģ¾ãģķ": 2139,
      "ãģ¾ãģ§ãģ¯": 2140,
      "ä¸¡": 2141,
      "ãĤīãģļ": 2142,
      "ãĢįãĢĤ": 2143,
      "ãģıãĤĬ": 2144,
      "æľ¨": 2145,
      "æľĿ": 2146,
      "å¤«": 2147,
      "ãĥªãĤ¨": 2148,
      "ãĤ¢ãĥ³": 2149,
      "ãģĹãģ¦ãģĬãģĻãģĻãĤģãģĻãĤĭ": 2150,
      "ãĤ¿ãĤ¨": 2151,
      "çµ¦": 2152,
      "ä¼¸": 2153,
      "ä¼Ĭ": 2154,
      "ãģ£ãģŁãĤĬ": 2155,
      "ãĥ³ãĥĢ": 2156,
      "ãĥ³ãĥĬ": 2157,
      "ãĤ¹ãĥŁ": 2158,
      "çĽĬ": 2159,
      "ãĥ¬ãĥ¼ãĤ·ãĥ§ãĥ³": 2160,
      "ãĤıãģļ": 2161,
      "èĩ³": 2162,
      "ãĤ³ãĥĶ": 2163,
      "è¡Ĺ": 2164,
      "ä¸Ģç·Ĵ": 2165,
      "ãĤ°ãĥª": 2166,
      "ç¤¾éķ·": 2167,
      "åĪĨãģĭ": 2168,
      "ä¼ļåł´": 2169,
      "ãģķãĤĵãģ«": 2170,
      "ä½¿ãģĦ": 2171,
      "å¸Ń": 2172,
      "ãĥŀãĥĥãĥģ": 2173,
      "è¡Įåĭķ": 2174,
      "ãĥĳãĥĥ": 2175,
      "æĮĳ": 2176,
      "æĸ°ãģŁ": 2177,
      "ä¿Ĥ": 2178,
      "ç§»": 2179,
      "æľĢå¾Į": 2180,
      "ãĢħãģ¨": 2181,
      "ãĤ¹ãĤ¿ãĥ¼ãĥĪ": 2182,
      "éł¼": 2183,
      "éłĥ": 2184,
      "é¡§": 2185,
      "é¡ŀ": 2186,
      "ãģĿãĤĮãģ¯": 2187,
      "ãĤ±ãĥ¼ãĤ¹": 2188,
      "?ãĢįãĢĮ": 2189,
      "ç¨ĭ": 2190,
      "è¶£": 2191,
      "åİ»": 2192,
      "èĪĹ": 2193,
      "ãĤĴè¦ĭãģĽ": 2194,
      "ãĤ·ãĥ£ãĥ«": 2195,
      "å¤īåĮĸ": 2196,
      "ç´łæĿĲ": 2197,
      "ãģ«ãģĬãģĳãĤĭ": 2198,
      "èµ°": 2199,
      "ä¸įå®ī": 2200,
      "å¤ļãģıãģ®": 2201,
      "æĿ±äº¬éĥ½": 2202,
      "çĬ¶æ³ģ": 2203,
      "ãĤ¹ãĤŃãĥ«": 2204,
      "æ¼Ķ": 2205,
      "ç¤¾ä¼ļäºº": 2206,
      "ãĤ¦ãĤ§ãĤ¢": 2207,
      "åŃĺåľ¨": 2208,
      "åĪ¤æĸŃãģĹãģ¦ãģĬãģĻãģĻãĤģãģĻãĤĭ": 2209,
      "å®Įåħ¨": 2210,
      "é¤Ĭ": 2211,
      "ãĤ³ãĥ³ãĥĨãĥ³ãĥĦãģ§ãģĻ": 2212,
      "URL": 2213,
      "ãģ¯ãģļãģ§ãģĻ": 2214,
      "ãģ®æ±Ĥäºº": 2215,
      "ãģ®åĸ¶æ¥Ń": 2216,
      "åį°è±¡": 2217,
      "ãĤĴçŀ¬æĻĤãģ«åĪ¤æĸŃãģĹãģ¦ãģĬãģĻãģĻãĤģãģĻãĤĭ": 2218,
      "ãĥ«ãĥ¼ãĤŃãĤ¿ãĤ¨": 2219,
      "ãĥĹãĥ©ãĤ¤ãĤº": 2220,
      "éĬĢåº§": 2221,
      "ãĥķãĤ¡ãĥ³ãĤ¿ãĤ¸ãĤ¹ãĤ¿ãģķãģıãĤīãģł": 2222,
      "ªæµľ": 2223,
      "âĨĴ": 2224,
      "14": 2225,
      "Goo": 2226,
      "TV": 2227,
      "VIE": 2228,
      "gle": 2229,
      "id": 2230,
      "´åı²": 2231,
      "¾åĲĳ": 2232,
      "æ¶": 2233,
      "æ¿Ģ": 2234,
      "ç±": 2235,
      "ç¿": 2236,
      "ģå½ĵ": 2237,
      "Ĵåĩº": 2238,
      "Ķ¯": 2239,
      "ĻãģĴ": 2240,
      "Ł¥": 2241,
      "ãģ®é«ĺ": 2242,
      "ãĥ¼ãģĮ": 2243,
      "ãĤĴãĤĤ": 2244,
      "ãĤĴãģĻãĤĭ": 2245,
      "ãģ¯ä½ķ": 2246,
      "ãĥ³ãĤ¿ãĥ¼": 2247,
      "ãĥĪãĥ©": 2248,
      "ãģĨãģĮ": 2249,
      "äº¤": 2250,
      "ãĤĵãģ©": 2251,
      "æľį": 2252,
      "ãģĤãģ¾ãĤĬ": 2253,
      "å¤©": 2254,
      "å¤ı": 2255,
      "åħī": 2256,
      "åĲĽ": 2257,
      "ãĤ¿ãĤ¯": 2258,
      "ãģĭãĤīãģªãģĦ": 2259,
      "ãĥ³ãĥĢãĥ¼": 2260,
      "çĽĽ": 2261,
      "éĢ±": 2262,
      "éĢĶ": 2263,
      "æĹ¥ãģ®": 2264,
      "ãĤıãĤĮãĤĭ": 2265,
      "ãĤµãĥĹãĥ©ãĤ¤ãĤº": 2266,
      "å¤§ãģª": 2267,
      "å¤§åĪĩ": 2268,
      "ä¸Ģåº¦": 2269,
      "ãģ®ãĥ¡": 2270,
      "ãģ®ãĥĨ": 2271,
      "å¾¹": 2272,
      "ãģķãĤĵãģ¨": 2273,
      "çĽ®ãĤĴ": 2274,
      "æĢ§ãģĮ": 2275,
      "ãģªãģ©ãĤĴ": 2276,
      "æĢĿèĢĥ": 2277,
      "éĸĵãģ§": 2278,
      "ãĤ¨ãĥªãĤ¢": 2279,
      "ä¸Ńãģ§": 2280,
      "ãĥ¼ãĥ«ãĥī": 2281,
      "ãĤīãĤĮãģ¾ãģĹãģŁ": 2282,
      "ãĤĴçŁ¥": 2283,
      "å®Łãģ¯": 2284,
      "ãĥ¡ãĥ©": 2285,
      "ãĤ¦ãĤ¹": 2286,
      "è¿°": 2287,
      "çĶŁãģį": 2288,
      "é«ĺãģı": 2289,
      "æĸ°åįĴ": 2290,
      "è»ĬãĤĴ": 2291,
      "æĥħåł±ãģĮ": 2292,
      "èĩªåĪĨãģ§": 2293,
      "è©±é¡Į": 2294,
      "é¡Ķ": 2295,
      "éĸ¢ä¿Ĥ": 2296,
      "ãģ»ãģĭ": 2297,
      "ãģ»ãģĨãģĮ": 2298,
      "ãģ§ãģĹãģŁãģĮ": 2299,
      "ãĥĲãĤ¤ãĥ«": 2300,
      "ãģ£ãģ¦ãģĦãģĨ": 2301,
      "ãģ¸ãģ¨": 2302,
      "ãĤ¬ãĥ¼": 2303,
      "å¼·ãģı": 2304,
      "æ¸Ī": 2305,
      "è±Ĭ": 2306,
      "ãģĤãģªãģŁãģ®": 2307,
      "çĶ°ãģķãĤĵ": 2308,
      "çĽ¸æīĭ": 2309,
      "ãĤĴä½¿ãģ£ãģ¦": 2310,
      "ãģ¨è¨ĢãģĪãĤĭ": 2311,
      "ãģ²ãģ¨": 2312,
      "æ®ĭ": 2313,
      "éģİåİ»": 2314,
      "ãĤ³ãĥ³ãĤµãĥ«ãĥĨãĤ£ãĥ³ãĤ°": 2315,
      "type": 2316,
      "éĻĲå®ļ": 2317,
      "åĬ¹æŀľ": 2318,
      "åŃĹç¤¾åĵ¡": 2319,
      "ãĤĴæİ¢ãģĹãģ¦ãģĦãĤĭãģ®ãģĭ": 2320,
      "è¬Ľ": 2321,
      "ãģ«éĸ¢ãģĻãĤĭ": 2322,
      "æľªçµĮé¨ĵ": 2323,
      "ãģ®ãģ§ãģ¯ãģªãģĦãģ§ãģĹãĤĩãģĨãģĭ": 2324,
      "ãĤĴæ±º": 2325,
      "ç²¾": 2326,
      "æ±Ĥäººæĥħåł±ãĤĴæİ¢ãģĹãģ¦ãģĦãĤĭãģ®ãģĭ": 2327,
      "ãĥ¼ãĥĨãĤ£": 2328,
      "ãĤ¢ãĥ¡ãĥªãĤ«": 2329,
      "ç¨İè¾¼": 2330,
      "Google": 2331,
      "æ±Ĥäººæĥħåł±ãĤĴæİ¢ãģĹãģ¦ãģĦãĤĭãģ®ãģĭãĤĴçŀ¬æĻĤãģ«åĪ¤æĸŃãģĹãģ¦ãģĬãģĻãģĻãĤģãģĻãĤĭ": 2332,
      "600": 2333,
      "99": 2334,
      "And": 2335,
      "al": 2336,
      "µģ": 2337,
      "âĹ": 2338,
      "å¬": 2339,
      "æ¤ľ": 2340,
      "çĹ": 2341,
      "çł´": 2342,
      "èŀ": 2343,
      "Ĳãģ«": 2344,
      "ĸãĥª": 2345,
      "ĺãģĦ": 2346,
      "Ļãĥ¼ãĥĪ": 2347,
      "ãģ±": 2348,
      "ãģ®ãģĵãģ¨": 2349,
      "ãģ«ãģĹãģ¦": 2350,
      "ãģªãģ£ãģ¦": 2351,
      "ãģŁãĤĭ": 2352,
      "ãģŁãĤī": 2353,
      "ãģ¾ãĤĵ": 2354,
      "ãģĮå¿ħè¦ģ": 2355,
      "ãģĭãģ«": 2356,
      "ãĥĪãĥŁ": 2357,
      "ãģĨãģ¡": 2358,
      "ãģ£ãģ±": 2359,
      "äºķ": 2360,
      "ãģĤãĤī": 2361,
      "ãĥ¼ãĤĦ": 2362,
      "ãĥķãĥ©": 2363,
      "ãĤ¯ãĤ·ãĥ§ãĥ³": 2364,
      "ãģĻãĤĭãģŁãĤģ": 2365,
      "ãģĻãĤĭãģ®ãģ¯": 2366,
      "æĢ¥": 2367,
      "ãģĵãģ¨ãģ«": 2368,
      "ãģ®å¿": 2369,
      "ãĤ·ãĥ¼ãĥ³": 2370,
      "ãģ¤ãģ¤": 2371,
      "å¹´ãģ«": 2372,
      "å¹´é½¢": 2373,
      "ãģ®æŃ": 2374,
      "ãĤıãĤĮãģŁ": 2375,
      "ãģ¿ãģŁãģĦ": 2376,
      "ãĤ³ãĥ©": 2377,
      "éģ©": 2378,
      "èģ·æ¥Ń": 2379,
      "å¿ĺ": 2380,
      "ç´¢": 2381,
      "ãģ®ãĥĿ": 2382,
      "æĿ¾": 2383,
      "æĿ¿": 2384,
      "çĽ®ãģ«": 2385,
      "ãĢıâĨĴ": 2386,
      "åľ§": 2387,
      "åľĴ": 2388,
      "ãĥŀãĥ«": 2389,
      "æĸ¹æ³ķ": 2390,
      "åŃĲèĤ²ãģ¦": 2391,
      "ãģĹãĤĢ": 2392,
      "å¯Ħ": 2393,
      "åł´æīĢ": 2394,
      "ãĥ¡ãĥ¼ãĥ«": 2395,
      "ãģ©ãĤĵãģªæ±Ĥäººæĥħåł±ãĤĴæİ¢ãģĹãģ¦ãģĦãĤĭãģ®ãģĭãĤĴçŀ¬æĻĤãģ«åĪ¤æĸŃãģĹãģ¦ãģĬãģĻãģĻãĤģãģĻãĤĭ": 2396,
      "æĦŁè¦ļ": 2397,
      "çĶŁæ´»": 2398,
      "ãĤªãĥķãĤ£": 2399,
      "æľĢæĸ°": 2400,
      "ä¸ĸä»£": 2401,
      "éļİ": 2402,
      "è¦ģç´ł": 2403,
      "ãĤ±ãĥ¼ãĥĪ": 2404,
      "åħ¨ãģ¦": 2405,
      "åħ¨åĽ½": 2406,
      "æĬķ": 2407,
      "åĥķ": 2408,
      "ç·´": 2409,
      "åĲĳãģĳ": 2410,
      "ãĥ¢ãĥĲãĤ¤ãĥ«": 2411,
      "åĪ©çĽĬ": 2412,
      "åīįãģ«": 2413,
      "ãģĹãģ¦ãģĦãģ¾ãģĹãģŁ": 2414,
      "ãĥ¼ãĤ¿ãĥ«": 2415,
      "å·®": 2416,
      "çŁ¥ãĤĬ": 2417,
      "çŁ¥èŃĺ": 2418,
      "æ¨ªæµľ": 2419,
      "æ¸¯": 2420,
      "åºĥãģĴ": 2421,
      "åķıé¡Į": 2422,
      "æľŁå¾ħ": 2423,
      "æĹħè¡Į": 2424,
      "æĹħãģĦãģı": 2425,
      "åı¯èĥ½ãģ§ãģĻ": 2426,
      "è³ªåķı": 2427,
      "åİŁæ°ıãģ¯": 2428,
      "æºĢ": 2429,
      "ãĤĴå®Łçı¾": 2430,
      "çĭ¬": 2431,
      "å°ĤéĸĢ": 2432,
      "åħ·ä½ĵ": 2433,
      "ãģ®ãĥĵãĤ¸ãĥį": 2434,
      "ãĤ¢ãĤ¯ãĤ»": 2435,
      "é»Ĵ": 2436,
      "ãģ½ãģĦ": 2437,
      "ç©įæ¥µ": 2438,
      "éĽĳèªĮ": 2439,
      "ãģĤãģªãģŁãģĮãģ©ãĤĵãģªæ±Ĥäººæĥħåł±ãĤĴæİ¢ãģĹãģ¦ãģĦãĤĭãģ®ãģĭãĤĴçŀ¬æĻĤãģ«åĪ¤æĸŃãģĹãģ¦ãģĬãģĻãģĻãĤģãģĻãĤĭ": 2440,
      "çłĶç©¶æīĢ": 2441,
      "ãĥĹãĥ©ãĤ¤ãĥĻãĥ¼ãĥĪ": 2442,
      "roid": 2443,
      "è¥¿": 2444,
      "æĮĳæĪ¦": 2445,
      "é¡§å®¢": 2446,
      "è¬Ľåº§": 2447,
      "Android": 2448,
      "èŀį": 2449,
      "ĸãĥªãĥĥãĥī": 2450,
      "21": 2451,
      "500": 2452,
      "EN": 2453,
      "No": 2454,
      "ar": 2455,
      "¡ä»¶": 2456,
      "¥Ń": 2457,
      "¦ãĥ¼ãĤ¶ãĥ¼": 2458,
      "ÃĹ": 2459,
      "Ġ-": 2460,
      "ãģ®ãģ¿": 2461,
      "ãģ®æĸ¹ãģĮ": 2462,
      "ãģ§ãģ«": 2463,
      "ãģĹãĤĪãģĨ": 2464,
      "ãģ¨èªŀ": 2465,
      "ãģĮåĩº": 2466,
      "ãģ¯ãģĤãĤĬãģ¾ãģĽãĤĵ": 2467,
      "ãģĭãģ¤": 2468,
      "ãĥĪãĥĥãĥĹ": 2469,
      "ãĤĮãģ¾ãģĻ": 2470,
      "ãģ£ãģĭãĤĬ": 2471,
      "ãĤīãģĹãģĦ": 2472,
      "ãģĵãģ®æ": 2473,
      "ãĥ¼ãĥ©": 2474,
      "ãĥ¼ãĥª": 2475,
      "ãĥ¼ãĥŃ": 2476,
      "ãĤ¢ãĥ³ãĥĪ": 2477,
      "ãĤ¢ãĥīãĥĲãĤ¤ãĤ¹": 2478,
      "ãĥķãĥªãĥ¼": 2479,
      "ãģĳãģªãģĦ": 2480,
      "ãĥĹãĥ«": 2481,
      "ãĤ¿ãĥ³": 2482,
      "ãĤ¿ãĥ¼ãĥ³": 2483,
      "ãģ®å£": 2484,
      "ãģ®åĭ": 2485,
      "ãĤ·ãĤ§": 2486,
      "ãĤ·ãĥ¼ãĥĲ": 2487,
      "ãĤ¹ãĥĶ": 2488,
      "ãģ¤ãģ¾ãĤĬ": 2489,
      "ãģ®æĤ": 2490,
      "ãĤ³ãĥ¼ãĥĩãĤ£": 2491,
      "åĬªåĬĽ": 2492,
      "èĩªå®ħ": 2493,
      "åºķ": 2494,
      "èªĩ": 2495,
      "åĭ¤": 2496,
      "èģ·ç¨®": 2497,
      "å¤§ä¼ļ": 2498,
      "ä¸Ģæĸ¹": 2499,
      "å¿«": 2500,
      "ãĤ°ãĥ«": 2501,
      "ç¤¾ãģ®": 2502,
      "ä¼ļåĵ¡": 2503,
      "æľ¬æĽ¸": 2504,
      "æ°ĹãģĮ": 2505,
      "æ¥ŃåĭĻ": 2506,
      "ãĥĨãĤ¯": 2507,
      "ãĥĨãĥ¼ãĥŀ": 2508,
      "ãģªãģ©ãģ®": 2509,
      "ãĥĲãĥĥ": 2510,
      "å¸¯": 2511,
      "è©³": 2512,
      "ãĥīãĥ©ãĤ¤ãĥ": 2513,
      "è»¢èģ·ãĤĴ": 2514,
      "è¿«": 2515,
      "ãĤĤãģ®ãģĮ": 2516,
      "å±¤": 2517,
      "æľĢãĤĤ": 2518,
      "æľĢåĪĿ": 2519,
      "ãĤ¹ãĥĪãĥ¬": 2520,
      "èĢħãģ¯": 2521,
      "åĽ½åĨħ": 2522,
      "åĽ½éļĽ": 2523,
      "å¯¾è±¡": 2524,
      "æ§ĭ": 2525,
      "å¹´åıİãĤ¢ãĥĥãĥĹ": 2526,
      "æ±Ĥ": 2527,
      "ãģĿãĤĮãģŀ": 2528,
      "ãĤ±ãĥĥãĥĪ": 2529,
      "ãģĵãĤĮãģĭãĤī": 2530,
      "ç·¨": 2531,
      "çŁ³": 2532,
      "ãģ»ãģĹãģĦ": 2533,
      "å¸¸èŃĺ": 2534,
      "ãģ¹ãģį": 2535,
      "ãģĤãĤĬãģ¾ãģĻãģĭ": 2536,
      "ãģ¨ãģªãģ£ãģ¦ãģĦãģ¾ãģĻ": 2537,
      "çī¹åĪ¥": 2538,
      "çī¹å¾´": 2539,
      "éĥ¨éķ·": 2540,
      "ç¨¿": 2541,
      "æİ¥": 2542,
      "è£ħ": 2543,
      "åºĹèĪĹ": 2544,
      "è¨ĺèĢħ": 2545,
      "ç§ģãģĮ": 2546,
      "éģ¸æīĭ": 2547,
      "æıĲä¾Ľ": 2548,
      "éĽĨãģ¾": 2549,
      "ãģ«ãĤĪãĤĭãģ¨": 2550,
      "ãĥ¼ãĥĲãĥ¼": 2551,
      "ãĥ©ãĥ³ãĤ¹": 2552,
      "ãģ«å¯¾ãģĻãĤĭ": 2553,
      "æĺłåĥı": 2554,
      "èµ·": 2555,
      "è²·ãģĦ": 2556,
      "ãģ¨ãĤĤãģ«": 2557,
      "æ¯Ķ": 2558,
      "èĭ¥æīĭ": 2559,
      "ãģĻãģİãĤĭ": 2560,
      "ãģ¡ãĤĥãģĨ": 2561,
      "ãģĹãģ¦ãģıãĤĮãĤĭ": 2562,
      "æīĵãģ¡": 2563,
      "ãģĤãĤĦãģ¾ãĤĵ": 2564,
      "èĭ±åĽ½": 2565,
      "è»¢èģ·æ´»åĭķãĤĴ": 2566,
      "ç®¡çĲĨ": 2567,
      "éĢĨãģ«": 2568,
      "ãĤµãĤ¤ãĤº": 2569,
      "ãģ®æĪ¦": 2570,
      "ãĤ¹ãĥŁãĤ¹": 2571,
      "æĸ°ãģŁãģª": 2572,
      "è¶£åĳ³": 2573,
      "è¿°ãģ¹": 2574,
      "ãģĤãĤīãĤĨãĤĭ": 2575,
      "ãĤ³ãĥ¼ãĥĩãĤ£ãĥį": 2576,
      "ãģĿãĤĮãģŀãĤĮ": 2577,
      "Bee": 2578,
      "CC": 2579,
      "GS": 2580,
      "OK": 2581,
      "TD": 2582,
      "WãģķãĤĵ": 2583,
      "ap": 2584,
      "co": 2585,
      "of": 2586,
      "¹°ãĤĬ": 2587,
      "ºĢ": 2588,
      "å«": 2589,
      "æĲ": 2590,
      "æĳ": 2591,
      "ĭãģĮ": 2592,
      "Ĳæ¡Ī": 2593,
      "ķçĶŁ": 2594,
      "łåİŁæ°ıãģ¯": 2595,
      "ãģ®äºº": 2596,
      "ãģ®é«ĺãģĦ": 2597,
      "ãģĦãģ£ãģŁ": 2598,
      "ãģĹãģªãģĮãĤī": 2599,
      "ãģ«åıĸãĤĬ": 2600,
      "ãģ«ä¹Ĺ": 2601,
      "ãģ«åĬłãģĪ": 2602,
      "ãģ«èĩ³": 2603,
      "ãģĻãģ§ãģ«": 2604,
      "ãģªãģ®ãģ§": 2605,
      "ãģªãģĳãĤĮãģ°": 2606,
      "ãĤĴãģ¯": 2607,
      "ãĤĴéĸĭ": 2608,
      "ãĤĴåıĸ": 2609,
      "ãĤĴå¾Ĺ": 2610,
      "ãģĮä¸Ģ": 2611,
      "ãģĮãģ§ãģįãĤĭ": 2612,
      "ãĤĤãģ£ãģ¨": 2613,
      "ãĥĪãĥ¨": 2614,
      "ãģ£ãģıãĤĬ": 2615,
      "ãĤĵãģ¨": 2616,
      "ãĤ¤ãĥ³ãĥĨ": 2617,
      "ãĥĥãĥĳ": 2618,
      "å¤±": 2619,
      "ãĥªãĥ³ãĤ°": 2620,
      "å®¿": 2621,
      "äººãģ«": 2622,
      "åĲ¦": 2623,
      "ãģĹãģ¦ãģĬ": 2624,
      "ãĤ¯ãĥ«": 2625,
      "ãĤĴæĺ": 2626,
      "ãģ¨ãģĦãģĦãģ¾ãģĻ": 2627,
      "ãģ®å¥": 2628,
      "ãģ£ãģ¦ãģı": 2629,
      "ãĥ³ãĥģ": 2630,
      "çĽ£": 2631,
      "ãģ¨ãģĦãģĨãģ®ãģ¯": 2632,
      "ãĥ¬ãĥ³ãĤ¸": 2633,
      "ãģĽãĤĭ": 2634,
      "æĹ¥ãģĭãĤī": 2635,
      "åĽ³": 2636,
      "ãģ®æķ": 2637,
      "ãĤıãģĭ": 2638,
      "ãģ¿ãģ«": 2639,
      "ãģ¿åĩº": 2640,
      "åĬŁ": 2641,
      "ãĤ¸ãĥĬãĥ«": 2642,
      "äºĭå®Ł": 2643,
      "èĩªçĦ¶": 2644,
      "èªķçĶŁ": 2645,
      "ãĤ«ãĥ©": 2646,
      "èģ·ãģ§": 2647,
      "å¤§åŃ¦": 2648,
      "ãĤ¤ãĥĦ": 2649,
      "çļ®": 2650,
      "ç´ļ": 2651,
      "ãĥ£ãĥ«": 2652,
      "ãģ®ãĥ¢": 2653,
      "å¾©": 2654,
      "ãĥŃãĤ°": 2655,
      "æ°Ĺãģ¥": 2656,
      "ãĤ¨ãĥŁ": 2657,
      "ãĥĲãĥ¼": 2658,
      "å¸°": 2659,
      "å¸Į": 2660,
      "çµĲå©ļ": 2661,
      "ãĥŀãĥį": 2662,
      "ãĥŀãĤ·ãĥ³": 2663,
      "ãĥģãĥ¼ãĥķ": 2664,
      "ãĤīãĤĮãģ¦ãģĦãģ¾ãģĻ": 2665,
      "è»¢èģ·ãģ§ãģįãĤĭ": 2666,
      "ãĤĴçĿĢ": 2667,
      "ãĤĴçªģ": 2668,
      "åħ¥ãĤĬ": 2669,
      "åħ¥ç¤¾": 2670,
      "ãĥĵãĤ¢": 2671,
      "è¨ĢãģĨ": 2672,
      "ãĥ¡ãĥ³ãĥĪ": 2673,
      "ãģŁãĤģãģ«ãģ¯": 2674,
      "åĬĽãĤĴ": 2675,
      "æķµ": 2676,
      "ãĤ¦ãĥ³ãĥĪ": 2677,
      "çĶŁãģ¿åĩº": 2678,
      "å±ŀ": 2679,
      "ãģ¨ãģĹãģ¦ãģ¯": 2680,
      "åį±": 2681,
      "åįģ": 2682,
      "è²ł": 2683,
      "æĺĶ": 2684,
      "å½ĵæĻĤ": 2685,
      "èĢħãģĮ": 2686,
      "çı¾ä»£": 2687,
      "å¯¾å¿ľ": 2688,
      "ãģĿãģĨãģª": 2689,
      "ä¸ĩäºº": 2690,
      "ãģĿãĤĮãĤĴ": 2691,
      "ãĤ±ãĥ¼ãĤ¿": 2692,
      "æĦıè¦ĭ": 2693,
      "ä»¥ä¸ĭ": 2694,
      "åĨħãģ«": 2695,
      "æĪĲè¬Ľåº§": 2696,
      "åīįåĽŀ": 2697,
      "åĤ¾åĲĳ": 2698,
      "ãģ¨ãģªãĤĬ": 2699,
      "æİĽ": 2700,
      "è¾ŀ": 2701,
      "å·Ŀ": 2702,
      "åĬłèĹ¤": 2703,
      "éĽ»è©±": 2704,
      "ãģŁãģ¡ãģ®": 2705,
      "æ¬ł": 2706,
      "åİ³": 2707,
      "æı´": 2708,
      "æ¨¡": 2709,
      "ãĤĴæĮģãģ£ãģ¦ãģĦãĤĭ": 2710,
      "ãģªãĤĵãģĭ": 2711,
      "ãĥľãĥĩãĤ£": 2712,
      "åķıãģĦ": 2713,
      "å®īçĶ°ãģķãĤĵ": 2714,
      "ãģªãĤīãģ§ãģ¯": 2715,
      "æĤ©": 2716,
      "æŁĦ": 2717,
      "æĪ¦çķ¥": 2718,
      "è¨Ńå®ļ": 2719,
      "å¿ħè¦ģãģª": 2720,
      "æ°´ç´ł": 2721,
      "æľīåĲį": 2722,
      "ãĤĦãĤĬãģĮãģĦ": 2723,
      "éģİãģĶ": 2724,
      "ç¯ī": 2725,
      "ç¯łåİŁæ°ıãģ¯": 2726,
      "å¼ķãģį": 2727,
      "ãĥĪãĥ¬ãĥ³ãĥī": 2728,
      "ãĥĴãĤ²": 2729,
      "ãĤĴä½ľæĪĲ": 2730,
      "æľĢå¤§ãģ®": 2731,
      "ãģ«è¡Įãģı": 2732,
      "ãĤ·ãĥ³ãĥĹãĥ«": 2733,
      "ãģ¾ãģ¨ãĤģ": 2734,
      "ãģĵãģĨãģĹãģŁ": 2735,
      "æĹ©ãģı": 2736,
      "è©±ãĤĴèģŀ": 2737,
      "ãģĲãĤīãģĦ": 2738,
      "ãģĭãĤĤãģĹãĤĮãģ¾ãģĽãĤĵãģĮ": 2739,
      "çķ°ãģªãĤĭ": 2740,
      "ãĤªãĥªãĤ¸ãĥĬãĥ«": 2741,
      "ãĥıãĤ¤ãĥĸãĥªãĥĥãĥī": 2742,
      "ãĤ¹ãĥªãĥ¼ãĤ¬": 2743,
      "ä»ĺãģįåĲĪãģĦ": 2744,
      "ãģĶç´¹ä»ĭãģĹãģ¾ãģĻ": 2745,
      "èĲ½ãģ¡": 2746,
      "ä¼ºãģĦãģ¾ãģĹãģŁ": 2747,
      "ãģ¡ãĤĩ": 2748,
      "éģĬãģ³": 2749,
      "ãĤ¹ãĥĳãĥ¼ãĤ½ãĥ³": 2750,
      "ãģ¾ãģķãģ«": 2751,
      "é¤ĬæĪĲè¬Ľåº§": 2752,
      "ãģ®æ±Ĥäººæĥħåł±": 2753,
      "ãģ¨è¨ĢãģĪãĤĭãģ§ãģĹãĤĩãģĨ": 2754,
      "å¬ī": 2755,
      "ãĤ·ãĥ¼ãĥĲãĤ¹ãĥªãĥ¼ãĤ¬": 2756,
      "ãģ®æĤ©ãģ¿": 2757,
      "ãĤ³ãĥ¼ãĥĩãĤ£ãĥįãĥ¼ãĥĪ": 2758,
      "æĳĺ": 2759,
      "ãĥĪãĥ¨ãĤ¿": 2760,
      "è»¢èģ·ãģ§ãģįãĤĭåĬĽ": 2761,
      "ãĤ±ãĥ¼ãĤ¿ãĤ¤": 2762,
      "ãĤ·ãĥ¼ãĥĲãĤ¹ãĥªãĥ¼ãĤ¬ãĥ«": 2763,
      "13": 2764,
      "100": 2765,
      "22": 2766,
      "25": 2767,
      "27": 2768,
      "AG": 2769,
      "Dr": 2770,
      "MME": 2771,
      "PAN": 2772,
      "ra": 2773,
      "°¡": 2774,
      "½ãģį": 2775,
      "å»": 2776,
      "æ·±": 2777,
      "çĿ": 2778,
      "èħ": 2779,
      "èĸ": 2780,
      "īå¼·": 2781,
      "ãĤ©": 2782,
      "ãĤ¾": 2783,
      "ãģ®ä¸Ģ": 2784,
      "ãģ®æĸ°": 2785,
      "ãģ§è¦ĭ": 2786,
      "ãģ«åĩº": 2787,
      "ãģ«ãĥŀãĥĥãĥģ": 2788,
      "ãģ¨ãģĹãģŁ": 2789,
      "ãģ¨è¿°ãģ¹": 2790,
      "ãĤĴèģŀ": 2791,
      "ãĤĴåıĸãĤĬ": 2792,
      "ãĤĴä¸İ": 2793,
      "ãĤĴãģĶç´¹ä»ĭãģĹãģ¾ãģĻ": 2794,
      "ãģĮãģĤãģ£ãģŁ": 2795,
      "ãģ¯ãģĦ": 2796,
      "ãģ¯å°": 2797,
      "ãĤ¤ãĥ³ãĥī": 2798,
      "ãģĪãģ¦ãģĦãĤĭ": 2799,
      "ãģĪãģ¦ãģĦãģ¾ãģĻ": 2800,
      "å¤¢": 2801,
      "å¤ª": 2802,
      "ãģ©ãĤĮ": 2803,
      "åħĲ": 2804,
      "åıĭ": 2805,
      "åĲī": 2806,
      "ãģĹãģ¦ãģĬãĤĬ": 2807,
      "ãģĹãģ¦ãģįãģŁ": 2808,
      "ãĤ¯ãĥ©ãĤ¤": 2809,
      "ãģłãģ¨æĢĿãģĦãģ¾ãģĻ": 2810,
      "ãĤĴæ´»": 2811,
      "ãģĻãĤĭãģĵãģ¨ãģ§": 2812,
      "ãģĻãĤĭè»¢èģ·æ´»åĭķãĤĴ": 2813,
      "ãģ®å±": 2814,
      "ãģ®åī": 2815,
      "ãģ®åĬ": 2816,
      "ãģ£ãģ¦ãģįãģŁ": 2817,
      "è¨£": 2818,
      "è¨ª": 2819,
      "æĹ¥å¸¸": 2820,
      "ãģ®æī": 2821,
      "ãģ®æĬ": 2822,
      "ãĤ«ãĥķãĤ§": 2823,
      "ãĤ«ãĥ¡ãĥ©": 2824,
      "èģ·ãģ«": 2825,
      "å¿Ļ": 2826,
      "ãģ§ãģįãģªãģĦ": 2827,
      "ãģ®ãĥī": 2828,
      "ãģ®ãĥĽ": 2829,
      "ä»Ĭãģ¾ãģ§": 2830,
      "æĢ§èĥ½": 2831,
      "ä»ķæ§ĺ": 2832,
      "åĩºãģĹ": 2833,
      "ãģĺãĤģ": 2834,
      "å¸«": 2835,
      "æĸ¹ãĢħ": 2836,
      "ãĥ¼ãĥ«ãģĮ": 2837,
      "ãĤīãĤĮãģ¾ãģĻ": 2838,
      "è»¢èģ·ãģĹãģŁ": 2839,
      "ãĤĴç¹°ãĤĬ": 2840,
      "å®Łãģ«": 2841,
      "è¨ĢãģĪãģ°": 2842,
      "ãĥ¡ãĥ³": 2843,
      "ãĤ¦ãĤ©": 2844,
      "åīĥ": 2845,
      "è»Ĭãģ®": 2846,
      "ç§°": 2847,
      "æľĢé«ĺ": 2848,
      "ãĤ»ãĥĹ": 2849,
      "ä½ľãĤĬ": 2850,
      "ãģĿãģ®ä»ĸ": 2851,
      "åĳ¼": 2852,
      "ãĤ¹ãĤ¿ãĥł": 2853,
      "ãĥĥãĤ¯ãģª": 2854,
      "ãģ«æİ": 2855,
      "ãģ¨æĢĿãģ£ãģ¦ãģĦãģ¾ãģĻ": 2856,
      "ãĥ¼ãĤ¸ãĥ£": 2857,
      "ãģĿãģĨãģĦãģĨ": 2858,
      "ä¸ĩä»¥ä¸Ĭ": 2859,
      "æŃ©": 2860,
      "æ°ıãģ®": 2861,
      "ãģĵãģ®ãĤĪãģĨãģª": 2862,
      "ãģĵãģ¨ãģĮãģ§ãģįãģ¾ãģĻ": 2863,
      "éĩĳèŀį": 2864,
      "ãĤĵãģ§ãģĻãĤĪ": 2865,
      "ãĥĨãĤ£ãĥĸ": 2866,
      "ãģ¨ãģªãģ£ãģŁ": 2867,
      "ãĥ¼ãĤ·ãĥ£ãĥ«": 2868,
      "çĤ¹ãĤĤ": 2869,
      "ãģĹãģ¦ãģĦãģı": 2870,
      "å·¦": 2871,
      "è£ı": 2872,
      "è£ľ": 2873,
      "å¿ĥãģ«": 2874,
      "æł¡": 2875,
      "èªŀåŃ¦": 2876,
      "èī¯ãģķ": 2877,
      "ãĥĻãĥ¼ãĤ¹": 2878,
      "çĶ·æĢ§ãģ®": 2879,
      "ãĤĴæĮģãģ¡": 2880,
      "æ¸¬": 2881,
      "åºĥãģĦ": 2882,
      "æĶ¯": 2883,
      "æĶ¿": 2884,
      "æľŁéĸĵ": 2885,
      "ãģ©ãģĨãģĭ": 2886,
      "ä»ĺãģĳ": 2887,
      "åĪĿãĤģãģ¦": 2888,
      "ãĤĴä½¿çĶ¨": 2889,
      "ç¶ļãģĳ": 2890,
      "æĮĩæĳĺ": 2891,
      "çı¾åľ¨ãģ¯": 2892,
      "æĸĻçĲĨ": 2893,
      "åĪĩãĤĬ": 2894,
      "éĢŁåº¦": 2895,
      "çİĭ": 2896,
      "ãģ¨ãĤĤè¨Ģ": 2897,
      "äºĮäºº": 2898,
      "åŁŁ": 2899,
      "èĭ¥ãģĦ": 2900,
      "èª¬æĺİ": 2901,
      "èª¬æķĻ": 2902,
      "æºĸ": 2903,
      "éŁ¿": 2904,
      "è¦ĸçĤ¹": 2905,
      "ãģĦãģĭãģĮ": 2906,
      "ãģłãģĳãģ§ãģªãģı": 2907,
      "ãĤĴå®Łæĸ½": 2908,
      "èī²ãĢħãģª": 2909,
      "æ³¨çĽ®": 2910,
      "åĪ¶ä½ľ": 2911,
      "éģĭåĸ¶": 2912,
      "ãĤ¿ãĤ¤ãĥĹ": 2913,
      "çµĦãģ¿åĲĪãĤıãģĽ": 2914,
      "çµ¶å¯¾": 2915,
      "ç§ĺè¨£": 2916,
      "åĨħãģ§å¹´åıİ": 2917,
      "èª²éķ·": 2918,
      "æĶ¾éĢģ": 2919,
      "æĺ¨å¹´": 2920,
      "HOMME": 2921,
      "éĺ²": 2922,
      "ãģĻãģĶãģı": 2923,
      "ãĤ¨ãĥ³ãĤ¸ãĥ³": 2924,
      "è¦ıæ¨¡": 2925,
      "ãĤĴç¶ļ": 2926,
      "æķ´çĲĨ": 2927,
      "äºĪå®ļãģ§ãģĻ": 2928,
      "ãĤ¢ãĥ³ãĤ±ãĥ¼ãĥĪ": 2929,
      "ä¸Ģç·Ĵãģ«": 2930,
      "ãĥĳãĥĥãĥĨãĤ£ãĥ³ãĤ°": 2931,
      "æľĢå¾Įãģ«": 2932,
      "ç¨ĭåº¦": 2933,
      "æĿ±äº¬éĥ½åĨħãģ§å¹´åıİ": 2934,
      "å®Įåħ¨ãĤµãĥĿãĥ¼ãĥĪ": 2935,
      "ãģ®åĸ¶æ¥Ńèģ·ãģ§": 2936,
      "æ¶Ī": 2937,
      "ãĥĪãĥ©ãĥĸãĥ«": 2938,
      "å¾¹åºķ": 2939,
      "æľªçµĮé¨ĵOK": 2940,
      "æĿ¾èĹ¤": 2941,
      "ãģĤãģªãģŁãģĮãģ©ãĤĵãģªæ±Ĥäººæĥħåł±ãĤĴæİ¢ãģĹãģ¦ãģĦãĤĭãģ®ãģĭãĤĴçŀ¬æĻĤãģ«åĪ¤æĸŃãģĹãģ¦ãģĬãģĻãģĻãĤģãģĻãĤĭãĤ³ãĥ³ãĥĨãĥ³ãĥĦãģ§ãģĻ": 2942,
      "ãĥ¼ãĥŃãĥĥãĥĳ": 2943,
      "BeeTV": 2944,
      "ãĤĴãģ¯ãģĺãĤģ": 2945,
      "çĽ£çĿ": 2946,
      "ãģ¡ãĤĩãģ£ãģ¨": 2947,
      "Drive": 2948,
      "ãģ«ãĥŀãĥĥãĥģãģĻãĤĭè»¢èģ·æ´»åĭķãĤĴ": 2949,
      "ãĤ¯ãĥ©ãĤ¤ãĤ¢ãĥ³ãĥĪ": 2950,
      "ä¸ĩä»¥ä¸Ĭãģ®åĸ¶æ¥Ńèģ·ãģ§": 2951,
      "çĽ£çĿ£": 2952,
      "ãģ«ãĥŀãĥĥãĥģãģĻãĤĭè»¢èģ·æ´»åĭķãĤĴå®Įåħ¨ãĤµãĥĿãĥ¼ãĥĪ": 2953,
      "ä¸ĩä»¥ä¸Ĭãģ®åĸ¶æ¥Ńèģ·ãģ§æľªçµĮé¨ĵOK": 2954,
      "24": 2955,
      "31": 2956,
      "85": 2957,
      ":ãĢİ": 2958,
      "APAN": 2959,
      "EAG": 2960,
      "PS": 2961,
      "RE": 2962,
      "RY": 2963,
      "TãģķãĤĵ": 2964,
      "jin": 2965,
      "ky": 2966,
      "tky": 2967,
      "ujin": 2968,
      "¤ĩ": 2969,
      "®ĭ": 2970,
      "¹ãģĮ": 2971,
      "ç¦": 2972,
      "ç°¡": 2973,
      "è´": 2974,
      "è¤ĩ": 2975,
      "éĹ": 2976,
      "ĠW": 2977,
      "ĠVIE": 2978,
      "ĺãĤĬ": 2979,
      "ãģİ": 2980,
      "ãĥ´": 2981,
      "ãģĦãĤĪ": 2982,
      "ãģ§æ´»èºį": 2983,
      "ãģªãģĬ": 2984,
      "ãģªãģľ": 2985,
      "ãĤĭãģĵãģ¨": 2986,
      "ãĤĭãģ¾ãģ§": 2987,
      "ãĤĴåħ¥": 2988,
      "ãĤĴèĢĥãģĪ": 2989,
      "ãĤĴå±ķéĸĭ": 2990,
      "ãĤĴèªĩ": 2991,
      "ãĤĴå¯¾è±¡": 2992,
      "ãģ¾ãģĹãĤĩãģĨ": 2993,
      "ãģ¯ãģªãģĦ": 2994,
      "ãģ¯ãĤĤãģ¡ãĤįãĤĵ": 2995,
      "ãĤĤãģĤãĤĬ": 2996,
      "ãĤĮãģ¦ãģĦãģ¾ãģĻ": 2997,
      "ãĤĬãģĮ": 2998,
      "ãĤ¹ãĤ³": 2999,
      "ãĤīãģĭ": 3000,
      "äºī": 3001,
      "ãĥ«ãĥ¼ãĤ¿ãĥ¼": 3002,
      "ãĥĥãĤ«ãĥ¼": 3003,
      "ãģĤãģĴ": 3004,
      "ãĥ¼ãĥ¤": 3005,
      "ä½Ļ": 3006,
      "ãĥ©ãĤ·": 3007,
      "äººè¦ĭ": 3008,
      "åı¤": 3009,
      "åı³": 3010,
      "åıĬ": 3011,
      "åĲ«": 3012,
      "ãĤģãģ¦ãģĦãĤĭ": 3013,
      "ãĤ¿ãĥ«": 3014,
      "ãģ®åį": 3015,
      "ãģ®åķ": 3016,
      "ãģ®åľ": 3017,
      "ãģ¤ãģĳ": 3018,
      "ãģ¤ãģªãģĮ": 3019,
      "å¹´ãģ§": 3020,
      "å¹´éĸĵ": 3021,
      "ãģ¨ãģĦãģĨãģĵãģ¨ãģ§ãģĻ": 3022,
      "ãģ¨ãģĦãģĨè¨Ģèĳī": 3023,
      "ãĥ¬ãĤ¹ãĥĪ": 3024,
      "ãģĽãģļ": 3025,
      "æĹ¥ãģ«ãģ¯": 3026,
      "ãģ¡ãģª": 3027,
      "ãģ¡ãĤĵãģ¨": 3028,
      "ãģ®æĿ": 3029,
      "ãĤıãĤĭ": 3030,
      "ãĤ¸ãĤ¢": 3031,
      "ãĤ¸ãĥł": 3032,
      "èĩªä½ĵ": 3033,
      "å¤§äºº": 3034,
      "ãģ§ãģįãģ¾ãģĽãĤĵ": 3035,
      "åĪĨãģĭãĤĬ": 3036,
      "ä¸Ĭãģ®": 3037,
      "ä¸Ĭãģ«": 3038,
      "ãģ®ãĥĸãĥ©ãĥ³ãĥī": 3039,
      "æĿ¡ä»¶": 3040,
      "ãģķãĤĵãģ®": 3041,
      "çĽ®ãģ¯": 3042,
      "ãģªãģ©ãģ§": 3043,
      "ãĤ¨ãĥ³ãĥĪ": 3044,
      "ãĥĲãĥł": 3045,
      "ä¸Ńãģ®": 3046,
      "ä¸Ńãģ§ãģĻ": 3047,
      "æĸ¹ãĤĤ": 3048,
      "åĽŀçŃĶ": 3049,
      "é«ª": 3050,
      "ãĥĳãĥĥãĤ¯": 3051,
      "åł±åĳĬ": 3052,
      "å±Ģ": 3053,
      "è²¬": 3054,
      "æĺ¥": 3055,
      "éĿ©": 3056,
      "ãĤ»ãĥ³ãĤ¹": 3057,
      "åıİåħ¥": 3058,
      "ãĥĥãĤ¯ãĤ¢ãĥĥãĥĹ": 3059,
      "å½ĵçĦ¶": 3060,
      "ä»£è¡¨": 3061,
      "ãģ¨æĢĿãģ£ãģŁ": 3062,
      "åĢį": 3063,
      "åĢŁ": 3064,
      "æ´Ĺ": 3065,
      "é¡į": 3066,
      "æľĪãģ«": 3067,
      "ãĥķãĤ¡ãĤ¹ãĥĪ": 3068,
      "ãĤ´ãĥ«ãĥķãĤ": 3069,
      "ãĥĭãĤ¢": 3070,
      "ãģĵãĤĮãĤī": 3071,
      "åħ¨ä½ĵ": 3072,
      "ãĥıãĤ¤": 3073,
      "ä½ķãĤĴ": 3074,
      "æĦıå¤ĸ": 3075,
      "ãģªãģıãģª": 3076,
      "æĪĲæŀľ": 3077,
      "èĢĥãģĪæĸ¹": 3078,
      "ãĤ³ãĥ³ãĤ»ãĥĹ": 3079,
      "å¤ĸè³ĩ": 3080,
      "ãĤ½ãĥ¼ãĤ·ãĥ£ãĥ«": 3081,
      "ãģ£ãģ¦ãģĦãģ¾ãģĹãģŁ": 3082,
      "å·»": 3083,
      "çŃī": 3084,
      "èĤī": 3085,
      "æ¬²": 3086,
      "ãĥ¯ãĥ³": 3087,
      "ãĥĹãĥ¬ãĥ¼": 3088,
      "ãĥĹãĥ¬ãĥ¼ãĥ¤": 3089,
      "ãĤĴè¦ĭãģ¦": 3090,
      "åľ°åŁŁ": 3091,
      "å°ıè°·": 3092,
      "ãĥĻãĥ³ãĥĢãĥ¼": 3093,
      "åħ¬åľĴ": 3094,
      "ãĥ¦ãĥĭ": 3095,
      "èĳµ": 3096,
      "ãĤĴæĮģãģ£ãģ¦": 3097,
      "ãĥķãĤ£ãĥ¼ãĥī": 3098,
      "è¿ĳãģĦ": 3099,
      "ãģĤãģªãģŁãĤĤ": 3100,
      "çĶ°æ°ıãģ¯": 3101,
      "çĦ¡æĸĻ": 3102,
      "æ²»": 3103,
      "å½¼ãĤī": 3104,
      "ãģłãģ£ãģŁãĤī": 3105,
      "ãĥ¦ãĥ¼ãĤ¶ãĥ¼ãģĮ": 3106,
      "ãĤĵãģ§ãģĦãĤĭ": 3107,
      "ãģĭãģĳãģ¦": 3108,
      "å½¹ç«ĭãģ¤": 3109,
      "è³ĩæĸĻ": 3110,
      "ãģ¨ãģ®ãģĵãģ¨": 3111,
      "ãĤ®ãĥª": 3112,
      "ä»ķäºĭãģĮéĿ¢çĻ½": 3113,
      "2009": 3114,
      "è¢ĸ": 3115,
      "å±ĭãģķãĤĵ": 3116,
      "è§£æ±º": 3117,
      "é§ħ": 3118,
      "é§Ĩ": 3119,
      "ãģ¦ãģ¿ãĤĭ": 3120,
      "ãģ¾ãģ¨ãĤģãģ¦": 3121,
      "ç¥ŀãĢħ": 3122,
      "ãĥĺãĥĥãĥī": 3123,
      "åįĺãģ«": 3124,
      "ãĥ¨ãĥ¼ãĥŃãĥĥãĥĳ": 3125,
      "éĽ£ãģĹãģĦ": 3126,
      "ãĥĭãĥ¥ãĥ¼": 3127,
      "æĤªãģĦ": 3128,
      "ç«¶äºī": 3129,
      "ãĤĴè¶ħãģĪãĤĭ": 3130,
      "å¹´åıİãģĮé«ĺãģĦ": 3131,
      "çĽ¸è«ĩèĢħ": 3132,
      "é¦ĸ": 3133,
      "ãģĵãģłãĤıãĤĬãģ«ãĥŀãĥĥãĥģãģĻãĤĭè»¢èģ·æ´»åĭķãĤĴå®Įåħ¨ãĤµãĥĿãĥ¼ãĥĪ": 3134,
      "ãģĵãģªãģĹ": 3135,
      "ãĤ¿ãĤ¤ãĥł": 3136,
      "å°±èģ·": 3137,
      "éŁ³æ¥½": 3138,
      "ãģ®åĽ½": 3139,
      "ãģ®æĦı": 3140,
      "å§¿åĭ¢": 3141,
      "ãĥ©ãĤ¤ãĥķãĤ¹ãĤ¿ãĤ¤ãĥ«": 3142,
      "ãĤ¢ãĤ«ãĤ¦ãĥ³ãĥĪ": 3143,
      "åħħå®Ł": 3144,
      "è¾Ľåı£": 3145,
      "èµ°è¡Į": 3146,
      "ç¿Ĵ": 3147,
      "ãĤ¿ãĤ¯ãĤ·ãĥ¼": 3148,
      "çĽĽãĤĬ": 3149,
      "æĸ°åįĴãģ§": 3150,
      "ãģĤãģªãģŁãģ®ãģĵãģłãĤıãĤĬãģ«ãĥŀãĥĥãĥģãģĻãĤĭè»¢èģ·æ´»åĭķãĤĴå®Įåħ¨ãĤµãĥĿãĥ¼ãĥĪ": 3151,
      "ãĤ°ãĥ«ãĥ¼ãĥĹ": 3152,
      "ãĥĨãĤ¯ãĥİ": 3153,
      "å«Į": 3154,
      "ãĤ¤ãĥ³ãĥĨãĥªãĤ¢": 3155,
      "ãģ®å¥³": 3156,
      "åĬłèĹ¤èª²éķ·": 3157,
      "åıĭéģĶ": 3158,
      "EAGLE": 3159,
      "tkyujin": 3160,
      "ĠVIEW": 3161,
      "äººè¦ĭçŁ¥ãĤĬ": 3162,
      "ãĥĳãĥĥãĤ¯ãĥ³": 3163,
      "ãĤ³ãĥ³ãĤ»ãĥĹãĥĪ": 3164,
      "å¤ĸè³ĩç³»": 3165,
      "28": 3166,
      "33": 3167,
      "39": 3168,
      "BM": 3169,
      "CM": 3170,
      "EB": 3171,
      "JAPAN": 3172,
      "OMA": 3173,
      "ic": 3174,
      "nc": 3175,
      "ou": 3176,
      "¨¼": 3177,
      "³¨": 3178,
      "´æĸ°": 3179,
      "µ·": 3180,
      "¼Ķ": 3181,
      "æĨ": 3182,
      "çĮ": 3183,
      "çŀ¬": 3184,
      "èį": 3185,
      "éī": 3186,
      "éį": 3187,
      "ĠH": 3188,
      "ĠHOMME": 3189,
      "Ġ:ãĢİ": 3190,
      "ĥħ": 3191,
      "ĭãģŃ": 3192,
      "ĳãĤ¯ãĥĪ": 3193,
      "ĸĳ": 3194,
      "ĻãģĪ": 3195,
      "Ńè¼ī": 3196,
      "ãģ®ãĥª": 3197,
      "ãģ®ãģªãģĦ": 3198,
      "ãģ®ãĤĤãģ®": 3199,
      "ãģ®ãĤ´ãĥ«ãĥķ": 3200,
      "ãģ®ä¸ĸçķĮ": 3201,
      "ãģ®è¨ĺäºĭ": 3202,
      "ãģ®åĪ©çĽĬ": 3203,
      "ãģ®èī¯ãģķ": 3204,
      "ãģĦãģª": 3205,
      "ãģ§åĥį": 3206,
      "ãģĹãģ£ãģĭãĤĬ": 3207,
      "ãģ«ãģĹãģ¦ãģĦãĤĭ": 3208,
      "ãģ«åĲĪãĤıãģĽ": 3209,
      "ãĢĤãĢİ": 3210,
      "ãģ¨åĲĮãģĺ": 3211,
      "ãģ¨ãĤĵãģ©": 3212,
      "ãģªãģķãģĦ": 3213,
      "ãĤĴç´¹ä»ĭ": 3214,
      "ãĤĴåºĥãģĴ": 3215,
      "ãģĮéĢ²": 3216,
      "ãģĭãģĹ": 3217,
      "ãģĭãģ¨ãģĦãģĨ": 3218,
      "ãģĭãģ©ãģĨãģĭ": 3219,
      "ãĥĪãĥ«": 3220,
      "ãģ£ãģį": 3221,
      "äºĨ": 3222,
      "ãģĵãĤĵãģª": 3223,
      "ãĥ«ãĥŁ": 3224,
      "ãĤ¤ãĤ¸": 3225,
      "ãģ¦ãģĦãģ¦": 3226,
      "ãĥĥãĤ·ãĥ¥": 3227,
      "ãģıãģ¦": 3228,
      "ãģıãģª": 3229,
      "ãģįãģĮ": 3230,
      "ãģĤãģ£ãģ¦": 3231,
      "ãģĤãģĪãģ¦": 3232,
      "ãĥªãĥ¼ãĤº": 3233,
      "ãĤ¢ãĤ¤ãĥī": 3234,
      "ãĥ¼ãĤ¨": 3235,
      "ãĥ©ãĤ¹": 3236,
      "ãĥ©ãĥŀ": 3237,
      "åħ¼": 3238,
      "åĪº": 3239,
      "åĪĹ": 3240,
      "äººãĢħ": 3241,
      "åı¸": 3242,
      "ãĥķãĥ«": 3243,
      "ãĤģãģ¾ãģĹãģŁ": 3244,
      "ãĤģãĤīãĤĮãĤĭ": 3245,
      "ãģĹãģ¦ãģıãģłãģķãģĦ": 3246,
      "ãĤ¯ãĥŁ": 3247,
      "ãģłãĤįãģĨ": 3248,
      "ãĥĹãĥ©ãĥ³": 3249,
      "ãĤ¿ãĤ°": 3250,
      "ãģĻãĤĭãģªãģ©": 3251,
      "çµ±": 3252,
      "ãĥĩãĤ¢": 3253,
      "ãĥĩãĤ¸": 3254,
      "ãģ®å¯": 3255,
      "ãģ®åĤ": 3256,
      "ãģ®åŁ": 3257,
      "è¨±": 3258,
      "è¨İ": 3259,
      "ãģ¨ãģĦãģĨãģ®ãģĮ": 3260,
      "ãĥ¬ãĥ«": 3261,
      "ãĥ¬ãĥĿãĥ¼ãĥĪ": 3262,
      "ãĥ¬ãĥĻãĥ«": 3263,
      "ãĥ¬ãĤ¯ãĤ·ãĥ§ãĥ³": 3264,
      "æĹ¥ãĤĤ": 3265,
      "æĹ¥ãĤĪãĤĬ": 3266,
      "åĽº": 3267,
      "ãģ®æ¥Ń": 3268,
      "ãģ®æĥħ": 3269,
      "ãģ¿ãĤĵãģª": 3270,
      "ãģķãĤĮãģ¦ãģĬãĤĬ": 3271,
      "åĬ´": 3272,
      "èĩªãĤī": 3273,
      "èĩªä¿¡": 3274,
      "å¤§åŀĭ": 3275,
      "ä¸Ģäºº": 3276,
      "æī±": 3277,
      "æīķ": 3278,
      "ç´į": 3279,
      "åĪĨãģĭãĤīãģªãģĦ": 3280,
      "ãģ®ãĥģ": 3281,
      "å¾ĵ": 3282,
      "ãģķãĤĵãģĭãĤī": 3283,
      "å°¾": 3284,
      "å°ĭãģŃ": 3285,
      "å¼ģå½ĵ": 3286,
      "çĶ¨æĦı": 3287,
      "ãĤŃãĤ³": 3288,
      "ãĥĨãĥ³": 3289,
      "ãģªãģ©ãģĮ": 3290,
      "åĩºçīĪ": 3291,
      "ãģĺãģ¦": 3292,
      "åľŁ": 3293,
      "ä»ķäºĭãģ¯": 3294,
      "ãĥŀãĥ³": 3295,
      "ãĥŀãĤŃãĤ³": 3296,
      "è«¸": 3297,
      "ãĤĴç¨¼": 3298,
      "åĬĽãģĮ": 3299,
      "çĻºä¿¡": 3300,
      "æĮĻãģĴ": 3301,
      "è¿·": 3302,
      "çĶŁåľ°": 3303,
      "é«ĺéĢŁ": 3304,
      "ä¿®": 3305,
      "ãĥįãĥĥãĥĪ": 3306,
      "ä½ľæĪĲ": 3307,
      "ãģĿãģ®ãģŁãĤģ": 3308,
      "ãģ¨æĢĿãģ£ãģ¦": 3309,
      "éłħ": 3310,
      "éłĲ": 3311,
      "çµĮæ¸Ī": 3312,
      "ãģĿãģĨãģ§ãģĻãģŃ": 3313,
      "çĲĥ": 3314,
      "èĥ¸": 3315,
      "ãĥĭãĥĥãĤ¯": 3316,
      "æŀĲ": 3317,
      "åħ¨ãģı": 3318,
      "åĲĮæĻĤãģ«": 3319,
      "æµ®": 3320,
      "æŃ´": 3321,
      "ä½ķãĤĤ": 3322,
      "éĢļå¸¸": 3323,
      "åĸľ": 3324,
      "æ§ĺãģ«": 3325,
      "æĹ¥æľ¬ãģ®": 3326,
      "ãģ»ãģ¨ãĤĵãģ©": 3327,
      "æ´»çĶ¨": 3328,
      "éĻ£": 3329,
      "æİĴåĩº": 3330,
      "èŃ°": 3331,
      "ãĥķãĤ©ãĥ¼ãĥŀ": 3332,
      "è¨ĺå¿µ": 3333,
      "åİļ": 3334,
      "èĪŀ": 3335,
      "éĢ£ç¶ļ": 3336,
      "ãģ®çĴ°å¢ĥ": 3337,
      "éģ¸ãģ°": 3338,
      "å¼·ãģķ": 3339,
      "ãĥĽãĥ³ãĥĢ": 3340,
      "ãĥĸãĥ©ãĤ¦ãĥ³": 3341,
      "æıĽ": 3342,
      "æĮģãģ¤": 3343,
      "å¿ħãģļ": 3344,
      "åĳ³ãĤı": 3345,
      "æ¸Ľ": 3346,
      "è±ª": 3347,
      "ãģªãĤĵãģ§": 3348,
      "åºĥãģı": 3349,
      "æĻĤéĸĵãģĮ": 3350,
      "ãĥĶãĥ¼ãĥ«": 3351,
      "å®īå¿ĥ": 3352,
      "æĶ»": 3353,
      "èģŀãģı": 3354,
      "ãĤĴä½¿ãģĨ": 3355,
      "ä¹ħ": 3356,
      "è¼©": 3357,
      "ãģĻãģĲãģ«": 3358,
      "è§¦": 3359,
      "ãģ®æĻĤä»£": 3360,
      "èĩªåĭķè»Ĭãĥ¡ãĥ¼ãĤ«ãĥ¼": 3361,
      "æĴĥ": 3362,
      "ãĤ¤ãĥĨãĤ£": 3363,
      "ãĥĴãĥĪãĥŁ": 3364,
      "ãģĵãģ¨ãĤĤãģĤãĤĬãģ¾ãģĻ": 3365,
      "éłŃçļ®": 3366,
      "ç¹Ķ": 3367,
      "ãģĹãģ¦ãĤĤãĤī": 3368,
      "ç©ºéĸĵ": 3369,
      "ãĤĴè¡Įãģ£ãģ¦ãģĦãĤĭ": 3370,
      "ãģĹãģ¦ãģ¿ãĤĭ": 3371,
      "æĸ½è¨Ń": 3372,
      "æĸĩåĮĸ": 3373,
      "æĹ©ãģĻãģİãĤĭ": 3374,
      "æĢĿãģĦåĩº": 3375,
      "è»¢èģ·ãģ¯æĹ©ãģĻãģİãĤĭ": 3376,
      "ãģĮè¦ĭãģĪãģªãģĦ": 3377,
      "èĦļ": 3378,
      "æ¥½ãģĹãģ¿": 3379,
      "éľ²": 3380,
      "å°ĤçĶ¨": 3381,
      "å°ıæ²¢æ°ıãģ¯": 3382,
      "é¤¨": 3383,
      "ãĤªãĥªãĥ³ãĥ": 3384,
      "å¦¹ãģĮ": 3385,
      "å°ĨæĿ¥ãģĮè¦ĭãģĪãģªãģĦ": 3386,
      "...ãĢĤ": 3387,
      "åħ¬å¼ıãĤµãĤ¤ãĥĪ": 3388,
      "å¿ĹåĲĳ": 3389,
      "ãĤ¹ãĤ«ãĤ¤ãĥĦ": 3390,
      "æĻ®æ®µ": 3391,
      "ãĤĴè¿İ": 3392,
      "ãģ®åĨħ": 3393,
      "ãģ®åĨĻçľŁ": 3394,
      "èª²é¡Į": 3395,
      "ä¾¿åĪ©ãģª": 3396,
      "ãĥ©ãĤ¯ãĤ¿ãĥ¼": 3397,
      "ãĤªãĥ³ãĥ©ãĤ¤ãĥ³": 3398,
      "é£²ãģ¿ä¼ļ": 3399,
      "ãĥªãĥĥãĤ¿ãĥ¼": 3400,
      "ãģĿãĤĤãģĿãĤĤ": 3401,
      "ãģ®å¼·": 3402,
      "å§īå¦¹ãģĮ": 3403,
      "çĪ¶": 3404,
      "ĠJap": 3405,
      "ä¼¸ãģ³": 3406,
      "ä¼ĬèĹ¤": 3407,
      "ãĤ³ãĥĶãĥ¼": 3408,
      "ãĤ°ãĥªãĥ¼ãĥ³": 3409,
      "ç¤¾ä¼ļäººãģ®æĤ©ãģ¿": 3410,
      "ç±³": 3411,
      "æ¤ľç´¢": 3412,
      "ãģ®æŃ´åı²": 3413,
      "ãĤ³ãĥ©ãĥľ": 3414,
      "ãĥŀãĥ«ãĥģ": 3415,
      "ãĤªãĥķãĤ£ãĤ¹": 3416,
      "æ¸¯åĲĽ": 3417,
      "èĭ¥æīĭç¤¾ä¼ļäººãģ®æĤ©ãģ¿": 3418,
      "ãģĤãĤĦãģ¾ãĤĵJAPAN": 3419,
      "åĲ¦å®ļ": 3420,
      "ãĤĴæĺİ": 3421,
      "ãĤĴçªģçł´": 3422,
      "é¤ĬæĪĲè¬Ľåº§ãģĿãģ®": 3423,
      "ãģ¯å°½ãģį": 3424,
      "å¿ĻãģĹãģĦ": 3425,
      "ãģĦãģĭãģĮãģ§ãģĹãĤĩãģĨãģĭ": 3426,
      "RYOMA": 3427,
      "ä»ķäºĭãģĮéĿ¢çĻ½ãģıãģªãģĦ": 3428,
      "éįĽ": 3429,
      "ãĥĩãĤ¸ãĤ¿ãĥ«": 3430,
      "ãģ®æĥħåł±": 3431,
      "ĠJapan": 3432,
      "èĭ¥æīĭç¤¾ä¼ļäººãģ®æĤ©ãģ¿ãģ¯å°½ãģį": 3433,
      "!ãĢı": 3434,
      "):**": 3435,
      "29": 3436,
      "40": 3437,
      "48": 3438,
      "AK": 3439,
      "AR": 3440,
      "FI": 3441,
      "MT": 3442,
      "OL": 3443,
      "PC": 3444,
      "ak": 3445,
      "mm": 3446,
      "mit": 3447,
      "ol": 3448,
      "¦ãĤ§": 3449,
      "¯ãĤĬ": 3450,
      "¯ãĥ¼ãĥī": 3451,
      "²è¼ī": 3452,
      "å¨": 3453,
      "å´": 3454,
      "éº": 3455,
      "éĤ": 3456,
      "ĠA": 3457,
      "ĠE": 3458,
      "ĠI": 3459,
      "ĩº": 3460,
      "į²": 3461,
      "İå£«": 3462,
      "ıãģĦ": 3463,
      "ĳå¼µ": 3464,
      "łãģ®": 3465,
      "ãģ¬": 3466,
      "ãĤ¶ãĥ¼": 3467,
      "ãĥ¶": 3468,
      "ãģ®ãĤ¨": 3469,
      "ãģ®ä¼ļç¤¾": 3470,
      "ãģ®éĢļãĤĬ": 3471,
      "ãģĦãģ§": 3472,
      "ãģ§è²·": 3473,
      "ãģ«ãģ¦": 3474,
      "ãģ«ãĤı": 3475,
      "ãģ«åıĤåĬł": 3476,
      "ãĥ¼ãģ«": 3477,
      "ãģ¨è©±": 3478,
      "ãĤĴãĥª": 3479,
      "ãĤĴãģĬ": 3480,
      "ãĤĴãģĹãģ¦ãģĦãĤĭ": 3481,
      "ãĤĴçµĮ": 3482,
      "ãĤĴéĽĨ": 3483,
      "ãĤĴå¤ī": 3484,
      "ãĤĴéĩį": 3485,
      "ãĤĴä½ĵé¨ĵ": 3486,
      "ãĤĴçĽ®æĮĩ": 3487,
      "ãĤĴè¨ĺéĮ²": 3488,
      "ãģĮé«ĺãģĦ": 3489,
      "ãģĮå¤ļãģĦ": 3490,
      "ãģĮçĻ»åł´": 3491,
      "ãģ¯éĿŀå¸¸ãģ«": 3492,
      "ãģ¯ãģĵãģ¡ãĤī": 3493,
      "ãĤĬãģª": 3494,
      "ãĤ¹ãĤ±": 3495,
      "ãĤ¹ãĤ¯ãĥª": 3496,
      "äºĴ": 3497,
      "ãĥ«ãģª": 3498,
      "ãĤ¤ãĥ¼ãĥ«": 3499,
      "ãĥĥãĤŃ": 3500,
      "ãģıãģĦ": 3501,
      "ãģįåĩº": 3502,
      "ãģĤãģ¨": 3503,
      "ãĥ¼ãĥĸ": 3504,
      "ãģĪãĤīãĤĮãĤĭ": 3505,
      "ãģ©ãģ®ãĤĪãģĨãģ«": 3506,
      "ãĤ¢ãĥŀ": 3507,
      "ãĤ¢ãĥ¤": 3508,
      "ãĤ¢ãĤ¸ãĤ¢": 3509,
      "ãĥ©ãĤ¨": 3510,
      "åĪ°": 3511,
      "å®Ī": 3512,
      "äººãĤĤ": 3513,
      "ãģĹãģ¦ãģĹãģ¾": 3514,
      "ãĤĦãģĭãģª": 3515,
      "ãĤĦãĤīãģªãģĦ": 3516,
      "ãģĳãĤĮ": 3517,
      "ãĤĴæ·±": 3518,
      "ãĤĴæ¼Ķ": 3519,
      "æĸ¬": 3520,
      "ãĤ¿ãĥĸãĥ¬": 3521,
      "ãģĻãĤĭãģĭ": 3522,
      "ãģĻãĤĭãģĵãģ¨": 3523,
      "ãģĭãĤīãģ®": 3524,
      "ä¼¼": 3525,
      "å¹¸": 3526,
      "ãģĬè©±ãĤĴ": 3527,
      "ãģ®å·": 3528,
      "ãģ®åĩº": 3529,
      "ãĤ·ãĥ«": 3530,
      "ãģ£ãģ¦ãģĬ": 3531,
      "ãģ£ãģ¦ãģıãĤĭ": 3532,
      "ãĥ³ãĥĲ": 3533,
      "å¹´çĽ®": 3534,
      "ãģ¨ãģĦãģĨãĤ¤ãĥ¡ãĥ¼ãĤ¸": 3535,
      "éĢł": 3536,
      "åĽł": 3537,
      "ãĤıãģªãģĦ": 3538,
      "èĩ¨": 3539,
      "ãĤ¸ãĥ§": 3540,
      "ãĤ¸ãĥ¥ãĤ¢": 3541,
      "éģħ": 3542,
      "äºĭæ¥Ń": 3543,
      "åĨ·": 3544,
      "å½©": 3545,
      "ãĤ«ãĥ¼ãĥī": 3546,
      "åĭīå¼·": 3547,
      "èģ·åł´": 3548,
      "ä¸Ģè¦ĭ": 3549,
      "æīį": 3550,
      "ãģ§ãģįãģ¾ãģĹãģŁ": 3551,
      "åĪĨéĩİ": 3552,
      "åĪĨæŀĲ": 3553,
      "ä¸Ĭä½į": 3554,
      "ãģ®ãĥļ": 3555,
      "ä¼ļè¨Ī": 3556,
      "çļĦãģ«ãģ¯": 3557,
      "ãģ«ãģªãģ£ãģ¦ãģĦãĤĭ": 3558,
      "ãģ«ãģªãģ£ãģ¦ãģĦãģ¾ãģĻ": 3559,
      "ä»Ĭãģ®ä»ķäºĭ": 3560,
      "æĻĤãģ«ãģ¯": 3561,
      "ãģĺãĤĭ": 3562,
      "ãĥĲãĥª": 3563,
      "ä»ķäºĭãģ«": 3564,
      "ãĥ¥ãĥ¼": 3565,
      "ä¸Ńå¿ĥãģ«": 3566,
      "ãĥģãĥª": 3567,
      "ãĥģãĥ¼ãĥł": 3568,
      "æĸ¹ãģ«": 3569,
      "æĸ¹ãģ¯": 3570,
      "åŃĲãģĮ": 3571,
      "ãĤīãĤĮãģ¦ãģĦãĤĭ": 3572,
      "è»¢èģ·æĥħåł±": 3573,
      "ãĤĴç¢º": 3574,
      "å¯Ĩ": 3575,
      "å¯Ŀ": 3576,
      "åĲĪãģĨ": 3577,
      "å®Łæĸ½": 3578,
      "ãĥĵãĥ¼ãĥ«": 3579,
      "éĸĭå§ĭ": 3580,
      "ãģļãģ£ãģ¨": 3581,
      "åĬĽãģ¯": 3582,
      "ãĥĳãĥª": 3583,
      "æĦŁãģĮ": 3584,
      "åīµ": 3585,
      "ç§ĭ": 3586,
      "ãĥįãĥ«": 3587,
      "æľĢçµĤ": 3588,
      "ãĤ»ãĥĥãĥĪ": 3589,
      "ãĤ»ãĥ¼ãĥ«": 3590,
      "ãĥŁãĤŃ": 3591,
      "ä½ľæ¥Ń": 3592,
      "åĳ½": 3593,
      "å½ĵãģŁãĤĬ": 3594,
      "å½ĵãģŁãĤĭ": 3595,
      "ãģ«æ±": 3596,
      "ãģ«æĬ": 3597,
      "ãģ«æºĢ": 3598,
      "ãģĦãģ¦ãģ¿": 3599,
      "çı¾åł´": 3600,
      "çı¾çĬ¶": 3601,
      "ãģ¨æĢĿãģĦ": 3602,
      "æ´ĭ": 3603,
      "éłĳå¼µ": 3604,
      "ãģĿãģĨãģĦãģ£ãģŁ": 3605,
      "å¹´åıİãģ¯": 3606,
      "ä¸ĸãģ®ä¸Ń": 3607,
      "éļı": 3608,
      "èĥĮ": 3609,
      "å£°": 3610,
      "ãģĿãĤĮãģ«": 3611,
      "ãģĿãĤĮãģªãĤĬ": 3612,
      "é¨İå£«": 3613,
      "å¤ļæķ°": 3614,
      "æ°ıãģĮ": 3615,
      "æĦıåĳ³": 3616,
      "æ³¢": 3617,
      "æĹ¥æľ¬ä¼ģæ¥Ń": 3618,
      "çĲĨæĥ³": 3619,
      "ãģĶãģ¨": 3620,
      "ä»¥åīį": 3621,
      "ä»¥æĿ¥": 3622,
      "åĮĹ": 3623,
      "åĲĳä¸Ĭ": 3624,
      "ä¼ļç¤¾ãģ«": 3625,
      "ç«ĭåł´": 3626,
      "ãģ¹ãĤĭ": 3627,
      "ãģ®ãģ§ãģĤãĤĮãģ°": 3628,
      "ãģ¨ãģªãĤĬãģ¾ãģĻ": 3629,
      "éĻį": 3630,
      "éĥ¨å±ĭ": 3631,
      "éĥ¨éĸĢ": 3632,
      "ãĥ¼ãĤ·ãĥ§": 3633,
      "ãģĹãģĭãģ£ãģŁ": 3634,
      "åº¦ãģ¯": 3635,
      "ãģ£ãģ¦ãģĦãģı": 3636,
      "ãĥĹãĥŃãĥķãĤ£": 3637,
      "ãĥĹãĥŃãĤ°ãĥ©": 3638,
      "ãĤĴæĮĩ": 3639,
      "åŃ¦æł¡": 3640,
      "ãĥķãĤ©ãĥ¼ãĤ¨": 3641,
      "ãĤŃãĥ£ãĥ©ãĤ¯ãĤ¿ãĥ¼": 3642,
      "ãĤºãĥł": 3643,
      "ä»ĬåĽŀãģ®ãģĬ": 3644,
      "èĤ©": 3645,
      "ãĥ¯ãĥ¼ãĥ«ãĥī": 3646,
      "ç§ģãģŁãģ¡": 3647,
      "èī¯ãģĭãģ£ãģŁ": 3648,
      "æ©ŁåĻ¨": 3649,
      "èĪ¬": 3650,
      "æĽ¿": 3651,
      "ãģ®çĿĢ": 3652,
      "ãģ®ç¥ŀ": 3653,
      "åľ°ä¸ĭ": 3654,
      "ãĥĽãĤ¤ãĥ¼ãĥ«": 3655,
      "åħĪè¼©": 3656,
      "ãĥĸãĥ©ãĥ³": 3657,
      "ä¸ĩåĨĨä»¥ä¸Ĭ": 3658,
      "ãģĦãģŁãģłãģĳ": 3659,
      "æ¨©": 3660,
      "ãĥ©ãĤ¤ãĥ³ãĥĬ": 3661,
      "åºĥãģĮ": 3662,
      "åºĥåĳĬ": 3663,
      "ãģ®ä¸ŃãģĭãĤī": 3664,
      "ãĤģãĤĭçĽ¸è«ĩèĢħ": 3665,
      "åĦĦ": 3666,
      "åı¯æĦĽ": 3667,
      "ãĥ©ãĥ³ãĤ¯": 3668,
      "å½¼ãģ¯": 3669,
      "ç¶ļãģĳãĤĭ": 3670,
      "éħĴ": 3671,
      "å¥³æĢ§ãģ®": 3672,
      "å¥³æĢ§ãģĮ": 3673,
      "åĥįãģį": 3674,
      "èĹ¤å²¡": 3675,
      "ãĤ¹ãĥĨãĥ¼ãĤ¸": 3676,
      "æĭł": 3677,
      "ä»ķäºĭãĤĴãģĹãģ¦ãģĦãĤĭ": 3678,
      "ç¾©": 3679,
      "çĬ¶æħĭ": 3680,
      "å±ķç¤º": 3681,
      "åı¯èĥ½æĢ§": 3682,
      "ãĤĴæĬ±": 3683,
      "ãĤĴæĬ¼": 3684,
      "å¥½ãģįãģª": 3685,
      "ä¹ĹãĤĬ": 3686,
      "ãģĵãģ¨ãĤĤãģĤãĤĬ": 3687,
      "ãĤ¸ãĥ£ãĤ¬ãĥ¼": 3688,
      "ãĥģãĥ£ãĥ¼": 3689,
      "ç¹ĭãģĮ": 3690,
      "ãģĦãģ¤ãĤĤ": 3691,
      "ãĤ¹ãĤŃãĥ¼": 3692,
      "åħ±éĢļ": 3693,
      "åħ±æľī": 3694,
      "åĬ¹çİĩ": 3695,
      "æ§ĺãĢħãģªæĤ©ãģ¿": 3696,
      "ONA": 3697,
      "ãģ¨ãģįãģ¯": 3698,
      "è¿ĶãģĹ": 3699,
      "æ¥½ãģĹãĤģãĤĭ": 3700,
      "æ¡ľ": 3701,
      "éľĩ": 3702,
      "åĭĿãģ¡": 3703,
      "å½¢æĪĲ": 3704,
      "åŃĲä¾ĽãģĮ": 3705,
      "ä¾¡åĢ¤ãĤĴ": 3706,
      "ä¾¡åĢ¤è¦³": 3707,
      "åĳ¨ãĤĬ": 3708,
      "çĲĨçĶ±ãģ¯": 3709,
      "å¤īãĤıãĤĭ": 3710,
      "èĬ¸äºº": 3711,
      "èĬ¸èĥ½": 3712,
      "ãĤ¹ãĥļãĥ¼ãĤ¹": 3713,
      "é£Ľè·ĿéĽ¢": 3714,
      "ãĤ¢ãĥ«ãĥĲãĥł": 3715,
      "åŃ¦çĶŁæĻĤä»£": 3716,
      "æĻ®éĢļ": 3717,
      "ãĤĴè¿½": 3718,
      "ãĤĴæīĭ": 3719,
      "æ¯İæĹ¥": 3720,
      "Fiãĥ«ãĥ¼ãĤ¿ãĥ¼": 3721,
      "åŁºæľ¬": 3722,
      "ãĤĴæ¥½ãģĹ": 3723,
      "ãĤĴæ¥½ãģĹãĤĢ": 3724,
      "èĭ¦åĬ´": 3725,
      "ä»ĬåĽŀãģ®èª¬æķĻ": 3726,
      "ãĥķãĤ£ãĥĥãĥĪãĥį": 3727,
      "......ãĢĤ": 3728,
      "###": 3729,
      "çĩĥæĸĻ": 3730,
      "ãĤĴåıĹãģĳ": 3731,
      "æ¼Ķåĩº": 3732,
      "ãģ®é«ĺãģķ": 3733,
      "ãģ®ãĥĿãĤ¤ãĥ³ãĥĪ": 3734,
      "æĿ¿å°¾": 3735,
      "ãĥ¢ãĥĲãĤ¤ãĥ«Wi": 3736,
      "æºĢè¶³": 3737,
      "ãĤ¢ãĤ¯ãĤ»ãĤ¹": 3738,
      "é»ĴåŃĹç¤¾åĵ¡": 3739,
      "ãĤ¹ãĥĶãĥ¼ãĥī": 3740,
      "è©³ç´°": 3741,
      "ãĥīãĥ©ãĤ¤ãĥĲãĥ¼": 3742,
      "ç·¨éĽĨ": 3743,
      "æĲº": 3744,
      "ãģ«èĩ³ãĤĭãģ¾ãģ§": 3745,
      "èĩªçĦ¶ãģ¨": 3746,
      "å¸ĮæľĽ": 3747,
      "åį±éĻº": 3748,
      "åįģåĪĨ": 3749,
      "åİ³ãģĹãģĦ": 3750,
      "æĤ©ãĤģãĤĭçĽ¸è«ĩèĢħ": 3751,
      "éģİãģĶãģĻ": 3752,
      "å¬īãģĹãģĦ": 3753,
      "ãĤ¾ãĥ¼ãĥĪ": 3754,
      "åĲīçĶ°æ°ıãģ¯": 3755,
      "ãģ®åīį": 3756,
      "è¤ĩæķ°": 3757,
      "ãĤ½ãĥ¼ãĤ·ãĥ£ãĥ«ãĥ¡ãĥĩãĤ£ãĤ¢": 3758,
      "èĳµå§ī": 3759,
      "ãģĤãģªãģŁãģ®ãģĵãģłãĤıãĤĬãģ«ãĥŀãĥĥãĥģãģĻãĤĭè»¢èģ·æ´»åĭķãĤĴå®Įåħ¨ãĤµãĥĿãĥ¼ãĥĪãģĹãģ¾ãģĻ": 3760,
      "ãĥĨãĤ¯ãĥİãĤ¸ãĥł": 3761,
      "ãĤ¢ãĤ¤ãĥīãĥ«": 3762,
      "ãģ®åŁº": 3763,
      "ãĤ¹ãĤ«ãĤ¤ãĥĦãĥªãĥ¼": 3764,
      "ãĤ³ãĥ©ãĥľãĥ¬ãĥ¼ãĤ·ãĥ§ãĥ³": 3765,
      "ãĥ©ãĤ¨ãĥĨãĤ£": 3766,
      "ãĤ¿ãĥĸãĥ¬ãĥĥãĥĪ": 3767,
      "ãĥĹãĥŃãĥķãĤ£ãĥ¼ãĥ«": 3768,
      "ãĥķãĤ©ãĥ¼ãĤ¨ãĥĲãĥ¼": 3769,
      "ä»ĬåĽŀãģ®ãģĬæĤ©ãģ¿": 3770,
      "ãĥ©ãĤ¤ãĥ³ãĥĬãĥĥãĥĹ": 3771,
      "æĤ©ãĤģãĤĭçĽ¸è«ĩèĢħNo": 3772,
      "300": 3773,
      "400": 3774,
      "97": 3775,
      "?**": 3776,
      "HI": 3777,
      "MO": 3778,
      "OP": 3779,
      "TB": 3780,
      "TMT": 3781,
      "af": 3782,
      "as": 3783,
      "aul": 3784,
      "eb": 3785,
      "en": 3786,
      "km": 3787,
      "ts": 3788,
      "ub": 3789,
      "vol": 3790,
      "¢çĮ": 3791,
      "¥ãģļ": 3792,
      "§ĭ": 3793,
      "§ĺ": 3794,
      "¨å¤§ãģª": 3795,
      "©ĭ": 3796,
      "¯Ķ": 3797,
      "°åĽ²": 3798,
      "¶ĭ": 3799,
      "æ¦": 3800,
      "æ¾": 3801,
      "æį": 3802,
      "æ©ĭ": 3803,
      "çªģ": 3804,
      "éĳ": 3805,
      "é©ļ": 3806,
      "Ġ/": 3807,
      "ĠK": 3808,
      "ĠL": 3809,
      "Ġ...": 3810,
      "Ġof": 3811,
      "ĩè·": 3812,
      "ĭè°·": 3813,
      "ĲèĹ¤": 3814,
      "ĲŃè¼ī": 3815,
      "Ķãĥ¥": 3816,
      "ĸç¸": 3817,
      "Ľ¸": 3818,
      "ľãģŁ": 3819,
      "ŀľãģŁ": 3820,
      "ŃãģĦ": 3821,
      "ãĥĢãĥ¼": 3822,
      "ãģ®æľ¬": 3823,
      "ãģ®ãģŁãĤģ": 3824,
      "ãģ®ãģ§ãģĻãģĭ": 3825,
      "ãģ®èī¯ãģĦ": 3826,
      "ãģ®ãĤŃãĥ£ãĥªãĤ¢": 3827,
      "ãģ®ãģŁãĤģãģ«": 3828,
      "ãģ®ãģ§ãģ¯ãģªãģı": 3829,
      "ãĢģ@": 3830,
      "ãģĦãģ¯": 3831,
      "ãģ§è¡Į": 3832,
      "ãģ§éĸĭåĤ¬": 3833,
      "ãģ§ãģĤãĤĮãģ°": 3834,
      "ãģ«ãģĤ": 3835,
      "ãģ«ãģĻãĤĭ": 3836,
      "ãģ«ãģ§ãĤĤ": 3837,
      "ãģ«å½¹ç«ĭãģ¤": 3838,
      "ãģ¨ãģĻãĤĭ": 3839,
      "ãģ¨ãģ¨ãĤĤãģ«": 3840,
      "ãģ¦ãģıãģłãģķãģĦ": 3841,
      "ãģªãģ®": 3842,
      "ãģªãģĭãģª": 3843,
      "ãģŁãģ¨": 3844,
      "ãĤĴãģĵ": 3845,
      "ãĤĴéģ": 3846,
      "ãĤĴéĢļ": 3847,
      "ãĤĴçµĮé¨ĵ": 3848,
      "ãĤĴåķı": 3849,
      "ãĤĴå¢Ĺ": 3850,
      "ãĤĴéĸĭåĤ¬": 3851,
      "ãĤĴå¼ķ": 3852,
      "ãĤĴèĢĥãģĪãĤĭ": 3853,
      "ãĤĴãĥĹãĥ¬ãĤ¼ãĥ³ãĥĪ": 3854,
      "ãĤĴä¸Ńå¿ĥãģ«": 3855,
      "ãģ¾ãģ£ãģŁ": 3856,
      "ãģ¾ãģ¤": 3857,
      "ãģĮãģªãģĦ": 3858,
      "ãģĮå°ĳ": 3859,
      "ãģĮä¸¦": 3860,
      "ãģ¯ãģĤãĤĬãģ¾ãģĻãģĭ": 3861,
      "ãĥ³ãĥ«": 3862,
      "ãģĭãģĮ": 3863,
      "ãĤĤãģĤãĤĭ": 3864,
      "ãĥĪãĥª": 3865,
      "ãĥĪãĥ¼ãĤ¯": 3866,
      "ãĤĮãģ¾ãģĹãģŁ": 3867,
      "ãĤ¹ãĤ¹ãĥ": 3868,
      "ãģ§ãģĻãģĳãģ©": 3869,
      "ãĥĥãĤ»": 3870,
      "ãģ¾ãģĻãģŃ": 3871,
      "ãģįãģ¡ãĤĵãģ¨": 3872,
      "çĶ³": 3873,
      "ãĥ¼ãĥ¬": 3874,
      "ãĥ¼ãĥĳ": 3875,
      "ãģĪãģ¾ãģĹãģŁ": 3876,
      "ä½ĲèĹ¤": 3877,
      "ãĥªãĥĥãĥĪ": 3878,
      "ãĤ¢ãĥ©": 3879,
      "ãĤ¢ãĥĳ": 3880,
      "ãĤ¢ãĥĭ": 3881,
      "ãĤ¢ãĥĶãĥ¼ãĥ«": 3882,
      "ãĥ¼ãĤ±": 3883,
      "ãĥ¼ãĤµ": 3884,
      "ãĥ©ãĤ¤ãĥĪ": 3885,
      "ãĥ©ãĥķãĤ£": 3886,
      "åĪ¸": 3887,
      "äººäºĭ": 3888,
      "ãĥķãĥŃ": 3889,
      "ãģĹãģ¦ãģĹãģ¾ãģĨ": 3890,
      "ãĤĦãĤĭ": 3891,
      "ãĤĦãģ£ãģ¦ãģĦãĤĭ": 3892,
      "ãģĳãģ°": 3893,
      "ãģłãģĭãĤīãģ§ãģĻ": 3894,
      "ãĤĴæŃ": 3895,
      "ãĤĴæ¤ľ": 3896,
      "ãĤĴæĶ¯": 3897,
      "ãĤĴæĲŃè¼ī": 3898,
      "ãĤĴæŀľãģŁ": 3899,
      "ãģĻãĤĭãģ¨ãģĦãģĨ": 3900,
      "æĹ§": 3901,
      "ãģªãģĦãģĭ": 3902,
      "ãģĬäºĴ": 3903,
      "ãģ®å¸": 3904,
      "ãģ®åĳ": 3905,
      "ãĤ·ãĥŁ": 3906,
      "ãĥ³ãĥŃ": 3907,
      "æ°ĳ": 3908,
      "è»Ł": 3909,
      "å¹´ãģ®": 3910,
      "å¹´å¾Į": 3911,
      "ãģ¨ãģĦãģĨãĤĤãģ®ãģ§ãģĻ": 3912,
      "ãģ®æĮ": 3913,
      "ãģ®æĺ": 3914,
      "ãģ®æĻ": 3915,
      "ãģ®æĽ": 3916,
      "ãĤıãĤĮãģ¦": 3917,
      "ãģķãĤĮãģ¦": 3918,
      "ãĤ³ãĥ¬ãĤ¯ãĤ·ãĥ§ãĥ³": 3919,
      "åĬ©": 3920,
      "ãĤ¸ãĥ§ãĥ³": 3921,
      "ãĥĥãĥĪãģ®": 3922,
      "åĭĩ": 3923,
      "å¤§ä¸Ī": 3924,
      "ä¸ĢèĪ¬": 3925,
      "ãĤĪãģĨãģ«ãģªãĤĭ": 3926,
      "ãģ§ãģįãģŁ": 3927,
      "ãĥŃãĤ·ãĥ£ãĥĦ": 3928,
      "éĽ°åĽ²": 3929,
      "çķĻ": 3930,
      "ãĢı:": 3931,
      "çĶ¨éĢĶ": 3932,
      "æ¥Ńç¨®": 3933,
      "ãĤŃãĥ¼ãĥ": 3934,
      "ãĥĨãĥªãĥ¼": 3935,
      "å¥¥": 3936,
      "ãĥĸãĥŃ": 3937,
      "ãĥĸãĥ¼ãĥł": 3938,
      "ä½¿ãģĨ": 3939,
      "ãĥīãĥ©ãĥŀ": 3940,
      "ä»ķäºĭãģ§": 3941,
      "è»¢èģ·ãĤµãĤ¤ãĥĪ": 3942,
      "ãĤĴç¯": 3943,
      "ãģĹãĤĥ": 3944,
      "ãģĹãĤį": 3945,
      "åħ¥ãĤĮãģŁ": 3946,
      "å¯Į": 3947,
      "ãĥĵãĥ¼ãĥł": 3948,
      "åĭķçĶ»": 3949,
      "ãĥ¡ãĥĭãĥ¥ãĥ¼": 3950,
      "åĬĽãģ¨": 3951,
      "æķ¬": 3952,
      "ãĤ¦ãĥı": 3953,
      "è¿½": 3954,
      "ãĤĤãģ®ãĤĴ": 3955,
      "æīĭãģ«": 3956,
      "æīĭè»½": 3957,
      "æĸ°ãģª": 3958,
      "ãģ¨ãģĹãģ¦ãĤĤ": 3959,
      "è²¢çĮ": 3960,
      "ç§Ģ": 3961,
      "ãĤ»ãĥ³ãĤ¿ãĥ¼": 3962,
      "çĶ·å¥³": 3963,
      "éłĨ": 3964,
      "é¡ĺ": 3965,
      "é¡ĺãģĦ": 3966,
      "ãĥ³ãĥīãĥ©": 3967,
      "ãĥķãĤ¡ãĥ³": 3968,
      "å¥³ãģ®åŃĲ": 3969,
      "ä½ĵæĦŁ": 3970,
      "ãģĿãĤĮãģĮ": 3971,
      "åĲĮå£«": 3972,
      "æµħ": 3973,
      "å¤ļæ§ĺ": 3974,
      "ãĥıãĥ«": 3975,
      "ãĥıãĥ¼ãĥī": 3976,
      "ãĥıãĥĥãĤ·ãĥ¥": 3977,
      "ãģĵãģ¨ãģĮãģ§ãģįãĤĭ": 3978,
      "åĸĿ": 3979,
      "ãģĶè¦§": 3980,
      "æĬ½": 3981,
      "ãĤĵãģ§ãģĻãģĭ": 3982,
      "ç·ł": 3983,
      "æĪĲåĬŁ": 3984,
      "åĲĳãģį": 3985,
      "çĦ¦": 3986,
      "ãĥ¢ãĥ¼ãĤ¿": 3987,
      "ãĥ¢ãĥİ": 3988,
      "å¤ĸåĩº": 3989,
      "ãģ®ãģĭãĤĤãģĹãĤĮãģ¾ãģĽãĤĵ": 3990,
      "ãģĤãĤĬãģ¾ãģĻãģĮ": 3991,
      "ãĤ½ãĥª": 3992,
      "éĥ¨ä¸ĭ": 3993,
      "è¶Ĭ": 3994,
      "ãģĹãģĭãĤĤ": 3995,
      "æİ¢": 3996,
      "æİĺãĤĬ": 3997,
      "è¾º": 3998,
      "ãģĹãģ¦ãģĦãģªãģĦ": 3999,
      "ãģĹãģ¦ãģĦãģŁãģł": 4000,
      "è£ķ": 4001,
      "å¿ĥãģĮ": 4002,
      "çĶ»åĥı": 4003,
      "éĿ¢ãģ§": 4004,
      "éĽ»åĭķ": 4005,
      "éĽ»è»Ĭ": 4006,
      "ãģŁãģ¡ãģ¨": 4007,
      "ä¸ĸçķĮåĲĦ": 4008,
      "ãĥ¯ãĥ¼ãĥī": 4009,
      "èī¯ãģı": 4010,
      "çŁ¥ãĤīãģªãģĦ": 4011,
      "æ©Łä¼ļ": 4012,
      "ãĥĹãĥ¬ãĥŁ": 4013,
      "æĽľ": 4014,
      "ãĥĻãĤ¹ãĥĪ": 4015,
      "ãĥĻãĥ¼ãĤ·ãĥ§ãĥ³": 4016,
      "çĶ·æĢ§ãģĮ": 4017,
      "ãĤ·ãĥ§ãĥ¼": 4018,
      "æı¡": 4019,
      "ãģĦãģŁãģł": 4020,
      "æ¸ĭè°·": 4021,
      "ãģªãĤĵãģ¨": 4022,
      "ãģªãĤĵãģł": 4023,
      "çī©èªŀ": 4024,
      "è¿ĳå¹´": 4025,
      "ãĤĤãģĹãĤĮãģªãģĦ": 4026,
      "å®īå®ļ": 4027,
      "æĶ¹": 4028,
      "è¡¨ç¤º": 4029,
      "çĦ¡ãģĦ": 4030,
      "æ¥½ãģĹãģĦ": 4031,
      "ãģ©ãģĨãģĹãģŁãĤī": 4032,
      "å¤§ãģįãģĦ": 4033,
      "æĥ³åĥı": 4034,
      "è¨Ńè¨Ī": 4035,
      "ãģłãģ£ãģŁãģ®ãģ§": 4036,
      "ä»¥ä¸Ĭãģ®": 4037,
      "æ¬¡ãģ®": 4038,
      "æ¬¡ãģ«": 4039,
      "ãģ«åħ¥ç¤¾": 4040,
      "ãģ§ãģ¯ãģªãģĦãģ§ãģĹãĤĩãģĨãģĭ": 4041,
      "è¾¼ãģ¿": 4042,
      "è¼ĥ": 4043,
      "èĤ²åħĲ": 4044,
      "ãģ²ãģįãģĮ": 4045,
      "æĸ¹ãģĮå¹´åıİãģĮé«ĺãģĦ": 4046,
      "ä»ķäºĭãĤĴãģĻãĤĭ": 4047,
      "ãģ®ãĤ¢ãĥīãĥĲãĤ¤ãĤ¹": 4048,
      "éĸ¢éĢ£ãģ®": 4049,
      "èĬ±": 4050,
      "ãģĿãĤĵãģªãģ«": 4051,
      "ãģĿãĤĵãģªæ§ĺãĢħãģªæĤ©ãģ¿": 4052,
      "çĽ´ãģ«": 4053,
      "æŃ³ãģ§": 4054,
      "åıĹãģĳ": 4055,
      "åĦªç§Ģ": 4056,
      "å§ĭãĤģãģŁ": 4057,
      "è·¯": 4058,
      "ãģ«ãģªãģ£ãģ¦ãģĹãģ¾ãģĨ": 4059,
      "ä¸»è¦ģ": 4060,
      "ãĤ¯ãĥ©ãĤ¹": 4061,
      "éģķãģĨ": 4062,
      "ãģĻãģİãģ¦": 4063,
      "ãģĻãģİãĤĭãģ¨": 4064,
      "æºĲ": 4065,
      "è¦ĸéĩİ": 4066,
      "ãģ¡ãĤĥãĤĵ": 4067,
      "RSSãĥªãĥ¼ãĥĢãĥ¼": 4068,
      "ãĤ¸ãĥ£ãĥ³ãĥ«": 4069,
      "ãĥģãĥ£ãĥ³ãĤ¹": 4070,
      "ãģĦãģĭãģ«": 4071,
      "è¦³åħī": 4072,
      "èĩªèº«ãģ®": 4073,
      "æ¼ı": 4074,
      "æģĲ": 4075,
      "æģ¥ãģļ": 4076,
      "ãĤĴåĩºãģĻ": 4077,
      "ãĤĴè¡ĮãģĦãģ¾ãģĹãģŁ": 4078,
      "æĹ©ãģĦ": 4079,
      "è©¦åĲĪ": 4080,
      "æµģãĤĮ": 4081,
      "çĭĻ": 4082,
      "èĦ³": 4083,
      "éĿ¢çĻ½ãģĦ": 4084,
      "éģĶæĪĲ": 4085,
      "æľªæĿ¥": 4086,
      "ãĤ»ãĤŃãĥ¥ãĥªãĥĨãĤ£æĦıèŃĺ": 4087,
      "ãĤ»ãĤŃãĥ¥ãĥªãĥĨãĤ£ãĤ½ãĥķãĥĪ": 4088,
      "ç¸®": 4089,
      "ç¸¾": 4090,
      "ä¼ĳæĹ¥": 4091,
      "ãģ®ãģ§ãģ¯ãģªãģĦãģĭ": 4092,
      "é£Łäºĭ": 4093,
      "ç¬ĳãģĦ": 4094,
      "ç¬ĳé¡Ķ": 4095,
      "è²»çĶ¨": 4096,
      "ãģĻãģ¹ãģ¦ãģ®": 4097,
      "ãĤĴæķĻ": 4098,
      "ãģ®æĪĲ": 4099,
      "æİ¡çĶ¨ãĤĴè¡Įãģ£ãģ¦ãģĦãĤĭ": 4100,
      "ãĥİãĥŀãĥīçĶ·åŃĲ": 4101,
      "æ®µéļİ": 4102,
      "ãģ®åł´åĲĪãģ¯": 4103,
      "ãĤĴéģ¸ãģ¶": 4104,
      "ãĤĴæĭħå½ĵ": 4105,
      "è¢«çģ½ãģĹãģŁ": 4106,
      "éĺª": 4107,
      "ãģ«è¦ĭãģĪãĤĭ": 4108,
      "ãģ®å¾©": 4109,
      "ãģ®æĦŁ": 4110,
      "ãĤ³ãĥ³ãĥĳãĤ¯ãĥĪ": 4111,
      "ãĤ³ãĥ³ãĥĶãĥ¥": 4112,
      "ä¸ŃåĽ½èªŀ": 4113,
      "èµ¤åŃĹç¤¾åĵ¡": 4114,
      "åħħéĽ»": 4115,
      "åĨįãģ³": 4116,
      "çĩĥè²»": 4117,
      "Googleãĥªãĥ¼ãĥĢãĥ¼": 4118,
      "ãĥķãĥ©ãĥĥãĥĪ": 4119,
      "ãģ®å¿ĥ": 4120,
      "ç·´ç¿Ĵ": 4121,
      "å·®ãģĹ": 4122,
      "ãģ®ãĥĵãĤ¸ãĥįãĤ¹": 4123,
      "æ¯Ķè¼ĥ": 4124,
      "ãģ®æĪ¦ãģĦ": 4125,
      "ãģ¨è¿°ãģ¹ãģ¾ãģĹãģŁ": 4126,
      "ãĤĴæ´»çĶ¨": 4127,
      "çµ¶å¯¾ãģ«": 4128,
      "éĹĺ": 4129,
      "ãĥ¬ãĤ¹ãĥĪãĥ©ãĥ³": 4130,
      "ãģ¡ãģªãģ¿ãģ«": 4131,
      "è²¬ä»»": 4132,
      "åĢŁéĩĳ": 4133,
      "ãĥķãĤ¡ãĤ¹ãĥĪãĥķãĤ¡ãĥĥãĤ·ãĥ§ãĥ³": 4134,
      "å°ıè°·æ°ı": 4135,
      "ç¥ŀãĢħãģ®æĪ¦ãģĦ": 4136,
      "åħħå®ŁãģĹãģŁ": 4137,
      "BMX": 4138,
      "ãģ®å¯¾": 4139,
      "èĪŀåı°": 4140,
      "ãĤĴæĺİç¢º": 4141,
      "aku": 4142,
      "mith": 4143,
      "¦ãĤ§ãĤ¢": 4144,
      "į²å¾Ĺ": 4145,
      "ãģĳãĤĮãģ©": 4146,
      "æĸ¬æĸ°ãģª": 4147,
      "ãĥįãĥ«ãĤ®": 4148,
      "ãģ®çĿĢãģĵãģªãģĹ": 4149,
      "¯Ķãģ¹": 4150,
      "ĩè·¡": 4151,
      "ĸç¸Ħ": 4152,
      "ãģªãģĭãģªãģĭ": 4153,
      "ãĤ¢ãĥĳãĥ¬ãĥ«": 4154,
      "ãģĬäºĴãģĦ": 4155,
      "å¤§ä¸Īå¤«": 4156,
      "ãĤ¦ãĥıãĤ¦": 4157,
      "è²¢çĮ®": 4158,
      "ãĥıãĥĥãĤ·ãĥ¥ãĤ¿ãĤ°": 4159,
      "ãģ²ãģįãģĮãģŃ": 4160,
      "ãģĿãĤĵãģªæ§ĺãĢħãģªæĤ©ãģ¿ãģ«": 4161,
      "ãĤ³ãĥ³ãĥĶãĥ¥ãĥ¼ãĤ¿": 4162,
      "120": 4163,
      "35": 4164,
      "3600": 4165,
      "60": 4166,
      "800": 4167,
      "?ãĢı": 4168,
      "Ater": 4169,
      "Dæĺłåĥı": 4170,
      "ES": 4171,
      "JTB": 4172,
      "Re": 4173,
      "RIN": 4174,
      "RAN": 4175,
      "Sy": 4176,
      "Saf": 4177,
      "Smith": 4178,
      "TA": 4179,
      "TE": 4180,
      "TCC": 4181,
      "UN": 4182,
      "VD": 4183,
      "WM": 4184,
      "am": 4185,
      "eSy": 4186,
      "mWM": 4187,
      "ps": 4188,
      "ri": 4189,
      "¢ãĥ¼ãĤ¿ãĥ«": 4190,
      "§¿": 4191,
      "§ãĤĮ": 4192,
      "®¡çĲĨ": 4193,
      "²ãģĴ": 4194,
      "²è¦§": 4195,
      "¸ı": 4196,
      "¾Į": 4197,
      "å¡": 4198,
      "å³": 4199,
      "åĶ¯": 4200,
      "å¶ĭ": 4201,
      "æ£": 4202,
      "æ¹": 4203,
      "æ»": 4204,
      "æĵ": 4205,
      "ç¥": 4206,
      "çħ": 4207,
      "è¸ı": 4208,
      "éĭ": 4209,
      "Ġlivedoor": 4210,
      "Ġvol": 4211,
      "ĤãģĴ": 4212,
      "ħãģĨ": 4213,
      "ĪĲ": 4214,
      "Ĳç¤º": 4215,
      "Ĵ®": 4216,
      "Ķ»": 4217,
      "ĺãĥĥãĥī": 4218,
      "ãģ¼": 4219,
      "ãĢĩ": 4220,
      "ãģ®æĹ¥": 4221,
      "ãģ®éĩįè¦ģ": 4222,
      "ãĢģâĢľ": 4223,
      "ãģ§èĢĥãģĪãĤĭ": 4224,
      "ãģ§åĥįãģı": 4225,
      "ãģ«ãģĹãģŁ": 4226,
      "ãģ«çĿĢ": 4227,
      "ãģ«èĪĪåĳ³": 4228,
      "ãģ«è¿«": 4229,
      "ãģ«è§¦": 4230,
      "ãģ«ãģıãģĦ": 4231,
      "ãĥ¼ãģ§": 4232,
      "ãģ¨çŃĶãģĪ": 4233,
      "ãģ¨åĳ¼": 4234,
      "ãģªãģĹ": 4235,
      "ãģªãģ®ãģ§ãģĹãĤĩãģĨãģĭ": 4236,
      "ãĤĭãģŁãĤģ": 4237,
      "ãĤĭãĤĪãģĨãģª": 4238,
      "ãĤĴåį": 4239,
      "ãĤĴãģĹãģ¾ãģĻ": 4240,
      "ãĤĴåĭĻ": 4241,
      "ãĤĴçµĤ": 4242,
      "ãĤĴåħ¼": 4243,
      "ãģ¾ãģĸ": 4244,
      "ãģĮéĸĭåĤ¬": 4245,
      "ãģĮéĿŀå¸¸ãģ«": 4246,
      "ãģ¯ãĤ³": 4247,
      "ãĥ³ãĥĹ": 4248,
      "ãģĭãģĭ": 4249,
      "ãģĭãĤĤ": 4250,
      "ãģĭãģĴ": 4251,
      "ãĤĤãģªãģı": 4252,
      "ãĤĤãģŁãģıãģķãĤĵ": 4253,
      "ãĤĬãģ§": 4254,
      "ãĤĬãģŁãģĦ": 4255,
      "ãģ£ãģĭ": 4256,
      "ãģ£å¼µ": 4257,
      "ä¸¸": 4258,
      "ãĤīãģĹãģı": 4259,
      "ãģ§ãģĻãģĹ": 4260,
      "ãģ§ãģĻãĤĪ": 4261,
      "ãĥ«ãģ®": 4262,
      "ãĥ«ãĥĪ": 4263,
      "ãĤĵãģ§ãĤĤ": 4264,
      "ãĤ¤ãĤ¯": 4265,
      "ãĤ¤ãĥ¼ãĥĪ": 4266,
      "ãģĹãģŁãģ¨ãģĵãĤį": 4267,
      "ãĥĥãĤ«": 4268,
      "ãĥĥãĥĿ": 4269,
      "ãĥĥãĤº": 4270,
      "ãĥĥãĤ·ãĥ§": 4271,
      "ãģķãģ¨": 4272,
      "ãģ¾ãģĻãģĭ": 4273,
      "çĶĺ": 4274,
      "ãĥªãĥ¼ãĤ¹": 4275,
      "ãĥªãĤ¾ãĥ¼ãĥĪ": 4276,
      "ãģ©ãģ®": 4277,
      "ãģ©ãĤĵãģ©": 4278,
      "ãģĿãĤį": 4279,
      "ãģĿãģ®æĻĤ": 4280,
      "ãĥ©ãĤ°": 4281,
      "åħ¸": 4282,
      "åĪĬ": 4283,
      "ãĤĪãģ³": 4284,
      "äººçī©": 4285,
      "ãĤģãģı": 4286,
      "ãĤĦãģ£ãģ±": 4287,
      "éĸ²è¦§": 4288,
      "ãĤĴæĢ": 4289,
      "ãĤĴæĽ¸": 4290,
      "ãĤĴæĪĲ": 4291,
      "ãģĻãĤĭãģŁãĤģãģ®": 4292,
      "ãģĭãĤīãģŃ": 4293,
      "ãģ¨ãģĦãģ£ãģ¦": 4294,
      "ãģ¨ãģĦãģĪãģ°": 4295,
      "ãģĬå¾Ĺ": 4296,
      "ãģĬçĪ¶": 4297,
      "ãģĬãĤĪãģ³": 4298,
      "ãģ®å½": 4299,
      "ãģ£ãģŁãĤī": 4300,
      "ãģ£ãģŁãĤĵãģ§ãģĻ": 4301,
      "ãĤ·ãĥª": 4302,
      "ãĤ·ãĤ°": 4303,
      "ãģ£ãģ¦æĢĿ": 4304,
      "ãģ£ãģ¦ãģĬãĤĬ": 4305,
      "ãĥ³ãĥŀ": 4306,
      "ãĥ³ãĥ¦ãĥ¼ãĤ¶ãĥ¼": 4307,
      "ãĤ¹ãĥĸ": 4308,
      "ãģ¤ãģĳãĤĭ": 4309,
      "å¹´ãģ«ãģ¯": 4310,
      "ãģ¨ãģĦãģĨãĤĪãĤĬãĤĤ": 4311,
      "ãĥ¬ãĥĥ": 4312,
      "ãĥ¬ãĥ¼ãĥī": 4313,
      "ãĥ¬ãĥĩãĤ£": 4314,
      "èģ´": 4315,
      "ãģ®æ¯": 4316,
      "ãģ®æİ": 4317,
      "ãģ®æ¿Ģ": 4318,
      "ãģ®æµ·": 4319,
      "ãĤıãģŃ": 4320,
      "ãĤıãģĭãĤĬ": 4321,
      "ãģķãĤĮãģ¦ãģĦãģŁ": 4322,
      "ãĤ¸ãĥ¡ãĥ³ãĥĪ": 4323,
      "éģł": 4324,
      "ãĥĥãĥĪãģ¯": 4325,
      "åĨ¬": 4326,
      "åĨĬ": 4327,
      "ãĤ«ãĤ¹ãĤ¿ãĥł": 4328,
      "åĭŁ": 4329,
      "ãĤµãĥ©": 4330,
      "ãĤµãĤ¤ãĥī": 4331,
      "ãĤµãĤ¤ãĥĨãĤ£": 4332,
      "èĢ³": 4333,
      "ãĤĪãģĨãģ«ãģªãĤĬãģ¾ãģĹãģŁ": 4334,
      "ç´Ģ": 4335,
      "ãģ§ãģįãģ¦ãģĦãĤĭ": 4336,
      "è¦ĭãģĽ": 4337,
      "è¦ĭãģĪãģ¾ãģĻ": 4338,
      "ä¸Ĭè³ª": 4339,
      "ä¸Ĭåı¸": 4340,
      "ãģ®ãĥį": 4341,
      "ãģ®ãĥİ": 4342,
      "ãģ®ãĥı": 4343,
      "ãģ®ãĥĲ": 4344,
      "ãģ®ãĥĴ": 4345,
      "ãģ®ãĥĻ": 4346,
      "ä¼ļèŃ°": 4347,
      "å¾®": 4348,
      "æľ¬æł¼": 4349,
      "ãģ«ãģªãĤĭãģ¨": 4350,
      "ãĥŃãĥ¼": 4351,
      "ãĥŃãĥ¼ãĤ¯": 4352,
      "ä»Ĭãģ¯": 4353,
      "çĽ®ç·ļ": 4354,
      "éĽ¨": 4355,
      "æ°Ĺãģª": 4356,
      "å¼¾": 4357,
      "å¼Ĭ": 4358,
      "ãĤŃãĤµãĤ¤ãĥĨãĤ£": 4359,
      "æĥĳ": 4360,
      "æĻĤè¨Ī": 4361,
      "ãĤ¨ãĤ¢": 4362,
      "ãĥĲãĥ©ãĥ³ãĤ¹": 4363,
      "ãĥĲãĥ©ãĤ¨ãĥĨãĤ£": 4364,
      "ãĥīãĤ¢": 4365,
      "ãĥīãĤŃ": 4366,
      "ãĥģãĥ©": 4367,
      "ãĥģãĥĻãĥ¼ãĤ·ãĥ§ãĥ³": 4368,
      "ãĤīãĤĮãģ¦": 4369,
      "ãĤĴç©": 4370,
      "ãĤĴçĭ": 4371,
      "ãĤĴç½®": 4372,
      "æĪ¸": 4373,
      "è¨ĢãģĦ": 4374,
      "ãģ¾ãģĽãĤĵãģĮ": 4375,
      "ãģ¾ãģĽãĤĵãģ§ãģĹãģŁ": 4376,
      "ãģļãģ«": 4377,
      "ãĤ¦ãĥĪ": 4378,
      "ãĤ¦ãĤ¤": 4379,
      "ãĥĳãĥĳ": 4380,
      "ãĥĳãĤ¿ãĥ¼ãĥ³": 4381,
      "ãĥĳãĥ³ãĥīãĥ©": 4382,
      "çĻºçĶŁ": 4383,
      "æĦŁåº¦": 4384,
      "åīĬ": 4385,
      "é«ĺåıİåħ¥": 4386,
      "å±Ĭ": 4387,
      "è³Ľ": 4388,
      "è²¸": 4389,
      "ãģĹãģ¦ãģĦãĤĭRSS": 4390,
      "æľĢåħĪ": 4391,
      "éĿ´": 4392,
      "éĿĻ": 4393,
      "çıŃ": 4394,
      "ãĤ´ãĥ¼ãĥ«": 4395,
      "ãĤ´ãĥ¼ãĥ«ãĥī": 4396,
      "ãģĿãģ®ãģ¾ãģ¾": 4397,
      "ãģ¾ãģ§ãģ®": 4398,
      "ãĤ¤ãĥ³ãĤ°": 4399,
      "ãĤ¤ãĥ³ãĤ¹ãĥĪ": 4400,
      "ãĢħãģ«": 4401,
      "ãĤ¹ãĤ¿ãĥ¼": 4402,
      "ãģ«æĭ": 4403,
      "ãģ«æ´»": 4404,
      "ãģ«æ¯Ķãģ¹": 4405,
      "ä»£ãĤıãĤĬ": 4406,
      "èĩªåĪĨãģ«": 4407,
      "åĢĻ": 4408,
      "ãģĹãģ¾ãģĹãģŁãģĮ": 4409,
      "éłĪ": 4410,
      "éļħ": 4411,
      "æ±ģ": 4412,
      "æ±ł": 4413,
      "æŀĹ": 4414,
      "åħ¨åĵ¡": 4415,
      "ãģłãģĳãģ©": 4416,
      "éķ·ãģ®": 4417,
      "éķ·ãģĦ": 4418,
      "æŃ´åı²": 4419,
      "ãĥıãĥŀ": 4420,
      "ãĥıãĤ¦ãĤ¹": 4421,
      "æ³Ĭ": 4422,
      "ãģĵãģ®ãĤĪãģĨãģ«": 4423,
      "ãģĵãģ¨ãģĮéĩįè¦ģ": 4424,
      "æĹ¥æľ¬ãģ«": 4425,
      "æĹ¥æľ¬äºº": 4426,
      "æĹ¥æľ¬èªŀ": 4427,
      "æĬ¼": 4428,
      "ãĤĵãģ§ãģĻãĤĪãģŃ": 4429,
      "åĮł": 4430,
      "çĤº": 4431,
      "èĢĥãģĪãģ¦": 4432,
      "èĢĥãģĪãģŁ": 4433,
      "åĲĳãģĭ": 4434,
      "ç«ĭãģ¦": 4435,
      "èĥ½åĬĽ": 4436,
      "çŁŃ": 4437,
      "åīįæı": 4438,
      "åıĸæĿĲ": 4439,
      "ç¨¼": 4440,
      "ãģĹãģĭãģªãģĦ": 4441,
      "èº«ãĤĴ": 4442,
      "èº«ãģ«ãģ¤": 4443,
      "ãģĹãģ¦ãģĦãģįãģŁãģĦ": 4444,
      "åĲįãģ®": 4445,
      "åĲįãģĮ": 4446,
      "ãĤĴæĮĻãģĴ": 4447,
      "2012": 4448,
      "çŃĭ": 4449,
      "å¿ĥåľ°": 4450,
      "ãĤŃãĥ£ãĥĥãĥĹ": 4451,
      "æł¹": 4452,
      "åºĹãģ«": 4453,
      "ãĤ´ãĥ«ãĥķãĤ·ãĥ§ãĥĥãĥĹ": 4454,
      "ãĥ¯ãĥ¼": 4455,
      "ãĥ¯ãĤ¤ãĥĪ": 4456,
      "ãĤµãĤ¤ãĥĪãģ®": 4457,
      "çŁ¥å¿µ": 4458,
      "ãģ®çľ": 4459,
      "éģ¸ãģ³": 4460,
      "å°ıçī©": 4461,
      "ç¶Ļ": 4462,
      "ãĥĸãĥ©ãĥĥãĤ¯": 4463,
      "æıĲæ¡Ī": 4464,
      "çµĦãĤĢ": 4465,
      "å¿ħéłĪ": 4466,
      "ç´łæķµ": 4467,
      "ãĥĶãĤ¿": 4468,
      "éĩįéĩı": 4469,
      "å¥½ãģ¿": 4470,
      "ãģķãĤīãģ«ãģ¯": 4471,
      "çĶ°åİŁ": 4472,
      "ãģ®ä¸Ńãģ§ãĤĤ": 4473,
      "åı¯æ¬ł": 4474,
      "æľŁçļĦãģª": 4475,
      "ãģ©ãģĨãģĹãģ¦ãĤĤ": 4476,
      "ãĥ©ãĥ³ãĤ¿ãĥ³": 4477,
      "åĪ©çĶ¨ãģ§ãģįãĤĭ": 4478,
      "æĮĩå°İ": 4479,
      "è¨Ńç«ĭ": 4480,
      "ãģ§ãģĻãģĭãģŃ": 4481,
      "ãĤĢãģĹãĤį": 4482,
      "ãĥīãĥĲãĤ¤ãģ®": 4483,
      "ãĥĵãĤ¸ãĥįãĤ¹ãĥĳãĥ¼ãĤ½ãĥ³": 4484,
      "è¾¼ãĤĢ": 4485,
      "ãģ¨ãģĵãĤįãģ«": 4486,
      "ãģ¨ãģĵãĤįãģĮ": 4487,
      "ãĥ©ãĤ¤ãĥĸ": 4488,
      "ä»ĸãģ®": 4489,
      "æĭħ": 4490,
      "çĿĢä¸Ī": 4491,
      "ãĤ²ãĤ¹ãĥĪ": 4492,
      "ãĤ¹ãĥŀãĥ¼ãĥĪãĥķãĤ©ãĥ³ãĥ¦ãĥ¼ãĤ¶ãĥ¼": 4493,
      "ãģ®ãĤ¢ãĤ¤": 4494,
      "ãģ®ãĤ¢ãĤ¤ãĥĨãĥł": 4495,
      "ä¸įåı¯æ¬ł": 4496,
      "ãĤĴæıĲç¤º": 4497,
      "æ°´æľ¨": 4498,
      "çĽ´åĸ¶": 4499,
      "ä¸Ģãģ¤ãģ®": 4500,
      "æŃ³çĶ·æĢ§": 4501,
      "äºĮãģ¤": 4502,
      "èª¿ãģ¹": 4503,
      "è³ĩçĶ£": 4504,
      "åı¯èĥ½ãģª": 4505,
      "ç¯Ħ": 4506,
      "ãģ¨ãģ®ãģĵãģ¨ãģ§ãģĻ": 4507,
      "ãĤĦãģĻãģı": 4508,
      "ãĤĴæĬķ": 4509,
      "åĸ¶æ¥Ńèģ·": 4510,
      "åĸ¶æ¥Ńãĥŀãĥ³": 4511,
      "ãĤ®ãĥ©": 4512,
      "ãĤĴæĦı": 4513,
      "å¾ħãģ¡": 4514,
      "ä»ķäºĭãģĮãģ§ãģįãĤĭ": 4515,
      "ãĤ¹ãĤ¿ãĤ¤ãĥ«ãĤĴ": 4516,
      "åİŁå®¿": 4517,
      "åķĨä¼ļ": 4518,
      "è±¡å¾´": 4519,
      "ç³»ãģ®æ±Ĥäººæĥħåł±": 4520,
      "ãģ«ãģ¨ãģ£ãģ¦ãĤĤ": 4521,
      "åĪ¥ãģ«": 4522,
      "ç¨®é¡ŀ": 4523,
      "ãĤĴä½ľãĤĭ": 4524,
      "ä¼ĿãģĪ": 4525,
      "ä¼ĿãĤı": 4526,
      "å½±éŁ¿": 4527,
      "RSSãĤĴ": 4528,
      "ãģłãģ¨èĢĥãģĪ": 4529,
      "éĩİçĲĥ": 4530,
      "ä¼ģçĶ»èģ·": 4531,
      "é§Ħ": 4532,
      "ãģ¦ãģ¿ãĤĭãģ¨": 4533,
      "ãĤĴè¡ĮãģĨ": 4534,
      "ãģ¾ãģ¨ãĤģãĤĭ": 4535,
      "å²©": 4536,
      "ãģĵãģĨãģĦãģĨ": 4537,
      "ãģĹãģ¦ãģıãĤĮãģŁ": 4538,
      "ãĤ¯ãĥªãĤ¨": 4539,
      "ĠSaku": 4540,
      "ãģĻãģ¹ãģį": 4541,
      "ãģªãĤĬãģ¾ãģĽãĤĵ": 4542,
      "ãĤıãģĳãģ§ãģĻ": 4543,
      "ãĤıãģĳãģ§ãģ¯ãģĤãĤĬãģ¾ãģĽãĤĵ": 4544,
      "éģĭçĶ¨": 4545,
      "ãĤ¦ãĤ§ãĥĸ": 4546,
      "åįĺèªŀ": 4547,
      "æŃ£çĽ´": 4548,
      "ãģ«ãģĬãģĦãģ¦ãĤĤ": 4549,
      "éľĢ": 4550,
      "æķĻãģĪ": 4551,
      "ãģĿãģ®å¾Į": 4552,
      "èĭ±èªŀ": 4553,
      "åĳ¨å¹´": 4554,
      "ç®±": 4555,
      "ãģĭãģĽãģªãģĦ": 4556,
      "ãĤ¹ãĥļãĤ·ãĥ£ãĥ«": 4557,
      "ãģ®ãĥĳãĤ½ãĤ³ãĥ³": 4558,
      "ãģ®ãĥĳãĤ¿ãĥ¼ãĥ³": 4559,
      "å°ĨæĿ¥ãģ®": 4560,
      "ç«¯æľ«": 4561,
      "ãĥĭãĥ¥ãĥ¼ãĤ¹": 4562,
      "ãģ§ãģĤãĤĬãģªãģĮãĤī": 4563,
      "ãĤ¹ãĥªãĥ¼ãĥĪ": 4564,
      "ãģ©ãģĵãģ§ãĤĤ": 4565,
      "ãĤ·ãĥ¥ãĥ¼ãĤº": 4566,
      "èª°ãĤĤ": 4567,
      "ãĤ½ãĥķãĥĪãĤ¦ãĤ§ãĤ¢": 4568,
      "ãģ©ãģ®ãĤĪãģĨãģªãĤĤãģ®": 4569,
      "ãĥĩãĥ¼ãĤ¿ãĤĴ": 4570,
      "çĻºè¡¨ãģĹãģ¾ãģĹãģŁ": 4571,
      "ç«¶æĬĢ": 4572,
      "ãĥĿãĤ¤ãĥ³ãĥĪãģ§ãģĻ": 4573,
      "éĽ»æ°Ĺèĩªåĭķè»Ĭ": 4574,
      "éĽ»æ°Ĺãĥĸãĥ©ãĥ³": 4575,
      "ä»ĺãģįåĲĪ": 4576,
      "ãĤĴè¶ħãģĪãģŁ": 4577,
      "ãĤ¤ãĥ³ãĥ¢ãĥ¼ãĤ¿ãĥ«": 4578,
      "ä½İãģĦ": 4579,
      "åıįå¿ľ": 4580,
      "ãģ£ãģ¦ãģ¿ãģŁãģĦ": 4581,
      "å·¥æ¥Ń": 4582,
      "é¦Ļ": 4583,
      "ãģ¨æĦŁãģĺãģ¾ãģĹãģŁ": 4584,
      "å°İåħ¥": 4585,
      "ãĤ¹ãĤ¿ãĥĥãĥķãģĮ": 4586,
      "ç«ĭãģ¡ä¸ĬãģĴ": 4587,
      "ãģ¦ãģ¯ãģĦãģĭãģĮãģ§ãģĹãĤĩãģĨãģĭ": 4588,
      "ä½ıå®ħ": 4589,
      "ãĤĴæĭħãģĨ": 4590,
      "èĲ½ãģ¨": 4591,
      "ãĤ¢ãĤ¤ãĥĩãĤ¢": 4592,
      "ãĤ¢ãĤ¤ãĤ¹ãĤ¯ãĥª": 4593,
      "å®®æ¾": 4594,
      "ãģ®å¼ģå½ĵ": 4595,
      "ãĤ¨ãĥ³ãĤ¸ãĥĭãĤ¢": 4596,
      "åĢĭæĢ§": 4597,
      "ãģĮå¢ĹãģĪãģ¦ãģĦãĤĭ": 4598,
      "ãģ®åºĥ": 4599,
      "çĶŁãģ¾ãĤĮãģ¦": 4600,
      "è¾ĽãĤ¢ãĥīãĥĲãĤ¤ãĤ¹": 4601,
      "ãģĺãĤĥãģªãģĦãģ§ãģĻãģĭ": 4602,
      "çĪĨ": 4603,
      "çµ¦ä¸İ": 4604,
      "ä¼¸ãģ°": 4605,
      "ãĤıãģļãģĭ": 4606,
      "ç§»åĭķ": 4607,
      "éĬĢåº§åºĹ": 4608,
      "ç±į": 4609,
      "ãģ¯ä½ķãģ§ãģĻãģĭ": 4610,
      "éĢ±æľ«": 4611,
      "è±Ĭå¯Į": 4612,
      "ãģ²ãģ¨ãģ¤": 4613,
      "ç²¾ç¥ŀ": 4614,
      "âĹı": 4615,
      "ãģĨãģ¡ãģ«": 4616,
      "çĭ¬èĩª": 4617,
      "åħ·ä½ĵçļĦãģ«": 4618,
      "ãģ®ãĥĵãĤ¸ãĥįãĤ¹ãĥĳãĥ¼ãĤ½ãĥ³": 4619,
      "ãģ½ãģĦãģ½": 4620,
      "ç©įæ¥µçļĦãģ«": 4621,
      "ãĥķãĥªãĥ¼Wi": 4622,
      "ãģ®åĭķ": 4623,
      "ãĤ·ãĤ§ãĥ¼ãĥĲ": 4624,
      "ãĥĲãĥĥãĤ°": 4625,
      "ãģ®æķ°": 4626,
      "äºĭå®Łãģ§ãģĻ": 4627,
      "ãģ®ãĥ¢ãĥģãĥ¼ãĥķ": 4628,
      "ãĥŃãĤ°ãĤ¤ãĥ³": 4629,
      "æİĽãģĳ": 4630,
      "ãĤ·ãĥ³ãĥĹãĥ«ãģ«": 4631,
      "èĸĦ": 4632,
      "ãģ®æīĭ": 4633,
      "ãĤ¦ãĤ©ãĥĥãĥģ": 4634,
      "æĶ¯æı´": 4635,
      "ãģ¨ãĤĤè¨ĢãģĪãĤĭ": 4636,
      "ãģ§æ´»èºįãģ§ãģįãĤĭ": 4637,
      "ãĤĴèªĩãĤĭ": 4638,
      "ä½Ļè£ķ": 4639,
      "å¹´ãģ§è»¢èģ·ãģ¯æĹ©ãģĻãģİãĤĭ": 4640,
      "èĤīä½ĵ": 4641,
      "ãĥ¦ãĥĭãĥ¼ãĤ¯": 4642,
      "ãĤ®ãĥªãĤ·ãĥ£": 4643,
      "ãģ¾ãģ¨ãĤģãģ¦ãģĹãģ¾ãģĨ": 4644,
      "è¾Ľåı£ãģª": 4645,
      "çĽĽãĤĬä¸ĬãģĮ": 4646,
      "ãĥĳãĥĥãĤ¯ãĥ³ãģķãĤĵãģ¯": 4647,
      "ãģ£ãģįãĤĬ": 4648,
      "åĪºæ¿Ģ": 4649,
      "å¾ĵæĿ¥": 4650,
      "åľŁå±ĭãģķãĤĵ": 4651,
      "ãĤĴç¨¼ãģĲ": 4652,
      "éłħçĽ®": 4653,
      "æµ®ãģĭ": 4654,
      "æİĴåĩºéĩı": 4655,
      "è±ªèı¯": 4656,
      "å®īå¿ĥãģĹãģ¦": 4657,
      "å´İ": 4658,
      "ãĤĴçµĮãģ¦": 4659,
      "ãĤ¹ãĤ±ãĤ¸ãĥ¥": 4660,
      "ãģĬè©±ãĤĴä¼ºãģĦãģ¾ãģĹãģŁ": 4661,
      "ãģ«æ±Ĥ": 4662,
      "èĥĮæĻ¯": 4663,
      "åı¯æĦĽãģĦ": 4664,
      "éľĩçģ½": 4665,
      "aulSmith": 4666,
      "æ¦Ĥ": 4667,
      "æĹ§è»Ĭ": 4668,
      "éĽ°åĽ²æ°Ĺ": 4669,
      "ãĤŃãĥ¼ãĥ¯ãĥ¼ãĥī": 4670,
      "æĬ½éģ¸": 4671,
      "ãĥĹãĥ¬ãĥŁãĤ¢": 4672,
      "ãĤĴæķĻãģĪãģ¦": 4673,
      "æİ¡çĶ¨ãĤĴè¡Įãģ£ãģ¦ãģĦãĤĭä¼ģæ¥Ń": 4674,
      "ãģ²ãģįãģĮãģŃãĤĴå¼ķ": 4675,
      "AtermWM": 4676,
      "RAND": 4677,
      "SafeSy": 4678,
      "åĶ¯ä¸Ģ": 4679,
      "ãģ¨åĳ¼ãģ°": 4680,
      "ãĤĴåħ¼ãģŃ": 4681,
      "ãģ¯ãĤ³ãĥģãĥ©": 4682,
      "ãģ©ãĤĵãģ©ãĤĵ": 4683,
      "ãĤŃãĤµãĤ¤ãĥĨãĤ£ãĥ³ãĤ°": 4684,
      "æľĢåħĪç«¯": 4685,
      "ĠSakura": 4686,
      "ãĤ¤ãĥ³ãĥ¢ãĥ¼ãĤ¿ãĥ«ãĤº": 4687,
      "ãĤ¢ãĤ¤ãĤ¹ãĤ¯ãĥªãĥ¼ãĥł": 4688,
      "å®®æ¾¤": 4689,
      "SafeSync": 4690,
      "!?": 4691,
      "(âĢ»": 4692,
      "-ãĢı": 4693,
      "4000": 4694,
      "70": 4695,
      "80": 4696,
      "90": 4697,
      "DVD": 4698,
      "GIN": 4699,
      "GRAND": 4700,
      "ION": 4701,
      "IRIN": 4702,
      "LO": 4703,
      "NH": 4704,
      "NS": 4705,
      "OS": 4706,
      "RK": 4707,
      "SE": 4708,
      "SHI": 4709,
      "SNS": 4710,
      "TãĤ·ãĥ£ãĥĦ": 4711,
      "US": 4712,
      "WEB": 4713,
      "Web": 4714,
      "ac": 4715,
      "at": 4716,
      "ir": 4717,
      "res": 4718,
      "sof": 4719,
      "¡éĸĵ": 4720,
      "¨ãĥ¼ãĤ¯": 4721,
      "©¦": 4722,
      "«éľ²": 4723,
      "³åĦª": 4724,
      "ºĸ": 4725,
      "åĺ": 4726,
      "å©¦": 4727,
      "æ½": 4728,
      "ç½": 4729,
      "çĸĳ": 4730,
      "èĨ": 4731,
      "Ġt": 4732,
      "Ġç¬¬": 4733,
      "ħæ²¢": 4734,
      "īåº": 4735,
      "īæľ¬": 4736,
      "Ĭæı¡": 4737,
      "İåħ¥": 4738,
      "ĵåĽ½": 4739,
      "ĶãĥĥãĤ¯": 4740,
      "Ľè¥¿": 4741,
      "Ľå¤±": 4742,
      "ľãĥ¼ãĥ«": 4743,
      "ŀåľ¨": 4744,
      "ŀãĥīãĤŃ": 4745,
      "Łãĥ³ãĤ°": 4746,
      "ŃæĮģ": 4747,
      "ãģµ": 4748,
      "ãģ®ãĥķ": 4749,
      "ãģ®çĽ®": 4750,
      "ãģ®ãĤª": 4751,
      "ãģ®è»Ĭ": 4752,
      "ãģ®éĸĭçĻº": 4753,
      "ãģ®ãĤ°ãĥŃãĥ¼ãĥĲãĥ«": 4754,
      "ãģ®å¹³åĿĩ": 4755,
      "ãģ®éŃħåĬĽ": 4756,
      "ãģ®åıĭäºº": 4757,
      "ãģ®ä½¿ãģĦ": 4758,
      "ãģ®å¤īåĮĸ": 4759,
      "ãģ®ãģ»ãģĭ": 4760,
      "ãģ®ãģ»ãģĨãģĮ": 4761,
      "ãģ®è£ı": 4762,
      "ãģĦãģĪ": 4763,
      "ãģĦãģªãģĦ": 4764,
      "ãģĦãģ¦ãģĦãģ¾ãģĻ": 4765,
      "ãģ§ãģĬ": 4766,
      "ãģ§ä¸Ģ": 4767,
      "ãģ§ç´¹ä»ĭ": 4768,
      "ãģ§éħįä¿¡": 4769,
      "ãģ§æıĲä¾Ľ": 4770,
      "ãģĹãģ¿": 4771,
      "ãģĹãģªãģĳãĤĮãģ°": 4772,
      "ãģ«è»¢èģ·": 4773,
      "ãģ«ãģĦãĤĭ": 4774,
      "ãģ«éħį": 4775,
      "ãģ«çĻ»åł´": 4776,
      "ãģ«çĻ»éĮ²": 4777,
      "ãģ«ç«ĭãģ¡": 4778,
      "ãģ«æĮĳæĪ¦": 4779,
      "ãģ¨ãĤĬ": 4780,
      "ãģ¨èĢĥãģĪãĤĭ": 4781,
      "ãģ¨æĮĩæĳĺ": 4782,
      "ãģ¨ãģ¤ãģªãģĮ": 4783,
      "ãĤĭãģ¨ãģĦãģĨ": 4784,
      "ãģŁãģ¾": 4785,
      "ãģŁãģ¨ãģĵãĤį": 4786,
      "ãĤĴãģĹãģŁ": 4787,
      "ãĤĴå¸¸ãģ«": 4788,
      "ãĤĴè²·": 4789,
      "ãĤĴä¸ĬãģĴ": 4790,
      "ãĤĴéĢ²": 4791,
      "ãĤĴéĢģ": 4792,
      "ãĤĴãģĹãģ¦ãģĦãģŁ": 4793,
      "ãĤĴå¤§åĪĩ": 4794,
      "ãĤĴè¨ª": 4795,
      "ãĤĴãģĹãģ£ãģĭãĤĬ": 4796,
      "ãģ¾ãģĤ": 4797,
      "ãģ¾ãģ¿": 4798,
      "ãģ¾ãģĹãģĦ": 4799,
      "ãģĮãĤĮ": 4800,
      "ãģĮãģ¡": 4801,
      "ãģĮçĽ®": 4802,
      "ãģĮåħ¨": 4803,
      "ãģĮãģĤãĤĬãģ¾ãģĽãĤĵ": 4804,
      "ãģĮãģĤãĤĮãģ°": 4805,
      "ãģĮçķ°ãģªãĤĭ": 4806,
      "ãģĮæĮģãģ¤": 4807,
      "ãģ¯ãĤĦ": 4808,
      "ãģ¯ãģªãģı": 4809,
      "ãģ¯ãģ©ãģĨ": 4810,
      "ãģ¯ä»¥ä¸ĭ": 4811,
      "ãĥ³ãĤ²ãĥ¼ãĥł": 4812,
      "ãģĭãĤı": 4813,
      "ãĤĤãĤī": 4814,
      "ãĤĤå¢Ĺ": 4815,
      "ãĤĤå¤ļãģĦ": 4816,
      "ãĤĤå¤īãĤı": 4817,
      "ãĤĤãģ¯ãĤĦ": 4818,
      "ãĤĮãģ¦ãģĦ": 4819,
      "ãģĨãģĵãģ¨": 4820,
      "ãĤĬãģ¯": 4821,
      "ãĤ¹ãĤ³ãĥŁ": 4822,
      "ãĤīãģ£ãģŁ": 4823,
      "ãĢįãĢĳ": 4824,
      "ãĢįâĢķâĢķ": 4825,
      "ãĥ«ãĥ¼ãĥł": 4826,
      "ãĤ¤ãĤ¢": 4827,
      "ãĤ¤ãĤ¿": 4828,
      "ãĤ¤ãĤ¹ãĥĪ": 4829,
      "ãĤ¤ãĤ¿ãĥ¼": 4830,
      "ãĤ¤ãĤ¶ãĥ¼": 4831,
      "ãģĹãģŁãģ®ãģ¯": 4832,
      "ãģĹãģŁéļĽ": 4833,
      "ãģĹãģŁãģĵãģ¨ãģ¯": 4834,
      "ãĥĥãĤ³": 4835,
      "ãĥĥãĤ°": 4836,
      "ãģıãģ¨": 4837,
      "ãģıãģ¯": 4838,
      "ãģıãģĵãģ¨ãģ§": 4839,
      "ãģįãģ®": 4840,
      "ãģįãģ¦ãģĦãĤĭ": 4841,
      "ãģįãģ£ãģ¨": 4842,
      "ãģįå¿ĺ": 4843,
      "çĶĺãģĦ": 4844,
      "ãģĤãģ®": 4845,
      "ãģĤãģ¨ãģ¯": 4846,
      "ãĥ¼ãĥ¢": 4847,
      "ãĥ¼ãĥ¨ãĥ¼ãĤ¯": 4848,
      "ä½µ": 4849,
      "å¤®": 4850,
      "å¤ķ": 4851,
      "ãĥªãĤ¹ãĤ¯": 4852,
      "ãģ©ãģ¡ãĤī": 4853,
      "ãĤ¢ãĥ¯ãĥ¼ãĥī": 4854,
      "ãĤ¢ãĤ¹ãĥªãĥ¼ãĥĪ": 4855,
      "ãĥ¼ãĤ°": 4856,
      "ãĥ©ãĤ¦": 4857,
      "ãĥ©ãĥĥãĤ¯ãĤ¹": 4858,
      "äººãĤĴ": 4859,
      "äººåıĤ": 4860,
      "åı·": 4861,
      "ãĤģãģ¦ãģĦãģ¾ãģĻ": 4862,
      "ãĤģãĤĭãģ¨": 4863,
      "ãģĹãģ¦ãģ¯": 4864,
      "ãĤ¯ãĥ¼ãĥ«": 4865,
      "ãĤ¯ãĤ¿ãĤ¤": 4866,
      "ãĤ¯ãĥĨãĤ£ãĥĸ": 4867,
      "ãĤĦãģ£ãģ¦": 4868,
      "ãģĳãģ¦ãģĦ": 4869,
      "ãģłãģĹ": 4870,
      "éĸī": 4871,
      "ãĤĴæĹ": 4872,
      "ãĤ¿ãĥ¼ãĤ": 4873,
      "ãģĻãĤĭãģŁãĤģãģ«": 4874,
      "æĹĹ": 4875,
      "ãģĭãĤīãĤĤ": 4876,
      "ä¼´": 4877,
      "ãģ®å¥½": 4878,
      "ãĤ·ãĥĥãĤ¯ãģª": 4879,
      "ãģ£ãģ¦ãģĹãģ¾ãģĨ": 4880,
      "è¨³": 4881,
      "ãĥ³ãĥĸ": 4882,
      "**ãĢĲ": 4883,
      "ãģ¤ãģ®": 4884,
      "ãģ¤ãģĭ": 4885,
      "ãģ¤ãĤĤ": 4886,
      "è»¸": 4887,
      "çĽĹ": 4888,
      "ãģ¨ãģĦãģĨãģĭ": 4889,
      "ãģ¨ãģĦãģĨãģĵãģ¨ãģ¯": 4890,
      "ãģ¨ãģĦãģĨãĥĨãĥ¼ãĥŀ": 4891,
      "ãĥ¬ãĥ³": 4892,
      "ãĥ¬ãĤ¹": 4893,
      "ãĥ¬ãĥ³ãĥĢãĥ¼": 4894,
      "æĹ¥éĸĵ": 4895,
      "æĹ¥ãĢħ": 4896,
      "åĽĽ": 4897,
      "ãģ®æł": 4898,
      "ãģ®æ©Ł": 4899,
      "ãģ®æµģ": 4900,
      "ãĤıãĤĮãģ¦ãģĦãĤĭ": 4901,
      "ãģķãĤĮãģªãģĦ": 4902,
      "ãĤ³ãĥ³ãĥĪ": 4903,
      "ãĤ³ãĥ¼ãĤ¸": 4904,
      "ãĤ³ãĥĬ": 4905,
      "åĬĩ": 4906,
      "ãĤ¸ãĥ³": 4907,
      "äºĭä¾ĭ": 4908,
      "äºĭåīįãģ«": 4909,
      "èĩªçĶ±": 4910,
      "èªĺ": 4911,
      "ãĤ«ãĥ«": 4912,
      "ãĤ«ãĥª": 4913,
      "ãĤ«ãĥķãĤ£": 4914,
      "ãĤ«ãĤ¤ãĤ¸": 4915,
      "ãĤµãĥĪãĥŁ": 4916,
      "ãĤµãĥĥãĤ«ãĥ¼": 4917,
      "å¤§éĩı": 4918,
      "ä¸Ģè»¢": 4919,
      "ä¸Ģä½ĵ": 4920,
      "ä¸ĢåĨĬ": 4921,
      "ãĤ¤ãĥģ": 4922,
      "ãĤ¤ãĥĬ": 4923,
      "ãĤ¤ãĥĸ": 4924,
      "ãĤ¤ãĥŀãĥīãĤŃ": 4925,
      "ãĤĪãģĨãģ«ãģªãĤĬãģ¾ãģĻ": 4926,
      "ãĤ°ãĤ¼": 4927,
      "ç¤¾åĨħ": 4928,
      "ç´Ľå¤±": 4929,
      "çĻ¾": 4930,
      "ãģ®ãĥĢ": 4931,
      "ãģ®ãĥĭ": 4932,
      "ãģ®ãĥĸ": 4933,
      "æĿīæľ¬": 4934,
      "æľ¬ä½ĵ": 4935,
      "çļĦãģ§": 4936,
      "çļĦãģ«ãĤĤ": 4937,
      "ä»Ĭãģ®": 4938,
      "ä»Ĭãģ§ãģ¯": 4939,
      "ä»ĬæľĪ": 4940,
      "å¼ĺ": 4941,
      "åĩºãģĻ": 4942,
      "ãģĤãĤĭãģĦãģ¯": 4943,
      "éĸĵãģ«": 4944,
      "æĻĤãģ®": 4945,
      "ä¾Ŀ": 4946,
      "å¥®": 4947,
      "å¥ĩè·¡": 4948,
      "ãĤ¨ãĤ¯": 4949,
      "ãĤ¨ãĤ¹ãĥĨ": 4950,
      "ãĤ¨ãĥįãĥ«ãĤ®": 4951,
      "ãĤ¨ãĤ°ãĤ¼": 4952,
      "ãĥĲãĥĸãĥ«": 4953,
      "å¸³": 4954,
      "åľı": 4955,
      "ãĥŀãĥ¼ãĤ±": 4956,
      "ãĥŀãĤ¹ãĤ³ãĥŁ": 4957,
      "ãĥģãĥ¥ãĤ¢": 4958,
      "æĸ¹ãģ®": 4959,
      "æĸ¹åĲĳ": 4960,
      "æĸ¹å¼ı": 4961,
      "çīĩ": 4962,
      "ãĤīãĤĮãģªãģĦ": 4963,
      "ãĤĴç«": 4964,
      "ãĤĴçį²å¾Ĺ": 4965,
      "åħ¥ãĤĮ": 4966,
      "åħ¥ãĤĮãĤĭ": 4967,
      "å¯¿": 4968,
      "æĪ»": 4969,
      "åĽŀãģ®": 4970,
      "åĽŀçĽ®": 4971,
      "å®Łæħĭ": 4972,
      "å®Łç¸¾": 4973,
      "ãĥĵãĥ«": 4974,
      "ãĥĵãĤº": 4975,
      "ãĥĵãĥ¼ãĥģ": 4976,
      "åĭķçĶ£": 4977,
      "æķħ": 4978,
      "ãĤ¦ãĥ¼ãĥ«": 4979,
      "ãĤ¦ãĥ³ãĥŃ": 4980,
      "ãĥĳãĥ³ãĥĦ": 4981,
      "ãĥĳãĥ¼ãĥĨãĤ£": 4982,
      "æĮ¯ãĤĬ": 4983,
      "åī£": 4984,
      "ç«ľ": 4985,
      "ãĤĤãģ®ãģ¯": 4986,
      "ãĤĤãģ®ãģĮãģĤãĤĬãģ¾ãģĻ": 4987,
      "ĩãģĨãģ©": 4988,
      "æīĭãģĮ": 4989,
      "æĸ°ä½ľ": 4990,
      "å±ħ": 4991,
      "å±Ī": 4992,
      "ãĤªãĤ·ãĥ£": 4993,
      "åįĥ": 4994,
      "åįĹ": 4995,
      "åįļ": 4996,
      "ä¿º": 4997,
      "ä¿³åĦª": 4998,
      "è²¡": 4999,
      "è»Ĭä¸¡": 5000,
      "ç§Ĵ": 5001,
      "ãĥįãĤ¿": 5002,
      "ãĥįãĥģãĥ£ãĥ¼": 5003,
      "ãģĹãģ¦ãģĦãĤĭãģŁãĤģ": 5004,
      "ãģĹãģ¦ãģĦãĤĭãģ®ãģ¯": 5005,
      "ãĥŁãĥ³ãĤ°": 5006,
      "ãĥŁãĥ«ãĥĪ": 5007,
      "çıį": 5008,
      "ãĤ¹ãĤ¿ãĤ¤": 5009,
      "å½ĵãģ¦": 5010,
      "ãģ«æµģ": 5011,
      "ãģ«æ®ĭ": 5012,
      "ãģ«æ³¨": 5013,
      "ãĤ¹ãĥĪãĥŃãĥ¼ãĤ¯": 5014,
      "çı¾åľ°": 5015,
      "ãĥłãģª": 5016,
      "èĩªåĪĨãģ¯": 5017,
      "åĢīåº": 5018,
      "æ´¾": 5019,
      "éł»": 5020,
      "æľĪãĤĪãĤĬ": 5021,
      "ãĥķãĤ¡ãĥ¼ãĥł": 5022,
      "ãĥĿãĤ¸": 5023,
      "ãĥĿãĥ¼ãĤ¿ãĥ«": 5024,
      "ãĥĿãĥĨãĥ³": 5025,
      "ãĥĿãĥŃãĤ·ãĥ£ãĥĦ": 5026,
      "ãĤĪãĤĬãģ¯": 5027,
      "ãĤĪãĤĬæĦĽ": 5028,
      "ãģĿãĤĮãģ§": 5029,
      "ãģĿãĤĮãģ§ãĤĤ": 5030,
      "åħ¨éķ·": 5031,
      "åĲĮæĻĤ": 5032,
      "åĲĮåĥ": 5033,
      "åĲĮæ§ĺãģ«": 5034,
      "ãģłãģĳãģĮ": 5035,
      "æŃ»": 5036,
      "ãĥıãĥ³ãĤ¿ãĥ¼": 5037,
      "ãĥıãĥ³ãĤ²ãĥ¼ãĥł": 5038,
      "ãĥıãĥŁãĥ«ãĥĪ": 5039,
      "ä½ķãģĮ": 5040,
      "éĢļåĭ¤": 5041,
      "æ³¥": 5042,
      "ãģĵãģ®ãģ¾ãģ¾": 5043,
      "éĩĳé¡į": 5044,
      "ãĤĵãģ§ãģĻãģĳãģ©": 5045,
      "ãĥĨãĤ£ãĤ¹": 5046,
      "ä»¥éĻį": 5047,
      "åĲĳãģĵãģĨ": 5048,
      "ä¼ļç¤¾ãģ§": 5049,
      "ãĥ¢ãĥ³": 5050,
      "ãĥ¢ãĥĨ": 5051,
      "ãģĦãģ¾ãģĻãģĮ": 5052,
      "åĵģãģĮ": 5053,
      "åīįåĲĳãģį": 5054,
      "ãĤ½ãĥ¼ãĥī": 5055,
      "éĻ¢": 5056,
      "éĻ¥": 5057,
      "éĻ½": 5058,
      "çĤ¹ãģĮ": 5059,
      "çĤ¹ãģ§ãģĻ": 5060,
      "æİ¨": 5061,
      "æİ²è¼ī": 5062,
      "ãģĹãģ¾ãģĦ": 5063,
      "ãģĹãģ¾ãģĹãĤĩãģĨ": 5064,
      "ãģĹãģ¾ãģĦãģ¾ãģĻ": 5065,
      "ãģĹãģ¾ãģĦãģ¾ãģĹãģŁ": 5066,
      "ãģ£ãģ¦ãģĦãģªãģĦ": 5067,
      "èº«ãģ¯": 5068,
      "èº«éķ·": 5069,
      "èº«å¹ħ": 5070,
      "ç©´": 5071,
      "åĲįãģ«": 5072,
      "å¿ĥæ©Ł": 5073,
      "éĿ¢åĢĴ": 5074,
      "åĬłå·¥": 5075,
      "åºĹå®¢": 5076,
      "éĽ»æ±ł": 5077,
      "ãĤ´ãĥ«ãĥķãĥĩãĥ¼ãĥĪ": 5078,
      "èĤ¡éĸĵ": 5079,
      "æķ°ãģĮ": 5080,
      "æķ°åŃĹ": 5081,
      "ä¿¡éł¼": 5082,
      "ãĤ¬ãĤ¸ãĤ§": 5083,
      "ãĤ¬ãĥ©ãĤ¹": 5084,
      "ãģĬãģĻãģĻãĤģãģ§ãģĻ": 5085,
      "ç§ģèĩªèº«": 5086,
      "ç§ģãģ®åł´åĲĪ": 5087,
      "åĮĸãģĹãģŁ": 5088,
      "çŁ¥ãĤīãĤĮãĤĭ": 5089,
      "èĪ¹": 5090,
      "éģ¸ãģ¶": 5091,
      "å£²ä¸Ĭ": 5092,
      "åľ°åħĥ": 5093,
      "ãĥĽãĥĥãĥĹ": 5094,
      "ãĥĽãĥ¼ãĥł": 5095,
      "ãĥĽãĥ¯ãĤ¤ãĥĪ": 5096,
      "ãĤĪãģĨãģ«ãģĹãģ¦ãģĦãģ¾ãģĻ": 5097,
      "å°ıãģķ": 5098,
      "å°ıæŀĹ": 5099,
      "ãĥĬãĥĵ": 5100,
      "ä¸ĭãģĴ": 5101,
      "ä¸ĭéĥ¨éķ·": 5102,
      "ä¸ĩåĨĨãĤĴè¶ħãģĪãĤĭ": 5103,
      "ä¸ĩåĨĨãĤĴçªģçł´": 5104,
      "æıĥ": 5105,
      "èĳĽè¥¿": 5106,
      "çµĦç¹Ķ": 5107,
      "è±ļ": 5108,
      "æĻĤéĸĵãģ§": 5109,
      "æĻĤéĸĵãĤĴ": 5110,
      "çī©ãģ®": 5111,
      "è¿ĳãģı": 5112,
      "ãĥĶãĥĥãĤ¯ãĤ¢ãĥĥãĥĹ": 5113,
      "ãĥĶãĤ½ãĥ¼ãĥī": 5114,
      "ãĥľãĤ¿ãĥ³": 5115,
      "ãģĤãģªãģŁãģ¯": 5116,
      "å¾ĹãĤīãĤĮãĤĭ": 5117,
      "èģŀãģĭãģĽ": 5118,
      "è¡¨çı¾": 5119,
      "åĦ²": 5120,
      "æīĢå±ŀ": 5121,
      "æ²ĸç¸Ħ": 5122,
      "æŁ´": 5123,
      "æŁĶ": 5124,
      "çľĭ": 5125,
      "å½¼ãģ«": 5126,
      "å½¼ãģĮ": 5127,
      "ãĤĴä½¿ãģ£ãģ¦ãģĦãģ¾ãģĻ": 5128,
      "æĥ³å®ļ": 5129,
      "æĪ¦ãģĨ": 5130,
      "æĮĩåĲį": 5131,
      "çı¾åľ¨ãģ®": 5132,
      "çı¾åľ¨ãĤĤ": 5133,
      "ãĥªãĥ¼ãĥ©": 5134,
      "ãĥªãĥ¼ãĥģ": 5135,
      "ãĥªãĥ¼ãĥŀ": 5136,
      "ãĤ¢ãĥĥãĥĹãĤĴå®Łçı¾": 5137,
      "æ¬¡ãģ¯": 5138,
      "ãģĦãģ¾ãģĹãģŁãģĮ": 5139,
      "ãģ«åħ¥ãĤĬ": 5140,
      "ãĥĵãĤ¸ãĥįãĤ¹ãĥĳãĥ¼ãĤ½": 5141,
      "è¼Ŀ": 5142,
      "ãģ¨è¨ĢãģĪãģ¾ãģĻ": 5143,
      "æĽ¸ç±į": 5144,
      "ãĤ¤ãĥ«ãĤ¹": 5145,
      "ä»ĸãģ«ãĤĤ": 5146,
      "åıĸãĤĬçµĦãģ¿": 5147,
      "ãģķãģĽãģŁ": 5148,
      "ç¾¤": 5149,
      "ä¸įåĭķçĶ£": 5150,
      "ãģ«ãģ¤ãģĦãģ¦ãģ¯": 5151,
      "èĬĿ": 5152,
      "ãĤĨãģĨ": 5153,
      "ãĤĨãģ£ãģıãĤĬ": 5154,
      "æĺİãĤĭ": 5155,
      "ãģĦãĤĭãģĭãĤĤãģĹãĤĮãģ¾ãģĽãĤĵãģĮ": 5156,
      "æľīåĬ¹": 5157,
      "ãĤĦãĤĬåıĸãĤĬ": 5158,
      "ãĥĸãĥ©ãĥ³ãĥīãģ®": 5159,
      "ãĥĸãĥ©ãĥ³ãĥīãĤĴ": 5160,
      "ãĥĸãĥ©ãĥ³ãĥīãĤµãĤ¤ãĥĪ": 5161,
      "äºĮäººãģ®": 5162,
      "åº§è«ĩ": 5163,
      "éĥ½åĨħ": 5164,
      "ãĤ¹ãĥŀãĥ¼ãĥĪãĥķãĤ©ãĥ³ãģ¯": 5165,
      "ãĤ¹ãĥŀãĥ¼ãĥĪãĥķãĤ©ãĥ³ãģĭãĤī": 5166,
      "çµĲæŀľãģ¨ãģªãĤĬãģ¾ãģĹãģŁ": 5167,
      "ç¯Ģ": 5168,
      "ä¸»ãģ«": 5169,
      "ãĤĴæĬľ": 5170,
      "ãĤµãĥ¼ãĥĵãĤ¹ãģĮ": 5171,
      "çĴ°å¢ĥãģ§æ´»èºįãģ§ãģįãĤĭ": 5172,
      "ãģªãĤĭãģ»ãģ©": 5173,
      "ãģŁãģłãģĹ": 5174,
      "ãģĳãģ©ãģŃ": 5175,
      "å¾ħæľĽ": 5176,
      "2006": 5177,
      "łĶç©¶": 5178,
      "æħ®": 5179,
      "éŁĵåĽ½": 5180,
      "è§£èª¬": 5181,
      "è§£æ¶Ī": 5182,
      "ãģªãģĭãģ£ãģŁãĤī": 5183,
      "ãģªãģĭãģ£ãģŁãĤĵãģ§ãģĻ": 5184,
      "å¤ľéģĬãģ³": 5185,
      "è¦ĸèģ´": 5186,
      "ä¼ĿãģĪãĤĭ": 5187,
      "çģ«": 5188,
      "ãģ«è¡Įãģ£ãģŁ": 5189,
      "è¦ªãģ®": 5190,
      "è¦ªåŃĲ": 5191,
      "ãĤ¸ãĥ£ãĥ¼ãĥĬ": 5192,
      "ãĤ¸ãĥ£ãĤ±ãĥĥãĥĪ": 5193,
      "éĩİæľĽ": 5194,
      "ãĥģãĥ£ãĥ¬ãĥ³ãĤ¸": 5195,
      "è¶³ãĤĬ": 5196,
      "ãģłãģĭãĤīãģĵãģĿ": 5197,
      "èĩªèº«ãģĮ": 5198,
      "æĴ®ãĤĭ": 5199,
      "æģ¯": 5200,
      "ç¢ºèªį": 5201,
      "ç¢ºãģĭãģ«": 5202,
      "åħ±ãģ«": 5203,
      "ãģĹãģ¦ãģ¿ãģ¾ãģĹãĤĩãģĨ": 5204,
      "ãĥĹãĥªãĥ³ãĥĪ": 5205,
      "åĤĻãģĪãģŁ": 5206,
      "å²¸": 5207,
      "çłĶä¿®": 5208,
      "ãģ¾ãģłãģ¾ãģł": 5209,
      "æīĵå¸Ń": 5210,
      "è©¦ãģ¿": 5211,
      "è©¦æīĵ": 5212,
      "çĭŃãģĦ": 5213,
      "ä¸ĬãģĮãĤĭ": 5214,
      "ä¿ĿåŃĺ": 5215,
      "ä¿ĿéĻº": 5216,
      "æ³¨æĦı": 5217,
      "èĦĪ": 5218,
      "ãĥĺãĥª": 5219,
      "åĪ¶éĻĲ": 5220,
      "ãģ®åŃĺ": 5221,
      "èªįèŃĺ": 5222,
      "çķ¥æ³ķ": 5223,
      "åŃĲãģ©ãĤĤãģ¨": 5224,
      "åŃĲãģ©ãĤĤãģŁãģ¡": 5225,
      "ãĤ´ãĥ«ãĥķãĤ¡ãĥ¼ãģ®": 5226,
      "å®¶æĹıãģ®": 5227,
      "è²©å£²åĵ¡": 5228,
      "è»¢èģ·æ´»åĭķãģ«å½¹ç«ĭãģ¤": 5229,
      "åĳ¨åĽ²": 5230,
      "ãĥıãĤ¤ãĥĵ": 5231,
      "ãĥıãĤ¤ãĥľãĥ¼ãĥ«": 5232,
      "ãĤ¤ãĥ³ãĤ¿ãĥĵãĥ¥ãĥ¼": 5233,
      "ãģ«éĸ¢ãģĹãģ¦ãģ¯": 5234,
      "ãĤ¢ãĤ¯ãĤ·ãĥ§ãĥ³": 5235,
      "å±±èĳµå§ī": 5236,
      "ãĥĭãĥ¥ãĥ¼ãĥ¨ãĥ¼ãĤ¯": 5237,
      "é£Ľãģ³": 5238,
      "æ©Łèĥ½æĢ§": 5239,
      "ãĤ»ãĤŃãĥ¥ãĥªãĥĨãĤ£å¯¾çŃĸ": 5240,
      "ãģĵãģĵãģ§": 5241,
      "ãģĵãĤĮãģ¾ãģ§ãģ®": 5242,
      "ãģĵãĤĮãģ¾ãģ§ãģ«": 5243,
      "ãĥĩãĥ¼ãĤ¿éĢļä¿¡": 5244,
      "æŀļãģ§": 5245,
      "æŀļãģ«": 5246,
      "æĴ®å½±ãĤĴ": 5247,
      "ãĤ¢ãĥĹãĥªãģ¯": 5248,
      "ãĤĴæ±Ĥ": 5249,
      "ãģ®å°İåħ¥": 5250,
      "è»½ãģĦ": 5251,
      "ãĤ°ãĥ©ãĥĵãĤ¢": 5252,
      "åī²ãģ¨": 5253,
      "ãĤĴæıĲä¾ĽãģĻãĤĭ": 5254,
      "ãĤ¯ãĥ©ãĥĸãģ¯": 5255,
      "ãģ«åĲĳãģĳãģ¦": 5256,
      "ãģªãĤĵãģ§ãģĻãĤĪãģŃ": 5257,
      "ãĤĴéģ¸ãĤĵãģł": 5258,
      "ãĤĤãģĤãĤĬãģ¾ãģĻãģĮ": 5259,
      "ãĥ©ãĤ¯ãĥĨãĤ£ãĤ¹": 5260,
      "ãĤ¿ãĤ¤ãĥŁãĥ³ãĤ°": 5261,
      "æ¯İåĽŀ": 5262,
      "ãģ¨èĢĥãģĪãģ¦ãģĦãģ¾ãģĻ": 5263,
      "ãģ§ãģĻãģĭãĤīãģŃ": 5264,
      "ãĤ¸ãĥ¥ãĤ¨": 5265,
      "æľĢè¿ĳãģ¯": 5266,
      "èĳĹèĢħ": 5267,
      "èĳĹèĢħãģ¯": 5268,
      "å½¼å¥³ãģ¯": 5269,
      "æļĩ": 5270,
      "ãģ®ä¸Ģãģ¤ãģ§ãģĻ": 5271,
      "ãģ¾ãĤĭãģ§": 5272,
      "ãģ¡ãĤĩãģĨãģ©": 5273,
      "çļĨæ§ĺ": 5274,
      "çĶŁãģ¾ãĤĮ": 5275,
      "æĬľãģı": 5276,
      "ä»¥å¤ĸãģ«ãĤĤ": 5277,
      "ãĤĴåıĹãģĳãĤĭ": 5278,
      "ä¸¡ç«ĭ": 5279,
      "æľ¨ä¸ĭéĥ¨éķ·": 5280,
      "åĪĨãģĭãĤĭ": 5281,
      "ãĥŀãĥĥãĥģãĥ§": 5282,
      "ãģ®ãĥĨãĥ¼ãĥŀ": 5283,
      "çĽ®ãĤĴéĽĨ": 5284,
      "çĶŁãģįãĤĭ": 5285,
      "ãĤ³ãĥ³ãĤµãĥ«ãĥĨãĤ£ãĥ³ãĤ°ä¼ļç¤¾": 5286,
      "éĻĲå®ļãģ§": 5287,
      "âĹĨ": 5288,
      "çĹĽ": 5289,
      "ãģ£ãģ±ãģĦ": 5290,
      "äºķå·Ŀ": 5291,
      "ãģ¿ãģŁãģĦãģª": 5292,
      "ãĤ³ãĥ©ãĥł": 5293,
      "åľ§åĢĴ": 5294,
      "å¯ĦãĤĬãģª": 5295,
      "æĦŁè¦ļãģ§": 5296,
      "ãĤªãĥķãĤ£ãĤ·ãĥ£ãĥ«": 5297,
      "æĬķç¨¿": 5298,
      "ç©įæ¥µæİ¡çĶ¨ãĤĴè¡Įãģ£ãģ¦ãģĦãĤĭä¼ģæ¥Ń": 5299,
      "ENT": 5300,
      "art": 5301,
      "ãģ¨èªŀãĤĬãģ¾ãģĹãģŁ": 5302,
      "ãĥ¼ãĥªãĥ³ãĤ°": 5303,
      "ãĤ¢ãĥīãĥĲãĤ¤ãĤ¹ãĤĴãģĹãģ¾ãģĻ": 5304,
      "ãģ®å£°": 5305,
      "ãģ®å£²": 5306,
      "å¿«éģ©": 5307,
      "å¸¯éĽ»è©±": 5308,
      "æľĢåĪĿãģ¯": 5309,
      "ãĤ¹ãĥĪãĥ¬ãĤ¹": 5310,
      "çī¹åĪ¥ãģª": 5311,
      "æİ¥ç¶ļ": 5312,
      "è¨ĺèĢħèģ·ãģ«": 5313,
      "ãģ®æĪ¦çķ¥": 5314,
      "æĸ°ãģŁãģªçĴ°å¢ĥãģ§æ´»èºįãģ§ãģįãĤĭ": 5315,
      "com": 5316,
      "åĽ³ãģ§èĢĥãģĪãĤĭ": 5317,
      "ãĤıãģĭãĤĭ": 5318,
      "ãĥŀãĥįãĥ¼ãĤ¸ãĥ£": 5319,
      "ãĥŀãĥįãĤ¸ãĥ¡ãĥ³ãĥĪ": 5320,
      "è¨ĢãģĨãģ¨": 5321,
      "åķıãģĦåĲĪãĤıãģĽ": 5322,
      "æľīåĲįãģª": 5323,
      "ãĤĴä½ľæĪĲãģĻãĤĭ": 5324,
      "å»º": 5325,
      "èħķ": 5326,
      "èĸ¬": 5327,
      "ãģ©ãĤĮãģłãģĳ": 5328,
      "ãģ®å±ķ": 5329,
      "ãģ®æĬķ": 5330,
      "ãĤ«ãĥķãĤ§ãģ§": 5331,
      "ãģ®ãĥĽãĥĨãĥ«": 5332,
      "ãĤĴç¹°ãĤĬè¿Ķ": 5333,
      "ãĥ¡ãĥ³ãĤº": 5334,
      "ãĤĴä½¿çĶ¨ãģĹãģŁ": 5335,
      "ç¶ļãģĳãģ¾ãģĹãģŁ": 5336,
      "éĺ²æ°´": 5337,
      "ãĤĴç¶ļãģĳãĤĭ": 5338,
      "å¾¹åºķçļĦãģ«": 5339,
      "ç°¡åįĺ": 5340,
      "è´Ī": 5341,
      "è´ħæ²¢": 5342,
      "ãĥ´ãĤ£": 5343,
      "ãĤĴå¯¾è±¡ãģ«": 5344,
      "ãģ®åľ°": 5345,
      "ãĤ¨ãĥ³ãĥĪãĥ©ãĥ³ãĤ¹": 5346,
      "éĿ©æĸ°": 5347,
      "ãĤ´ãĥ«ãĥķãĤ¦ãĤ§ãĤ¢": 5348,
      "æ¬²ãģĹãģĦ": 5349,
      "ãģ¨ãģ®ãģĵãģ¨ãģ§ãģĻãģĮ": 5350,
      "è¢ĸä¸Ī": 5351,
      "ãģ®å¥³æĢ§": 5352,
      "tkyujinsof": 5353,
      "èį·": 5354,
      "éīĦ": 5355,
      "ãģ®èī¯ãģķãģĮ": 5356,
      "ãģ®åĤĻãģĪ": 5357,
      "ãģ®æ¥ŃåĭĻ": 5358,
      "ç´įå¾Ĺ": 5359,
      "ãģķãĤĵãģĭãĤīãģ®æ¿Ģ": 5360,
      "å¼ģå½ĵçĶ·åŃĲ": 5361,
      "åĩºçīĪç¤¾": 5362,
      "è«¸åĽ½": 5363,
      "éģ¸ãģ°ãĤĮãģŁ": 5364,
      "éłŃçļ®ãĤ¨ãĤ¹ãĥĨ": 5365,
      "ãĤªãĥªãĥ³ãĥĶãĥĥãĤ¯": 5366,
      "å§īå¦¹ãģĮãĤ¢ãĥīãĥĲãĤ¤ãĤ¹ãĤĴãģĹãģ¾ãģĻ": 5367,
      "ãĥŀãĥ«ãĥģãĥĩãĥĲãĤ¤ãĤ¹": 5368,
      "æ¸¯åĲĽãģ¯": 5369,
      "éįĽãģĪãĤĭ": 5370,
      "èĭ¥æīĭç¤¾ä¼ļäººãģ®æĤ©ãģ¿ãģ¯å°½ãģįãģªãģĦ": 5371,
      "å¨ĺ": 5372,
      "ãĥ¶æľĪ": 5373,
      "ãģ«ãĤıãģŁãĤĬ": 5374,
      "ãĤĴå¤īãģĪ": 5375,
      "ãĤ·ãĥ«ãĤ¨": 5376,
      "ãģ®ãĥļãĥ¼ãĤ¸": 5377,
      "ãĥĳãĥªãĤĪãĤĬæĦĽ": 5378,
      "ãĤ»ãĥ¼ãĥ«ãĤ¹": 5379,
      "é¨İå£«éģĵ": 5380,
      "ãĥĹãĥŃãĤ°ãĥ©ãĥł": 5381,
      "èĤ©å¹ħ": 5382,
      "åľ°ä¸ĭéīĦ": 5383,
      "ãĥĽãĤ¤ãĥ¼ãĥ«ãĥĻãĥ¼ãĤ¹": 5384,
      "åĦĦåĨĨ": 5385,
      "èĬ¸èĥ½çķĮ": 5386,
      "ãĥķãĤ£ãĥĥãĥĪãĥįãĤ¹ãĥŀ": 5387,
      "MOVIE": 5388,
      "éĳĳ": 5389,
      "ĠKIRIN": 5390,
      "ãĤĴãģĵãĤģãģ¦": 5391,
      "ãĤĴå¢ĹãĤĦãģĻ": 5392,
      "ãģ¾ãģ¤ãĤĨãģĨ": 5393,
      "ãģĮå°ĳãģªãģĦ": 5394,
      "ãģ®åĳ³": 5395,
      "ãģ®æĽ´æĸ°": 5396,
      "ãĤĴç¯ī": 5397,
      "ãĥĵãĥ¼ãĥłãĤ¹": 5398,
      "ãģĶè¦§ãģıãģłãģķãģĦ": 5399,
      "ãĥ¢ãĥ¼ãĤ¿ãĥ¼ãĤ·ãĥ§": 5400,
      "ãģ©ãģĨãģĹãģŁãĤīãģĦãģĦ": 5401,
      "ãģ«åħ¥ç¤¾ãģĹãģŁ": 5402,
      "æģ¥ãģļãģĭ": 5403,
      "æĵį": 5404,
      "Ĵ®å½±": 5405,
      "ãĤĴåįł": 5406,
      "ãĥĥãĥĿãĥ³": 5407,
      "ãĤĦãģ£ãģ±ãĤĬ": 5408,
      "ãĤ·ãĤ°ãĥįãĥģãĥ£ãĥ¼": 5409,
      "èĢ³å¯ĦãĤĬãģª": 5410,
      "ãĤĴç©į": 5411,
      "ãĤ¦ãĤ¤ãĤ¹ãĤŃãĥ¼": 5412,
      "éļħè°·": 5413,
      "ãģ®çľŁ": 5414,
      "ä¸įåı¯æ¬łãģª": 5415,
      "è³ĩçĶ£å½¢æĪĲ": 5416,
      "ç¯ĦåĽ²": 5417,
      "åİŁå®¿åºĹ": 5418,
      "å·¥æ¥Ńæłªå¼ıä¼ļç¤¾": 5419,
      "ãĥ¦ãĥĭãĥ¼ãĤ¯ãģª": 5420,
      "ãģ¨åĳ¼ãģ°ãĤĮãĤĭ": 5421,
      "ãĤŃãĤµãĤ¤ãĥĨãĤ£ãĥ³ãĤ°ãģª": 5422,
      "ãĤ¢ãĤ¤ãĤ¹ãĤ¯ãĥªãĥ¼ãĥłãģ¯": 5423,
      "SHIPS": 5424,
      "ãĤ³ãĥĬãĥŁ": 5425,
      "ãĤ¨ãĤ°ãĤ¼ãĤ¯ãĥĨãĤ£ãĥĸ": 5426,
      "ãĤ¦ãĥ³ãĥŃãĥ¼ãĥī": 5427,
      "ãĤªãĤ·ãĥ£ãĥ¬": 5428,
      "åĢīåº«": 5429,
      "ãĥĿãĥ¼ãĤ¿ãĥ«ãĤµãĤ¤ãĥĪ": 5430,
      "ãĥĿãĥĨãĥ³ãĤ·ãĥ£ãĥ«": 5431,
      "åĲĮåĥļ": 5432,
      "å¿ĥæ©Łä¸Ģè»¢": 5433,
      "ãĤ¬ãĤ¸ãĤ§ãĥĥãĥĪ": 5434,
      "ãĥĵãĤ¸ãĥįãĤ¹ãĥĳãĥ¼ãĤ½ãĥ³ãģ®": 5435,
      "åº§è«ĩä¼ļ": 5436,
      "ãĤ¸ãĥ£ãĥ¼ãĥĬãĥªãĤ¹ãĥĪ": 5437,
      "ç©įæ¥µæİ¡çĶ¨ãĤĴè¡Įãģ£ãģ¦ãģĦãĤĭä¼ģæ¥Ńçī¹éĽĨ": 5438,
      "tkyujinsoft": 5439,
      "ãģķãĤĵãģĭãĤīãģ®æ¿Ģè¾ĽãĤ¢ãĥīãĥĲãĤ¤ãĤ¹": 5440,
      "ãĥĳãĥªãĤĪãĤĬæĦĽãĤĴãģĵãĤģãģ¦": 5441,
      "èĢ³å¯ĦãĤĬãģªè»¢èģ·æĥħåł±": 5442,
      "!!": 5443,
      "'t": 5444,
      "):": 5445,
      "03": 5446,
      "36": 5447,
      "44": 5448,
      "46": 5449,
      "55": 5450,
      "750": 5451,
      "850": 5452,
      "900": 5453,
      "?ãĢĳ": 5454,
      "AE": 5455,
      "AS": 5456,
      "AãģķãĤĵãģ¯": 5457,
      "CG": 5458,
      "ED": 5459,
      "ERS": 5460,
      "FAR": 5461,
      "GB": 5462,
      "GT": 5463,
      "IC": 5464,
      "IS": 5465,
      "LONA": 5466,
      "Mb": 5467,
      "MãģķãĤĵ": 5468,
      "Mac": 5469,
      "On": 5470,
      "PaulSmith": 5471,
      "TO": 5472,
      "YãģķãĤĵ": 5473,
      "ZA": 5474,
      "ad": 5475,
      "cle": 5476,
      "eart": 5477,
      "ig": 5478,
      "or": 5479,
      "pm": 5480,
      "re": 5481,
      "rpm": 5482,
      "um": 5483,
      "¡Ī": 5484,
      "¡å¤§": 5485,
      "£¨": 5486,
      "¦åºĹ": 5487,
      "¦åĻ¨": 5488,
      "¨å¤§": 5489,
      "¬¡": 5490,
      "¬ãĤ¹ãĤ¹ãĥ": 5491,
      "¯ãĤĭ": 5492,
      "¯éĩĳ": 5493,
      "°ãĤģ": 5494,
      "±å±±": 5495,
      "²ãģĮ": 5496,
      "´çĲĨ": 5497,
      "¶ãģ¹": 5498,
      "··": 5499,
      "¸å¿µ": 5500,
      "ºãĤģ": 5501,
      "»ŀåľ¨": 5502,
      "½ãĤĴ": 5503,
      "æ¢": 5504,
      "æĩ": 5505,
      "çĴ": 5506,
      "èĻ": 5507,
      "é¹": 5508,
      "Ġ4": 5509,
      "ĠF": 5510,
      "ĠN": 5511,
      "ĠR": 5512,
      "Ġb": 5513,
      "Ġc": 5514,
      "Ġw": 5515,
      "ĠFI": 5516,
      "ĠMOVIE": 5517,
      "Ģæľī": 5518,
      "ģãģ«": 5519,
      "ģãĥ¼ãĥ«": 5520,
      "Ĥæ¼": 5521,
      "ĩçĬ¶": 5522,
      "ĬæŁ": 5523,
      "ĭħå½ĵ": 5524,
      "Įæ±ģ": 5525,
      "Ĳº": 5526,
      "ĳåĩº": 5527,
      "Ķ¾": 5528,
      "ĿãģĦ": 5529,
      "ĿãĤ¹": 5530,
      "łçĶ»": 5531,
      "łãĥ¼ãĥĵ": 5532,
      "łĤæ¼": 5533,
      "ãģ´": 5534,
      "ãĤ¡": 5535,
      "ãģ®ãĤĪ": 5536,
      "ãģ®æĸ¹": 5537,
      "ãģ®è©±": 5538,
      "ãģ®åĲį": 5539,
      "ãģ®ä¸ĭ": 5540,
      "ãģ®åħ¬": 5541,
      "ãģ®ãĤ¹ãĤ¿ãĤ¤ãĥ«": 5542,
      "ãģ®çĽ®æ¨Ļ": 5543,
      "ãģ®äººéĸĵ": 5544,
      "ãģ®ãģĻãģ¹ãģ¦": 5545,
      "ãģ®ãĥĩãĥĲãĤ¤ãĤ¹": 5546,
      "ãģ®ãĤ¹ãĥĿãĥ¼ãĥĦ": 5547,
      "ãģ®CO": 5548,
      "ãģ®éģķãģĦ": 5549,
      "ãģ®ãĥĪãĥ¬ãĥ³ãĥī": 5550,
      "ãģ®ãĥĪãĥ©ãĥĸãĥ«": 5551,
      "ãģ®èª²é¡Į": 5552,
      "ãģ®ç«ĭãģ¡ä¸ĬãģĴ": 5553,
      "ãģ®ãģ²ãģįãģĮãģŃãĤĴå¼ķ": 5554,
      "ãģĦãģį": 5555,
      "ãģĦãĤı": 5556,
      "ãģĦãĤīãĤĮ": 5557,
      "ãģĦãĤį": 5558,
      "ãģĦãģŁãģĦ": 5559,
      "ãģĦãģĪãģ°": 5560,
      "ãģĦãģ¦ãģĦãģªãģĦ": 5561,
      "ãģ§ãģĦãģĦ": 5562,
      "ãģ§ãģĤãģ£ãģŁ": 5563,
      "ãģ§è³¼åħ¥": 5564,
      "ãģ§ä»ķäºĭãĤĴãģĹãģ¦ãģĦãĤĭ": 5565,
      "ãģĹãĤĤ": 5566,
      "ãģĹãģ¾ãģĽãĤĵ": 5567,
      "ãģĹãģĿãģĨ": 5568,
      "ãģĹãģ¤ãģ¤": 5569,
      "ãģ«ãĤ¢": 5570,
      "ãģ«ä¸Ģ": 5571,
      "ãģ«ä½¿": 5572,
      "ãģ«èĢĥãģĪ": 5573,
      "ãģ«äººæ°Ĺ": 5574,
      "ãģ«ãģĵãģł": 5575,
      "ãģ«ãģĹãģªãģĦ": 5576,
      "ãģ«å°±": 5577,
      "ãģ«åĪĨãģĭ": 5578,
      "ãģ«èī²ãĢħãģª": 5579,
      "ãģ«ç¹ĭãģĮ": 5580,
      "ãģ«è¸ı": 5581,
      "ãģ«ãĥŃãĤ°ãĤ¤ãĥ³": 5582,
      "ãĥ¼ãģ¯": 5583,
      "ãĥ¼ãĤ¤": 5584,
      "ãĥ¼ãģ¨ãģĹãģ¦": 5585,
      "ãĥ¼TãĤ·ãĥ£ãĥĦ": 5586,
      "ãĢĤ)": 5587,
      "ãģ¨èĩª": 5588,
      "ãģ¨æ±º": 5589,
      "ãģ¨çĨ±": 5590,
      "ãģ¨ä¸įå®ī": 5591,
      "ãģ¨æ¯Ķè¼ĥ": 5592,
      "ãģ¦ãģı": 5593,
      "ãģ¦ãģįãģŁ": 5594,
      "ãģªãģ®ãģ§ãģĻ": 5595,
      "ãĤĭäºº": 5596,
      "ãĤĭãĤĤãģ®": 5597,
      "ãĤĭãģĵãģ¨ãģ¯": 5598,
      "ãĤĭãģŁãĤģãģ®": 5599,
      "ãĤĭãĤĴå¾Ĺ": 5600,
      "ãģŁãģ³": 5601,
      "ãģŁãģ¾ãģŁ": 5602,
      "ãĤĴåĪĨ": 5603,
      "ãĤĴçĻº": 5604,
      "ãĤĴçĶŁ": 5605,
      "ãĤĴãģĹãģ¦ãģĦãģ¾ãģĻ": 5606,
      "ãĤĴèªŀ": 5607,
      "ãĤĴéĢ£": 5608,
      "ãĤĴãģĭãģĳ": 5609,
      "ãĤĴåĲĪãĤıãģĽ": 5610,
      "ãĤĴç¤º": 5611,
      "ãĤĴè¦ļ": 5612,
      "ãĤĴãĤ¤ãĥ¡ãĥ¼ãĤ¸": 5613,
      "ãĤĴãģĹãģŁãĤĬ": 5614,
      "ãĤĴãĤµãĥĿãĥ¼ãĥĪ": 5615,
      "ãĤĴå°İ": 5616,
      "ãĤĴäº¤": 5617,
      "ãĤĴçĶŁãģ¿åĩº": 5618,
      "ãĤĴåīĥ": 5619,
      "ãĤĴä»£è¡¨": 5620,
      "ãĤĴåĲ¦å®ļ": 5621,
      "ãĤĴãģįãģ¡ãĤĵãģ¨": 5622,
      "ãĤĴéĸ²è¦§": 5623,
      "ãĤĴè±¡å¾´": 5624,
      "ãģ¾ãģª": 5625,
      "ãģ¾ãģı": 5626,
      "ãģ¾ãģ§ãĤĤ": 5627,
      "ãģ¾ãĤĮãĤĭ": 5628,
      "ãģ¾ãĤĬãģ¾ãģĹãģŁ": 5629,
      "ãģ¾ãĤīãģªãģĦ": 5630,
      "ãģĮãĤĭ": 5631,
      "ãģĮãģ¤": 5632,
      "ãģĮé«ĺ": 5633,
      "ãģĮæĿ¥": 5634,
      "ãģĮå¼·": 5635,
      "ãģĮãģĦãģĦ": 5636,
      "ãģĮå§ĭ": 5637,
      "ãģĮåı¯èĥ½": 5638,
      "ãģĮçĻºå£²": 5639,
      "ãģĮåı¯èĥ½ãģ§ãģĻ": 5640,
      "ãģĮéĽĨãģ¾": 5641,
      "ãģĮæĮĻãģĴ": 5642,
      "ãģ¯ãģ©ãģĵ": 5643,
      "ãģ¯ãģ¨ãģ¦ãĤĤ": 5644,
      "ãĥ³ãģ§": 5645,
      "ãĥ³ãģ¯": 5646,
      "ãģĭãģ£": 5647,
      "ãģĭãģªãģĦ": 5648,
      "ãģĭãģĳãĤĭ": 5649,
      "ãģĭãĤĤãģĹãĤĮãģªãģĦ": 5650,
      "ãĤĤæĦŁãģĺ": 5651,
      "ãĤĤåĲĮãģĺ": 5652,
      "ãĥĪãĥªãĤ¨": 5653,
      "ãĤĮãĤĴ": 5654,
      "ãģĨãģ¾ãģı": 5655,
      "ãĤ¹ãĥ¼ãĥĳ": 5656,
      "ãģ£ãģĿ": 5657,
      "ãģ£ãģĹãĤĥ": 5658,
      "ãĤīãģĻ": 5659,
      "ãĤīãģ£ãģĹãĤĥ": 5660,
      "ãĢĮ#": 5661,
      "ãģĵãģĦãģĦ": 5662,
      "ãģĵãģ®å±": 5663,
      "ãĥ«ãģ¨": 5664,
      "ãĥ«ãĤ·": 5665,
      "ãĤ¤ãĤ¹": 5666,
      "ãģ¦ãģĦãģŁãģł": 5667,
      "ãĥĥãĤ¿": 5668,
      "ãĥĥãĥĨ": 5669,
      "ãĥĥãĤ·ãĥ£": 5670,
      "ãĥĥãĥĦ": 5671,
      "ãģķãĤĴ": 5672,
      "ãģķãģ¾ãģĸ": 5673,
      "ãģ¾ãģĻãģĮ": 5674,
      "ãģıãģ¾ãģ§": 5675,
      "ãģįãģ¦": 5676,
      "ãģįãģ¯": 5677,
      "ãģįãĤĮ": 5678,
      "ãģĤãģ£ãģ¦ãĤĤ": 5679,
      "ãģĤãģıãģ¾ãģ§": 5680,
      "ãĥ¼ãĥı": 5681,
      "ãĥ¼ãĥĿ": 5682,
      "ãĥªãĤª": 5683,
      "ãĤ¢ãĥª": 5684,
      "ãĤ¢ãĥķ": 5685,
      "ãĤ¢ãĥ¼ãĥĪ": 5686,
      "ãĤ¢ãĥľ": 5687,
      "ãĤ¢ãĥªãĥ³ãĤ°": 5688,
      "ãĥ©ãĥ¼": 5689,
      "ãĥ©ãĥ³ãĥ": 5690,
      "ãĥ©ãĥł": 5691,
      "åħ«": 5692,
      "å®£": 5693,
      "äººãģ¨": 5694,
      "äººåħ¬": 5695,
      "ãĥķãĥªãĥ¼ãĥ©": 5696,
      "ãĤģãģ¾ãģĻ": 5697,
      "ãĤģãģªãģĦ": 5698,
      "ãģĹãģ¦ãģĭãĤī": 5699,
      "ãģĹãģ¦ãģĹãģ¾ãģ£ãģŁ": 5700,
      "ãģĹãģ¦ãģ»ãģĹãģĦ": 5701,
      "ãĤ¯ãĤª": 5702,
      "ãĤĦãĤī": 5703,
      "ãĤĦãģĬ": 5704,
      "ãģĳãĤĭãģ¨": 5705,
      "ãģłãģ£ãģ¦": 5706,
      "ãģłãģĿãģĨãģ§ãģĻ": 5707,
      "ãģłãģ¨æĢĿãģĨ": 5708,
      "ãĤĴæ¸": 5709,
      "ãĤĴæĥ": 5710,
      "ãĤĴæµģ": 5711,
      "ãĤĴæºĢ": 5712,
      "ãĤ¿ãĤ¤ãĥĪ": 5713,
      "ãĤ¿ãĥ³ãĤ¯": 5714,
      "ãģĻãĤĭãģ®ãģĮ": 5715,
      "çµ¡": 5716,
      "æĢĴ": 5717,
      "æĢĸ": 5718,
      "ãģĭãĤīãģĵãģĿ": 5719,
      "ãģĭãĤīãĤ¹ãĤ¿ãĥ¼ãĥĪ": 5720,
      "ãģĬãģĨ": 5721,
      "ãģĬé¡ĺãģĦ": 5722,
      "ãģĬç¬ĳãģĦ": 5723,
      "ãĥĩãĥ¥": 5724,
      "ãĥĩãĤª": 5725,
      "ãģ®å»": 5726,
      "ãģ®åĢ": 5727,
      "ãģ®å§¿": 5728,
      "ãģ£ãģŁçµĮé¨ĵ": 5729,
      "ãĤ·ãĥ³ãĤ¯": 5730,
      "ãģ£ãģ¦ãģ¯": 5731,
      "ãģ£ãģ¦è¨Ģ": 5732,
      "ãģ£ãģ¦æĦŁãģĺ": 5733,
      "ãĥ³ãĥĿ": 5734,
      "ãĥ³ãĥ¬ãĤ¹ãĤ¹ãĥ": 5735,
      "ãĥ³ãĥłãĥ¼ãĥĵ": 5736,
      "ãĤ¹ãĥ¬": 5737,
      "ãĤ¹ãĥĬ": 5738,
      "ãģ¤ãģĦ": 5739,
      "ãģ¤ãģ¶": 5740,
      "è»į": 5741,
      "å¹´ãĤ´ãĥ¼ãĥ«ãĥī": 5742,
      "ãģ¨ãģĦãģĨçĤ¹": 5743,
      "ãģ¨ãģĦãģĨãĤĪãģĨãģ«": 5744,
      "ãģ¨ãģĦãģĨçµĮé¨ĵ": 5745,
      "ãģ¨ãģĦãģĨãģ®ãĤĤ": 5746,
      "ãģ¨ãģĦãģĨæĢĿãģĦ": 5747,
      "ãĥ¬ãĤ·": 5748,
      "ãĥ¬ãĥ¼ãĤ¹": 5749,
      "ãĥ¬ãĥ¼ãĤ¶ãĥ¼": 5750,
      "ãĥ¬ãĥĥãĤ«ãĥ¼": 5751,
      "éĢ¸": 5752,
      "éĢı": 5753,
      "ãģ®æ²": 5754,
      "ãģ®æ¥½": 5755,
      "ãģ®æ§ĺ": 5756,
      "ãģ®æºĸ": 5757,
      "ãģ®æĭħå½ĵ": 5758,
      "ãĤıãģ£ãģ¦ãģĦãģ¾ãģĻ": 5759,
      "ãģķãĤĮãģ¦ãģĦãģªãģĦ": 5760,
      "ãĤ³ãĥŀ": 5761,
      "ãĤ³ãĥıãĥŀ": 5762,
      "ãĤ¸ãĥ¼": 5763,
      "è¡Ŀ": 5764,
      "ãĥĥãĥĪãģĮ": 5765,
      "äºĭæķħ": 5766,
      "èĩªå·": 5767,
      "ãĤ«ãĥī": 5768,
      "ãĤ«ãĥªãĤ¨": 5769,
      "ãĤ«ãĥĥãĤ³": 5770,
      "ãĤ«ãĥ¬ãĥ³ãĥĢãĥ¼": 5771,
      "åĭ§": 5772,
      "ãĤµãĥķãĤ¡": 5773,
      "ãĤµãĥªãĥ¼": 5774,
      "ãĤµãĥ¼ãĥķ": 5775,
      "ãĤµãĥ³ãĥĲ": 5776,
      "èģ·ãģĭãĤī": 5777,
      "å¤§å¤ī": 5778,
      "å¤§äººãģ®": 5779,
      "å¤§éľĩçģ½": 5780,
      "ä¸Ģè¨Ģ": 5781,
      "ä¸ĢçĻº": 5782,
      "ä¸Ģå®¶": 5783,
      "ä¸Ģè¦§": 5784,
      "ãĤĪãģĨãģ«ãģªãĤĬ": 5785,
      "ãĤĪãģĨãģ«ãģªãģ£ãģŁ": 5786,
      "ãĤ°ãĥ¬ãĥ¼ãĥī": 5787,
      "è¦ĭãģŁ": 5788,
      "è¦ĭãģĪ": 5789,
      "è¦ĭãģĪãĤĭ": 5790,
      "ãģ®ãĥŁ": 5791,
      "ãģ®ãĥ¦ãĥ¼ãĤ¶ãĥ¼": 5792,
      "æĿ¯": 5793,
      "æĿĳ": 5794,
      "æľ¬æĿ¥": 5795,
      "ãģ«ãģªãĤĮãĤĭ": 5796,
      "ãģ«ãģªãĤĮãģ°": 5797,
      "ãģķãĤĵãĤĤ": 5798,
      "ãģķãĤĵãģ«ãģĬ": 5799,
      "ä»ĬãĤĤ": 5800,
      "ä»Ĭåº¦ãģ¯": 5801,
      "çĽ®ãģ§": 5802,
      "çĽ®ãģ®åīį": 5803,
      "éĽĦ": 5804,
      "ãģĤãĤĬãģ¾ãģĹãģŁ": 5805,
      "æ°ĹãĤĤ": 5806,
      "ãģĪãĤĭãģ¨": 5807,
      "æĢ§ãģ®": 5808,
      "çĶ¨ãģ§ãģįãĤĭ": 5809,
      "ãĤŃãĥ¬": 5810,
      "ãĤŃãĥ³ãĤ°": 5811,
      "ãģªãģ©ãģ¯": 5812,
      "åĩºãģ¦": 5813,
      "åĩºãģĭãģĳ": 5814,
      "æĢĿãģĦãģ¾ãģĻ": 5815,
      "ãģĤãĤĭãĤĤãģ®ãģ®": 5816,
      "ãģĤãĤĭç¨ĭåº¦": 5817,
      "éĸĵãģ®": 5818,
      "æĻĤçĤ¹": 5819,
      "å¥¨": 5820,
      "ãĥĸãĥ³": 5821,
      "ãĥĸãĥŃãĤ°": 5822,
      "ãĤ¨ãĤ¹": 5823,
      "ãĤ¨ãĥ¬": 5824,
      "ãĤ¨ãĥĶãĤ½ãĥ¼ãĥī": 5825,
      "ãĤ¨ãĤŃãĤµãĤ¤ãĥĨãĤ£ãĥ³ãĤ°ãģª": 5826,
      "ãĥĲãĤ¤ãĥ¤": 5827,
      "ãĥĲãĥ¼ãĤ¬": 5828,
      "ãĥĲãĥªãĤ¨": 5829,
      "è©°ãĤģ": 5830,
      "ä»ķäºĭãģ¨": 5831,
      "çµĲãģ³": 5832,
      "çµĲå±Ģ": 5833,
      "ãĥŀãĤ¤": 5834,
      "ãĥŀãĤ¬": 5835,
      "ãĥŀãĥ¼ãĤ«ãĥ¼": 5836,
      "ãĥŀãĤ«ãĥķãĤ£": 5837,
      "ãĥ¥ãĥ¼ãĤ·ãĥ§ãĥ³": 5838,
      "ãĥ¥ãĥ¬ãĥ¼ãĤ·ãĥ§ãĥ³": 5839,
      "ä¸ŃæĿ±": 5840,
      "ä¸Ńå¤®": 5841,
      "ãĥģãĥ¼ãĤº": 5842,
      "ãĥģãĥ©ãĤ·": 5843,
      "æĸ¹ãĤĴ": 5844,
      "ãĤīãĤĮãĤĭãģ¨": 5845,
      "ãĤīãĤĮãģ¦ãģĬãĤĬ": 5846,
      "è»¢èģ·ãģĹãģªãģĦ": 5847,
      "åħ¥éĸĢ": 5848,
      "æĪĳ": 5849,
      "ãģ§ãĤĤãģĤãĤĭ": 5850,
      "è¡Įãģ£ãģ¦": 5851,
      "åĽŀç·ļ": 5852,
      "å®Łçı¾": 5853,
      "ãĥĵãĤ¸ãĥ¥ãĤ¢": 5854,
      "ãĥĵãĥĩãĤª": 5855,
      "è¨Ģãģ£ãģ¦": 5856,
      "ãĥ¡ãĥ¼ãĥĪ": 5857,
      "æķ·": 5858,
      "ãĤ¦ãĤ¤ãĥ«ãĤ¹": 5859,
      "ãĥĳãĥ¼ãĥĪ": 5860,
      "çĻºå±ķ": 5861,
      "æĦŁãĤĴ": 5862,
      "æĦŁãģ¯": 5863,
      "æĦŁãģ®ãģĤãĤĭ": 5864,
      "åī¯": 5865,
      "ç«ł": 5866,
      "ãĤĤãģ®ãģªãģ®ãģĭ": 5867,
      "æĸ°èģŀ": 5868,
      "æĸ°è¦ı": 5869,
      "è³Ń": 5870,
      "ãĤªãĥķ": 5871,
      "ãģ§ãģįãĤĭãģ®ãģ¯": 5872,
      "ãģ§ãģįãĤĭãģłãģĳ": 5873,
      "è²«": 5874,
      "è²¯éĩĳ": 5875,
      "è»ĬãģĮ": 5876,
      "è»ĬãĤĤ": 5877,
      "ãģĹãģ¦ãģĦãĤĭãģ¨": 5878,
      "ãģĹãģ¦ãģĦãĤĭãģ®ãģ§": 5879,
      "æĺ¼": 5880,
      "æĺĩ": 5881,
      "ãĤ»ãĥ«": 5882,
      "ãĤ¹ãĤ¿ãĥ«": 5883,
      "å½ĵåĪĿ": 5884,
      "çĶ·ãģ®åŃĲ": 5885,
      "ãģ«æ¸": 5886,
      "ãģ«æı": 5887,
      "ãģ«æ»ŀåľ¨": 5888,
      "ãĤ¹ãĥĪãĥª": 5889,
      "ãĤ¹ãĥĪãĥĥãĥĹ": 5890,
      "ãĤ¹ãĥĪãĥ¼ãĥª": 5891,
      "èĢħãģĭãĤī": 5892,
      "ãģĦãģ¦ãĤĤ": 5893,
      "ãģĦãģ¦ãģ¿ãģŁãģĦ": 5894,
      "çı¾å®Ł": 5895,
      "ä»£ãģ®": 5896,
      "ä»£ãģ§": 5897,
      "ä»£çĲĨ": 5898,
      "èĩªåĪĨãģ«åĲĳ": 5899,
      "è©±ãģĻ": 5900,
      "è©±ãģĮ": 5901,
      "ãĥ¼ãĤ¸ãĥ¥": 5902,
      "ãĥ¼ãĤ¸ãĥ³ãĤ°": 5903,
      "ãĥ¼ãĤ¸SafeSync": 5904,
      "éłĤ": 5905,
      "ãĥ³ãĤ°ãĥ«": 5906,
      "ãģĿãģĨãģĹãģŁ": 5907,
      "ãģĿãģĨãģł": 5908,
      "ä¸ĸç´Ģ": 5909,
      "æľĪãģĭãĤī": 5910,
      "ãĥķãĤ¡ãĥĥãĤ·ãĥ§": 5911,
      "è¦ģåĽł": 5912,
      "ãĥĭãĥĥãĥĪ": 5913,
      "èī¦åºĹ": 5914,
      "ãĤ±ãĥ¼ãĤ¸": 5915,
      "ãģĵãĤĮãĤĴ": 5916,
      "åĲĮåºĹ": 5917,
      "ãģłãģĳãģ«": 5918,
      "ãģłãģĳãģ§ãģĻ": 5919,
      "ãģłãģĳãģ§ãģ¯": 5920,
      "æŃ¢": 5921,
      "éĢļãģĹ": 5922,
      "æĦıå¿Ĺ": 5923,
      "ãģĵãģ®å¤ı": 5924,
      "ãģĵãģ®çłĶç©¶æīĢ": 5925,
      "ãģĵãģ¨ãģĮãģ§ãģį": 5926,
      "åĸĦ": 5927,
      "æ§ĺåŃĲ": 5928,
      "æĹ¥æľ¬ãģ§": 5929,
      "æĹ¥æľ¬ãģ§ãģ¯": 5930,
      "çĲĨè«ĸ": 5931,
      "çĲĨè§£": 5932,
      "éĸ¢è¥¿": 5933,
      "ãģªãģıãģªãĤĭ": 5934,
      "ãģªãģıãģªãģ£ãģ¦": 5935,
      "åĮº": 5936,
      "åĮ»": 5937,
      "çĤĴ": 5938,
      "èĢĥãģĪãĤīãĤĮãĤĭ": 5939,
      "ç«ĭãģŁ": 5940,
      "ç«ĭãģ£ãģ¦": 5941,
      "ç«ĭä½ĵ": 5942,
      "ãĥ¢ãĥ¼ãĥī": 5943,
      "ãĥ¢ãĥģãĥĻãĥ¼ãĤ·ãĥ§ãĥ³": 5944,
      "ãģ§ãģĹãģŁãģŃ": 5945,
      "åĵģãģ¨ãģĹãģ¦": 5946,
      "åīįãģ®ãģĵãģ¨": 5947,
      "ãģ®ãģĭãģª": 5948,
      "éĻ¸": 5949,
      "åıĸå¾Ĺ": 5950,
      "åıĸå¼ķ": 5951,
      "åıĸç·ł": 5952,
      "çī¹è¨Ń": 5953,
      "éĥ¨ç½": 5954,
      "åº¦èĥ¸": 5955,
      "çĤ¹ãĤĴ": 5956,
      "çĤ¹ãģ¯": 5957,
      "çĤ¹ãģ¨ãģĹãģ¦": 5958,
      "æİĪ": 5959,
      "èŃ·": 5960,
      "ãĥĹãĥŃãģ®": 5961,
      "ãĥĹãĥŃãĤ´ãĥ«ãĥķãĤ¡ãĥ¼": 5962,
      "ãĥĹãĥŃãĥ¼ãĥģ": 5963,
      "ãĥĹãĥŃãĥĩãĥ¥": 5964,
      "èº«ä½ĵ": 5965,
      "èº«è¿ĳ": 5966,
      "åĲįç§°": 5967,
      "çŃĨ": 5968,
      "ãĥķãĤ©ãĥ«": 5969,
      "ãĥķãĤ©ãĥŃãĥ¼": 5970,
      "å¿ĥéħį": 5971,
      "ãĤŃãĥ£ãĥĩãĤ£": 5972,
      "ãĤŃãĥ£ãĥ³ãĥĹ": 5973,
      "éĿ¢ãģĭãĤī": 5974,
      "ãĥªãĤ¢ãĥ«": 5975,
      "ãĤĬãģ¾ãģĹãģŁãģŃ": 5976,
      "åºĹåĵ¡": 5977,
      "æĿ¥äºĭ": 5978,
      "æĿ¥åºĹå®¢": 5979,
      "éĽ»æºĲ": 5980,
      "ãĤ´ãĥ«ãĥķãĥĬãĥĵ": 5981,
      "èĤĮ": 5982,
      "è¨ĺè¼ī": 5983,
      "ä¿¡çİĭ": 5984,
      "ãĤ¬ãĥ¼ãĥ«": 5985,
      "ä¸ĸçķĮãģ®": 5986,
      "ä¸ĸçķĮä¸Ģ": 5987,
      "ä¸ĸçķĮãģ®æĬķ": 5988,
      "ç§ģãĤĤ": 5989,
      "ç§ģãģŁãģ¡ãģĮ": 5990,
      "åĮĸãģĻãĤĭ": 5991,
      "çŁ¥ãĤī": 5992,
      "çŁ¥ãģ£ãģ¦ãģĦãĤĭ": 5993,
      "èĪª": 5994,
      "ãĥĹãĥ¬ãĤ¹": 5995,
      "ãĥĹãĥ¬ãĥĥãĤ·ãĥ£": 5996,
      "éļĽãģ¯": 5997,
      "ãģ®çİ": 5998,
      "ãģ®ç®¡çĲĨ": 5999,
      "ãģĭãģ£ãģŁãģ§ãģĻ": 6000,
      "å£²ãĤĮãĤĭ": 6001,
      "ãĤĴè¦ĭãģŁ": 6002,
      "ãĤĬãģ¾ãģĻãģ®ãģ§": 6003,
      "åľ°ãģ§": 6004,
      "å°ıãģķãģĦ": 6005,
      "ãĥĬãĥĸãĥ«": 6006,
      "ãĥİãĥ¼ãĥĪ": 6007,
      "ãĥİãĤ¦ãĥıãĤ¦": 6008,
      "åħĪæĹ¥": 6009,
      "åħĪè¡Į": 6010,
      "ãĤĮãģŁãĤī": 6011,
      "ä¸ĩåĨĨãģıãĤīãģĦ": 6012,
      "ä¸ĩåĨĨãĤĴç¨¼ãģĲ": 6013,
      "ãĥ¦ãĥ¼ãĤ¹": 6014,
      "ãĤ·ãĥ£ãĥĪãĥ«": 6015,
      "ãĤ¹ãĥŀãĥ³": 6016,
      "ãģĦãģŁãģ®ãģ¯": 6017,
      "å¿ħè¦ĭ": 6018,
      "ãģĦãģĦãģŃ": 6019,
      "ãģķãĤĮãģŁãģ®ãģ¯": 6020,
      "ç´łæĻ": 6021,
      "ãģªãĤĵãģ¨ãģĭ": 6022,
      "æĻĤéĸĵãģ¯": 6023,
      "çī©äºĭ": 6024,
      "ãĥĶãĥģ": 6025,
      "ãĥľãĥ¼ãĥ«": 6026,
      "ãĥľãĥ¼ãĥī": 6027,
      "éĩįåİļ": 6028,
      "æĦŁãģĺãģ¾ãģĹãģŁ": 6029,
      "å®īä½ı": 6030,
      "ä¼ģæ¥Ńãģ®": 6031,
      "ä¼ģæ¥Ńãģ§": 6032,
      "ä¼ģæ¥Ńãģ§ãģ¯": 6033,
      "ãģªãĤīãģªãģĦ": 6034,
      "ãģªãĤīãģ°": 6035,
      "ãģªãĤīãģļ": 6036,
      "ãģĮãģĤãĤĭãĤıãģŃ": 6037,
      "ãĤģãģ¦ãĤĤ": 6038,
      "å¾ĹæĦı": 6039,
      "ãĥĦãĤ¢": 6040,
      "ãĥĦãĥ¼ãĥ«": 6041,
      "çĽ¸åıį": 6042,
      "ãģ®ä¸Ńãģ«": 6043,
      "çĦ¡ãģĭãģ£ãģŁ": 6044,
      "çĦ¡é§Ħ": 6045,
      "æ¥½ãģĹãĤĢ": 6046,
      "ç´¹ä»ĭãģĹãģŁ": 6047,
      "æīĢãģ«": 6048,
      "æīĢæľī": 6049,
      "çľģ": 6050,
      "ãģ¨ãģ¯ä½ķ": 6051,
      "ãĤĴä½¿ãģ£ãģ¦ãģĦãĤĭ": 6052,
      "åĪ©çĶ¨ãģĻãĤĭ": 6053,
      "åĪ©çĶ¨ãģĹãģ¦ãģĦãĤĭ": 6054,
      "åĪ©çĶ¨ãģ§ãģįãģ¾ãģĻ": 6055,
      "ãĥļãĥĥãĥĪ": 6056,
      "è¨ŃåĤĻ": 6057,
      "è¨Ńç½®": 6058,
      "åĥįãģĦãģ¦ãģĦãĤĭ": 6059,
      "ãģłãģ£ãģŁãĤĬ": 6060,
      "ä»¥ä¸Ĭãģ«": 6061,
      "æ¬¡åĽŀ": 6062,
      "æ¬¡ç¬¬": 6063,
      "ãĤ¼ãĥŃ": 6064,
      "ãģ«åħ¥ãĤĭ": 6065,
      "ãģ«åħ¥ãģ£ãģŁ": 6066,
      "ãģ«åħ¥ãĤĮãģ¦": 6067,
      "ä½įãģĮ": 6068,
      "ãģĿãģĵãģ¾ãģ§": 6069,
      "æĸĻéĩĳ": 6070,
      "MARK": 6071,
      "ãģĻãģĲ": 6072,
      "ãģ¨è¨ĢãĤıãĤĮ": 6073,
      "ãģ¨è¨ĢãĤıãĤĮãģŁ": 6074,
      "ãĥ©ãĤ¤ãĥĢãĥ¼": 6075,
      "ãĤĮãģ¦ãĤĤ": 6076,
      "ãĤĮãģ¦ãģįãģŁ": 6077,
      "ä»ĸç¤¾": 6078,
      "ãĤ¹ãĥĨãĥªãĤ¢": 6079,
      "ãĤ¹ãĥĨãĥ³ãĥ¬ãĤ¹ãĤ¹ãĥ": 6080,
      "åıĸãĤĬæī±": 6081,
      "èĤ²æĪĲ": 6082,
      "ãģªãģĮãĤīãĤĤ": 6083,
      "æĸ¹ãģĮèī¯ãģĦ": 6084,
      "å¿ħè¦ģãģĮãģĤãĤĭ": 6085,
      "ãģ®ãĤ¢ãĥĹãĥª": 6086,
      "è¨Īæ¸¬": 6087,
      "ãģ«ãģ¤ãģĦãģ¦ãĤĤ": 6088,
      "ãģ«ãģ¤ãģĦãģ¦ãģĬè©±ãĤĴä¼ºãģĦãģ¾ãģĹãģŁ": 6089,
      "ãģ§ãģĤãĤĭãģĵãģ¨ãģ¯": 6090,
      "åı°æķ°": 6091,
      "ãĤĴæıı": 6092,
      "ãĤĴæıĲæ¡Ī": 6093,
      "å½¹ãģ®": 6094,
      "å½¹èģ·": 6095,
      "è²·ãģĨ": 6096,
      "æŃ³ãģıãĤīãģĦ": 6097,
      "ç¬¬ä¸Ģ": 6098,
      "ç¬¬äºĮ": 6099,
      "ãĤĨãģ£ãģŁãĤĬ": 6100,
      "ãĤĴæİ²ãģĴ": 6101,
      "æĺİç¢º": 6102,
      "åĦªãĤĮãģŁ": 6103,
      "åĦªãģĹãģķ": 6104,
      "ãĥĩãĤ¶ãĤ¤ãĥĬ": 6105,
      "ä¸ĬãģĴãĤĭ": 6106,
      "å§ĭãĤģ": 6107,
      "éħįå±ŀ": 6108,
      "è³ĩè³ª": 6109,
      "æµ·æ°´": 6110,
      "åŀ£": 6111,
      "ãģ¶ãĤĬ": 6112,
      "ãĥĢãĥ¡": 6113,
      "ãĥĢãĤ¦ãĥ³": 6114,
      "ãĥĢãĤ¦ãĥ³ãĥŃãĥ¼ãĥī": 6115,
      "ãĤĵãģłãĤĪ": 6116,
      "çµĲæŀľãĤĴ": 6117,
      "çµĲæŀľãĤĴåĩº": 6118,
      "ãģ§ãģ®éĸĭçĻº": 6119,
      "ä¸»æ¼Ķ": 6120,
      "ä¸»äººåħ¬": 6121,
      "ãģĹãģŁãģĦãģ¨": 6122,
      "ãĤĴæĬ«éľ²": 6123,
      "è£½æ³ķ": 6124,
      "åħĥãĢħ": 6125,
      "åħĥæ°Ĺãģª": 6126,
      "ãĤ¯ãĥ©ãĤ·ãĥĥãĤ¯ãģª": 6127,
      "æĸŃè¨Ģ": 6128,
      "å®ŁéļĽãģ«ãģ¯": 6129,
      "æ±ºå®ļ": 6130,
      "ç¤¾åĵ¡ãģĮ": 6131,
      "ãģ«ãģ¨ãģ£ãģ¦ãģ¯": 6132,
      "æħ£": 6133,
      "æħĮ": 6134,
      "ãĥªãĥĨãĤ£ãĥ¼TãĤ·ãĥ£ãĥĦ": 6135,
      "åĪ¥ãģ®": 6136,
      "ãĥĴãĤ«ãĥªãĤ¨": 6137,
      "è³¼è²·": 6138,
      "è³¼èªŃ": 6139,
      "æľĢå¤§ç´ļ": 6140,
      "éłŃãģĮ": 6141,
      "WiMAXãģ§": 6142,
      "RSSãĥķãĤ£ãĥ¼ãĥī": 6143,
      "ãĤ¸ãĤ§ãĥ³ãĥĪ": 6144,
      "ãĥģãĥ£ãĥªãĥĨãĤ£ãĥ¼TãĤ·ãĥ£ãĥĦ": 6145,
      "ãĥķãĤ¡ãĥĥãĤ·ãĥ§ãĥ³ãģ®": 6146,
      "è¶³ãĤĴ": 6147,
      "ç¹°ãĤĬ": 6148,
      "ãģ®ãĤĤãģ¨": 6149,
      "ãģĦãģ¤ãģ§ãĤĤ": 6150,
      "åı£ãģ«": 6151,
      "è¦³å®¢": 6152,
      "èĩªèº«ãĤĤ": 6153,
      "ç©ºæ¸¯": 6154,
      "èĪĪå¥®": 6155,
      "æģĭ": 6156,
      "ãĤĴåĩºãģĹãģŁ": 6157,
      "åħ±åĲĮ": 6158,
      "çĶ£æ¥Ń": 6159,
      "äººãģĮå¤ļãģĦ": 6160,
      "ãĤ¯ãĥªãĥ¼ãĥ³": 6161,
      "æĸĩåŃĹ": 6162,
      "èī²ãĢħ": 6163,
      "æµģè¡Į": 6164,
      "éĿŀå¸¸ãģ«é«ĺãģĦ": 6165,
      "éĿŀå¸¸ãģ«ä¾¿åĪ©": 6166,
      "éŃĶ": 6167,
      "ä¿Ŀè¨¼": 6168,
      "æ³¨çĽ®ãĤĴéĽĨ": 6169,
      "ç©¶æ¥µ": 6170,
      "é£²ãĤĵãģ§": 6171,
      "ITæ¥ŃçķĮ": 6172,
      "OND": 6173,
      "åĻĮæ±ģ": 6174,
      "èĦ±": 6175,
      "ãĥĺãĤ¢ãĤ«": 6176,
      "åĪ¶åº¦": 6177,
      "ãĤıãģĳãģ§ãĤĤ": 6178,
      "ãĥķãĤ§ãĥ¼ãĤ¹": 6179,
      "ãģ«ãģĬãģĦãģ¦ãģ¯": 6180,
      "è¬Ŀ": 6181,
      "éľĬæŁ": 6182,
      "ãģ¥ãģį": 6183,
      "ãģ¥ãģıãĤĬ": 6184,
      "ãĥ¨ãĤ³ãĥıãĥŀ": 6185,
      "å¹ħåºĥãģĦ": 6186,
      "å¹ħåºĥãģı": 6187,
      "æķĻèĤ²": 6188,
      "ãĥĹãĥ¬ãĤ¼ãĥ³": 6189,
      "éĩįè¦ģãģª": 6190,
      "ãĤĴæĦŁãģĺãģŁ": 6191,
      "ãĤĴæĦŁãģĺãĤīãĤĮãĤĭ": 6192,
      "ãģĿãģ®å½": 6193,
      "å®ĮçĴ": 6194,
      "äººéĸĵãģĮ": 6195,
      "çµĤäºĨ": 6196,
      "æ¥µãĤģãģ¦": 6197,
      "å¤§æīĭãģ®": 6198,
      "åł´åĲĪãģ¯": 6199,
      "ãģ¨æĢĿãģĨãĤĵãģ§ãģĻ": 6200,
      "çķªçµĦãģ§ãģ¯": 6201,
      "ç¾İãģĹãģĦ": 6202,
      "åħ·åĲĪ": 6203,
      "ãģ®ãĥĵãĥ¼ãĥ«": 6204,
      "èĬ¸è¡ĵ": 6205,
      "å¦»": 6206,
      "å¦Ļ": 6207,
      "ãģĭãģĽãģŁãģĦ": 6208,
      "ãĤĤãģĨä¸Ģ": 6209,
      "ãĤĤãģĨä¸Ģãģ¤": 6210,
      "ãĤĤãģĨä¸Ģåº¦": 6211,
      "ãģ«ãģªãĤĬãģŁãģĦ": 6212,
      "çĻºæĥ³ãģ®": 6213,
      "å±±å²¡": 6214,
      "æµ·å¤ĸæĹħè¡Į": 6215,
      "URA": 6216,
      "ä¼ĳãģ¿": 6217,
      "ãĤ·ãĥ¥ãģª": 6218,
      "ä½¿çĶ¨ãģĹãģ¦ãģĦãĤĭ": 6219,
      "é»Ħ": 6220,
      "é»Ļ": 6221,
      "ĠBe": 6222,
      "ĠBul": 6223,
      "ĠBal": 6224,
      "ãĤĴãģ¤ãģĳãģ¦": 6225,
      "éĢĨè»¢": 6226,
      "å¿ĹæľĽ": 6227,
      "ç«¶åĲĪ": 6228,
      "åįĴãģ§ãĤĤ": 6229,
      "çµĮåĸ¶èĢħ": 6230,
      "æ´»èºįãģĻãĤĭ": 6231,
      "ãĥĹãĥŃãĤ¸ãĤ§ãĤ¯ãĥĪãģ¯": 6232,
      "ãĤªãĥ¼ãĥĹãĥ³ãģĹãģŁ": 6233,
      "ance": 6234,
      "ãĤ¹ãĤ«ãĤ¦ãĥĪ": 6235,
      "ãĤ¤ãĥ³ãĥģ": 6236,
      "åıįå¾©": 6237,
      "ãģ®å°Ĥ": 6238,
      "ãģ®å°ı": 6239,
      "ãģ£ãģ¦ãģ¿ãģ¦": 6240,
      "åĨĻçľŁãģ®": 6241,
      "ç´°ãĥŀãĥĥãĥģãĥ§": 6242,
      "å¹´åıİãģĮé«ĺãģı": 6243,
      "ãģĶç´¹ä»ĭãģĹãģŁ": 6244,
      "çĽ¸è«ĩãģĹ": 6245,
      "æĻ®åıĬ": 6246,
      "ãĤĴæıĲä¾Ľä¸Ńãģ§ãģĻ": 6247,
      "ãģ«åĲĳãģĭ": 6248,
      "ãģ¨æĦŁãģĺãĤĭ": 6249,
      "ãĥ¼ãĥĬãĥ¼": 6250,
      "ãĤĴæķ´çĲĨ": 6251,
      "çĽ®æĮĩãģĻ": 6252,
      "æĪĲéķ·ãģ§ãģįãĤĭ": 6253,
      "iPhoneãĥ¦ãĥ¼ãĤ¶ãĥ¼": 6254,
      "ĠDi": 6255,
      "ĠWiMAXãģ¯": 6256,
      "ãģĸãĤĭãĤĴå¾Ĺ": 6257,
      "ãģªãĤĵãģ§ãģĻãģĭ": 6258,
      "ãĤĴéģ¸ãģ°": 6259,
      "ãģĵãģªãģĻ": 6260,
      "äººæĿĲãģłãģĭãĤīãģ§ãģĻ": 6261,
      "ãĤĴæĭĽ": 6262,
      "ãĤıãĤĮãģ¾ãģĹãģŁ": 6263,
      "ä»ķäºĭãģ®ãĤĦãĤĬãģĮãģĦ": 6264,
      "æĺ¨ä»Ĭ": 6265,
      "æ¡Īä»¶": 6266,
      "è¢«çģ½èĢħãģ®": 6267,
      "ERP": 6268,
      "HOME": 6269,
      "ç½®ãģįå¿ĺ": 6270,
      "ãģĻãģĶãģĦ": 6271,
      "ãģ¨èĢĥãģĪãģ¦ãģ¿": 6272,
      "ãģĵãģ¡ãĤīãģ¯": 6273,
      "ãĥªãĥĥãĤ·ãĥ¥ãģª": 6274,
      "ãĤ¯ãĥŃãĥ¼ãĥł": 6275,
      "ãģ®å¾Į": 6276,
      "ãģ®å¾Ĺ": 6277,
      "ãĤ¸ãĥ¥ãĥªãĤ¨": 6278,
      "æľĢè¿ĳãģ§ãģ¯": 6279,
      "ç·ıåĭ¢": 6280,
      "å½¼å¥³ãģ¨": 6281,
      "åŁºæºĸ": 6282,
      "çŃĶãģĪãģĹãģ¾ãģĻ": 6283,
      "Facebookãĥļãĥ¼ãĤ¸ãģ¨ãģ¤ãģªãģĮ": 6284,
      "ĠCir": 6285,
      "ĠPERS": 6286,
      "ãĤĭãģĵãģ¨ãģĮãģ§ãģįãģ¾ãģĻ": 6287,
      "ä¸īèĦļ": 6288,
      "ä¸īéĻ½": 6289,
      "è¨¼åĪ¸": 6290,
      "çī¹éĽĨãĥļãĥ¼ãĤ¸": 6291,
      "ãĥķãĤ£ãĥĥãĥĪãĤ·ãĥ£ãĥĪãĥ«": 6292,
      "èı¯ãĤĦãģĭãģª": 6293,
      "ãģ®ãĤ«ãĤ¹ãĤ¿ãĥł": 6294,
      "ãĤīãģļãģ«": 6295,
      "çµ¦æĸĻ": 6296,
      "ä¼ĬæĿ±": 6297,
      "ãĥ³ãĥĬãĥ¼ãĥ¬": 6298,
      "ãĤ³ãĥĶãĥ¼ãĥ©": 6299,
      "ãĤ°ãĥªãĥ«": 6300,
      "ä¼ļåł´ãģ«": 6301,
      "æľĢå¾Įãģ¯": 6302,
      "èµ°ãĤĭ": 6303,
      "ãĤ¹ãĤŃãĥ«ãĤĴ": 6304,
      "ãĤĴãĤĤãģŁãĤī": 6305,
      "å¤§åĪĩãģª": 6306,
      "æĢĿèĢĥæķ´çĲĨ": 6307,
      "éĸ¢ä¿ĤãģªãģĦ": 6308,
      "ãģ»ãģĨãģĮãģĦãģĦ": 6309,
      "ãģ£ãģ¦ãģĦãģĨãģ®ãģ¯": 6310,
      "è±Ĭãģĭãģª": 6311,
      "typeãģ®": 6312,
      "typeåħ¬å¼ı": 6313,
      "ãĤĴæ±ºãĤģãģŁ": 6314,
      "çĹĩçĬ¶": 6315,
      "ãģĮå¿ħè¦ģãģªãģ®ãģĭ": 6316,
      "æĢ¥éĢŁ": 6317,
      "ãģ®å¿ħ": 6318,
      "å¯ĦãģĽ": 6319,
      "åħ¨åĽ½ãģ®": 6320,
      "åĲĳãģĳãģ®æ±Ĥäººæĥħåł±": 6321,
      "æ¨ªæµľå¸Ĥ": 6322,
      "åħ·ä½ĵçļĦãģª": 6323,
      "åħ·ä½ĵçļĦãģ«ãģ¯": 6324,
      "ãģ½ãģĦãģ½ãģĦãģ½": 6325,
      "Androidãĥ¦ãĥ¼ãĤ¶ãĥ¼": 6326,
      "ãģ¨èªŀãĤĬãģ¾ãģĻ": 6327,
      "ãģĵãģ®æĺ": 6328,
      "ãĥ¼ãĥ©ãĥ¼": 6329,
      "ãĤ·ãĤ§ãĥ¼ãĥĲãĥ¼": 6330,
      "åĭ¤åĭĻ": 6331,
      "æľ¬æĽ¸ãģ§ãģ¯": 6332,
      "ãĥĲãĥĥãĥĨãĥªãĥ¼": 6333,
      "è©³ãģĹãģı": 6334,
      "ãĤ¹ãĥĪãĥ¬ãĥ¼ãĤ¸SafeSync": 6335,
      "æ±ĤãĤģãĤīãĤĮãĤĭ": 6336,
      "çŁ³çĶ°": 6337,
      "è£ħåĤĻ": 6338,
      "è²·ãģĦçī©": 6339,
      "æīĵãģ¡åĲĪãĤıãģĽ": 6340,
      "ãģ«åıĸãĤĬçµĦãĤĢ": 6341,
      "ãģ«ä¹Ĺãģ£ãģ¦": 6342,
      "ãĤĴéĸĭå§ĭ": 6343,
      "ãĤ¯ãĥ«ãĥŀ": 6344,
      "ãĤ¯ãĥ«ãĥ¼ãĤ¸ãĥ³ãĤ°": 6345,
      "ãģ£ãģ¦ãģıãĤĮãĤĭ": 6346,
      "ãĥ³ãĥģãĥ£": 6347,
      "å¸Įå´İ": 6348,
      "è²łãģĳ": 6349,
      "è²łæĭħ": 6350,
      "å½ĵæĻĤãģ¯": 6351,
      "åīįåĽŀãģ®è¨ĺäºĭ": 6352,
      "æ¬łãģĭãģĽãģªãģĦ": 6353,
      "æ°´ç´łãģ¯": 6354,
      "ãĥıãĤ¤ãĥĸãĥªãĥĥãĥīãĤ«ãĥ¼": 6355,
      "æ·±ãģĦ": 6356,
      "æ·±å¤ľ": 6357,
      "ãĤĴä¸İãģĪãĤĭ": 6358,
      "ãĤ¤ãĥ³ãĥīãģ§ãģ®éĸĭçĻº": 6359,
      "ãģ®åĬ¹": 6360,
      "å·¦åı³": 6361,
      "æľŁéĸĵä¸Ń": 6362,
      "èĭ¥ãģĦä¸ĸä»£": 6363,
      "æºĸåĤĻ": 6364,
      "è¦ĸçĤ¹ãģĭãĤī": 6365,
      "ç¦ı": 6366,
      "ç°¡åįĺãģ«": 6367,
      "ãĥ´ãĤ¡": 6368,
      "ãģĦãĤĪãģĦãĤĪ": 6369,
      "ãĤĴåħ¥ãĤĮ": 6370,
      "ãĤĴå±ķéĸĭãģĹãģ¦ãģĦãģ¾ãģĻ": 6371,
      "ãĤĤãģĤãĤĬãģ¾ãģĹãģŁ": 6372,
      "ãģ®åį±": 6373,
      "ãģ®åķĨ": 6374,
      "ãģ®åķıãģĦ": 6375,
      "èĩªä½ĵãģ¯": 6376,
      "é«ªãģ«": 6377,
      "æ´Ĺç·´": 6378,
      "ãĥıãĤ¤ãĥĥ": 6379,
      "ãģªãģıãģªãģ£ãģŁ": 6380,
      "ãģĤãģªãģŁãĤĤåº¦èĥ¸": 6381,
      "æ²»ãģ®": 6382,
      "è§£æ±ºçŃĸ": 6383,
      "ãģ¦ãģ¿ãĤĭãģ®ãģ§ãģĻ": 6384,
      "ãĥĺãĥĥãĥīãĥıãĥ³ãĤ¿ãĥ¼": 6385,
      "é¦ĸçĽ¸": 6386,
      "å°±èģ·æ´»åĭķ": 6387,
      "ãģ®æĦıè¦ĭ": 6388,
      "æĨ§ãĤĮ": 6389,
      "èįī": 6390,
      "éī±å±±": 6391,
      "ĠHeart": 6392,
      "ãģ®åĪ©çĽĬçİĩ": 6393,
      "ãģ«åĲĪãĤıãģĽãģ¦": 6394,
      "ãĥªãĥ¼ãĤºãĥĬãĥĸãĥ«": 6395,
      "åĽºå®ļ": 6396,
      "ãģ®ãĥģãĥ©ãĤ·": 6397,
      "å°ĭãģŃãĤĭãģ¨": 6398,
      "çĶ¨æĦıãģķãĤĮãģ¦ãģĦãģ¾ãģĻ": 6399,
      "é«ĺéĢŁãĥĩãĥ¼ãĤ¿éĢļä¿¡": 6400,
      "éłĲè²¯éĩĳ": 6401,
      "æ´»çĶ¨è¡ĵ": 6402,
      "ãĥķãĤ©ãĥ¼ãĥŀãĥ³ãĤ¹": 6403,
      "éĢ£ç¶ļå¾ħ": 6404,
      "ãģ®çĴ°å¢ĥå¯¾çŃĸ": 6405,
      "åĳ³ãĤıãģĦ": 6406,
      "ãģĹãģ¦ãĤĤãĤīãģĨ": 6407,
      "ãĤªãĥªãĥ³ãĥĿãĤ¹": 6408,
      "ãĤĴè¿İãģĪ": 6409,
      "ãĤªãĥ³ãĥ©ãĤ¤ãĥ³ãĤ¹ãĥĪãĥ¬ãĥ¼ãĤ¸SafeSync": 6410,
      "éįĽãģĪ": 6411,
      "èĭ¥æīĭç¤¾ä¼ļäººãģ®æĤ©ãģ¿ãģ¯å°½ãģįãģ¾ãģĽãĤĵ": 6412,
      "AKURA": 6413,
      "FICC": 6414,
      "éºĹ": 6415,
      "éĤª": 6416,
      "ãĤĴãĥªãĥªãĥ¼ãĤ¹": 6417,
      "ãĤĴéĩįè¦ĸ": 6418,
      "ãĤĴè¨ĺéĮ²ãģĹãģŁ": 6419,
      "ãĤ¢ãĥŀãĥģãĥ¥ãĤ¢": 6420,
      "ãĤĴæ·±æİĺãĤĬ": 6421,
      "ãĤ¸ãĥ§ãĥ³ãĥłãĥ¼ãĥĵ": 6422,
      "ãĤĴç¢ºç«ĭ": 6423,
      "å¯ĿãģĭãģĹ": 6424,
      "ç§ĭåĨ¬": 6425,
      "å½ĵãģŁãĤĬåīį": 6426,
      "ãģ«æºĢè¶³": 6427,
      "ãģĶãģ¨ãģ«": 6428,
      "åºĥåĳĬä»£çĲĨ": 6429,
      "ONAL": 6430,
      "çĩĥæĸĻéĽ»æ±ł": 6431,
      "ç·¨éĽĨéĥ¨": 6432,
      "åį±éĻºãģª": 6433,
      "ãĤ½ãĥ¼ãĤ·ãĥ£ãĥ«ãĥ¡ãĥĩãĤ£ãĤ¢æ´»çĶ¨è¡ĵ": 6434,
      "ãĥĹãĥŃãĥķãĤ£ãĥ¼ãĥ«ãĥļãĥ¼ãĤ¸": 6435,
      "æ©ĭæľ¬": 6436,
      "ãģŁãģ¨ãģĪãģ°": 6437,
      "ãĤĴéģĤãģĴ": 6438,
      "ãĤĴéĢļãģĺãģ¦": 6439,
      "ãĤĴéĸĭåĤ¬ãģĹãģ¾ãģĻ": 6440,
      "ãģ¾ãģ£ãģŁãģı": 6441,
      "ãģĮä¸¦ãģ³": 6442,
      "ãĥĥãĤ»ãĥ¼ãĤ¸": 6443,
      "çĶ³ãģĹ": 6444,
      "ãĤ¢ãĥ©ãĥĵãĤ¢": 6445,
      "ãĤ¢ãĥĭãĥŀãĥ«": 6446,
      "ãĥ©ãĥķãĤ£ãĥį": 6447,
      "ãĤĴæ¤ľè¨İ": 6448,
      "ãĤĴæĲŃè¼īãģĹãģŁ": 6449,
      "ãĤĴæŀľãģŁãģĹãģŁ": 6450,
      "ãĤ·ãĥŁãĥ¥ãĥ¬ãĥ¼ãĤ·ãĥ§ãĥ³": 6451,
      "è»ŁãĤīãģĭ": 6452,
      "ãģ®æĮģ": 6453,
      "ãģ®æĻ®": 6454,
      "å¥¥æ§ĺ": 6455,
      "æīĭè»½ãģ«": 6456,
      "å¤ļæ§ĺãģª": 6457,
      "éĽ»åĭķãĤ·ãĤ§ãĥ¼ãĥĲãĥ¼": 6458,
      "ä¸ĸçķĮåĲĦåĽ½": 6459,
      "æĽľæĹ¥": 6460,
      "åĦªç§Ģãģª": 6461,
      "ç¬ĳé¡Ķãģ®": 6462,
      "ãĥķãĥ©ãĥĥãĥĪãĥ©ãĥ³ãĥī": 6463,
      "ãĤĴæĺİç¢ºãģ«": 6464,
      "Red": 6465,
      "å¡¾": 6466,
      "å³¶": 6467,
      "æ»ĳ": 6468,
      "ç¥¨": 6469,
      "ãģ®éĩįè¦ģæĢ§": 6470,
      "ãģ¨çŃĶãģĪãģ¾ãģĹãģŁ": 6471,
      "ãĤĴåĭĻãĤģãĤĭ": 6472,
      "ãģĭãģĴãģ§": 6473,
      "ä¸¸ãģ®åĨħ": 6474,
      "çĶĺãģıãģªãģĦ": 6475,
      "ãĤĴæĽ¸ãģı": 6476,
      "ãĤ¹ãĥĸãĥĥãĤ¯": 6477,
      "ãĤµãĥ©ãĥªãĥ¼ãĥŀ": 6478,
      "ä¸Ĭè³ªãģª": 6479,
      "å¼Ĭç¤¾": 6480,
      "ãĤĴçĭĻ": 6481,
      "ãĤĴç½®ãģı": 6482,
      "æĪ¸æĥĳ": 6483,
      "åīĬæ¸Ľ": 6484,
      "ãĤ¤ãĥ³ãĤ¹ãĥĪãĥ¼ãĥ«": 6485,
      "ãģ«æ¯Ķãģ¹ãģ¦": 6486,
      "åĢĻè£ľ": 6487,
      "æĬ¼ãģĹ": 6488,
      "åīįæıĲ": 6489,
      "çŁ¥å¿µæ°ı": 6490,
      "ç´łæķµãģª": 6491,
      "çĽ´åĸ¶åºĹ": 6492,
      "éľĢè¦ģ": 6493,
      "èĲ½ãģ¨ãģĹ": 6494,
      "ãģ®ãĥ¢ãĥģãĥ¼ãĥķåħ¥ãĤĬ": 6495,
      "èĤīä½ĵç¾İ": 6496,
      "ãĤ¹ãĤ±ãĤ¸ãĥ¥ãĥ¼ãĥ«": 6497,
      "ãģ«æ±ĤãĤģãĤĭ": 6498,
      "æĬ½éģ¸ãģ§": 6499,
      "ãĤĴæķĻãģĪãģ¦ãģıãģłãģķãģĦ": 6500,
      "ĠSakuraãģ®ãĥ¢ãĥģãĥ¼ãĥķåħ¥ãĤĬ": 6501,
      "çĸĳåķı": 6502,
      "èĨ¨å¤§ãģª": 6503,
      "ãģ®è£ıåģ´": 6504,
      "ãģĭãĤıãģĦãģĦ": 6505,
      "ãĤ¿ãĥ¼ãĤ²": 6506,
      "æĹĹèī¦åºĹ": 6507,
      "ãģ®æµģãĤĮ": 6508,
      "ãĤ«ãĥªãĤ¹ãĥŀ": 6509,
      "ãĤ¤ãĥŀãĥīãĤŃå®¶æĹı": 6510,
      "ãĤ¨ãĥįãĥ«ãĤ®ãĥ¼": 6511,
      "ãĥŀãĥ¼ãĤ±ãĥĨãĤ£ãĥ³ãĤ°": 6512,
      "ãĤ¹ãĤ¿ãĤ¤ãĥªãĥĥãĤ·ãĥ¥ãģª": 6513,
      "éł»ç¹": 6514,
      "æķ°åŃĹãģĮ": 6515,
      "ãĥĺãĥªãĤ¯ãĥ«ãĥ¼ãĤ¸ãĥ³ãĤ°": 6516,
      "ãģ®åŃĺåľ¨": 6517,
      "ãĥıãĤ¤ãĥĵãĤ¸ãĥ§ãĥ³ãĥłãĥ¼ãĥĵ": 6518,
      "å±±èĳµå§īãģķãĤĵãģĭãĤīãģ®æ¿Ģè¾ĽãĤ¢ãĥīãĥĲãĤ¤ãĤ¹": 6519,
      "æĴ®å½±ãĤĴè©¦ãģ¿": 6520,
      "ãģ®å±ķæľĽ": 6521,
      "éļħè°·ãģķãĤĵ": 6522,
      "èĢ³å¯ĦãĤĬãģªè»¢èģ·æĥħåł±ãĤĴæıĲä¾Ľä¸Ńãģ§ãģĻ": 6523,
      "Mbps": 6524,
      "¶ãģ¹æĿ¥åºĹå®¢": 6525,
      "ãģ«è¸ıãģ¿": 6526,
      "ãģŁãģ¾ãģŁãģ¾": 6527,
      "ãĤĴä»£è¡¨ãģĻãĤĭ": 6528,
      "ãģĭãģ£ãģĵãģĦãģĦ": 6529,
      "ãĥĪãĥªãĤ¨ãĥ³ãĥĬãĥ¼ãĥ¬": 6530,
      "ãģĵãģ®å±±": 6531,
      "ãĤ¢ãĥľãĤ«ãĥī": 6532,
      "ãĥķãĥªãĥ¼ãĥ©ãĥ³ãĤ¹": 6533,
      "ãĤ¯ãĤªãĥªãĥĨãĤ£": 6534,
      "ãĤ·ãĥ³ãĤ¯ãĤ¿ãĥ³ãĤ¯": 6535,
      "å¹´ãĤ´ãĥ¼ãĥ«ãĥīãĤ·ãĤ°ãĥįãĥģãĥ£ãĥ¼": 6536,
      "ãģ®æ§ĺåŃĲ": 6537,
      "ãģ®æºĸåĤĻ": 6538,
      "èĩªå·±": 6539,
      "ãĤµãĥ³ãĥĲãĤ¤ãĤ¶ãĥ¼": 6540,
      "ãĥĲãĥªãĤ¨ãĥ¼ãĤ·ãĥ§ãĥ³": 6541,
      "ãĥŀãĤ¬ãĤ¸ãĥ³": 6542,
      "ãĥģãĥ¼ãĤºãĥĲãĥ¼ãĤ¬": 6543,
      "ãĥĵãĤ¸ãĥ¥ãĤ¢ãĥ«": 6544,
      "ãĥĵãĥĩãĤªãĤ«ãĥ¡ãĥ©": 6545,
      "åıĸç·łå½¹": 6546,
      "çī¹è¨ŃãĤµãĤ¤ãĥĪ": 6547,
      "éĥ¨ç½²": 6548,
      "ä¸ĸçķĮãģ®æĬķä¿¡çİĭ": 6549,
      "ç´łæĻ´": 6550,
      "çĽ¸åıįãģĻãĤĭ": 6551,
      "ãĤ¹ãĥĨãĥ³ãĥ¬ãĤ¹ãĤ¹ãĥģãĥ¼ãĥ«": 6552,
      "ãĥĺãĤ¢ãĤ«ãĥĥãĥĪ": 6553,
      "éľĬæŁ©": 6554,
      "ãĥ¨ãĤ³ãĥıãĥŀãĥĪãĥªãĤ¨ãĥ³ãĥĬãĥ¼ãĥ¬": 6555,
      "å®ĮçĴ§": 6556,
      "ĠBull": 6557,
      "ĠBalance": 6558,
      "ãĤ¸ãĥ¥ãĥªãĤ¨ãĥĥãĤ¿": 6559,
      "ĠCircle": 6560,
      "ĠPERSONAL": 6561,
      "ä¸īéĻ½åķĨä¼ļ": 6562,
      "ãģĤãģªãģŁãĤĤåº¦èĥ¸ãģĮãģĤãĤĭãĤıãģŃ": 6563,
      "éī±å±±äºĭæķħ": 6564,
      "ãĥıãĤ¤ãĥĵãĤ¸ãĥ§ãĥ³ãĥłãĥ¼ãĥĵãĥ¼": 6565,
      ")ãĢĤ": 6566,
      "06": 6567,
      "150": 6568,
      "23": 6569,
      "2000": 6570,
      "450": 6571,
      "51": 6572,
      "52": 6573,
      "75": 6574,
      "82": 6575,
      "84": 6576,
      "AM": 6577,
      "AFAR": 6578,
      "Be": 6579,
      "Book": 6580,
      "BãĥıãĤ¦ãĤ¹": 6581,
      "CD": 6582,
      "Cam": 6583,
      "DãĥĵãĥĩãĤªãĤ«ãĥ¡ãĥ©": 6584,
      "DãĥıãĤ¤ãĥĵãĤ¸ãĥ§ãĥ³ãĥłãĥ¼ãĥĵãĥ¼": 6585,
      "Eve": 6586,
      "FA": 6587,
      "FC": 6588,
      "FãģķãĤĵ": 6589,
      "GA": 6590,
      "GO": 6591,
      "IL": 6592,
      "IP": 6593,
      "LU": 6594,
      "Lo": 6595,
      "LIN": 6596,
      "LAN": 6597,
      "MB": 6598,
      "Mi": 6599,
      "OX": 6600,
      "OHO": 6601,
      "PON": 6602,
      "QBãĥıãĤ¦ãĤ¹": 6603,
      "REN": 6604,
      "RUN": 6605,
      "SI": 6606,
      "SOHO": 6607,
      "Te": 6608,
      "Th": 6609,
      "TOP": 6610,
      "Tub": 6611,
      "XJ": 6612,
      "You": 6613,
      "ab": 6614,
      "ai": 6615,
      "au": 6616,
      "ch": 6617,
      "car": 6618,
      "dn": 6619,
      "ew": 6620,
      "iew": 6621,
      "mee": 6622,
      "od": 6623,
      "ow": 6624,
      "per": 6625,
      "sp": 6626,
      "ss": 6627,
      "sic": 6628,
      "tu": 6629,
      "¡ãĤĬ": 6630,
      "¡ãĥ¼ãĤ«ãĥ¼": 6631,
      "£ç¯Ģ": 6632,
      "¥µ": 6633,
      "¥æ³¢": 6634,
      "¨¡": 6635,
      "¨ãģ¿": 6636,
      "©ãĤĢ": 6637,
      "©ä¹ħ": 6638,
      "ªĵ": 6639,
      "«æīį": 6640,
      "¬¬": 6641,
      "¬é¹": 6642,
      "®®": 6643,
      "°ãģĪãĤĭ": 6644,
      "¹åī²": 6645,
      "»ãĥ³ãĤ¿ãĥ¼": 6646,
      "½åĩº": 6647,
      "½å¼ķ": 6648,
      "¾İ": 6649,
      "æ··": 6650,
      "çĥ": 6651,
      "çłĤæ¼": 6652,
      "èĮ": 6653,
      "é¼": 6654,
      "é®®": 6655,
      "ĠU": 6656,
      "ĠãĢĮ": 6657,
      "ĠMINI": 6658,
      "Ġ2010": 6659,
      "ĠãĤŃãĥ£ãĥĥãĥĹ": 6660,
      "ĠGIN": 6661,
      "Ġmee": 6662,
      "Ģè¡ĵ": 6663,
      "Ĥ©ãĤĢ": 6664,
      "Ħª": 6665,
      "ĦãĤ¢": 6666,
      "ħéĻ¢": 6667,
      "ĨŁ": 6668,
      "ĩãģ®": 6669,
      "ĩ¸å¿µ": 6670,
      "Īãģª": 6671,
      "Īåīį": 6672,
      "īãģĮ": 6673,
      "Ĭä¸ĭ": 6674,
      "Ĭæķ¬": 6675,
      "ĭæľį": 6676,
      "ĮãģĻãĤĭ": 6677,
      "įé£Ł": 6678,
      "İãĥŀãĥī": 6679,
      "ĵãģĮ": 6680,
      "ĵãĥ¼ãĥ«": 6681,
      "Ķãĥ³ãĤ°": 6682,
      "ĽãĤīãģĻ": 6683,
      "ľåħ¥": 6684,
      "ľãĤ´ãĥ«ãĥķãĤ": 6685,
      "ľãĥ¼ãĤ¤": 6686,
      "ĿãĥŃ": 6687,
      "ŁãĥĬãĥ«": 6688,
      "ãĢĪ": 6689,
      "ãĢī": 6690,
      "ãģ®ãĥĩ": 6691,
      "ãģ®ä¸Ĭ": 6692,
      "ãģ®çµĮ": 6693,
      "ãģ®ãĥĹãĥŃ": 6694,
      "ãģ®ãĥķãĤ©": 6695,
      "ãģ®çĶ·æĢ§": 6696,
      "ãģ®ãģ§ãģĻãģŃ": 6697,
      "ãģ®ãģĵãģ¨ãĤĴ": 6698,
      "ãģ®åħĥ": 6699,
      "ãģ®ãĥĩãĤ¶ãĤ¤ãĥ³": 6700,
      "ãģ®MINI": 6701,
      "ãģ®äººãģĮ": 6702,
      "ãģ®è³¼åħ¥": 6703,
      "ãģ®çĻºæĥ³": 6704,
      "ãģ®ãģ«å¯¾ãģĹ": 6705,
      "ãģ®èµ¤": 6706,
      "ãģ®ãĤ»ãĥ¬ãĤ¯ãĥĪãĤ·ãĥ§ãĥĥãĥĹ": 6707,
      "ãģ®ç´łæĿĲ": 6708,
      "ãģ®éĸĵãģ§": 6709,
      "ãģ®æĢ§èĥ½": 6710,
      "ãģ®æĸ¹ãĢħ": 6711,
      "ãģ®ç«ĭåł´": 6712,
      "ãģ®ãĤ¿ãĥĸãĥ¬ãĥĥãĥĪ": 6713,
      "ãģ®èĪŀåı°": 6714,
      "ãģ®ãĤ·ãĥ«ãĤ¨": 6715,
      "ãģĦãģ¾": 6716,
      "ãģĦãĤĦ": 6717,
      "ãģĦãģĳãģªãģĦ": 6718,
      "ãģĦãģ¦ãģĦãģ¦": 6719,
      "ãģĦãĤīãģ£ãģĹãĤĥ": 6720,
      "ãģ§ãĥ¼": 6721,
      "ãģ§ä»ķäºĭ": 6722,
      "ãģ§ä½ľ": 6723,
      "ãģ§éĸĭçĻº": 6724,
      "ãģ§æĴ®å½±": 6725,
      "ãģ§åĭĿãģ¡": 6726,
      "ãģ§æĪĲåĬŁ": 6727,
      "ãģ§ãģĦãģĪãģ°": 6728,
      "ãģĹãĤĬ": 6729,
      "ãģĹåĩº": 6730,
      "ãģĹãģªãģĭãģ£ãģŁ": 6731,
      "ãģĹãģ¡ãĤĥ": 6732,
      "ãģĹç¶ļãģĳãĤĭ": 6733,
      "ãģ«æ°Ĺ": 6734,
      "ãģ«æĢĿ": 6735,
      "ãģ«å½ĵ": 6736,
      "ãģ«ãģĹãģ¦ãģĦãģ¾ãģĻ": 6737,
      "ãģ«æĿ¥": 6738,
      "ãģ«éĢ£": 6739,
      "ãģ«ãģĹãģŁãģĦ": 6740,
      "ãģ«éĻĲ": 6741,
      "ãģ«å¿ľ": 6742,
      "ãģ«è¦ª": 6743,
      "ãģ«ãģĹãģ¦ãĤĤ": 6744,
      "ãģ«å½¢": 6745,
      "ãģ«éģĶ": 6746,
      "ãģ«ãģĵãģłãĤıãĤĬ": 6747,
      "ãģ«åŁº": 6748,
      "ãģ«å¼·ãģĦ": 6749,
      "ãģ«è¡Ĺ": 6750,
      "ãģ«ç§»": 6751,
      "ãģ«æ°Ĺãģ¥": 6752,
      "ãģ«ãģ¾ãģ¨ãĤģ": 6753,
      "ãģ«ãģİ": 6754,
      "ãģ«ãĤ¢ãĤ¯ãĤ»ãĤ¹": 6755,
      "ãģ«çķĻ": 6756,
      "ãģ«çĦ¦": 6757,
      "ãģ«ä¿ĿåŃĺ": 6758,
      "ãģ«è´Ī": 6759,
      "ãģĻãģĮ": 6760,
      "ãģĻãĤĬ": 6761,
      "ãģĻãģĵãģ¨": 6762,
      "ãģĻãģ®ãģĮ": 6763,
      "ãĥ¼ãģ¨": 6764,
      "ãĥ¼è³ŀ": 6765,
      "ãĥ¼ä¼ĬæĿ±": 6766,
      "ãģ¨åĬĽ": 6767,
      "ãģ¨ãģĿãģ®": 6768,
      "ãģ¨ãģĹãģ¾ãģĻ": 6769,
      "ãģ¨åĲį": 6770,
      "ãģ¨ãģķãĤĮãĤĭ": 6771,
      "ãģ¨é«ĺãģĦ": 6772,
      "ãģ¨ãģĹãģŁãĤī": 6773,
      "ãģ¨åķıãģĦ": 6774,
      "ãģ¨åĲĮæĻĤãģ«": 6775,
      "ãģ¨èģŀãģı": 6776,
      "ãģ¨ãĥĳãĥ³ãĥĦ": 6777,
      "ãģ¦ãĤĭ": 6778,
      "ãģ¦ãģªãģĦ": 6779,
      "ãģªãĥ¼": 6780,
      "ãģªãģ®ãģ§ãģĻãģĮ": 6781,
      "ãģªæ¥ŃåĭĻ": 6782,
      "ãĤĭãģĵãģ¨ãģ§": 6783,
      "ãĤĭãģ®ãĤĤ": 6784,
      "ãĤĭãģ¯ãģļãģ§ãģĻ": 6785,
      "ãģŁãģĻ": 6786,
      "ãĤĴãģĹãģ¦": 6787,
      "ãĤĴå¤§": 6788,
      "ãĤĴä¸Ĭ": 6789,
      "ãĤĴãĤŃ": 6790,
      "ãĤĴåŃ¦": 6791,
      "ãĤĴåĬł": 6792,
      "ãĤĴç´ł": 6793,
      "ãĤĴåĪĩ": 6794,
      "ãĤĴå§ĭ": 6795,
      "ãĤĴãģĻãĤĭãģ¨": 6796,
      "ãĤĴçµĦãģ¿": 6797,
      "ãĤĴéŃħ": 6798,
      "ãĤĴçĻºå£²": 6799,
      "ãĤĴèª¿æŁ»": 6800,
      "ãĤĴèªŃ": 6801,
      "ãĤĴãĥģãĤ§ãĥĥãĤ¯": 6802,
      "ãĤĴä»»": 6803,
      "ãĤĴé«ĺãģı": 6804,
      "ãĤĴåīįãģ«": 6805,
      "ãĤĴãĥĨãĥ¼ãĥŀ": 6806,
      "ãĤĴå¼ķãģį": 6807,
      "ãĤĴä¼ºãģĦãģ¾ãģĹãģŁ": 6808,
      "ãĤĴéģĭåĸ¶": 6809,
      "ãĤĴçµĦãģ¿åĲĪãĤıãģĽ": 6810,
      "ãĤĴãģĤãģĴ": 6811,
      "ãĤĴä½ĵæĦŁ": 6812,
      "ãĤĴå§ĭãĤģãģŁ": 6813,
      "ãĤĴèĪŀåı°": 6814,
      "ãĤĴä¼¸ãģ°": 6815,
      "ãĤĴä½µ": 6816,
      "ãĤĴåıįå¾©": 6817,
      "ãģ¾ãĤī": 6818,
      "ãģ¾ãĤĮãģŁ": 6819,
      "ãģĮãģª": 6820,
      "ãģĮãģĵ": 6821,
      "ãģĮãģĬ": 6822,
      "ãģĮçĶ¨": 6823,
      "ãģĮçµĮ": 6824,
      "ãģĮéķ·": 6825,
      "ãģĮæĹ¥æľ¬": 6826,
      "ãģĮãĥĦ": 6827,
      "ãģĮç¶ļ": 6828,
      "ãģĮçĿĢ": 6829,
      "ãģĮå¤ļãģı": 6830,
      "ãģĮä¸»": 6831,
      "ãģĮæĸ½": 6832,
      "ãģĮä¸ĬãģĮ": 6833,
      "ãģĮéĩįè¦ģ": 6834,
      "ãģĮèªį": 6835,
      "ãģĮåįĬ": 6836,
      "ãģĮæĤª": 6837,
      "ãģĮçĻºè¡¨": 6838,
      "ãģĮãĤªãĥ¼ãĥĹãĥ³": 6839,
      "ãģĮä¸Ģçķª": 6840,
      "ãģĮãĥĸãĥ¬": 6841,
      "ãģĮåħ¬éĸĭ": 6842,
      "ãģĮãģŁãģıãģķãĤĵ": 6843,
      "ãģĮãģ¨ãģ¦ãĤĤ": 6844,
      "ãģĮå¤§ãģįãģı": 6845,
      "ãģĮãģįãģ£ãģĭãģĳ": 6846,
      "ãģĮæ¿Ģ": 6847,
      "ãģĮé«ĺãģı": 6848,
      "ãģĮæľŁå¾ħ": 6849,
      "ãģĮèªĩ": 6850,
      "ãģĮæıĲä¾Ľ": 6851,
      "ãģĮèªķçĶŁ": 6852,
      "ãģĮåħ¨ãģı": 6853,
      "ãģĮéģħ": 6854,
      "ãģĮåºĥãģĮ": 6855,
      "ãģĮãģ©ãĤĮãģłãģĳ": 6856,
      "ãģ¯ä¸Ģ": 6857,
      "ãģ¯å°ĳ": 6858,
      "ãģ¯åĪ¥": 6859,
      "ãģ¯åĲĮãģĺ": 6860,
      "ãģ¯ãģ¾ãģł": 6861,
      "ãģ¯ç´Ħ": 6862,
      "ãģ¯ãģªãģĦãģ¨": 6863,
      "ãģ¯ãģĭãģªãĤĬ": 6864,
      "ãģ¯ãģĦãģĭãģĮãģ§ãģĹãĤĩãģĨãģĭ": 6865,
      "ãģ¯ãģ©ãģ®ãĤĪãģĨãģ«": 6866,
      "ãģ¯ãģ£ãģįãĤĬ": 6867,
      "ãĥ³ãģª": 6868,
      "ãĥ³ãĤµ": 6869,
      "ãĥ³ãģªãģ©": 6870,
      "ãĥ³ãĤ¼": 6871,
      "ãĥ³ãĤ·ãĥ¼": 6872,
      "ãģĭãģĻ": 6873,
      "ãģĭãĤĭ": 6874,
      "ãģĭãģı": 6875,
      "ãĤĤãģªãģĦ": 6876,
      "ãĤĤãģ£ãģŁ": 6877,
      "ãĤĤãģ¨ãĤĤ": 6878,
      "ãĤĤãģĤãĤĮãģ°": 6879,
      "ãĤĤåĲ«": 6880,
      "ãĤĤå¤§ãģįãģĦ": 6881,
      "ãĥĪãĥ©ãĥ³": 6882,
      "ãĥĪãĥ¼ãĤŃ": 6883,
      "ãĥĪãĥ¼ãĤ¿ãĥ«": 6884,
      "ãģĨãģĭãģĮ": 6885,
      "ãĤĬãģ¨": 6886,
      "ãĤ¹ãģ®": 6887,
      "ãĤ¹ãĥĥãĤŃ": 6888,
      "ãģ£ãģ¡": 6889,
      "ãģ£ãģ¡ãĤĥ": 6890,
      "ãģ£ç«¯": 6891,
      "ãģ£ãģ¡ãĤĥãģĨ": 6892,
      "ä¸ģ": 6893,
      "ãĤīãģ§": 6894,
      "ãĤīãģĪãĤĭ": 6895,
      "ãĤīãģĹãģķ": 6896,
      "ãĢį**": 6897,
      "ãģ§ãģĻãģ®ãģ§": 6898,
      "ãģĵãģªãģĦ": 6899,
      "ãģĵãĤīãĤĮãģŁ": 6900,
      "ãģĵãģ®åº": 6901,
      "ãģĵãģ£ãģ¡": 6902,
      "ãĥ«ãĤ¹": 6903,
      "ãĥ«ãĤº": 6904,
      "ãĤĵãģ°": 6905,
      "ãĤĵãģ¾ãĤĬ": 6906,
      "ãĤ¤ãĤ±": 6907,
      "ãĤ¤ãĤ¹ãĥĸãĥĥãĤ¯": 6908,
      "ãģ¦ãģĦãģŁãĤĬ": 6909,
      "ãģĹãģŁãģĵãģ¨": 6910,
      "ãģĹãģŁãģĵãģ¨ãģĮ": 6911,
      "ãģĹãģŁãģĿãģĨãģ§ãģĻ": 6912,
      "ãģĹãģŁãģ¨ãģį": 6913,
      "ãĥĥãģ¨": 6914,
      "ãĥĥãĤµ": 6915,
      "ãĥĥãĤ¿ãĥ¼": 6916,
      "ãģķãģ«": 6917,
      "ãģķãģĪ": 6918,
      "ãģķãĤĦ": 6919,
      "ãģķãģªãģĦ": 6920,
      "ãģķãģĻãģĮ": 6921,
      "ãģıãĤĬãģ¾ãģĹãģŁ": 6922,
      "ãģıãģĵãģ¨ãĤĴ": 6923,
      "ãģįãģ¦ãģĦãģ¾ãģĻ": 6924,
      "æľŃ": 6925,
      "ãģĤãģ¤": 6926,
      "ãģĤãģŁãĤĬ": 6927,
      "ãģĤãĤĵãģ¾ãĤĬ": 6928,
      "ãĥ¼ãĥ¡": 6929,
      "ãĥ¼ãĥŁãĥĬãĥ«": 6930,
      "ãģĪãģ«": 6931,
      "ãģĪãģ£": 6932,
      "ãģĪãģļ": 6933,
      "ãģĪãģ¦ãģĦãģı": 6934,
      "ãĥªãĥķ": 6935,
      "ãĥªãĥķãĥĪ": 6936,
      "ãĥªãĤºãĥł": 6937,
      "ãĥªãĥ©ãĥĥãĤ¯ãĤ¹": 6938,
      "ãĤ¢ãĥ¼ãĥĨãĤ£": 6939,
      "ãĤ¢ãĥĹãĥŃãĥ¼ãĥģ": 6940,
      "ãĥ¼ãĤª": 6941,
      "ãģĿãģ®åł´": 6942,
      "ãģĿãģ®æĦı": 6943,
      "ãĥ©ãĥ«": 6944,
      "ãĥ©ãĥĥãĥĹ": 6945,
      "ãĥ©ãĤ¹ãĥĪ": 6946,
      "ãĥ©ãĥľ": 6947,
      "ãĥ©ãĤ¦ãĥ³": 6948,
      "ãĥ©ãĥĻãĥ³ãĥĢãĥ¼": 6949,
      "åħŃ": 6950,
      "åħĭæľį": 6951,
      "åĪ·": 6952,
      "åĪĥ": 6953,
      "å®³": 6954,
      "å®ĺ": 6955,
      "äººãģ§": 6956,
      "äººãģŁãģ¡": 6957,
      "äººãģ¨ãģĭ": 6958,
      "äººãģŁãģ¡ãģĮ": 6959,
      "äººãģ¨ãģĦãģĨãģ®ãģ¯": 6960,
      "åı¥": 6961,
      "ãĥķãĥª": 6962,
      "ãĥķãĥ¬": 6963,
      "ãĤģãĤīãĤĮãģ¦ãģĦãģ¾ãģĻ": 6964,
      "ãĤģãĤīãĤĮãģ¦ãģĦãĤĭ": 6965,
      "ãģĹãģ¦ãĤĭ": 6966,
      "ãģĹãģ¦ãģįãģ¾ãģĹãģŁ": 6967,
      "ãģĹãģ¦è¨ĺäºĭ": 6968,
      "ãģĹãģ¦ãģ¯ãģĦ": 6969,
      "ãĤ¯ãĥ¬": 6970,
      "ãĤ¯ãĥī": 6971,
      "ãĤ¯ãĤ»": 6972,
      "ãĤ¯ãĥĭãĥĥãĤ¯": 6973,
      "ãĤ¯ãĥ¼ãĥĿ": 6974,
      "ãĤĦãģĭ": 6975,
      "ãĤĦãģķ": 6976,
      "ãĤĦãģį": 6977,
      "ãĤĦäºº": 6978,
      "ãĤĦãĤµãĥ¼ãĥĵãĤ¹": 6979,
      "ãĤĦåĨĻçľŁ": 6980,
      "ãĤĦãģĭãģ«": 6981,
      "ãģĳãģ¦ãģĦãģ¾ãģĻ": 6982,
      "ãģłãģ¨ãģĦãģĨ": 6983,
      "ãģłãģ¨æĢĿ": 6984,
      "ãģłãģ¨è¨ĢãģĪãĤĭãģ§ãģĹãĤĩãģĨ": 6985,
      "ãĤĴæµ": 6986,
      "ãĤĴæį": 6987,
      "ãĤĴæ®ĭ": 6988,
      "ãĥĹãĥ©ãĤ¹": 6989,
      "ãĤ¿ãģ®": 6990,
      "ãĤ¿ãĥ¼ãĥŁãĥĬãĥ«": 6991,
      "ãģĻãĤĭãĤĪãģĨãģ«": 6992,
      "ãģĻãĤĭãģĵãģ¨ãĤĤ": 6993,
      "ãģĻãĤĭãĤ¤ãĥ¡ãĥ¼ãĤ¸": 6994,
      "ãģĻãĤĭäºĪå®ļãģ§ãģĻ": 6995,
      "ãģĻãĤĭæĽ¸ç±į": 6996,
      "æĹ¢": 6997,
      "çµµ": 6998,
      "çµĨ": 6999,
      "ãģªãģĦãģĹ": 7000,
      "ãģĭãĤīè¦ĭ": 7001,
      "ãģĵãģ¨ãĤĴçŁ¥": 7002,
      "ãģ¨ãģĦãģĦ": 7003,
      "ãģ¨ãģĦãĤıãĤĮãĤĭ": 7004,
      "å¹²": 7005,
      "ãģĬãģı": 7006,
      "ãģĬãģĺ": 7007,
      "ãģĬåŃĲ": 7008,
      "ãģĬåºĹ": 7009,
      "ãģĬæĤ©ãģ¿": 7010,
      "ãģĬä»ĺãģįåĲĪãģĦ": 7011,
      "ãģĬèª¬æķĻ": 7012,
      "ãģĬè¿ĶãģĹ": 7013,
      "ãģĬèģŀãģĭãģĽ": 7014,
      "ãģĬãģ£ãģ±ãģĦ": 7015,
      "ãģĬãģ«ãģİ": 7016,
      "ãģ®å¢": 7017,
      "ãģ®å½¢": 7018,
      "ãģ®åĦª": 7019,
      "ãģ£ãģŁãģ®ãģ§": 7020,
      "ãĤ·ãĥ³ãĥ": 7021,
      "ãĤ·ãĥ¼ãĤº": 7022,
      "ãĤ·ãĥĭãĤ¢": 7023,
      "ãĤ·ãĥªãĥ¼ãĤº": 7024,
      "ãģ£ãģ¦ãģĭãĤī": 7025,
      "ãģ£ãģ¦ãģĵãģ¨": 7026,
      "ãģ£ãģ¦ãģįãģ¾ãģĻ": 7027,
      "ãģ£ãģ¦ãģĤãĤĬãģ¾ãģĻãģĭ": 7028,
      "ãĥ³ãĥ¢": 7029,
      "ãĥ³ãĥĳ": 7030,
      "ãĥ³ãĥĲãĥ¼": 7031,
      "ãĥ³ãĥĸãĥ©ãĥ³ãĥī": 7032,
      "ãĥ³ãĥĺãĥĥãĥī": 7033,
      "ãĥ³ãĥĵãĥ¼ãĥ«": 7034,
      "ãĥ³ãĥľãĤ´ãĥ«ãĥķãĤ": 7035,
      "ãĥ»<": 7036,
      "ãĤ¹ãĥ¢": 7037,
      "æ°¸": 7038,
      "ãģ¤ãģı": 7039,
      "ãģ¤ãģį": 7040,
      "ãģ¤çĽ®ãģ¯": 7041,
      "å¹´ãĢħ": 7042,
      "å¹´ä»¥ä¸Ĭ": 7043,
      "å¹´ãģ§ãģ®": 7044,
      "å¹´æľ«": 7045,
      "å¹´éĸĵãģ§": 7046,
      "ãģ¨ãģĦãģĨè©±": 7047,
      "ãģ¨ãģĦãģĨãģĵãģ¨ãģ§": 7048,
      "ãģ¨ãģĦãģĨçµĲæŀľ": 7049,
      "ãģ¨ãģĦãģĨçĻºæĥ³": 7050,
      "ãģ¨ãģĦãģĨåį°è±¡": 7051,
      "ãģ¨ãģĦãģĨçĤ¹ãĤĤ": 7052,
      "ãģ¨ãģĦãģĨãĤĪãĤĬãģ¯": 7053,
      "ãĥ¬ãĤ¯": 7054,
      "ãĥ¬ãĤ¤ãĥ": 7055,
      "éĢĢ": 7056,
      "æĹ¥çµĮ": 7057,
      "æĹ¥ãģĭãĤīãģ¯": 7058,
      "æĹ¥éĸĵãģ§": 7059,
      "æĹ¥ãģ¾ãģ§ãģ®": 7060,
      "æĹ¥çĶŁãģ¾ãĤĮ": 7061,
      "åĽ£": 7062,
      "åĽ°": 7063,
      "ãģ®æı": 7064,
      "ãģ®æŁ": 7065,
      "ãģ®æ·±": 7066,
      "ãģ®æ´»": 7067,
      "ãģ®æĶ»": 7068,
      "ãģ®æĶ¾": 7069,
      "ãģ§ãģ¯ãĤĦãĤīãģªãģĦ": 7070,
      "åŃĿ": 7071,
      "åłħ": 7072,
      "ãĤıãĤī": 7073,
      "ãĤıãĤĪ": 7074,
      "ãĤıãģĭãĤīãģªãģĦ": 7075,
      "ãģ¿ãĤĭ": 7076,
      "ãģ¿ãģ¦ãģ¯ãģĦãģĭãģĮãģ§ãģĹãĤĩãģĨãģĭ": 7077,
      "ãģķãĤĮãģ¦ãģĦãģ¾ãģĹãģŁ": 7078,
      "ãģķãĤĮãģ¦ãģĦãģı": 7079,
      "ãĤ³ãĥ¼ãĥ«": 7080,
      "ãĤ³ãĥ¼ãĥī": 7081,
      "ãĤ³ãĥ¢": 7082,
      "ãĤ³ãĥ³ãĥļ": 7083,
      "ãĤ³ãĤ«ãĥ¼": 7084,
      "åĬ±": 7085,
      "ãĤ¸ãĤª": 7086,
      "ãĤ¸ãĥĥãĤ¯": 7087,
      "ãĤ¸ãĤ·ãĥ§ãĥ³": 7088,
      "è¡£": 7089,
      "è¡Ĩ": 7090,
      "éģ£": 7091,
      "äºĭæĥħ": 7092,
      "èĩªè¦ļ": 7093,
      "èĩªç¤¾ãģ®": 7094,
      "èªł": 7095,
      "ãĤ«ãĥŃ": 7096,
      "ãĤ«æľĪ": 7097,
      "ãĤ«ãĥĭ": 7098,
      "ãĤ«ãĥ¼ãĤŃ": 7099,
      "ãĤ«ãĤ¦ãĥ³": 7100,
      "ãĤ«ãĤ·ãĥŁ": 7101,
      "ãĤ«ãĥ¼ãĤ°": 7102,
      "ãĤµãĥŃ": 7103,
      "ãĤµãĥ¼ãĥģ": 7104,
      "ãĤµãĥ¼ãĥĲãĥ¼": 7105,
      "å¤§çĶŁ": 7106,
      "ä¸Ģå¹´": 7107,
      "ä¸ĢçĶŁ": 7108,
      "ä¸ĢåĲĮ": 7109,
      "ä¸ĢéĿ¢": 7110,
      "ä¸ĢæŃ©": 7111,
      "ä¸ĢæĿ¯": 7112,
      "ãĤ¤ãĥı": 7113,
      "ãĤ¤ãĥŃ": 7114,
      "ãĤĪãģĨãģ§": 7115,
      "ãĤĪãģĨãģ§ãģĻãģĮ": 7116,
      "ãĤĪãģĨãģ«ãģªãģ£ãģ¦": 7117,
      "ç¤¾è£½": 7118,
      "ç¤¾åĨħãģ§": 7119,
      "ç´³": 7120,
      "ç´Ķ": 7121,
      "ãģ§ãģįãģĿãģĨ": 7122,
      "è¦ĭæł": 7123,
      "è¦ĭãĤīãĤĮãĤĭ": 7124,
      "è¦ĭéĢļãģĹ": 7125,
      "åĪĨãģ®": 7126,
      "åĪĨãģĳãģ¦": 7127,
      "ä¸ĬéģĶ": 7128,
      "ä¸Ĭæ³¢": 7129,
      "ãģ®ãĥ¯": 7130,
      "ãģ®ãĥĬ": 7131,
      "ãģ®ãĥŃ": 7132,
      "ä¼ļãģĦ": 7133,
      "ä¼ļãģĪãĤĭ": 7134,
      "ä¼ļè©±": 7135,
      "éĩĮ": 7136,
      "éĩĿ": 7137,
      "æľ¬æ°Ĺ": 7138,
      "æľ¬çī©": 7139,
      "æľ¬çĶ°": 7140,
      "æľ¬éŁ³": 7141,
      "æľ¬ç¨¿": 7142,
      "çļĦæĢĿèĢĥ": 7143,
      "ãģķãĤĵãģ§ãģĻ": 7144,
      "ãĥŃãĥĥãĤ¯": 7145,
      "ãĥŃãĥ¼ãĥī": 7146,
      "ãĥŃãĤ±ãĥ¼ãĤ·ãĥ§ãĥ³": 7147,
      "ãĥŃãĤ¤ãĥ¤": 7148,
      "ãĥŃãĥĥãĥĨ": 7149,
      "ä»ĬãģĭãĤī": 7150,
      "ä»Ĭãģ§ãĤĤ": 7151,
      "ä»ĬæĹ¥ãģ¯": 7152,
      "ä»Ĭè©±é¡Į": 7153,
      "ä»ĬæĹ¥ãĤĤ": 7154,
      "å°Ĭæķ¬": 7155,
      "çĽ®æ¬¡": 7156,
      "çĽ®è¦ļ": 7157,
      "çĽ®ç«ĭãģ¡": 7158,
      "ãĥ§ãĥ¼ãĤ¸ãĥ£": 7159,
      "ãģĤãĤĬãģĮ": 7160,
      "ãģĤãĤĬãģ¾ãģĹãģŁãģĮ": 7161,
      "æ°Ĺãģ«": 7162,
      "æ°Ĺè»½": 7163,
      "æ°Ĺåľ§": 7164,
      "ãģĪãĤĭãģ®ãģĭ": 7165,
      "ãĤ£ãĥĥãĤ¯": 7166,
      "åĩĮ": 7167,
      "åĩĿ": 7168,
      "åĩįé£Ł": 7169,
      "æĢ§æł¼": 7170,
      "å¼Ł": 7171,
      "çĶ¨è»Ĭ": 7172,
      "æ¥ŃèĢħ": 7173,
      "ä»ķæĸ¹ãģĮ": 7174,
      "ä»ķçµĦãģ¿": 7175,
      "ãĤŃãĥ©": 7176,
      "ãĥĨãĤ»": 7177,
      "ãĥĨãĤ´": 7178,
      "ãģªãģ©ãģ¨": 7179,
      "ãģªãģ©ãģ§ãģĻ": 7180,
      "ãģªãģ©å¤ļ": 7181,
      "åĩºåĬĽ": 7182,
      "åĩºãģĹãģ¦ãģĦãģ¾ãģĻ": 7183,
      "åĩºèº«": 7184,
      "æĢĿãģ£ãģŁ": 7185,
      "æĢĿãĤıãģļ": 7186,
      "ãģ«ãĤĤå¯¾å¿ľ": 7187,
      "éĸĵåĴĮ": 7188,
      "ãĤ¨ãĥ¼ãĤ¸": 7189,
      "ãĤ¨ãĤ¬": 7190,
      "ãĤ¨ãĤ¹ãĥĳ": 7191,
      "ãĤ¨ãĤ³ãĤ«ãĥ¼": 7192,
      "ãĥĲãĤ¤ãĥ": 7193,
      "ãĥĲãĥĥãĤ¯": 7194,
      "ãĥĲãĥ³ãĤ¯": 7195,
      "ãĥĲãĥĥãĤ¯ãĤ¹": 7196,
      "ãĥĲãĥĥãĤ¯ãĤ¢ãĥĥãĥĹ": 7197,
      "ãĥīãĤ³ãĥ¢": 7198,
      "ä»ķäºĭãĤĤ": 7199,
      "çµĲæ§ĭ": 7200,
      "ãĥŀãĥĬ": 7201,
      "ãĥŀãĥĦ": 7202,
      "ä¸ŃãĤĤ": 7203,
      "ä¸Ńèı¯": 7204,
      "ä¸Ńå¶ĭ": 7205,
      "è«ĭ": 7206,
      "ãĥģãĥ§": 7207,
      "ãĥģãĥ¥": 7208,
      "ãĥģãĤ±ãĥĥãĥĪ": 7209,
      "æĸ¹ãģ¾ãģ§": 7210,
      "ãĥ³ãĥĪãĤĦ": 7211,
      "è»¢èģ·åĬĽ": 7212,
      "è»¢èģ·çµĮé¨ĵ": 7213,
      "è»¢èģ·ãģ«ãģĬãģĳãĤĭ": 7214,
      "è»¢èģ·ãģĹãģ¦ãģĦãģªãģĦ": 7215,
      "ãĤĴç¸": 7216,
      "ãĤĴçĩĥ": 7217,
      "ãĤĴçĸĳ": 7218,
      "ãĤĴçłĶç©¶": 7219,
      "ãĤĴç£¨": 7220,
      "å¯º": 7221,
      "æĪ¿": 7222,
      "ãģ§ãĤĤãģĤãĤĬãģ¾ãģĻ": 7223,
      "ãģ§ãĤĤå®īå¿ĥãģĹãģ¦": 7224,
      "åĲĪãĤ³ãĥ³": 7225,
      "åł´ãģ§": 7226,
      "åł´éĿ¢": 7227,
      "åł´éĿ¢ãģ§": 7228,
      "è¡Įãģı": 7229,
      "è¡Įãģį": 7230,
      "è¡ĮçĤº": 7231,
      "åĽŀãĤĭ": 7232,
      "å®Łè¡Į": 7233,
      "å®ŁæĦŁ": 7234,
      "å®ŁåĬĽãģ¯": 7235,
      "ãĥĵãĤ¸ãĥ§ãĥ³": 7236,
      "åĭķä½ľ": 7237,
      "åĭķæ©Ł": 7238,
      "è¨ĢãģĪãĤĭãģ®ãģĭ": 7239,
      "ãĥ¡ãĥªãĥĥãĥĪ": 7240,
      "ãĥ¡ãĥĥãĤ»ãĥ¼ãĤ¸": 7241,
      "ãĥ¡ãĥ³ãĥĲãĥ¼": 7242,
      "ãĥ¡ãĤ«ãĥĭ": 7243,
      "ãģŁãĤģãģ«ãĤĤ": 7244,
      "ãĤ¹ãĥĿãĥ¼ãĥĨãĤ£": 7245,
      "ãģ¾ãģĽãĤĵãģĭ": 7246,
      "éĸĭãģĳ": 7247,
      "ãģļãģ¤": 7248,
      "ãģļå«Į": 7249,
      "åĬĽãĤĴæĮģãģ¤": 7250,
      "æķ£": 7251,
      "æķĹ": 7252,
      "æķĳåĩº": 7253,
      "ãĤ¦ãĤ£": 7254,
      "ãĥĳãĥĥãĥĪ": 7255,
      "ãĥĳãĥ¼ãĥł": 7256,
      "ãĥĳãĤ¿ãĥ¼": 7257,
      "ãĥĳãĥķãĤ©ãĥ¼ãĥŀãĥ³ãĤ¹": 7258,
      "çĻºè¨Ģ": 7259,
      "çĻºéĽ»": 7260,
      "æĦŁæĥ³": 7261,
      "åīĩ": 7262,
      "ãĤĤãģ®ãģ«": 7263,
      "ãĤĤãģ®ãģ§ãģĻãģĮ": 7264,
      "çĶŁçĶ£": 7265,
      "æīĭãģ§": 7266,
      "æīĭãģ«åħ¥": 7267,
      "é«ĺãĤģãĤĭ": 7268,
      "é«ĺç´ļ": 7269,
      "æĸ°çĿĢ": 7270,
      "æĸ°ãĥ©ãĤ¯ãĥĨãĤ£ãĤ¹": 7271,
      "ãĤªãĥĸ": 7272,
      "ãĤªãĥ¼ãĥ«": 7273,
      "ãĤªãĥķãĥŃ": 7274,
      "ãģ¨ãģĹãģ¦æ´»èºįãģĻãĤĭ": 7275,
      "åįĶ": 7276,
      "åįĪåīį": 7277,
      "ãģ§ãģįãĤĭãģĵãģ¨": 7278,
      "ãģ§ãģįãĤĭçĶ·": 7279,
      "ãģ§ãģįãĤĭãģ®ãģĮ": 7280,
      "ãģ§ãģįãĤĭãģ®ãģ§ãģĻ": 7281,
      "ä¿Ĭ": 7282,
      "è²´": 7283,
      "è»ĬãĤĦ": 7284,
      "è»Ĭå¥½ãģį": 7285,
      "ç§ĳ": 7286,
      "ãĥįãĤ¯ãĤ¿ãĤ¤": 7287,
      "æĥħçĨ±": 7288,
      "æľĢéģ©": 7289,
      "ãĥŁãĥ¥": 7290,
      "ãĥŁãĥĭ": 7291,
      "ãĥŁãĥĥãĥī": 7292,
      "åıİéĮ²": 7293,
      "è«ĸãģ§ãģĻ": 7294,
      "ãģĿãģ®ä¸Ń": 7295,
      "ãģĿãģ®åĲį": 7296,
      "ãģĿãģ®æ°ĹæĮģãģ¡": 7297,
      "ãģĿãģ®ä¸Ńãģ§": 7298,
      "åĨĨãģ¨": 7299,
      "åĨĨæ»ĳ": 7300,
      "ãģ¾ãģ§ãģ«": 7301,
      "ãĤ¤ãĥ³ãĥķãĥ©": 7302,
      "ãĢħãģ§": 7303,
      "ãģ§ãģĹãĤĩãģĨãģŃ": 7304,
      "ãĤ¹ãĤ¿ãĥ³ãĤ¹": 7305,
      "å½ĵæĹ¥ãģ¯": 7306,
      "çĶ·ãģ§ãģĻ": 7307,
      "ãģ«æ¬": 7308,
      "ãģ«æ³": 7309,
      "ãģ«æ·±": 7310,
      "ãģ«æµ·": 7311,
      "ãĤ¹ãĥĪãĤ¤": 7312,
      "èĢħãģ«": 7313,
      "ãģĦãģ¦ãģįãģŁ": 7314,
      "æĥħåł±çĻºä¿¡": 7315,
      "æĥħåł±ãĥĿãĥ¼ãĤ¿ãĥ«ãĤµãĤ¤ãĥĪ": 7316,
      "ãģĹãģ¾ãģĻãģĮ": 7317,
      "åĽ½ãģ®": 7318,
      "åĽ½æŁĦ": 7319,
      "èĩªåĪĨãģªãĤĬ": 7320,
      "èĩªåĪĨãģ®ãĥĵãĤ¸ãĥįãĤ¹": 7321,
      "å¯¾åĬ¹æŀľ": 7322,
      "è©±ãģĹ": 7323,
      "è©±ãģ¯": 7324,
      "è©±ãģ§ãģĻ": 7325,
      "è©±ãģĹãģĭ": 7326,
      "éłģ": 7327,
      "ãĤ§ãĤ¹": 7328,
      "ãĤ§ãĥ¼ãĥ³": 7329,
      "ãĤ§ãĥ³ãĤ·ãĥ¼": 7330,
      "é¡İ": 7331,
      "ä¸ĸéĸĵ": 7332,
      "æľĪãģ®": 7333,
      "éļ£": 7334,
      "éļĨ": 7335,
      "å¥³åĦª": 7336,
      "ãĥĿãĥ¼ãĤº": 7337,
      "ãĥĿãĤ±ãĥĥãĥĪ": 7338,
      "æ±ļ": 7339,
      "ãĥĭãĤ¿ãĥ¼": 7340,
      "ãĥĭãĥĥãĥĿãĥ³": 7341,
      "å£®": 7342,
      "æŀł": 7343,
      "ãģĿãĤĮãģĭãĤī": 7344,
      "ãģĿãĤĮãģ§ãģ¯": 7345,
      "ãĤ±ãĤ¢": 7346,
      "ãģĵãĤĮãģĭãĤīãģ¯": 7347,
      "ãģĵãĤĮãģ«å¯¾ãģĹ": 7348,
      "åħ¨é«ĺ": 7349,
      "åħ¨éĥ¨": 7350,
      "åħ¨å¹ħ": 7351,
      "åĲĮæĽ¸": 7352,
      "ãģłãģĳãģ§ãģ¯ãģĤãĤĬãģ¾ãģĽãĤĵ": 7353,
      "æµ©ä¹ħ": 7354,
      "å¤ļãģĭãģ£ãģŁ": 7355,
      "ãĥıãĤ¤ãĥĨ": 7356,
      "ä½ķãģ¨": 7357,
      "ä½ķæ°Ĺ": 7358,
      "ä½ķãĤĤãģĹ": 7359,
      "ä½ķãĤīãģĭ": 7360,
      "æ°ıãģ¨": 7361,
      "æ°ıãģ«ãĤĪãĤĭãģ¨": 7362,
      "éĢļè©±": 7363,
      "æĦıæĢĿ": 7364,
      "æ³£": 7365,
      "ãģĵãģ®ä¼ļç¤¾": 7366,
      "ãģĵãģ¨ãģĮãģĤãĤĬãģ¾ãģĻ": 7367,
      "æ§ĺåŃĲãģĮ": 7368,
      "æĹ¥æľ¬å¤§éľĩçģ½": 7369,
      "çĲĨå¿µ": 7370,
      "ãģĶå®¶æĹı": 7371,
      "æĬ±": 7372,
      "æĬĺ": 7373,
      "æĬŀ": 7374,
      "ãĤĵãģ§ãģĻãģŃ": 7375,
      "éĸ¢å¿ĥ": 7376,
      "éĸ¢æĿ±": 7377,
      "ãĥĨãĤ£ãĤµãĤ¤ãĥĪ": 7378,
      "ãĤĭãģ¨ãģ¯": 7379,
      "ç·¯": 7380,
      "ç·Ĭ": 7381,
      "ãģªãģıãģ¦ãĤĤ": 7382,
      "åĨħãģ®": 7383,
      "æĪĲãĤĬ": 7384,
      "åĲĳãģĦãģ¦ãģĦãĤĭ": 7385,
      "ä¼ļç¤¾ãģ®": 7386,
      "ä¼ļç¤¾ãĤĴ": 7387,
      "ä¼ļç¤¾ãģĮ": 7388,
      "ãĥ¢ãĥģãĥ¼ãĥķ": 7389,
      "ãĥ¢ãĥĭãĤ¿ãĥ¼": 7390,
      "åĪ©ä¾¿": 7391,
      "ãģ»ãģ¼": 7392,
      "ãģ¹ãģ¾ãģĹãģŁ": 7393,
      "å¤ĸåĽ½": 7394,
      "å¤ĸè¦³": 7395,
      "åĵģãģ§ãģĻ": 7396,
      "åĵģè³ª": 7397,
      "åīįå¾Į": 7398,
      "åīįç·ļ": 7399,
      "æ´»ãĤĴéģĤãģĴ": 7400,
      "ãĤ½ãĥĭãĥĥãĤ¯": 7401,
      "ãģ¨ãģªãģ£ãģ¦ãģĬãĤĬ": 7402,
      "åıĸãĤĮãģªãģĦ": 7403,
      "çī¹åĮĸãģĹãģŁ": 7404,
      "éĥ¨ãģ®": 7405,
      "çĤ¹ãģ«": 7406,
      "ãģ£ãģ¦ãģĦãģĦ": 7407,
      "ãģ£ãģ¦ãģĦãģį": 7408,
      "ãģ£ãģ¦ãģĦãģįãģ¾ãģĻ": 7409,
      "ãģ£ãģ¦ãģĦãģ¾ãģĹãģŁãģĮ": 7410,
      "ãģĹãģ¦ãģĦãģ¾ãģĽãĤĵ": 7411,
      "ãĤĴæĮ¯ãĤĬ": 7412,
      "åŃ¦ãģ¶": 7413,
      "åŃ¦ãģ¹ãĤĭ": 7414,
      "åľ¨ä½ı": 7415,
      "å·ŀ": 7416,
      "å·¨å¤§ãģª": 7417,
      "å·¨å¤§": 7418,
      "ãĥķãĤ©ãĥĪ": 7419,
      "çļĦãģªãĥĩãĤ¶ãĤ¤ãĥ³": 7420,
      "çļĦãģªæĦıè¦ĭ": 7421,
      "ãĤŃãĥ£ãĥŃ": 7422,
      "ãĤŃãĥ£ãĥĥãĥģ": 7423,
      "çĶ»éĿ¢": 7424,
      "çĶ»æľŁçļĦãģª": 7425,
      "é£¯": 7426,
      "é£¾": 7427,
      "éĿ¢æİ¥": 7428,
      "èĭĶ": 7429,
      "ãĥªãĤ¢ãĥ«ãģª": 7430,
      "ãĤĬãģ¾ãģĹãģŁãģĮ": 7431,
      "ãĤ´ãĥ«ãĥķãģ¯": 7432,
      "ãĤ´ãĥ«ãĥķçī¹éĽĨ": 7433,
      "ãģŁãģ¡ãģ¯": 7434,
      "åĵ¡ãģĮ": 7435,
      "æķ°å¹´": 7436,
      "æķ°ãĢħ": 7437,
      "æķ°å¤ļãģı": 7438,
      "ä¿¡å¿µ": 7439,
      "ãģ¸åĲĳãģĭ": 7440,
      "ãĤ¬ãĥ³": 7441,
      "ãĤ¬ãĥģ": 7442,
      "ãĤ¬ãĥĿãĥ¼ãĥ«": 7443,
      "ãĤ¬ãĤ½ãĥª": 7444,
      "ãĤ¬åĢīåº«": 7445,
      "èªŀãĤĬ": 7446,
      "ä¸ĸçķĮãģ«": 7447,
      "ä¸ĸçķĮä¸Ń": 7448,
      "ä¸ĸçķĮä¸Ńãģ®": 7449,
      "æ¬§": 7450,
      "ãĥ¯ãĤ¤ãĥī": 7451,
      "ãģĬãģĻãģĻãĤģãģ®": 7452,
      "åĮĸãģĹãģ¦ãģĦãĤĭ": 7453,
      "åĮĸãģĹãģ¦ãģĦãģı": 7454,
      "æ©Łéĸ¢": 7455,
      "æ©Łæ¢": 7456,
      "éĢ£è¼ī": 7457,
      "éļĽãģ«": 7458,
      "æĽ´": 7459,
      "æĽ´æĸ°": 7460,
      "ãģ®çĬ¶": 7461,
      "ãģĭãģ£ãģŁãģĭãĤī": 7462,
      "ãĤĴè¦ĭãĤĭ": 7463,
      "ãĤĴè¦ĭãĤīãĤĮãĤĭ": 7464,
      "ãĤĴè¦ĭæį": 7465,
      "ãĤĴè¦ĭãģ¤ãģĳãĤĭ": 7466,
      "åľ°ä¸Ĭæ³¢": 7467,
      "ç¶²": 7468,
      "ãĥĬãĤ½ãĥĭãĥĥãĤ¯": 7469,
      "ãĥĻãĥ³ãĥģãĥ£": 7470,
      "ä¸ĭãģ£ç«¯": 7471,
      "åħĪãģ§": 7472,
      "åħĪæľĪ": 7473,
      "åħĪéĢ²": 7474,
      "åħĪé§Ĩ": 7475,
      "çĶ·æĢ§ãģ¨": 7476,
      "çĶ·æĢ§ãģĭãĤī": 7477,
      "ãĤ·ãĥ§ãĥĥãĥĪ": 7478,
      "ä¸ĩåĨĨãģĭãĤī": 7479,
      "ä¸ĩåĨĨçłĶç©¶æīĢ": 7480,
      "ä¸ĩåĨĨãģ®ãĥĵãĤ¸ãĥįãĤ¹ãĥĳãĥ¼ãĤ½ãĥ³": 7481,
      "ãĥ¦ãĥ¼ãĥ¢": 7482,
      "äººæ°ĹãĤĴéĽĨ": 7483,
      "åĳ³ãģĹãģĦ": 7484,
      "åĳ³åĻĮæ±ģ": 7485,
      "ãĤĴæĮģãģŁ": 7486,
      "æ¸¡": 7487,
      "å¤īãĤıãĤĬ": 7488,
      "ãģ«ãģªãĤĭãģ¨æĢĿãģĦãģ¾ãģĻ": 7489,
      "åºĥåł±": 7490,
      "åºĥå¤§ãģª": 7491,
      "æĿ±åĮĹ": 7492,
      "æĻĤéĸĵãģ®": 7493,
      "æĻĤéĸĵãģ«": 7494,
      "æĻĤéĸĵãģ¨": 7495,
      "æĻĤéĸĵæľĢå¤§": 7496,
      "çī©ä»¶": 7497,
      "è¿ĳä»£": 7498,
      "è¿ĳéģĵ": 7499,
      "ãĥĶãĤ¢": 7500,
      "ãĥľãĥĪãĥ«": 7501,
      "ãģĤãģªãģŁèĩªèº«ãģĮ": 7502,
      "éĩįãģª": 7503,
      "æĦŁãģĺãĤĭ": 7504,
      "ãĤĤãģĹãģıãģ¯": 7505,
      "å®¶ãģĮ": 7506,
      "å®īãģı": 7507,
      "å¥½åį°è±¡": 7508,
      "ä¼ģæ¥ŃãģĮ": 7509,
      "ä¼ģæ¥ŃãĤĦ": 7510,
      "ãģªãĤīãģ¬": 7511,
      "ãģĮãģĤãĤĭãģŁãĤģ": 7512,
      "ãģĮãģĤãĤĭãģĭãĤīãģ§ãģĻ": 7513,
      "å¾ĹãģŁ": 7514,
      "çĽ¸åł´": 7515,
      "çĽ¸å¯¾": 7516,
      "èģŀãģį": 7517,
      "ãģ®ä¸Ńãģ§ãģ¯": 7518,
      "è¡¨æĥħ": 7519,
      "çĦ¡ãģĹ": 7520,
      "çĦ¡äºĭ": 7521,
      "çĦ¡çĲĨ": 7522,
      "çĦ¡ç·ļ": 7523,
      "å¸¸ãģ«ä½ķãģĭ": 7524,
      "åĦĢ": 7525,
      "ãģ«ãģ¤ãģį": 7526,
      "ç´¹ä»ĭãģķãĤĮãģ¦ãģĦãģ¾ãģĻ": 7527,
      "ãģ©ãģĨãģĻãĤĭ": 7528,
      "ãģ©ãģĨãģĹãĤĪãģĨ": 7529,
      "ãģ©ãģĨæĢĿãģĦãģ¾ãģĻ": 7530,
      "ãĥ©ãĥ³ãĤŃãĥ³ãĤ°": 7531,
      "æīĢãģ§": 7532,
      "æīĢéķ·ãģ®": 7533,
      "æ²¹": 7534,
      "æŁĲ": 7535,
      "æŁĵ": 7536,
      "çľ¼": 7537,
      "ä»ĺãģĳãĤĭ": 7538,
      "åĪĿåĽŀ": 7539,
      "ãģ¨ãģ¯åħ¨ãģı": 7540,
      "ãģ¨ãģ¯ãģĦãģĪ": 7541,
      "ãĤĴä½¿ãģĦ": 7542,
      "å®¢æ§ĺ": 7543,
      "ãģķãĤĮãĤĭãģĵãģ¨": 7544,
      "ãģķãĤĮãĤĭãģŁãĤģ": 7545,
      "ãģķãĤĮãĤĭäºĪå®ļãģ§ãģĻ": 7546,
      "çĽ®çļĦãģĮ": 7547,
      "ç¶ļãģı": 7548,
      "ç¶ļãģį": 7549,
      "ä¹ĭ": 7550,
      "ä¹Ł": 7551,
      "è¡ĵé¤¨": 7552,
      "ãĥļãĥ©ãĥķãĤ£ãĥį": 7553,
      "æĪ¦åĬĽ": 7554,
      "æĪ¦éĹĺ": 7555,
      "å¥³æĢ§ãģ«": 7556,
      "å¥³æĢ§ãģ¯": 7557,
      "ãģ«å¯¾å¿ľ": 7558,
      "ãĥªãĥ¼ãĥĩãĤ£": 7559,
      "ãĤ¢ãĥĥãĥĹãĥ«": 7560,
      "ãģłãģ£ãģŁãģ®ãģ§ãģĹãĤĩãģĨãģĭ": 7561,
      "æ¬¡ãĢħãģ¨": 7562,
      "ãĥ¦ãĥ¼ãĤ¶ãĥ¼ãģ®": 7563,
      "ãĥ¦ãĥ¼ãĤ¶ãĥ¼ãģ¯": 7564,
      "ãĤ¼ãĤ¦ãĤ¹": 7565,
      "ãĤĢãģ¹ãģį": 7566,
      "ãģ«åħ¥ãģ£ãģ¦ãģĦãĤĭ": 7567,
      "ãģ«åħ¥ãĤĬãģ¾ãģĹãģŁ": 7568,
      "ãĤĵãģ§ãģĦãģŁ": 7569,
      "ä½įãģ®": 7570,
      "ãģĿãģĵãģ«": 7571,
      "ãģĿãģĵãģĭãĤī": 7572,
      "ãĥīãĥĲãĤ¤ãģ¯": 7573,
      "ãĥĵãĤ¸ãĥįãĤ¹ãĥŀãĥ³": 7574,
      "è¾¼ãĤģãĤĭ": 7575,
      "ãģ¨è¨ĢãĤıãĤĮãĤĭ": 7576,
      "ãģ¨è¨ĢãĤıãĤĮãģ¦": 7577,
      "ãģ¨ãģĵãĤįãģ§": 7578,
      "ãģ¨ãģĵãĤįãģ¯": 7579,
      "ãĥ©ãĤ¤ãĥĲãĥ¼": 7580,
      "ãĤ¤ãĥ«ãĥī": 7581,
      "ä»ĸãģ®ãĥ¦ãĥ¼ãĤ¶ãĥ¼": 7582,
      "åĪĩãĤĮãĤĭ": 7583,
      "ãĤ¹ãĥĨãĤ¢ãĥªãĥ³ãĤ°": 7584,
      "æĭ¬": 7585,
      "çĿĢãģĵãģªãģĹ": 7586,
      "è§Ĵ": 7587,
      "ãģ®æĻĤæľŁ": 7588,
      "ãģķãģĽãģ¦": 7589,
      "æĬĢçłĶ": 7590,
      "èī¯ãģĦãģ®ãģ§ãģĹãĤĩãģĨãģĭ": 7591,
      "èĩªåĭķè»Ĭãģ®": 7592,
      "ãģ¨ãģĦãģ£ãģŁåħ·åĲĪ": 7593,
      "ä»ķäºĭãĤĴç´Ļ": 7594,
      "å¿ħè¦ģãģ¨": 7595,
      "ç¾¨": 7596,
      "ãģ®ãĤ¢ãĥĬ": 7597,
      "ãģ®ãĤ¢ãĤ¯ãĤ»": 7598,
      "è¨ĪçĶ»": 7599,
      "éĸ¢éĢ£è¨ĺäºĭ": 7600,
      "ãģ«ãģ¤ãģĦãģ¦ãģĬèģŀãģĭãģĽ": 7601,
      "èĬ½ãĤĴ": 7602,
      "ãģ§ãģĤãĤĭãģĵãģ¨ãģĮ": 7603,
      "ãĤĴæııãģĦ": 7604,
      "çĽ´çµĲ": 7605,
      "çĽ´åīį": 7606,
      "éĢŁãģĦ": 7607,
      "ä¸Ģãģ¤ä¸Ģãģ¤": 7608,
      "è²·ãģ£ãģŁ": 7609,
      "æ®º": 7610,
      "çİī": 7611,
      "ãĤĨãģı": 7612,
      "ãĤĨãģ¨ãĤĬ": 7613,
      "ãģ¦ãĤĤãĤī": 7614,
      "ãĥĥãĥģãģª": 7615,
      "åıĤèĢĥ": 7616,
      "åıĹä»ĺ": 7617,
      "åıĹãģĳãģŁ": 7618,
      "ãĤĴæİ¡çĶ¨": 7619,
      "ãĤĴæİĴåĩº": 7620,
      "æĺİãģĳ": 7621,
      "åĦªãģĹãģı": 7622,
      "åĦªåĭĿ": 7623,
      "çľŁåī£": 7624,
      "ãĢĳ**": 7625,
      "ãĥĩãĤ¶ãĤ¤ãĥ³ãĥ": 7626,
      "å§ĭãģ¾ãĤĬ": 7627,
      "æĿ±äº¬ãĤ¿": 7628,
      "æ¯į": 7629,
      "æ¯Ľ": 7630,
      "è·µ": 7631,
      "ãģĪãģ¦ãģı": 7632,
      "éģİè¨Ģ": 7633,
      "éģİç¨ĭ": 7634,
      "è³ĩéĩĳ": 7635,
      "éĥ½å¸Ĥ": 7636,
      "éĥ½åĨħãģ§": 7637,
      "éĥ½åľı": 7638,
      "ãģ»ãģ©ãģ®": 7639,
      "æł¼å¥½": 7640,
      "livedoorãĥıãĤ¤": 7641,
      "ãģ«ãģªãģ£ãģ¦ãģĹãģ¾ãģ£ãģŁ": 7642,
      "éĸĭåĤ¬ãģķãĤĮãģŁ": 7643,
      "ç¯ĩ": 7644,
      "ãģĹãģıãģ¦": 7645,
      "ãĤĴæĬĬæı¡": 7646,
      "ãģķãĤĮãģ¦ãģĦãĤĭçĤ¹ãĤĤ": 7647,
      "ãģķãĤĮãģ¦ãģĦãĤĭãĤ¨ãĤ°ãĤ¼ãĤ¯ãĥĨãĤ£ãĥĸ": 7648,
      "éĻĲãģ®": 7649,
      "è£½éĢł": 7650,
      "åŁİ": 7651,
      "çĴ°å¢ĥãģ¨": 7652,
      "ãĤ®ãĥ£": 7653,
      "ãĤ®ãĥį": 7654,
      "éĢ²åĩº": 7655,
      "å¼ķãģ£å¼µ": 7656,
      "ä»ķäºĭãģĮãģĹãģŁãģĦ": 7657,
      "æ±ºãģ¾": 7658,
      "æ±ºãģĹãģ¦": 7659,
      "ãģĹãģ¾ãģĨãģªãģ©": 7660,
      "èĭ¥ãģį": 7661,
      "èĭ¥å¹²": 7662,
      "åİŁä½ľ": 7663,
      "å¥½ãģįå¥³åŃĲ": 7664,
      "ãĥ¼ãĥŀãĥ³": 7665,
      "ãģĻãĤĭãģ¨çĻºè¡¨ãģĹãģ¾ãģĹãģŁ": 7666,
      "éģķãģ£ãģ¦ãģĦãĤĭ": 7667,
      "éĩıãģĮ": 7668,
      "ãģĻãģİãģªãģĦ": 7669,
      "ãģ«ãģ¨ãģ£ãģ¦ãģ®": 7670,
      "å¹³åĴĮ": 7671,
      "ãĥĸãĥ«ãĥ¼ãĥ¬": 7672,
      "ãģªãģĭãģ£ãģŁãģ®ãģ§": 7673,
      "ãĤĴä½ľãĤĭãģĵãģ¨": 7674,
      "å¤ľéĸĵ": 7675,
      "å¤ľæĻ¯": 7676,
      "éłŃãģ«": 7677,
      "åĲĮãģĺãģı": 7678,
      "åĲĮãģĺè»ĬãĤĴ": 7679,
      "ãĥĵãĤ¸ãĥįãĤ¹ãĤ»ãĥ³ãĤ¹": 7680,
      "ãĥĩãĤ¶ãĤ¤ãĥ³ãģĮ": 7681,
      "ãĥĩãĤ¶ãĤ¤ãĥ³ãģķãĤĮãģŁ": 7682,
      "RSSãģ®è¨ĺäºĭ": 7683,
      "ãģłãģ¨æĦŁãģĺãģ¾ãģĹãģŁ": 7684,
      "ãĤ·ãĥ³ãĤ¬ãĥĿãĥ¼ãĥ«": 7685,
      "ãĤ¸ãĥ£ãĥĳ": 7686,
      "çŃĶãģĪãģ¾ãģĻ": 7687,
      "ç¹ĭ": 7688,
      "ãģ®ãģĬéĩĳ": 7689,
      "ãĤ¹ãĤŃãĥ³ãĥĺãĥĥãĥī": 7690,
      "ãģłãģĭãĤīä½ķãģĮ": 7691,
      "ãĤ³ãĥŁãĥĥãĤ¯": 7692,
      "ç©ºæ°Ĺ": 7693,
      "199": 7694,
      "1900": 7695,
      "æģĭäºº": 7696,
      "æģ¨ãģ¿": 7697,
      "ç¢ºçİĩ": 7698,
      "é§Ĳ": 7699,
      "ãĤĴåĩºãģĽ": 7700,
      "ãĤĴåĩºçĶ£": 7701,
      "ãģĹãģ¦ãģ¿ãģ¦": 7702,
      "ãģĹãģ¦ãģ¿ãģ¦ãģıãģłãģķãģĦ": 7703,
      "ãģĹãģ¦ãģ¿ãģ¦ãģ¯ãģĦãģĭãģĮãģ§ãģĹãĤĩãģĨãģĭ": 7704,
      "ãģķãĤĮãģ¾ãģĹãģŁãģĭ": 7705,
      "è¨Ģèĳīãģ§": 7706,
      "æĬĢè¡ĵéĿ¢": 7707,
      "ãģĦãģ¦ãģĦãĤĭãģ¨": 7708,
      "ãĤĮãģªãģĦãģĭ": 7709,
      "ãģĹãģ¦ãģıãĤĭ": 7710,
      "ãĤ¯ãĥªãĤ¹ãĥŀ": 7711,
      "æĢĿãģĦãģĮ": 7712,
      "æµģãģ®": 7713,
      "ĠSAKURA": 7714,
      "ĠSAFAR": 7715,
      "ãģĮè¦ĭãģ¤": 7716,
      "ãģĮè¦ĭãĤīãĤĮãģ¾ãģĹãģŁ": 7717,
      "æĦĽæĥħ": 7718,
      "æĦĽå¥½": 7719,
      "ä¸ĬãģĮãĤĬãģ¾ãģĻ": 7720,
      "çĽ®æ¨Ļãģ«ãģĹãģ¦": 7721,
      "è©ķåĪ¤": 7722,
      "ä¿ĿåŃĲ": 7723,
      "æ³¨åĬĽ": 7724,
      "é£²ãĤĢ": 7725,
      "ãģĿãģĵãģ§ä»ĬåĽŀãģ¯": 7726,
      "åıĤåĬłåŀĭ": 7727,
      "ITION": 7728,
      "åĻ´": 7729,
      "ãģ¨ãģįãģ«": 7730,
      "ãģĭãĤĤãģĹãĤĮãģ¾ãģĽãĤĵãģŃ": 7731,
      "äºĪç´Ħ": 7732,
      "äºĪæ¸¬": 7733,
      "åĪ¶åº¦ãģ¯": 7734,
      "ãģ®åŃ¦": 7735,
      "ãĤ¹ãĥĳãĤ¤": 7736,
      "ãĤıãģĳãģ§ãģĻãģĭãĤī": 7737,
      "ãĤıãģĳãģĺãĤĥãģªãģĦ": 7738,
      "ãĥķãĤ§ãĤ¤ãĤ¹ãĥĸãĥĥãĤ¯": 7739,
      "ä»Ĭå¾ĮãĤĤ": 7740,
      "ä¾¿ç§ĺ": 7741,
      "åįĺç´Ķ": 7742,
      "æŃ£æĺİ": 7743,
      "æ¥½ãģĹãĤģãģ¾ãģĻ": 7744,
      "è¬Ļ": 7745,
      "éĢģä¿¡": 7746,
      "åĭĿè²ł": 7747,
      "ãĥģãĤ§ãĥ³ãĤ¸": 7748,
      "åĪ¤æĸŃãģ§": 7749,
      "ãĤĴæĦŁãģĺãĤĭ": 7750,
      "ãĤĴæĦŁãģĺãģ¦ãģĦãĤĭ": 7751,
      "iPad": 7752,
      "iPod": 7753,
      "ãģĪãģ¾ãģĻãģĮ": 7754,
      "ãģĿãģ®åĤ": 7755,
      "ãģĿãģ®åī": 7756,
      "å®ĮåĤĻ": 7757,
      "äººéĸĵéĸ¢ä¿Ĥ": 7758,
      "çµĤãĤıãĤĬ": 7759,
      "åŃĲãģ©ãĤĤãģĮ": 7760,
      "åįĬå°İ": 7761,
      "åįĬå¹´å¾Į": 7762,
      "å°ıæ²¢ãĤ³ãĥ¼ãĤ¸": 7763,
      "ç¾İåĳ³ãģĹãģĦ": 7764,
      "ç¾İè¡ĵé¤¨": 7765,
      "è²©å£²ä¾¡æł¼": 7766,
      "åĿª": 7767,
      "ãģĬéĩĳãģ®ä½¿ãģĦ": 7768,
      "ãģ£ãģ¦ãĤĤéģİè¨Ģ": 7769,
      "ãĥĽãĥĨãĥ«ãģ®": 7770,
      "ãĥĽãĥĨãĥ«åĨħãģ«": 7771,
      "å¤īãĤıãĤīãģªãģĦ": 7772,
      "æĺłçĶ»ãģ¯": 7773,
      "ç®Ĺ": 7774,
      "ãģĭãģĽãĤĭ": 7775,
      "ãĥªãĤ¹ãĥĪæ©Łèĥ½": 7776,
      "ãĤ¢ãĤ¯ãĥĨãĤ£ãĥĸ": 7777,
      "ãĤ¹ãĥļãĥĥãĤ¯": 7778,
      "...ãĢį": 7779,
      "åĢĭäººçļĦãģ«ãģ¯": 7780,
      "éĢļãĤĬãģ®": 7781,
      "é£Ľãģ°": 7782,
      "ãĤ·ãĥ£ãĥĦãģ¨": 7783,
      "æµ·å¤ĸãģ®": 7784,
      "æµ·å¤ĸãģ§": 7785,
      "é¢¨èĪ¹": 7786,
      "ãģĵãģĵãģ¯": 7787,
      "ãģĵãģĵãģ¾ãģ§": 7788,
      "ãģ©ãģĵãģĭãĤī": 7789,
      "ãģĬå®¢ãģķãĤĵ": 7790,
      "èª°ãģ«ãĤĤ": 7791,
      "èª°ãģ§ãĤĤ": 7792,
      "èª°ãģ«ãģ§ãĤĤ": 7793,
      "ãģ°ãģĭãĤĬãģ§": 7794,
      "ä½¿çĶ¨ãĤĴ": 7795,
      "ãĤ½ãĥķãĥĪãĥĲãĥ³ãĤ¯": 7796,
      "ãĤĦãģĻãģĦãģ§ãģĻ": 7797,
      "åķĨåĵģãģ¯": 7798,
      "ãĤĴãģ¤ãģĭ": 7799,
      "ãĤĴãģ¤ãģĳãĤĭ": 7800,
      "ãģĮãģĤãĤĬãģ¾ãģĹãģŁ": 7801,
      "ãĤ¢ãĥ«ãĥŁ": 7802,
      "ãĤ¢ãĥ«ãĤ³ãĥ¼ãĥ«": 7803,
      "åı²ä¸Ĭ": 7804,
      "åĲĪãģĦãĤĴ": 7805,
      "ãĥ¡ãĥĩãĤ£ãĤ¢ãĤ»ãĥ³ãĤ¿ãĥ¼": 7806,
      "çĻºè¡¨ä¼ļ": 7807,
      "ãĤ»ãĥ¬ãĤªãĥª": 7808,
      "çµĮåĸ¶èĢħãģĮ": 7809,
      "ãĥ¢ãĥĩãĥ«ãģ®": 7810,
      "ãĥ¢ãĥĩãĥ«ãĥģãĤ§ãĥ³ãĤ¸": 7811,
      "é£Łãģ¹": 7812,
      "ãģ«ãĤĪãĤĭãĤĤãģ®": 7813,
      "ãģ«ãĤĪãĤĭãĤ¹ãĤ«ãĤ¦ãĥĪ": 7814,
      "çĻ»éĮ²ãģĹãģ¦ãģĦãĤĭRSS": 7815,
      "çĻ»éĮ²ãĤĴãģĻãĤĭãģ¨": 7816,
      "åĥįãģıçĶ·æĢ§ãģ®": 7817,
      "æĭħå½ĵãģ®": 7818,
      "ãĤªãĥ¼ãĥĹãĥ³ãģª": 7819,
      "ĭãĥ³ãĤ°ãĥŀãĤ·ãĥ³": 7820,
      "ãĤ¹ãĤ«ãĥ«": 7821,
      "ãĤ¢ãĥĹãĥªãģ®": 7822,
      "ãģ®å°±": 7823,
      "ãģ®å°ĨæĿ¥": 7824,
      "ãģ£ãģ¦ãģ¿ãģªãģĦãģ¨": 7825,
      "åĨĻçľŁå®¶": 7826,
      "ãĤµãĤ¤ãĤ¯ãĥ«": 7827,
      "ãĤ°ãĥ©ãĥł": 7828,
      "ãģ«ãģªãģ£ãģŁãĤĬ": 7829,
      "ãģŁãĤģãģ®ãĤ¹ãĤŃãĥ«": 7830,
      "å¹´åıİãģĮä¸ĬãģĮ": 7831,
      "åŃ¦çĶŁãģŁãģ¡ãģ®": 7832,
      "å·¥å¤«": 7833,
      "ãģ¸ãģ®è¿ĳéģĵ": 7834,
      "ãĤĴæıĲä¾ĽãģĹãģ¦ãģĦãģ¾ãģĻ": 7835,
      "è·ĿéĽ¢è¨Ī": 7836,
      "èª¿æŁ»çµĲæŀľ": 7837,
      "åģ´ãģ«ãģ¯": 7838,
      "åĻ¨åħ·": 7839,
      "åĴĮçĶ·ãģ§ãģĻ": 7840,
      "é¦¬é¹": 7841,
      "ãĥ¤ãĥ³": 7842,
      "ãģ¨æĦŁãģĺãģŁ": 7843,
      "ãĤĴæī±": 7844,
      "ãĤĴæīĭãģĮ": 7845,
      "ãĤĴæīĢæľī": 7846,
      "ãĤĴæķ¢": 7847,
      "èªŃãģ¿": 7848,
      "èªŃèĢħ": 7849,
      "ãĥ¯ãĥ¼ãĤ¯ãĤ¹ãĤ¿ãĤ¤ãĥ«": 7850,
      "ãĥİãĥŀãĥīãĥ¯ãĥ¼ãĤ¯": 7851,
      "åħ¬éĸĭãģķãĤĮãģ¦ãģĦãĤĭãĤ¨ãĤ°ãĤ¼ãĤ¯ãĥĨãĤ£ãĥĸ": 7852,
      "æĶ¾ãģ¤": 7853,
      "ãģķãģĽãĤĭãģŁãĤģãģ®ãĤ¹ãĤŃãĥ«": 7854,
      "å¹³åĿĩå¹´é½¢": 7855,
      "ãĤ³ãĥŁãĥ¥ãĥĭãĥĨãĤ£ãĤµãĤ¤ãĥĪ": 7856,
      "å¸Ĥåł´ãģ§": 7857,
      "å¸Ĥåł´ä¾¡åĢ¤ãĤĴ": 7858,
      "ãģįãģŁãģĦèģ·æ¥Ń": 7859,
      "ãĤ¿ãĤ¤ãĥĲãĥ¼": 7860,
      "ãģĻãĤĭãģĵãģ¨ãģĮãģ§ãģįãĤĭ": 7861,
      "ãģĻãĤĭãģĵãģ¨ãģĮåı¯èĥ½ãģ§ãģĻ": 7862,
      "ãģĻãĤĭãģĵãģ¨ãģĮãģ§ãģįãģ¾ãģĹãģŁ": 7863,
      "æ¯İå¹´": 7864,
      "é£²ãģ¿ãģ«è¡Įãģı": 7865,
      "ãĤ¹ãĤ¯ãĥ¼ãĥ«": 7866,
      "ãĤ¹ãĤ¯ãĤ¨ãĤ¢": 7867,
      "ãĥªãĥĥãĤ¸": 7868,
      "å®¤ãģ§": 7869,
      "å®®åŀĭ": 7870,
      "å®®åŁİ": 7871,
      "äººçĶŁãĤĴ": 7872,
      "äººçĶŁãģ®ãģ²ãģįãģĮãģŃãĤĴå¼ķ": 7873,
      "ãģ®å¼ķ": 7874,
      "ãģ®åĽ³": 7875,
      "ãģ®åĽŀ": 7876,
      "ä¸ŃåĽ½ãģ«è¡Įãģı": 7877,
      "ä½ľåĵģãģĮ": 7878,
      "åĢĭæĢ§ãģĮ": 7879,
      "éĩĳåŃĲæµ©ä¹ħ": 7880,
      "ãģĹãģ¾ãģ£ãģŁãĤĵãģ§ãģĻ": 7881,
      "ãĥĻãĥ«ãĥĪ": 7882,
      "èĳĹåĲį": 7883,
      "èµ¤ãĥ¬ãĥ³": 7884,
      "å©ļæ´»": 7885,
      "æļ®": 7886,
      "æļĳ": 7887,
      "ãĤĭãģĵãģ¨ãģĮãģ§ãģįãĤĭ": 7888,
      "ãģĮå¢ĹãģĪãĤĭ": 7889,
      "ãĤ¹ãĥ¼ãĥĦãģ®çĿĢãģĵãģªãģĹ": 7890,
      "ãģĵãģĿãģĮ": 7891,
      "ãģ®åº§": 7892,
      "ãģ¨ãģĦãģĨãģĵãģ¨ãģ§ãģĹãĤĩãģĨãģĭ": 7893,
      "ãģ¨ãģĦãģĨãģĵãģ¨ãģ§ãģĻãģĮ": 7894,
      "åĨįå°±èģ·": 7895,
      "ãģ®ãĥŀãĥ¼ãĤ«ãĥ¼": 7896,
      "ãģ®ãĥŀãĤ·ãĥ³": 7897,
      "ãĤĴç¶ŃæĮģ": 7898,
      "æĬľãģį": 7899,
      "æĬľç¾¤": 7900,
      "åĨħå®¹ãģ¨": 7901,
      "éĻºæĢ§": 7902,
      "å¼·ãģĦæĦıå¿Ĺ": 7903,
      "ãģ«å¯¾ãģĹãģ¦ãģ¯": 7904,
      "ãĤĦãĤĬãģŁãģĦãģĵãģ¨": 7905,
      "éħįä¿¡ãģĹãģ¦ãģĦãĤĭ": 7906,
      "éģķãģĦãģªãģĦ": 7907,
      "ãģľãģ²è»¢èģ·åĬĽ": 7908,
      "ãģĬå®¢æ§ĺãģ«": 7909,
      "ãģįãģ£ãģĭãģĳãģ¯": 7910,
      "ine": 7911,
      "uldn": 7912,
      "ãģĹãģķãģ¯": 7913,
      "ãĤĴåĪ©çĶ¨ãģĹãģŁ": 7914,
      "æľ¨æ²¢": 7915,
      "ä¼Ĭä¿ĿåŃĲ": 7916,
      "ãģ£ãģŁãĤĬãģĹãģ¦": 7917,
      "ãĤ°ãĥªãĥĥãĥĹ": 7918,
      "ç¤¾éķ·ãģ®": 7919,
      "ãģķãĤĵãģ«çĽ¸è«ĩãģĹ": 7920,
      "ä½¿ãģĦåĭĿ": 7921,
      "ãĥĳãĥĥãĤ±ãĥ¼ãĤ¸": 7922,
      "æĸ°ãģŁãģ«": 7923,
      "éł¼ãģ¾": 7924,
      "éłĥãģĭãĤī": 7925,
      "éłĥãģ«ãģ¯": 7926,
      "ãĤĴè¦ĭãģĽãģ¦ãģĦãģ¾ãģĻ": 7927,
      "æĿ±äº¬éĥ½ä¸Ńå¤®": 7928,
      "å®Įåħ¨ãģ«": 7929,
      "140": 7930,
      "æ¶¼": 7931,
      "ç¿Į": 7932,
      "äº¤æ¸": 7933,
      "å¤©æīį": 7934,
      "åĲĽèĩ¨": 7935,
      "çĽĽãĤĵãģª": 7936,
      "éĢ±åĪĬ": 7937,
      "ãĤµãĥĹãĥ©ãĤ¤ãĤºãĤĤ": 7938,
      "ä¸Ģåº¦ãĤĤ": 7939,
      "ãģ®ãĥ¡ãĥ¼ãĥ«": 7940,
      "ãģ®ãĥ¡ãĤ¤ãĥ³": 7941,
      "ãģ®ãĥ¡ãĥĭãĥ¥": 7942,
      "ãģ®ãĥĨãĤ¯ãĥĭãĥĥãĤ¯": 7943,
      "çĶŁãģįãģ¦ãģĦ": 7944,
      "èĩªåĪĨãģ§ä½ľ": 7945,
      "è±ĬçĶ°": 7946,
      "çĽ¸æīĭãģ«": 7947,
      "çĽ¸æīĭãģ«æ±ĤãĤģãĤĭ": 7948,
      "ãģ²ãģ¨ãĤĬ": 7949,
      "æ®ĭãĤĮãĤĭ": 7950,
      "éģİåİ»ãĤĴåıįå¾©": 7951,
      "ãĤĴæ±ºãĤģ": 7952,
      "ãĤĴæ±ºãĤģãģ¦": 7953,
      "ç²¾å¯Ĩ": 7954,
      "GoogleãĤ¢ãĤ«ãĤ¦ãĥ³ãĥĪ": 7955,
      "Googleãģ«ãĥŃãĤ°ãĤ¤ãĥ³": 7956,
      "990": 7957,
      "âĹĭ": 7958,
      "æ¤ľè¨İ": 7959,
      "ãģĨãģ¡ãģ¯": 7960,
      "ãĥķãĥ©ãĤ¤ãĥĪ": 7961,
      "ãģĵãģ¨ãģ«ãģĹãģ¾ãģĹãģŁ": 7962,
      "ãģ¤ãģ¤ãĤĤ": 7963,
      "å¿ĺãĤĮãģ¦": 7964,
      "ãģ®ãĥĿãĤ¸ãĤ·ãĥ§ãĥ³": 7965,
      "åŃĲèĤ²ãģ¦ãģ®": 7966,
      "åŃĲèĤ²ãģ¦ãģ«åıĤåĬł": 7967,
      "ãĥ¡ãĥ¼ãĥ«ãĥģãĤ§ãĥĥãĤ¯": 7968,
      "æĦŁè¦ļãģĮ": 7969,
      "è¦ģç´łãĤĴ": 7970,
      "æĬķæīĭ": 7971,
      "æĬķè³ĩ": 7972,
      "åĥķãģ®": 7973,
      "åĥķãĤĤ": 7974,
      "åķıé¡Įãģ®": 7975,
      "æºĢè¼ī": 7976,
      "ãĤĴå®Łçı¾ãģĹãģŁ": 7977,
      "çĭ¬ç«ĭ": 7978,
      "çĭ¬çī¹": 7979,
      "å°ĤéĸĢèªĮ": 7980,
      "å°ĤéĸĢèģ·ãģ«": 7981,
      "ãĤ¢ãĤ¯ãĤ»ãĤµãĥªãĥ¼": 7982,
      "é»Ĵå·Ŀ": 7983,
      "ç©įæ¥µçļĦãģª": 7984,
      "éĽĳèªĮãĤĦ": 7985,
      "ãģĤãģªãģŁãģĮãģ©ãĤĵãģªæ±Ĥäººæĥħåł±ãĤĴæİ¢ãģĹãģ¦ãģĦãĤĭãģ®ãģĭãĤĴçŀ¬æĻĤãģ«åĪ¤æĸŃãģĹãģ¦ãģĬãģĻãģĻãĤģãģĻãĤĭãĤ³ãĥ³ãĥĨãĥ³ãĥĦ": 7986,
      "ãĥĹãĥ©ãĤ¤ãĥĻãĥ¼ãĥĪãģª": 7987,
      "AndroidãĤ±ãĥ¼ãĤ¿ãĤ¤": 7988,
      "èŀįåĲĪ": 7989,
      "ãģĹãĤĪãģĨãģ¨": 7990,
      "ãģĭãģ¤ãģ¦": 7991,
      "ãģ®å£ģ": 7992,
      "ãģ®åĭīå¼·": 7993,
      "èĩªå®ħãģ§ãĤĤ": 7994,
      "å¿«æĦŁ": 7995,
      "ä¼ļåĵ¡åĪ¶": 7996,
      "ä¼ļåĵ¡éĻĲå®ļãģ§": 7997,
      "ä¼ļåĵ¡çĻ»éĮ²ãĤĴãģĻãĤĭãģ¨": 7998,
      "æľ¬æĽ¸ãģ§ç´¹ä»ĭ": 7999
    },
    "merges": [
      [
        "ã",
        "ģ"
      ],
      [
        "ã",
        "Ĥ"
      ],
      [
        "ã",
        "ĥ"
      ],
      [
        "ã",
        "Ģ"
      ],
      [
        "ãģ",
        "®"
      ],
      [
        "ãĢ",
        "ģ"
      ],
      [
        "ãģ",
        "Ħ"
      ],
      [
        "ãģ",
        "§"
      ],
      [
        "ãģ",
        "Ĺ"
      ],
      [
        "ãģ",
        "«"
      ],
      [
        "ãģ",
        "Ļ"
      ],
      [
        "ãĥ",
        "¼"
      ],
      [
        "ãĢ",
        "Ĥ"
      ],
      [
        "ãģ",
        "¨"
      ],
      [
        "ãģ",
        "¦"
      ],
      [
        "ãģ",
        "ª"
      ],
      [
        "ãĤ",
        "ĭ"
      ],
      [
        "ãģ",
        "Ł"
      ],
      [
        "ãĤ",
        "Ĵ"
      ],
      [
        "ãģ",
        "¾"
      ],
      [
        "ãģ",
        "Į"
      ],
      [
        "ãģ",
        "¯"
      ],
      [
        "ãĥ",
        "³"
      ],
      [
        "ãģ",
        "ĭ"
      ],
      [
        "ãĤ",
        "Ĥ"
      ],
      [
        "ãĥ",
        "Ī"
      ],
      [
        "ãĤ",
        "Į"
      ],
      [
        "ãģ",
        "Ĩ"
      ],
      [
        "ãĤ",
        "Ĭ"
      ],
      [
        "ãĤ",
        "¹"
      ],
      [
        "ãģ",
        "£"
      ],
      [
        "ä",
        "¸"
      ],
      [
        "ãĤ",
        "ī"
      ],
      [
        "ãĢ",
        "Į"
      ],
      [
        "ãĢ",
        "į"
      ],
      [
        "ãģ§",
        "ãģĻ"
      ],
      [
        "ä",
        "º"
      ],
      [
        "ãģ",
        "ĵ"
      ],
      [
        "ãĥ",
        "«"
      ],
      [
        "ãĤ",
        "ĵ"
      ],
      [
        "ãĤ",
        "¤"
      ],
      [
        "ãģ¦",
        "ãģĦ"
      ],
      [
        "ãģĹ",
        "ãģŁ"
      ],
      [
        "ãĥ",
        "ĥ"
      ],
      [
        "ä",
        "»"
      ],
      [
        "ãģ",
        "ķ"
      ],
      [
        "ãģ¾",
        "ãģĻ"
      ],
      [
        "ãģ",
        "ı"
      ],
      [
        "ãģ",
        "į"
      ],
      [
        "æ",
        "ľ"
      ],
      [
        "ç",
        "Ķ"
      ],
      [
        "ãģ",
        "Ĥ"
      ],
      [
        "ãĥ¼",
        "ãĥ"
      ],
      [
        "ãģ",
        "Ī"
      ],
      [
        "ä",
        "½"
      ],
      [
        "å",
        "¤"
      ],
      [
        "ãĥ",
        "ª"
      ],
      [
        "ãģ",
        "©"
      ],
      [
        "ãĤ",
        "¢"
      ],
      [
        "ãĥ¼",
        "ãĤ"
      ],
      [
        "ãģ",
        "Ŀ"
      ],
      [
        "ãĥ",
        "©"
      ],
      [
        "å",
        "ħ"
      ],
      [
        "å",
        "Ī"
      ],
      [
        "ãĤ",
        "Ī"
      ],
      [
        "å",
        "®"
      ],
      [
        "äº",
        "º"
      ],
      [
        "å",
        "ı"
      ],
      [
        "å",
        "Ĳ"
      ],
      [
        "ãĥ",
        "ķ"
      ],
      [
        "è",
        "¦"
      ],
      [
        "ãĤ",
        "ģ"
      ],
      [
        "ãģĹ",
        "ãģ¦"
      ],
      [
        "ãĤ",
        "¯"
      ],
      [
        "ãĤ",
        "Ħ"
      ],
      [
        "ãģ",
        "ĳ"
      ],
      [
        "ãģ",
        "ł"
      ],
      [
        "é",
        "ĸ"
      ],
      [
        "ãĤĴ",
        "æ"
      ],
      [
        "ãģ¾",
        "ãģĹãģŁ"
      ],
      [
        "æ",
        "ĸ"
      ],
      [
        "ãĥ",
        "Ĺ"
      ],
      [
        "ãĤ",
        "¿"
      ],
      [
        "ãģĻ",
        "ãĤĭ"
      ],
      [
        "æ",
        "Ĺ"
      ],
      [
        "ç",
        "µ"
      ],
      [
        "ãģª",
        "ãģĦ"
      ],
      [
        "æ",
        "Ģ"
      ],
      [
        "ãģĭ",
        "ãĤī"
      ],
      [
        "ãģĵ",
        "ãģ¨"
      ],
      [
        "ãģ¨",
        "ãģĦ"
      ],
      [
        "ä",
        "¼"
      ],
      [
        "å",
        "¹"
      ],
      [
        "ãģ",
        "Ĭ"
      ],
      [
        "ãĥ",
        "ĩ"
      ],
      [
        "ãģ®",
        "å"
      ],
      [
        "ãĥ¼",
        "ãĥĪ"
      ],
      [
        "ãģ¦ãģĦ",
        "ãĤĭ"
      ],
      [
        "ãģ£",
        "ãģŁ"
      ],
      [
        "ãĤ",
        "·"
      ],
      [
        "ãģ£",
        "ãģ¦"
      ],
      [
        "è",
        "¨"
      ],
      [
        "ãĥ³",
        "ãĥ"
      ],
      [
        "*",
        "*"
      ],
      [
        "ãĥ",
        "»"
      ],
      [
        "ãĤ¹",
        "ãĥ"
      ],
      [
        "æ",
        "°"
      ],
      [
        "ãģ",
        "¤"
      ],
      [
        "è",
        "»"
      ],
      [
        "ç",
        "Ľ"
      ],
      [
        "å¹",
        "´"
      ],
      [
        "ãģ¨ãģĦ",
        "ãģĨ"
      ],
      [
        "ãĥ",
        "¬"
      ],
      [
        "ãģ",
        "Ľ"
      ],
      [
        "é",
        "Ģ"
      ],
      [
        "æĹ",
        "¥"
      ],
      [
        "å",
        "Ľ"
      ],
      [
        "è",
        "ģ"
      ],
      [
        "ãģ",
        "¡"
      ],
      [
        "ãģ®",
        "æ"
      ],
      [
        "ãģ§",
        "ãģ¯"
      ],
      [
        "å",
        "Ń"
      ],
      [
        "å",
        "ł"
      ],
      [
        "ãĤ",
        "ı"
      ],
      [
        "ãģ",
        "¿"
      ],
      [
        "è",
        "ĩ"
      ],
      [
        "ãģķ",
        "ãĤĮ"
      ],
      [
        "ãĤ",
        "³"
      ],
      [
        "å",
        "Ĭ"
      ],
      [
        "ãĤ",
        "¸"
      ],
      [
        "è",
        "¡"
      ],
      [
        "æ",
        "¥"
      ],
      [
        "é",
        "ģ"
      ],
      [
        "ãĥķ",
        "ãĤ"
      ],
      [
        "ãĥĥ",
        "ãĥĪ"
      ],
      [
        "äº",
        "ĭ"
      ],
      [
        "å",
        "Ĩ"
      ],
      [
        "å",
        "½"
      ],
      [
        "èĩ",
        "ª"
      ],
      [
        "å",
        "º"
      ],
      [
        "è",
        "ª"
      ],
      [
        "ãģ¦ãģĦ",
        "ãģ¾ãģĻ"
      ],
      [
        "æ",
        "Ħ"
      ],
      [
        "ãĤ",
        "«"
      ],
      [
        "ç",
        "¤"
      ],
      [
        "å",
        "ĭ"
      ],
      [
        "ãĤ",
        "µ"
      ],
      [
        "è",
        "Ģ"
      ],
      [
        "èģ",
        "·"
      ],
      [
        "å¤",
        "§"
      ],
      [
        "ä¸",
        "Ģ"
      ],
      [
        "å",
        "¿"
      ],
      [
        "ãĤ¤",
        "ãĥ"
      ],
      [
        "ç",
        "ļ"
      ],
      [
        "æ",
        "ī"
      ],
      [
        "ãĤĪ",
        "ãģĨ"
      ],
      [
        "ãĤ",
        "°"
      ],
      [
        "ç¤",
        "¾"
      ],
      [
        "0",
        "0"
      ],
      [
        "Ļ",
        "Ĥ"
      ],
      [
        "ç",
        "´"
      ],
      [
        "ãģ§",
        "ãģį"
      ],
      [
        "ç",
        "Ļ"
      ],
      [
        "ãĥ",
        "£"
      ],
      [
        "è¦",
        "ĭ"
      ],
      [
        "åĪ",
        "Ĩ"
      ],
      [
        "ä¸",
        "Ĭ"
      ],
      [
        "ãģ®",
        "ãĥ"
      ],
      [
        "ä¼",
        "ļ"
      ],
      [
        "å",
        "¾"
      ],
      [
        "æ",
        "Ŀ"
      ],
      [
        "é",
        "ĩ"
      ],
      [
        "æľ",
        "¬"
      ],
      [
        "çļ",
        "Ħ"
      ],
      [
        "ãģ«",
        "ãģª"
      ],
      [
        "ãģķ",
        "ãĤĵ"
      ],
      [
        "ãģ",
        "Ń"
      ],
      [
        "ãĥ",
        "Ń"
      ],
      [
        "ãģ",
        "°"
      ],
      [
        "ä»",
        "Ĭ"
      ],
      [
        "å",
        "°"
      ],
      [
        "çĽ",
        "®"
      ],
      [
        "é",
        "Ľ"
      ],
      [
        "ãĥ",
        "§"
      ],
      [
        "ãģĤ",
        "ãĤĬ"
      ],
      [
        "æ°",
        "Ĺ"
      ],
      [
        "ãģĪ",
        "ãĤĭ"
      ],
      [
        "ãĤ",
        "£"
      ],
      [
        "ç",
        "ķ"
      ],
      [
        "ãĢ",
        "İ"
      ],
      [
        "ãĢ",
        "ı"
      ],
      [
        "å",
        "ĩ"
      ],
      [
        "æĢ",
        "§"
      ],
      [
        "ãĤĵ",
        "ãģª"
      ],
      [
        "å",
        "¼"
      ],
      [
        "ãĥĩ",
        "ãĥ¼ãĥĪ"
      ],
      [
        "çĶ",
        "¨"
      ],
      [
        "æ¥",
        "Ń"
      ],
      [
        "ä»",
        "ķ"
      ],
      [
        "ãĤ",
        "Ń"
      ],
      [
        "ãĥ",
        "Ĩ"
      ],
      [
        "ãģª",
        "ãģ©"
      ],
      [
        "åĩ",
        "º"
      ],
      [
        "æĢ",
        "Ŀ"
      ],
      [
        "ãģ«",
        "ãĤĤ"
      ],
      [
        "ãģĤ",
        "ãĤĭ"
      ],
      [
        "æ",
        "ĥ"
      ],
      [
        "ãĢģ",
        "ãĢĮ"
      ],
      [
        "éĸ",
        "ĵ"
      ],
      [
        "æ",
        "ĻĤ"
      ],
      [
        "ä",
        "¾"
      ],
      [
        "å",
        "¥"
      ],
      [
        "ãĥ",
        "ĸ"
      ],
      [
        "è»",
        "¢"
      ],
      [
        "ãĤ",
        "¨"
      ],
      [
        "ãģ",
        "ĺ"
      ],
      [
        "ãĥ",
        "Ĳ"
      ],
      [
        "ä½",
        "¿"
      ],
      [
        "å",
        "¸"
      ],
      [
        "å",
        "ľ"
      ],
      [
        "è",
        "©"
      ],
      [
        "ãĥ",
        "ī"
      ],
      [
        "ãģ«",
        "ãģ¯"
      ],
      [
        "ä»ķ",
        "äºĭ"
      ],
      [
        "çµ",
        "Ĳ"
      ],
      [
        "ãĥ",
        "ŀ"
      ],
      [
        "ãĥĥ",
        "ãĥĹ"
      ],
      [
        "ãĥ",
        "¥"
      ],
      [
        "ä¸",
        "Ń"
      ],
      [
        "è",
        "«"
      ],
      [
        "ãĥ",
        "ģ"
      ],
      [
        "æĸ",
        "¹"
      ],
      [
        "ç",
        "ī"
      ],
      [
        "ãĥ¼",
        "ãĥ«"
      ],
      [
        "ãĥ³",
        "ãĥĪ"
      ],
      [
        "åŃ",
        "Ĳ"
      ],
      [
        "ãĤī",
        "ãĤĮ"
      ],
      [
        "è»¢",
        "èģ·"
      ],
      [
        "ãĤĴ",
        "ç"
      ],
      [
        "ãģĹ",
        "ãĤ"
      ],
      [
        "åħ",
        "¥"
      ],
      [
        "å",
        "ĵ"
      ],
      [
        "å",
        "¯"
      ],
      [
        "æ",
        "Ī"
      ],
[...]
