{
  "version": "1.0",
  "truncation": null,
  "padding": null,
  "added_tokens": [
    {
      "id": 0,
      "content": "<pad>",
      "single_word": false,
      "lstrip": false,
      "rstrip": false,
      "normalized": false,
      "special": true
    },
    {
      "id": 1,
      "content": "<eod>",
      "single_word": false,
      "lstrip": false,
      "rstrip": false,
      "normalized": false,
      "special": true
    },
    {
      "id": 2,
      "content": "<system>",
      "single_word": false,
      "lstrip": false,
      "rstrip": false,
      "normalized": false,
      "special": true
    },
    {
      "id": 3,
      "content": "<assistant>",
      "single_word": false,
      "lstrip": false,
      "rstrip": false,
      "normalized": false,
      "special": true
    },
    {
      "id": 4,
      "content": "<user>",
      "single_word": false,
      "lstrip": false,
      "rstrip": false,
      "normalized": false,
      "special": true
    }
  ],
  "normalizer": {
    "type": "NFKC"
  },
  "pre_tokenizer": {
    "type": "ByteLevel",
    "add_prefix_space": false,
    "trim_offsets": true,
    "use_regex": true
  },
  "post_processor": null,
  "decoder": null,
  "model": {
    "type": "BPE",
    "dropout": null,
    "unk_token": null,
    "continuing_subword_prefix": null,
    "end_of_word_suffix": null,
    "fuse_unk": false,
    "byte_fallback": false,
    "ignore_merges": false,
    "vocab": {
      "<pad>": 0,
      "<eod>": 1,
      "<system>": 2,
      "<assistant>": 3,
      "<user>": 4,
      "!": 5,
      "\"": 6,
      "#": 7,
      "$": 8,
      "%": 9,
      "&": 10,
      "'": 11,
      "(": 12,
      ")": 13,
      "*": 14,
      "+": 15,
      ",": 16,
      "-": 17,
      ".": 18,
      "/": 19,
      "0": 20,
      "1": 21,
      "2": 22,
      "3": 23,
      "4": 24,
      "5": 25,
      "6": 26,
      "7": 27,
      "8": 28,
      "9": 29,
      ":": 30,
      ";": 31,
      "<": 32,
      "=": 33,
      ">": 34,
      "?": 35,
      "@": 36,
      "A": 37,
      "B": 38,
      "C": 39,
      "D": 40,
      "E": 41,
      "F": 42,
      "G": 43,
      "H": 44,
      "I": 45,
      "J": 46,
      "K": 47,
      "L": 48,
      "M": 49,
      "N": 50,
      "O": 51,
      "P": 52,
      "Q": 53,
      "R": 54,
      "S": 55,
      "T": 56,
      "U": 57,
      "V": 58,
      "W": 59,
      "X": 60,
      "Y": 61,
      "Z": 62,
      "[": 63,
      "\\": 64,
      "]": 65,
      "^": 66,
      "_": 67,
      "`": 68,
      "a": 69,
      "b": 70,
      "c": 71,
      "d": 72,
      "e": 73,
      "f": 74,
      "g": 75,
      "h": 76,
      "i": 77,
      "j": 78,
      "k": 79,
      "l": 80,
      "m": 81,
      "n": 82,
      "o": 83,
      "p": 84,
      "q": 85,
      "r": 86,
      "s": 87,
      "t": 88,
      "u": 89,
      "v": 90,
      "w": 91,
      "x": 92,
      "y": 93,
      "z": 94,
      "{": 95,
      "|": 96,
      "}": 97,
      "~": 98,
      "¡": 99,
      "¢": 100,
      "£": 101,
      "¤": 102,
      "¥": 103,
      "¦": 104,
      "§": 105,
      "¨": 106,
      "©": 107,
      "ª": 108,
      "«": 109,
      "¬": 110,
      "®": 111,
      "¯": 112,
      "°": 113,
      "±": 114,
      "²": 115,
      "³": 116,
      "´": 117,
      "µ": 118,
      "¶": 119,
      "·": 120,
      "¸": 121,
      "¹": 122,
      "º": 123,
      "»": 124,
      "¼": 125,
      "½": 126,
      "¾": 127,
      "¿": 128,
      "À": 129,
      "Á": 130,
      "Â": 131,
      "Ã": 132,
      "Ä": 133,
      "Å": 134,
      "Æ": 135,
      "Ç": 136,
      "È": 137,
      "É": 138,
      "Ê": 139,
      "Ë": 140,
      "Ì": 141,
      "Í": 142,
      "Î": 143,
      "Ï": 144,
      "Ð": 145,
      "Ñ": 146,
      "Ò": 147,
      "Ó": 148,
      "Ô": 149,
      "Õ": 150,
      "Ö": 151,
      "×": 152,
      "Ø": 153,
      "Ù": 154,
      "Ú": 155,
      "Û": 156,
      "Ü": 157,
      "Ý": 158,
      "Þ": 159,
      "ß": 160,
      "à": 161,
      "á": 162,
      "â": 163,
      "ã": 164,
      "ä": 165,
      "å": 166,
      "æ": 167,
      "ç": 168,
      "è": 169,
      "é": 170,
      "ê": 171,
      "ë": 172,
      "ì": 173,
      "í": 174,
      "î": 175,
      "ï": 176,
      "ð": 177,
      "ñ": 178,
      "ò": 179,
      "ó": 180,
      "ô": 181,
      "õ": 182,
      "ö": 183,
      "÷": 184,
      "ø": 185,
      "ù": 186,
      "ú": 187,
      "û": 188,
      "ü": 189,
      "ý": 190,
      "þ": 191,
      "ÿ": 192,
      "Ā": 193,
      "ā": 194,
      "Ă": 195,
      "ă": 196,
      "Ą": 197,
      "ą": 198,
      "Ć": 199,
      "ć": 200,
      "Ĉ": 201,
      "ĉ": 202,
      "Ċ": 203,
      "ċ": 204,
      "Č": 205,
      "č": 206,
      "Ď": 207,
      "ď": 208,
      "Đ": 209,
      "đ": 210,
      "Ē": 211,
      "ē": 212,
      "Ĕ": 213,
      "ĕ": 214,
      "Ė": 215,
      "ė": 216,
      "Ę": 217,
      "ę": 218,
      "Ě": 219,
      "ě": 220,
      "Ĝ": 221,
      "ĝ": 222,
      "Ğ": 223,
      "ğ": 224,
      "Ġ": 225,
      "ġ": 226,
      "Ģ": 227,
      "ģ": 228,
      "Ĥ": 229,
      "ĥ": 230,
      "Ħ": 231,
      "ħ": 232,
      "Ĩ": 233,
      "ĩ": 234,
      "Ī": 235,
      "ī": 236,
      "Ĭ": 237,
      "ĭ": 238,
      "Į": 239,
      "į": 240,
      "İ": 241,
      "ı": 242,
      "Ĳ": 243,
      "ĳ": 244,
      "Ĵ": 245,
      "ĵ": 246,
      "Ķ": 247,
      "ķ": 248,
      "ĸ": 249,
      "Ĺ": 250,
      "ĺ": 251,
      "Ļ": 252,
      "ļ": 253,
      "Ľ": 254,
      "ľ": 255,
      "Ŀ": 256,
      "ŀ": 257,
      "Ł": 258,
      "ł": 259,
      "Ń": 260,
      "ãģ": 261,
      "ãĤ": 262,
      "ãĥ": 263,
      "ãĢ": 264,
      "ãģ®": 265,
      "ãĢģ": 266,
      "ãģĦ": 267,
      "ãĥ¼": 268,
      "ãģ«": 269,
      "ãĤĭ": 270,
      "ãģ§": 271,
      "ãģ¨": 272,
      "ãģĹ": 273,
      "ãĤĴ": 274,
      "ãĢĤ": 275,
      "ãģª": 276,
      "ãģĮ": 277,
      "ãģŁ": 278,
      "ãģ¦": 279,
      "ãģ¯": 280,
      "ãĥ³": 281,
      "ãģĻ": 282,
      "ãģĭ": 283,
      "ãĤ¹": 284,
      "ãĤĤ": 285,
      "ãĥ¼ãĥ": 286,
      "ãģ¾": 287,
      "ãģ£": 288,
      "ãĤĮ": 289,
      "ä¸": 290,
      "ãģĨ": 291,
      "ãĢĮ": 292,
      "ãĢį": 293,
      "ãĤ¤": 294,
      "ãĤī": 295,
      "ãĤĬ": 296,
      "äº": 297,
      "ãĥĥ": 298,
      "ãĥĪ": 299,
      "æľ": 300,
      "ãģĵ": 301,
      "ãĥ»": 302,
      "çĶ": 303,
      "ãģķ": 304,
      "ãģı": 305,
      "å¤": 306,
      "ãĥª": 307,
      "ãģł": 308,
      "ãģ¦ãģĦ": 309,
      "ãĤ¯": 310,
      "ä½": 311,
      "ãĤ¢": 312,
      "ãģį": 313,
      "ãĥ«": 314,
      "ãĤĵ": 315,
      "åħ": 316,
      "ä»": 317,
      "å®": 318,
      "ãĥ©": 319,
      "ãģĹãģŁ": 320,
      "åĪ": 321,
      "ãĤ¿": 322,
      "ãģĤ": 323,
      "æĹ": 324,
      "ãģ®å": 325,
      "éĸ": 326,
      "ãĤĪ": 327,
      "ãĤ·": 328,
      "è¦": 329,
      "ãģĻãĤĭ": 330,
      "åı": 331,
      "æĸ": 332,
      "äºº": 333,
      "åĲ": 334,
      "ãĥ¬": 335,
      "ãģĳ": 336,
      "ãģĿ": 337,
      "ãĥĹ": 338,
      "ãģ£ãģŁ": 339,
      "ãģĹãģ¦": 340,
      "ãĤ¸": 341,
      "ãģ©": 342,
      "éĢ": 343,
      "æĹ¥": 344,
      "ãĥķ": 345,
      "ãģĪ": 346,
      "ãĤĦ": 347,
      "ãĤ³": 348,
      "è¨": 349,
      "ãģ¦ãģĦãĤĭ": 350,
      "ãĤĴæ": 351,
      "ãģ®æ": 352,
      "ãģ¾ãģĻ": 353,
      "ãĥ³ãĥ": 354,
      "ãģĵãģ¨": 355,
      "ãĤģ": 356,
      "ãģĭãĤī": 357,
      "ãģªãģĦ": 358,
      "åĽ": 359,
      "ãģĬ": 360,
      "éģ": 361,
      "ãĥŀ": 362,
      "è¡": 363,
      "ãĤ«": 364,
      "ãģ§ãģĻ": 365,
      "æĢ": 366,
      "ãĥ¡": 367,
      "çĻ": 368,
      "åŃ": 369,
      "ãģ¤": 370,
      "éĽ": 371,
      "æ°": 372,
      "æľ¬": 373,
      "ãģ¨ãģĦ": 374,
      "ãĥĩ": 375,
      "ãģ£ãģ¦": 376,
      "ãĥĨ": 377,
      "ãģķãĤĮ": 378,
      "å¹": 379,
      "æĺ": 380,
      "ãģ¡": 381,
      "ãĥŃ": 382,
      "å¤§": 383,
      "åł": 384,
      "çĽ": 385,
      "ãĤ£": 386,
      "å½": 387,
      "ãĤı": 388,
      "ãĤŃ": 389,
      "åĨ": 390,
      "çµ": 391,
      "ãģ¿": 392,
      "èª": 393,
      "ä¼": 394,
      "ãĤ·ãĥ": 395,
      "ãģĽ": 396,
      "å¿": 397,
      "ãĤ°": 398,
      "å¥": 399,
      "ãĤµ": 400,
      "ãĥĥãĥĪ": 401,
      "åĬ": 402,
      "çĶ»": 403,
      "åĭ": 404,
      "ä½ľ": 405,
      "æĿ": 406,
      "ãĥī": 407,
      "æĦ": 408,
      "ãģ¨ãģĦãģĨ": 409,
      "å¾": 410,
      "ç´": 411,
      "å¹´": 412,
      "åº": 413,
      "ãģ§ãģ¯": 414,
      "æī": 415,
      "ãĢİ": 416,
      "ãĢı": 417,
      "ä¸Ģ": 418,
      "äºĭ": 419,
      "ãĥĲ": 420,
      "ä¸Ĭ": 421,
      "è¦ĭ": 422,
      "ãĥĸ": 423,
      "åĩ": 424,
      "ãĥĭ": 425,
      "çī": 426,
      "ãģĤãĤĭ": 427,
      "éĩ": 428,
      "æĻ": 429,
      "âĢ": 430,
      "ãĤª": 431,
      "å¼": 432,
      "ãģ§ãģį": 433,
      "èĩ": 434,
      "è©": 435,
      "ãĥ£": 436,
      "ãĤĪãģĨ": 437,
      "ãĥ¼ãĥĪ": 438,
      "çĻº": 439,
      "ãĥģ": 440,
      "ãĥĵ": 441,
      "ä¸Ń": 442,
      "ãģ«ãģª": 443,
      "ãĥ¥": 444,
      "å¯": 445,
      "åĵ": 446,
      "ãĤ¦": 447,
      "ãĥĥãĤ¯": 448,
      "çķ": 449,
      "æ°Ĺ": 450,
      "ãģªãģ©": 451,
      "ãĤº": 452,
      "ãģĺ": 453,
      "å£": 454,
      "åĩº": 455,
      "ãĥķãĤ": 456,
      "åŃĲ": 457,
      "èĢ": 458,
      "ãĤį": 459,
      "çĶ¨": 460,
      "èĩª": 461,
      "ç¤": 462,
      "çļ": 463,
      "åł´": 464,
      "ãĥĳ": 465,
      "åĪĨ": 466,
      "éĸĭ": 467,
      "å°": 468,
      "æĺł": 469,
      "å¥³": 470,
      "æ¥": 471,
      "é¡": 472,
      "ä»Ĭ": 473,
      "éĸĵ": 474,
      "ãĥį": 475,
      "æľĪ": 476,
      "ãĥ³ãĥĪ": 477,
      "ãĤ¨": 478,
      "ãģ«æ": 479,
      "åĳ": 480,
      "ãģ°": 481,
      "è³": 482,
      "ĥ½": 483,
      "è¡Į": 484,
      "çĶŁ": 485,
      "æŃ": 486,
      "ä¼ļ": 487,
      "00": 488,
      "ãĤ·ãĥ§": 489,
      "æĢ§": 490,
      "ãĥŁ": 491,
      "åį": 492,
      "æľĢ": 493,
      "æĻĤ": 494,
      "æĸ¹": 495,
      "ãĤ»": 496,
      "æĸ°": 497,
      "åľ": 498,
      "ãģ«ãģ¯": 499,
      "ãģ®ç": 500,
      "âĢľ": 501,
      "åĵģ": 502,
      "åħ¥": 503,
      "ãĤ¹ãĥĪ": 504,
      "å¸": 505,
      "å±": 506,
      "ãĤĮãĤĭ": 507,
      "çļĦ": 508,
      "..": 509,
      "ãģ¾ãģĹãģŁ": 510,
      "åī": 511,
      "åĽ½": 512,
      "ãĥªãĥ¼": 513,
      "ä½¿": 514,
      "æķ": 515,
      "ãģ§ãĤĤ": 516,
      "é«": 517,
      "ãģķãĤĵ": 518,
      "ãĥ¼ãĥ«": 519,
      "ãĥ¢": 520,
      "ãģĹãģĦ": 521,
      "ãĤ¿ãĥ¼": 522,
      "ãĥł": 523,
      "ä¿": 524,
      "è¨ĺ": 525,
      "ãģĮæ": 526,
      "ä¾": 527,
      "èĥ½": 528,
      "åĭķ": 529,
      "è²": 530,
      "å®Ł": 531,
      "éĿ": 532,
      "ãĤ½": 533,
      "é«ĺ": 534,
      "ãĥĬ": 535,
      "æ³": 536,
      "åĲĪ": 537,
      "ãģ§ãģįãĤĭ": 538,
      "æĪ": 539,
      "ç·": 540,
      "©Ł": 541,
      "åĽŀ": 542,
      "ãĤ±": 543,
      "å®ļ": 544,
      "çľ": 545,
      "æĢĿ": 546,
      "ãĤ¤ãĥ³": 547,
      "çĽ®": 548,
      "è¿": 549,
      "ãĥ¼ãĥī": 550,
      "ãĢģãĢĮ": 551,
      "ãģĶ": 552,
      "ãĥĢ": 553,
      "èĢħ": 554,
      "æīĭ": 555,
      "ãģĹãģ¦ãģĦãĤĭ": 556,
      "è©±": 557,
      "åĮ": 558,
      "æĺłçĶ»": 559,
      "ãĥ³ãĤ°": 560,
      "è¨Ģ": 561,
      "åħ¬": 562,
      "ãĥĥãĥĹ": 563,
      "æĥ": 564,
      "ãĤ¶": 565,
      "éĽ»": 566,
      "ãģļ": 567,
      "æĹ¥æľ¬": 568,
      "ãģĪãĤĭ": 569,
      "éŁ": 570,
      "ãģŃ": 571,
      "20": 572,
      "å¤ļ": 573,
      "åĬĽ": 574,
      "è»": 575,
      "ãģ£ãģ¦ãģĦãĤĭ": 576,
      "æ©Ł": 577,
      "ãĤ§": 578,
      "çĦ": 579,
      "å£²": 580,
      "å¯¾": 581,
      "ç¤¾": 582,
      "éĥ": 583,
      "ãĥ¯": 584,
      "éĻ": 585,
      "æĦŁ": 586,
      "è£": 587,
      "ãģ®ãģ§": 588,
      "ãĥ¼ãĥł": 589,
      "ãĥĻ": 590,
      "éĸ¢": 591,
      "è¡¨": 592,
      "ãĥ¼ãĤ¸": 593,
      "ä½ĵ": 594,
      "ãģłãģĳ": 595,
      "ãĥĿ": 596,
      "ç«": 597,
      "ãĥı": 598,
      "ç¶": 599,
      "ãģ¨ãģĹãģ¦": 600,
      "§ĺ": 601,
      "æĽ": 602,
      "ãĤĪãĤĬ": 603,
      "ãģĵãģ¨ãģĮ": 604,
      "ãĤĮãģŁ": 605,
      "çı": 606,
      "ãģĵãģ®": 607,
      "ãģ¨ãģª": 608,
      "èģ": 609,
      "é£": 610,
      "ç¾": 611,
      "ãĤ·ãĥ§ãĥ³": 612,
      "éĽĨ": 613,
      "çŁ": 614,
      "ãģĤãĤĬ": 615,
      "ãĤ¤ãĥĪ": 616,
      "ãģĦãģ¦": 617,
      "éĢļ": 618,
      "æł": 619,
      "ãĤ¬": 620,
      "ãģŁãĤģ": 621,
      "åĥ": 622,
      "¼Ķ": 623,
      "ãģ¦ãģĦãģ¾ãģĻ": 624,
      "ãĥ¼ãĤ¹": 625,
      "åĲĮ": 626,
      "åħ¨": 627,
      "å·": 628,
      "åīį": 629,
      "å½ĵ": 630,
      "æ´": 631,
      "çı¾": 632,
      "çĲ": 633,
      "ãĤĤãģ®": 634,
      "ãĥĽ": 635,
      "éĥ¨": 636,
      "æĮ": 637,
      "éĢ£": 638,
      "on": 639,
      "ãĤ¹ãĥŀ": 640,
      "ä¸ĸ": 641,
      "åł±": 642,
      "ãĥķãĤ¡": 643,
      "éł": 644,
      "æİ": 645,
      "ãģĦãģŁ": 646,
      "æĬ": 647,
      "ãģ¾ãģ§": 648,
      "éļ": 649,
      "ãģĿãģ®": 650,
      "çī¹": 651,
      "ç§": 652,
      "è¼": 653,
      "ãģ¦ãģĦãģŁ": 654,
      "ãĤŃãĥ£": 655,
      "ãĢįãĢĮ": 656,
      "ãĤĵãģª": 657,
      "èŃ": 658,
      "ãģ»": 659,
      "å¾Į": 660,
      "é¡Į": 661,
      "ãĢħ": 662,
      "ãģ¸": 663,
      "ãģĵãĤĮ": 664,
      "åº¦": 665,
      "ä»£": 666,
      "åĢ": 667,
      "èī": 668,
      "éģ¸": 669,
      "çľŁ": 670,
      "ãĥĶ": 671,
      "åĨħ": 672,
      "ãģķãĤĮãģŁ": 673,
      "çķĮ": 674,
      "å§": 675,
      "ãģªãģı": 676,
      "ãĥĦ": 677,
      "ãģ®ãģ¯": 678,
      "ç¬": 679,
      "ãĤĥ": 680,
      "çĲĨ": 681,
      "çĿ": 682,
      "å®¶": 683,
      "ãĥ©ãĤ¤": 684,
      "10": 685,
      "åĮĸ": 686,
      "ãģ«ãĤĤ": 687,
      "è¨ĺäºĭ": 688,
      "ãģ¨æĢĿ": 689,
      "ãģĿãģĨ": 690,
      "ãĥĩãĤ£": 691,
      "ãĥ³ãĥī": 692,
      "æ¥Ń": 693,
      "éĿ¢": 694,
      "åĲį": 695,
      "ãģ¹": 696,
      "è¦ģ": 697,
      "å¿ľ": 698,
      "åĦ": 699,
      "åĪ©": 700,
      "åİ": 701,
      "ãĤ¹ãĤ¿": 702,
      "èĪ": 703,
      "ãĥľ": 704,
      "ç¶ļ": 705,
      "æĦı": 706,
      "ãģĴ": 707,
      "æµ": 708,
      "ãĥļ": 709,
      "åķ": 710,
      "ç¾İ": 711,
      "ãĤĩ": 712,
      "iP": 713,
      "ãģĹãģ¾": 714,
      "çī©": 715,
      "ãĤįãģĨ": 716,
      "æ§ĺ": 717,
      "èº": 718,
      "ãĥĨãĤ£": 719,
      "å¿ĥ": 720,
      "åĨĨ": 721,
      "ãģĿãĤĮ": 722,
      "å¤ĸ": 723,
      "ãģķãĤĮãĤĭ": 724,
      "ãĥĹãĥª": 725,
      "æĿ¥": 726,
      "æ¥½": 727,
      "æŀ": 728,
      "ķ·": 729,
      "éķ·": 730,
      "ãĥİ": 731,
      "ĊĠ": 732,
      "oo": 733,
      "çŁ¥": 734,
      "ãĥķãĤ©": 735,
      "ãĥįãĥĥãĥĪ": 736,
      "è¾": 737,
      "æĶ": 738,
      "ãĥĹãĥ¬": 739,
      "12": 740,
      "ç¨": 741,
      "èĩªåĪĨ": 742,
      "æ¼Ķ": 743,
      "æ¸": 744,
      "çĻ»": 745,
      "è§": 746,
      "er": 747,
      "æ±": 748,
      "ä»¥": 749,
      "ãģ¾ãģŁ": 750,
      "ãĤ´": 751,
      "**": 752,
      "æĥħ": 753,
      "è¶": 754,
      "å¤ī": 755,
      "ãģŁãģĦ": 756,
      "èĤ": 757,
      "çĶ°": 758,
      "ãģ«ãģªãĤĭ": 759,
      "ç¤º": 760,
      "çŃ": 761,
      "åĨĻ": 762,
      "çķª": 763,
      "ãĥ¦": 764,
      "ãĥ¼ãĥ³": 765,
      "ãģ®ãģĭ": 766,
      "ä¸ĭ": 767,
      "åħ¬éĸĭ": 768,
      "åĥı": 769,
      "ä¸»": 770,
      "çĶ·": 771,
      "çµĦ": 772,
      "ãĥ¥ãĥ¼": 773,
      "åŃ¦": 774,
      "æķ°": 775,
      "ä¸ĸçķĮ": 776,
      "ãĤ¯ãĥª": 777,
      "åĪĿ": 778,
      "æı": 779,
      "ãģ³": 780,
      "ãĥ¬ãĥĵ": 781,
      "ãģłãĤįãģĨ": 782,
      "ä»ĺ": 783,
      "ãĤĮãģ°": 784,
      "ä»ķ": 785,
      "ãĤ·ãĥ£": 786,
      "åľ°": 787,
      "ãĤĢ": 788,
      "èµ": 789,
      "ãĤ¤ãĥ«": 790,
      "æľŁ": 791,
      "æĪĲ": 792,
      "ãĤĴè¦ĭ": 793,
      "ä½ķ": 794,
      "åıĸ": 795,
      "çĦ¡": 796,
      "å¼ı": 797,
      "åĤ": 798,
      "æ¬": 799,
      "ç¥": 800,
      "ãĥ©ãĥ³": 801,
      "èªŀ": 802,
      "åĬł": 803,
      "æ¯": 804,
      "ãģĭãģ£ãģŁ": 805,
      "æĿ±": 806,
      "ç¬¬": 807,
      "ä¸į": 808,
      "éħ": 809,
      "è±": 810,
      "ãĥ¼ãĤ¯": 811,
      "åĦª": 812,
      "ãĤīãĤĮ": 813,
      "åĲĳ": 814,
      "çļĦãģª": 815,
      "æ´»": 816,
      "ãĤ²": 817,
      "åħĪ": 818,
      "ä¹": 819,
      "ãĥĹãĥŃ": 820,
      "ä»ĬåĽŀ": 821,
      "çµĲ": 822,
      "ãģ«ãģ¤": 823,
      "ãĤ¢ãĥĹãĥª": 824,
      "ãģ£ãģ¨": 825,
      "éĩĳ": 826,
      "æģ": 827,
      "åĳ³": 828,
      "Ĵ®": 829,
      "éĢģ": 830,
      "æ°ı": 831,
      "ãĥ§": 832,
      "çĤ": 833,
      "ç«ĭ": 834,
      "ä½ľåĵģ": 835,
      "è³ŀ": 836,
      "èº«": 837,
      "ãģ¾ãģĽ": 838,
      "ãģ§ãģĤãĤĭ": 839,
      "ãĤģãĤĭ": 840,
      "æĸĻ": 841,
      "è£½": 842,
      "è¼ī": 843,
      "ä½į": 844,
      "åıĹ": 845,
      "in": 846,
      "ä¸ĩ": 847,
      "ãģ«ãĤĪ": 848,
      "æ®": 849,
      "èĭ": 850,
      "ãĥĴ": 851,
      "ãĤĵãģ§": 852,
      "ãĤĴç": 853,
      "äºĪ": 854,
      "ãģŁãģ¡": 855,
      "åľ¨": 856,
      "æĺİ": 857,
      "å½¼": 858,
      "å¼·": 859,
      "ãģ®ãģĮ": 860,
      "one": 861,
      "ãģ¶": 862,
      "åı¯": 863,
      "ãģłãģ£ãģŁ": 864,
      "ãĤĪãģĨãģª": 865,
      "ãģĹãģ¾ãģĻ": 866,
      "ä¿¡": 867,
      "å®¹": 868,
      "çĻ»åł´": 869,
      "ãĤ³ãĥ³": 870,
      "ãģĳãĤĭ": 871,
      "ãĤĵãģł": 872,
      "ãĤ¶ãĥ¼": 873,
      "æĦĽ": 874,
      "hone": 875,
      "å¥³æĢ§": 876,
      "ãģĹãĤĩ": 877,
      "åķı": 878,
      "11": 879,
      "ç©": 880,
      "ãĤµãĤ¤ãĥĪ": 881,
      "éŁ³": 882,
      "åĪĩ": 883,
      "ac": 884,
      "å°ı": 885,
      "æīĢ": 886,
      "ãģ¾ãģĽãĤĵ": 887,
      "çĻºå£²": 888,
      "äººæ°Ĺ": 889,
      "å½±": 890,
      "è§£": 891,
      "é¨": 892,
      "ãģªãĤī": 893,
      "ãĤĴæĮ": 894,
      "æ³ķ": 895,
      "ãģĮãģĤãĤĭ": 896,
      "ãģ¨ãģ¯": 897,
      "é¦": 898,
      "ãĤ¢ãĥĥãĥĹ": 899,
      "å§ĭ": 900,
      "ä»ĭ": 901,
      "iPhone": 902,
      "éļĽ": 903,
      "ãģķãĤī": 904,
      "ãģĹãģĭ": 905,
      "ãģ²": 906,
      "éĸ¢éĢ£": 907,
      "ãĤ¸ãĥ£": 908,
      "ãģķãģĽ": 909,
      "å¢": 910,
      "ãģĹãĤĩãģĨ": 911,
      "éŁĵ": 912,
      "èĢĥ": 913,
      "çĽ¸": 914,
      "ãĥ¦ãĥ¼": 915,
      "ãģĦãģ¾ãģĻ": 916,
      "å¥½": 917,
      "ãģĦãģĦ": 918,
      "ãĥ¼ãĥĵ": 919,
      "æĽ¸": 920,
      "ãģİ": 921,
      "ãĤĪãģĨãģ«": 922,
      "ãģĪãģ¦": 923,
      "å¿ħ": 924,
      "ãģ«ãģ¤ãģĦãģ¦": 925,
      "æł¼": 926,
      "åĨĻçľŁ": 927,
      "ãģªãģĮ": 928,
      "é£Ł": 929,
      "æ©Łèĥ½": 930,
      "ãĥªãĤ¢": 931,
      "ãģĲ": 932,
      "æĥħåł±": 933,
      "ãĥ¼ãĤº": 934,
      "çĬ": 935,
      "éĩı": 936,
      "ãĥķãĤ£": 937,
      "èĬ": 938,
      "è¾¼": 939,
      "æľī": 940,
      "éĮ": 941,
      "æŀľ": 942,
      "ãĤ¢ãĤ¤": 943,
      "ãĤĭãģ¨": 944,
      "åı°": 945,
      "è©±é¡Į": 946,
      "©ļ": 947,
      "æĪ¦": 948,
      "ç´¹": 949,
      "åİŁ": 950,
      "ç´¹ä»ĭ": 951,
      "ãĤ¿ãĤ¤": 952,
      "ãĥĨãĥ¬ãĥĵ": 953,
      "ãĥ¦ãĥ¼ãĤ¶ãĥ¼": 954,
      "æº": 955,
      "ãĤ®": 956,
      "åºĹ": 957,
      "æ²": 958,
      "åŀ": 959,
      "éĮ²": 960,
      "æŁ": 961,
      "...": 962,
      "è¿ĳ": 963,
      "ãģĭãģª": 964,
      "ãĥ¼ãĥŀ": 965,
      "äº¬": 966,
      "ç´Ħ": 967,
      "ãģ©ãģĨ": 968,
      "ãģ«å¯¾": 969,
      "éĩį": 970,
      "ãģĹãģı": 971,
      "çĤ¹": 972,
      "ä¾¡": 973,
      "åħĥ": 974,
      "æħ": 975,
      "ãĤ¼": 976,
      "åĻ": 977,
      "çİ": 978,
      "ãģĭãĤĬ": 979,
      "ãģ®ä¸Ń": 980,
      "ãĤĴä½¿": 981,
      "ãģªãĤĭ": 982,
      "è¨Ń": 983,
      "ãģķãĤĮãģ¦ãģĦãĤĭ": 984,
      "æĻĤéĸĵ": 985,
      "å¸¸": 986,
      "å°ĳ": 987,
      "èī¯": 988,
      "å½¹": 989,
      "ãģªãģĮãĤī": 990,
      "ãĤ«ãĥ¼": 991,
      "å£°": 992,
      "å¾Ĺ": 993,
      "è¦³": 994,
      "çµĮ": 995,
      "ãģįãģª": 996,
      "Ĵ®å½±": 997,
      "è³ª": 998,
      "çĽ£": 999,
      "åı¯èĥ½": 1000,
      "ãģķãģĦ": 1001,
      "æ¨": 1002,
      "éŃ": 1003,
      "æĭ": 1004,
      "ãģ¡ãĤĥ": 1005,
      "ãĥĥãĥī": 1006,
      "æĤ": 1007,
      "åŀĭ": 1008,
      "ãĥ¼ãĥĹ": 1009,
      "æĮģ": 1010,
      "ãģłãģĮ": 1011,
      "ãĥĸãĥ©": 1012,
      "åĪ©çĶ¨": 1013,
      "ãĥ¤": 1014,
      "èī²": 1015,
      "ãģ¦ãĤĤ": 1016,
      "è»¢": 1017,
      "ãģĵãģ¨ãģ§": 1018,
      "åĸ": 1019,
      "ãĥ¼ãĤ·ãĥ§ãĥ³": 1020,
      "è«": 1021,
      "å¤ļãģı": 1022,
      "éģİ": 1023,
      "ãģªãĤĵ": 1024,
      "çĿĢ": 1025,
      "åĵ¡": 1026,
      "æŃ£": 1027,
      "ç½": 1028,
      "éŁĵåĽ½": 1029,
      "ãĤīãĤĮãĤĭ": 1030,
      "èµ·": 1031,
      "it": 1032,
      "ro": 1033,
      "éĩİ": 1034,
      "ãĤ¹ãĥŀãĥ¼ãĥĪ": 1035,
      "ç·¨": 1036,
      "éģķ": 1037,
      "è²©": 1038,
      "ç§ģ": 1039,
      "èªŃ": 1040,
      "!ãĢį": 1041,
      "èı": 1042,
      "åŁ": 1043,
      "åºĥ": 1044,
      "åģ": 1045,
      "å¤ļãģĦ": 1046,
      "ãģĬãĤĬ": 1047,
      "éħį": 1048,
      "ãĥ³ãĤ¹": 1049,
      "æĿ±äº¬": 1050,
      "ĠS": 1051,
      "ãģĿãĤĵãģª": 1052,
      "ä¼Ŀ": 1053,
      "å¾ħ": 1054,
      "ä¾Ľ": 1055,
      "æ¬¡": 1056,
      "2012": 1057,
      "çĿ£": 1058,
      "çĽ£çĿ£": 1059,
      "è£½åĵģ": 1060,
      "åįĺ": 1061,
      "åĪ¥": 1062,
      "ãĥĩãĤ¸": 1063,
      "ãĥ¼ãĥĵãĤ¹": 1064,
      "çĦ¶": 1065,
      "ãģĳãģ¦": 1066,
      "ãĤµãĥ¼ãĥĵãĤ¹": 1067,
      "ãĥīãĥ©": 1068,
      "ãĥģãĥ£": 1069,
      "è¨Ī": 1070,
      "ãĥ³ãĥĨ": 1071,
      "ç±": 1072,
      "æĶ¾": 1073,
      "åĻ¨": 1074,
      "èģ·": 1075,
      "ä»ķäºĭ": 1076,
      "ãģĵãĤį": 1077,
      "æĸĩ": 1078,
      "æĿ¿": 1079,
      "ãģķãĤīãģ«": 1080,
      "å¥³åŃĲ": 1081,
      "å³": 1082,
      "ãĤ¹ãĥĨ": 1083,
      "èģŀ": 1084,
      "çĻºè¡¨": 1085,
      "âĢ»": 1086,
      "éĻĲ": 1087,
      "çĶ±": 1088,
      "ç´ł": 1089,
      "ãĤ¿ãĥ«": 1090,
      "ãģ§ãģĻãģĮ": 1091,
      "ãģ¨ãģĦãģ£ãģŁ": 1092,
      "ãĤģãģ¦": 1093,
      "le": 1094,
      "å®ī": 1095,
      "ãĤĴæĮģ": 1096,
      "èª¿": 1097,
      "ãģ¨ãĤĤ": 1098,
      "ĊĊĠ": 1099,
      "åıİ": 1100,
      "é¨ĵ": 1101,
      "éľ": 1102,
      "å±±": 1103,
      "ãģĿãģĹãģ¦": 1104,
      "çĻ½": 1105,
      "ãģĹãģ¦ãģĦ": 1106,
      "éģĵ": 1107,
      "ç¯": 1108,
      "çļĦãģ«": 1109,
      "ãģĦãĤĭ": 1110,
      "åıĸãĤĬ": 1111,
      "æ¶": 1112,
      "æĥ³": 1113,
      "å³¶": 1114,
      "åĳĬ": 1115,
      "ãĥ³ãĤ¯": 1116,
      "ä»ĸ": 1117,
      "ãģ®åĨ": 1118,
      "è¦ĸ": 1119,
      "ãĤ¸ãĥ§": 1120,
      "ãģĹãģ¾ãģĹãģŁ": 1121,
      "çµĤ": 1122,
      "çĽ´": 1123,
      "ãĥªãĥ¼ãĤº": 1124,
      "è²©å£²": 1125,
      "ãĤ²ãĥ¼ãĥł": 1126,
      "ç·ļ": 1127,
      "ãģ¨ãģªãĤĭ": 1128,
      "ãĤĤãģĹ": 1129,
      "èªį": 1130,
      "ãģ¨è¨Ģ": 1131,
      "ãģĪãģŁ": 1132,
      "å±ķ": 1133,
      "è»Ĭ": 1134,
      "ãģĹãģ¾ãģĨ": 1135,
      "ook": 1136,
      "ãĥ¬ãĥ³": 1137,
      "çĬ¶": 1138,
      "¢º": 1139,
      "ãĥ¡ãĥ³ãĥĪ": 1140,
      "ãĤ¢ãĤ¯": 1141,
      "åĭŁ": 1142,
      "éĢ±": 1143,
      "éģĭ": 1144,
      "çķªçµĦ": 1145,
      "æ¥½ãģĹ": 1146,
      "èĦ": 1147,
      "åħ±": 1148,
      "ãĤıãģĽ": 1149,
      "ãģłãģĳãģ§": 1150,
      "åĪ¤": 1151,
      "ãģ§ãģ¯ãģªãģĦ": 1152,
      "ãģ£ãģ¦ãģĦ": 1153,
      "ãģıãģł": 1154,
      "ãģĹãģŁãģĦ": 1155,
      "ãĥķãĥĪ": 1156,
      "èĳ": 1157,
      "ãĤ¹ãĤ¯": 1158,
      "çīĪ": 1159,
      "è¬": 1160,
      "æĺłåĥı": 1161,
      "ä¿Ŀ": 1162,
      "ä¼ģ": 1163,
      "ä¸ĬãģĴ": 1164,
      "éģĶ": 1165,
      "ãĥķãĤ©ãĥ³": 1166,
      "ãĤ¸ãĤ§": 1167,
      "ãģ¨ãģ®": 1168,
      "å¼ķ": 1169,
      "äººãģĮ": 1170,
      "ãĤ«ãĥ¡": 1171,
      "ãģĻãĤĭãģ¨": 1172,
      "æľ«": 1173,
      "ç¨®": 1174,
      "ãĤīãĤĮãģŁ": 1175,
      "ad": 1176,
      "ä¼ļç¤¾": 1177,
      "æ³¨": 1178,
      "åıĤ": 1179,
      "ãģ»ãģ©": 1180,
      "æİ²": 1181,
      "ãģ«åħ¥": 1182,
      "èŃ°": 1183,
      "ãģ«ãģĬ": 1184,
      "âĹ": 1185,
      "ãģįãģŁ": 1186,
      "ãĤ·ãĥªãĥ¼ãĤº": 1187,
      "or": 1188,
      "ãģıãģłãģķãģĦ": 1189,
      "ãģĤãĤĬãģ¾ãģĻ": 1190,
      "éĢ²": 1191,
      "ãĥĩãĥ«": 1192,
      "è©¦": 1193,
      "ãĥĸãĥ«": 1194,
      "å¿ħè¦ģ": 1195,
      "PC": 1196,
      "å·Ŀ": 1197,
      "èŃĺ": 1198,
      "ter": 1199,
      "æľ¬ä½ľ": 1200,
      "ł´": 1201,
      "æĲ": 1202,
      "ãĤĮãģ¦": 1203,
      "å¢Ĺ": 1204,
      "ãĤ¹ãĥŀãĥ¼ãĥĪãĥķãĤ©ãĥ³": 1205,
      "ãĥ¼ãĤ¿": 1206,
      "åĭĻ": 1207,
      "ãĥģãĤ§": 1208,
      "ãĤĴåıĹ": 1209,
      "ãĤµãĤ¤": 1210,
      "èª¬": 1211,
      "ä¸ī": 1212,
      "ãģĺãĤĭ": 1213,
      "ãĥ¼ãĥĦ": 1214,
      "æ±º": 1215,
      "ãģ®å¥": 1216,
      "ãĥ´": 1217,
      "ãģ£ãģ": 1218,
      "ä»¥ä¸Ĭ": 1219,
      "ãĥ¼ãĥĸ": 1220,
      "è¶ħ": 1221,
      "è±¡": 1222,
      "ãģ¾ãĤĬ": 1223,
      "ãģ¨ãģĵãĤį": 1224,
      "å¦": 1225,
      "ãĥ¼ãĥĨ": 1226,
      "æģĭ": 1227,
      "åĬ¹": 1228,
      "å¸Ĥ": 1229,
      "book": 1230,
      "äººãģ®": 1231,
      "ç¥ŀ": 1232,
      "äºĮ": 1233,
      "ãģ«ãģªãĤĬ": 1234,
      "çı¾åľ¨": 1235,
      "æĴ®å½±": 1236,
      "ãĤĵãģ§ãģĻ": 1237,
      "000": 1238,
      "ãģĵãģ¨ãģ¯": 1239,
      "ãĥĲãĥĥ": 1240,
      "ãĥĭãĥ¼": 1241,
      "ãģ®åı": 1242,
      "nd": 1243,
      "åĤ¬": 1244,
      "éĸ¢éĢ£è¨ĺäºĭ": 1245,
      "ãĥ¡ãĥª": 1246,
      "è¦ª": 1247,
      "ç¤ºæĿ¿": 1248,
      "ãģĵãģ¨ãģĮãģ§ãģįãĤĭ": 1249,
      "ãģ£ãģ¦ãģĦãģ¾ãģĻ": 1250,
      "æľ¨": 1251,
      "ãģĤãģ£ãģŁ": 1252,
      "ãĥĭãĥ¥": 1253,
      "å©ļ": 1254,
      "ãĤĴæĬ": 1255,
      "ãĤ«ãĥ¡ãĥ©": 1256,
      "æĮĩ": 1257,
      "æ°´": 1258,
      "çĶ·æĢ§": 1259,
      "çģ": 1260,
      "ãģ®æĺ": 1261,
      "ãĥĹãĥ¬ãĤ¼": 1262,
      "ãĤ¤ãĤ¹": 1263,
      "ãĤ³ãĥŁ": 1264,
      "æİ²ç¤ºæĿ¿": 1265,
      "ãģĹãģ¦ãģ¿": 1266,
      "ãģĹãģĭãģĹ": 1267,
      "ãģĵãģ¨ãĤĴ": 1268,
      "ãĤ¤ãĥ³ãĤ¿": 1269,
      "30": 1270,
      "ãĤ·ãĥ¥": 1271,
      "ãĥ¢ãĥĩãĥ«": 1272,
      "ãĥīãĥ©ãĥŀ": 1273,
      "æµ·": 1274,
      "?ãĢį": 1275,
      "ãģªãģĭãģ£ãģŁ": 1276,
      "ãģĵãģ¨ãĤĤ": 1277,
      "ãģ§ãģ®": 1278,
      "äººãģ¯": 1279,
      "ãģĪãģ°": 1280,
      "ãĥĻãĥ³ãĥĪ": 1281,
      "äºĨ": 1282,
      "é¡Ķ": 1283,
      "ãĤ¹ãĥŀãĥĽ": 1284,
      "èĤĮ": 1285,
      "ãĥ¼ãĥª": 1286,
      "ãĥļãĥ¼ãĤ¸": 1287,
      "OS": 1288,
      "ãģĹãģ¦ãģĦãģ¾ãģĻ": 1289,
      "åħī": 1290,
      "å¯¾å¿ľ": 1291,
      "id": 1292,
      "ra": 1293,
      "¢¨": 1294,
      "ãģĺãĤĥ": 1295,
      "å¤©": 1296,
      "ãģ§ãģĹãĤĩãģĨ": 1297,
      "åĪ¶": 1298,
      "ãģ«ãģªãģ£ãģŁ": 1299,
      "éĢŁ": 1300,
      "åħ¬å¼ı": 1301,
      "ãģĹãģ¦ãģĦãģŁ": 1302,
      "ãĥĭãĤ³": 1303,
      "è¡ĵ": 1304,
      "æĬĢ": 1305,
      "ãĤĴãĤĤ": 1306,
      "ãģµ": 1307,
      "ãĢģãĢİ": 1308,
      "ãģ®ãģĬ": 1309,
      "è¦ļ": 1310,
      "ãĤŃãĥ£ãĥ³ãĥ": 1311,
      "é¦Ļ": 1312,
      "ãĥķãĤ¡ãĥ³": 1313,
      "ãĥĥãĤ¯ãĤ¹": 1314,
      "ãĤ½ãĥķãĥĪ": 1315,
      "ãĥĩãĤ¸ãĤ¿ãĥ«": 1316,
      "Ńè¼ī": 1317,
      "ãĥĥãĥģ": 1318,
      "ãĥĲãĥ¼": 1319,
      "ãĤ¦ãĤ§": 1320,
      "éĿŀ": 1321,
      "ãĥįãĥĥãĥĪæİ²ç¤ºæĿ¿": 1322,
      "ä½¿ãģĦ": 1323,
      "ãĤ¤ãĥĻãĥ³ãĥĪ": 1324,
      "éĽ£": 1325,
      "è»½": 1326,
      "ãģĸ": 1327,
      "ãģıãĤĮãĤĭ": 1328,
      "æĮģãģ¡": 1329,
      "ãģ«ãģªãģ£ãģ¦ãģĦãĤĭ": 1330,
      "åĲĪãĤıãģĽ": 1331,
      "åĢĭ": 1332,
      "éĥ½": 1333,
      "ãĥ©ãĥ¼": 1334,
      "ãģ£ãģ¦ãĤĤ": 1335,
      "ãĥĦãĤ¤": 1336,
      "ãĤ¯ãĥĪ": 1337,
      "ãģ§ãģĻãģŃ": 1338,
      "éĸĭåĤ¬": 1339,
      "åıĭ": 1340,
      "ow": 1341,
      "--": 1342,
      "âĺ": 1343,
      "é¡ŀ": 1344,
      "æĸ¹æ³ķ": 1345,
      "ãģ®å£": 1346,
      "è¶³": 1347,
      "å¤ı": 1348,
      "åł´åĲĪ": 1349,
      "æĹ¥ãģ«": 1350,
      "ãĤĦãģĻ": 1351,
      "ãģ¨ãģį": 1352,
      "ãģĳãģŁ": 1353,
      "ãĥĩãĤ¶": 1354,
      "å®¢": 1355,
      "åı£": 1356,
      "åĲĮãģĺ": 1357,
      "ãĤĮãģªãģĦ": 1358,
      "°¡": 1359,
      "ãĥĭãĥĥãĤ¯": 1360,
      "ãĥĹãĥ¬ãĤ¼ãĥ³ãĥĪ": 1361,
      "åĲĦ": 1362,
      "ãĤŃãĥ³ãĤ°": 1363,
      "æľĢæĸ°": 1364,
      "50": 1365,
      "ãĥ¼ãĥĬ": 1366,
      "ãĤĪãģŃ": 1367,
      "æ¡": 1368,
      "ãģĦãģ¤": 1369,
      "ãģĿãģ®å": 1370,
      "é«ĺãģĦ": 1371,
      "æĹ©": 1372,
      "ãģĵãģĨ": 1373,
      "200": 1374,
      "ãĤĴæİ": 1375,
      "èĲ": 1376,
      "èĹ": 1377,
      "çµ¶": 1378,
      "°¡åįĺ": 1379,
      "ç¦": 1380,
      "ãģªãģ®": 1381,
      "US": 1382,
      "é¢¨": 1383,
      "±º": 1384,
      "ãģ®æĻ": 1385,
      "ãĥģãĤ§ãĥĥãĤ¯": 1386,
      "çĭ": 1387,
      "ç®": 1388,
      "ãĤ¤ãĤ¯": 1389,
      "ãĤīãģªãģĦ": 1390,
      "ä¸ĬãģĮ": 1391,
      "ãģ«ãĤĪãĤĭ": 1392,
      "éŃħ": 1393,
      "ĠP": 1394,
      "ãĤ¹ãĥ¡": 1395,
      "æĶ¾éĢģ": 1396,
      "ãģľ": 1397,
      "ãĤ³ãĥ¡ãĥ³ãĥĪ": 1398,
      "æ·": 1399,
      "æļ": 1400,
      "ä¾¡æł¼": 1401,
      "èĹ¤": 1402,
      "ãĥ¼ãĥ©": 1403,
      "æĿĲ": 1404,
      "ãĥ¼ãĥĨãĤ£": 1405,
      "ãĤŃãĥ£ãĥ³ãĥļ": 1406,
      "ãģĿãģĵ": 1407,
      "ãĤ¹ãĤ¿ãĥ¼": 1408,
      "æħĭ": 1409,
      "ç¢º": 1410,
      "ãĤıãĤĮ": 1411,
      "ãĥ¼ãĥĲ": 1412,
      "ä¾¿": 1413,
      "ãĥ³ãĥģ": 1414,
      "åŃĺ": 1415,
      "ãĤ·ãĥ¼ãĥ³": 1416,
      "ç½®": 1417,
      "å¿µ": 1418,
      "ãĤĴè¡Į": 1419,
      "ãĤ¹ãĥļ": 1420,
      "ä»Ĭå¹´": 1421,
      "ç«¯": 1422,
      "ãĤŃãĥ£ãĥ³ãĥļãĥ¼ãĥ³": 1423,
      "èĪĪ": 1424,
      "éĺ": 1425,
      "ä»¶": 1426,
      "Ĳä¾Ľ": 1427,
      "å¯Ħ": 1428,
      "åĳ¼": 1429,
      "ç©º": 1430,
      "å¼µ": 1431,
      "wit": 1432,
      "19": 1433,
      "ĠC": 1434,
      "ç´°": 1435,
      "ãģ®ãĤĪãģĨãģª": 1436,
      "ãģªãģŁ": 1437,
      "è¡¨ç¤º": 1438,
      "ãģ®å¤§": 1439,
      "ãģĻãģİ": 1440,
      "....": 1441,
      "ãĢħãģª": 1442,
      "èĥ": 1443,
      "æĦŁãģĺ": 1444,
      "æµģ": 1445,
      "å±ĭ": 1446,
      "ãĤĴæı": 1447,
      "ãģĤãģªãģŁ": 1448,
      "ãĥĸãĥŃ": 1449,
      "ãģĦãģĭ": 1450,
      "çĶ£": 1451,
      "§ĭ": 1452,
      "ãĤŃãĥ¥": 1453,
      "å¸¯": 1454,
      "åĭķçĶ»": 1455,
      "ãģ¨ãģĭ": 1456,
      "è¿½": 1457,
      "ãģ®å¥³": 1458,
      "ãģªãģ®ãģ§": 1459,
      "éĽ¢": 1460,
      "ãĥ³ãĥĳ": 1461,
      "ãĤĨ": 1462,
      "ç¸": 1463,
      "ãģ®åĲ": 1464,
      "ãĥĺ": 1465,
      "ãĤ¯ãĥ©": 1466,
      "ãĤªãĥª": 1467,
      "ãģıãĤĭ": 1468,
      "å®Į": 1469,
      "ãģ¡ãĤī": 1470,
      "åħħ": 1471,
      "ãĤĴæī": 1472,
      "ãģ®åŃ": 1473,
      "ãĥĸãĥ¬": 1474,
      "ãģ«éĸ¢": 1475,
      "ãģ¨æĢĿãģĦãģ¾ãģĻ": 1476,
      "å£«": 1477,
      "åķĨ": 1478,
      "ãĤ¢ãĥ«": 1479,
      "åĨį": 1480,
      "æĸ°ãģĹãģĦ": 1481,
      "es": 1482,
      "ç°¡åįĺ": 1483,
      "ãģ§ãģĹãģŁ": 1484,
      "ãĤģãģŁ": 1485,
      "ãĥĳãĤ½": 1486,
      "ãģ®æĺł": 1487,
      "ãĤıãĤĬ": 1488,
      "ãĤ°ãĥ©": 1489,
      "ĠT": 1490,
      "iPad": 1491,
      "ãĥķãĤ§": 1492,
      "ä½¿çĶ¨": 1493,
      "ãĤĴæĦ": 1494,
      "çĹ": 1495,
      "ç±³": 1496,
      "è¨Ńå®ļ": 1497,
      "ãĥĳãĤ½ãĤ³ãĥ³": 1498,
      "èĢĥãģĪ": 1499,
      "ãĤ¯ãĤ¿ãĥ¼": 1500,
      "ãĥŀãĥ³": 1501,
      "ãĥĵãĤ¸": 1502,
      "è²·": 1503,
      "AK": 1504,
      "æŁ»": 1505,
      "è·": 1506,
      "èĭ±": 1507,
      "ãģ«ãģªãģ£ãģ¦": 1508,
      "2011": 1509,
      "æĸŃ": 1510,
      "ãģŁãĤģãģ«": 1511,
      "ãģ¥": 1512,
      "æľ¬å½ĵ": 1513,
      "èĩªèº«": 1514,
      "æĹı": 1515,
      "çĶ»éĿ¢": 1516,
      "çķ°": 1517,
      "HD": 1518,
      "åįĬ": 1519,
      "ma": 1520,
      "ãĥ¼ãĤ«ãĥ¼": 1521,
      "ãĥ»ãĢĮ": 1522,
      "å¤«": 1523,
      "ãĤīãģĦ": 1524,
      "ãģ®ä¸Ģ": 1525,
      "æľĽ": 1526,
      "ãģįãģ¾ãģĻ": 1527,
      "éĸĭå§ĭ": 1528,
      "ĠE": 1529,
      "ãĤ¹ãĥĳ": 1530,
      "å®ŁéļĽ": 1531,
      "ãģĳãģ©": 1532,
      "ãĤ³ãĥ¬": 1533,
      "èĲ½": 1534,
      "çİĩ": 1535,
      "ve": 1536,
      "æ¤": 1537,
      "çļĨ": 1538,
      "æ¯İ": 1539,
      "ĠM": 1540,
      "è³¼": 1541,
      "And": 1542,
      "ãĥ¼ãģĮ": 1543,
      "ãĥĩãĥ¼ãĤ¿": 1544,
      "æ¿": 1545,
      "ãģ«ãģ¨": 1546,
      "ãģŁãĤĬ": 1547,
      "ãĤ·ãĥ£ãĥ«": 1548,
      "ãģĽãĤĭ": 1549,
      "é¤": 1550,
      "ãĤĴä½ľ": 1551,
      "ãģĹãģ¦ãĤĤ": 1552,
      "ãĥ³ãĥĢ": 1553,
      "åħ¨åĽ½": 1554,
      "éłŃ": 1555,
      "é§": 1556,
      "ãģŀ": 1557,
      "ãģĹãĤĪãģĨ": 1558,
      "æķĻ": 1559,
      "roid": 1560,
      "ä¿Ĥ": 1561,
      "ãĥĬãĥ«": 1562,
      "ãĥĢãĤ¦": 1563,
      "ç²": 1564,
      "ãĤ»ãĥĥãĥĪ": 1565,
      "çĸ": 1566,
      "ãģ¡ãĤĩ": 1567,
      "åķıé¡Į": 1568,
      "çī¹éĽĨ": 1569,
      "ç¹": 1570,
      "è¢": 1571,
      "ãģķãĤĵãģ¯": 1572,
      "Android": 1573,
      "ãĤ¢ãĥ¡ãĥª": 1574,
      "ãģĵãĤĮãģ¯": 1575,
      "ãĥĭãĥ¥ãĥ¼ãĤ¹": 1576,
      "TE": 1577,
      "åĩºæ¼Ķ": 1578,
      "ç¬ĳ": 1579,
      "ä¸ĩåĨĨ": 1580,
      "çµĲæŀľ": 1581,
      "ãĥĲãĥĥãĥĨ": 1582,
      "ãĤ¢ãĥ¡ãĥªãĤ«": 1583,
      "ãĥĥãĤ·ãĥ§ãĥ³": 1584,
      "ãģ®å£°": 1585,
      "ãĥĩãĤ¶ãĤ¤ãĥ³": 1586,
      "witter": 1587,
      "±ãģĦ": 1588,
      "ç³": 1589,
      "ãģ£ãģ¦ãģĦãģŁ": 1590,
      "è¿Ķ": 1591,
      "ãģłãģĭãĤī": 1592,
      "ãĥ¬ãĤ¹": 1593,
      "æĹ¥ãĤĪãĤĬ": 1594,
      "é£Ľ": 1595,
      "åĴ": 1596,
      "é»": 1597,
      "ãģ®äºº": 1598,
      "äº¤": 1599,
      "ãĥĥãĤ¿ãĥ¼": 1600,
      "æľĢå¤§": 1601,
      "æ®µ": 1602,
      "ªģ": 1603,
      "æĻĤãģ«": 1604,
      "éŃħåĬĽ": 1605,
      "è³¼åħ¥": 1606,
      "ãĤĤãģĨ": 1607,
      "ãĤ¤ãĥ³ãĥĪ": 1608,
      "éģ©": 1609,
      "ãģłãĤįãģĨãģĭ": 1610,
      "ãģ®æĦ": 1611,
      "å¹³": 1612,
      "ãģ¸ãģ®": 1613,
      "ãĥ¼ãģ®": 1614,
      "ãĤĤãģ¡": 1615,
      "ãĥ¡ãĥ¼ãĤ¸": 1616,
      "ãģ¾ãĤĭ": 1617,
      "èģ´": 1618,
      "çĶŁæ´»": 1619,
      "ç·¨éĽĨ": 1620,
      "æŃ¢": 1621,
      "ãĥĿãĥ¼ãĥĪ": 1622,
      "ãĢįãĢĤ": 1623,
      "å½¢": 1624,
      "éĸĭçĻº": 1625,
      "ãĥ¼ãĤĴ": 1626,
      "ä¾¿åĪ©": 1627,
      "çĪ": 1628,
      "çĴ": 1629,
      "èĳī": 1630,
      "¥½": 1631,
      "ãģ¹ãģ¦": 1632,
      "ãĥ¼ãĥ¬": 1633,
      "éĽ»è©±": 1634,
      "åı·": 1635,
      "èª°": 1636,
      "æŃĮ": 1637,
      "ãģĻãģĶ": 1638,
      "ãģ®æĻĤ": 1639,
      "è¥": 1640,
      "æĻĤä»£": 1641,
      "èī¯ãģĦ": 1642,
      "ãģ¡ãĤĥãĤĵ": 1643,
      "100": 1644,
      "åıį": 1645,
      "ãĥĵãĥ¥ãĥ¼": 1646,
      "ãĥ³ãģ®": 1647,
      "å¤ª": 1648,
      "åĸ¶": 1649,
      "ãģªãģ©ãģ®": 1650,
      "ãĤ©": 1651,
      "éĥ¨åĪĨ": 1652,
      "èĭ¥": 1653,
      "è©ķ": 1654,
      "ĩãĤ£": 1655,
      "å°Ĥ": 1656,
      "åĳ½": 1657,
      "ä¾ĭ": 1658,
      "ãĥ¼ãĥģ": 1659,
      "å¤ľ": 1660,
      "ãĥ³ãĥĲ": 1661,
      "ãģ¾ãģļ": 1662,
      "æľª": 1663,
      "ãĥĩãĤ£ãĤ¢": 1664,
      "AKB": 1665,
      "å²": 1666,
      "å§¿": 1667,
      "ä¼ģæ¥Ń": 1668,
      "å¤§ãģįãģª": 1669,
      "ãģ¨æĢĿãģĨ": 1670,
      "15": 1671,
      "ãģ®ãĤĤ": 1672,
      "éĸ¢ä¿Ĥ": 1673,
      "ãģ«ãĤĪãģ£ãģ¦": 1674,
      "å¸¸ãģ«": 1675,
      "çŃĶ": 1676,
      "ãģıãģª": 1677,
      "ace": 1678,
      "åı²": 1679,
      "ç¿": 1680,
      "ãģ¨ãģªãģ£ãģŁ": 1681,
      "åĤĻ": 1682,
      "ãģ²ãģ¨": 1683,
      "ãĥ¼ãĥķ": 1684,
      "ãĥ¼ãĥŃ": 1685,
      "äºķ": 1686,
      "å½¼å¥³": 1687,
      "æ³¨çĽ®": 1688,
      "ãĤįãĤĵ": 1689,
      "IN": 1690,
      "ãĤ¤ãĥ¡ãĥ¼ãĤ¸": 1691,
      "ãĥĩãĤª": 1692,
      "80": 1693,
      "åĳ¨": 1694,
      "LA": 1695,
      "çĨ": 1696,
      "ãģ®æĸ¹": 1697,
      "åĭĿ": 1698,
      "æŃ³": 1699,
      "ãģķãĤĵãģĮ": 1700,
      "æİ¥": 1701,
      "éľ²": 1702,
      "éĬ": 1703,
      "ãĤ¹ãĥĿ": 1704,
      "æ®º": 1705,
      "èħ": 1706,
      "éĸĢ": 1707,
      "å½ĵéģ¸": 1708,
      "âĺħ": 1709,
      "gle": 1710,
      "ä½ı": 1711,
      "åĽ²": 1712,
      "ãĥĥãĤ·ãĥ¥": 1713,
      "åº§": 1714,
      "çĻºè¨Ģ": 1715,
      "äºĪå®ļ": 1716,
      "ãĥĵãĤ¸ãĥį": 1717,
      "ãĥĲãĥĥãĥĨãĥªãĥ¼": 1718,
      "ãĤĤãģ¡ãĤįãĤĵ": 1719,
      "ãģķãĤĮãģ¦": 1720,
      "ON": 1721,
      "ãĥ³ãĤ¿": 1722,
      "ä½İ": 1723,
      "ãĥ³ãĥŃ": 1724,
      "ãģ«è¡Į": 1725,
      "ãĤĪãģı": 1726,
      "et": 1727,
      "ãĥ¼ãĤ¿ãĥ¼": 1728,
      "el": 1729,
      "ãģĵãģĵ": 1730,
      "ãĥĵãĥĩãĤª": 1731,
      "æ©ŁåĻ¨": 1732,
      "16": 1733,
      "æľĿ": 1734,
      "ç¯Ģ": 1735,
      "æĸ½": 1736,
      "ãĥĻãĥ«": 1737,
      "ãĥ¬ãĥĵãĥ¥ãĥ¼": 1738,
      "ãĤĴå®Ł": 1739,
      "èĬ¸": 1740,
      "ãĤĬãģ®": 1741,
      "åŃĹ": 1742,
      "ãĤıãĤĮãĤĭ": 1743,
      "åĬĩ": 1744,
      "æ§ĺãĢħãģª": 1745,
      "ãĤ¯ãĥªãĤ¹ãĥŀ": 1746,
      "°·": 1747,
      "ãĤ¢ãĤ«": 1748,
      "ä»ĬåĽŀãģ¯": 1749,
      "å®¹éĩı": 1750,
      "ãĤĬãģ¾ãģĻ": 1751,
      "å¢ĥ": 1752,
      "ãģ«ãĤĪãĤĬ": 1753,
      "äººéĸĵ": 1754,
      "çĽĽ": 1755,
      "åĢ¤": 1756,
      "èĪŀ": 1757,
      "25": 1758,
      "è°·": 1759,
      "ãģĭãģĳ": 1760,
      "ãģ¾ãģł": 1761,
      "æĺ¥": 1762,
      "ãģ»ãģĭ": 1763,
      "èĬ±": 1764,
      "ãĥĨãĥł": 1765,
      "ãĤ¢ãĤ¤ãĥĨãĥł": 1766,
      "éĻĲå®ļ": 1767,
      "å¿ľåĭŁ": 1768,
      "ãĤ¸ãĥ¥": 1769,
      "æĴ": 1770,
      "ãĤ¹ãĥĶ": 1771,
      "acebook": 1772,
      "ãģ®ãģł": 1773,
      "æĹ¥ãģ®": 1774,
      "ä¹Ĺ": 1775,
      "ãĤªãĥ³": 1776,
      "ãĥ¨": 1777,
      "èı¯": 1778,
      "ãĥ©ãĥ³ãĤŃãĥ³ãĤ°": 1779,
      "çĽ¸æīĭ": 1780,
      "¥½ãģĹ": 1781,
      "èį": 1782,
      "ãĥĪãĥ¬": 1783,
      "æł¡": 1784,
      "ãģ®æĺłçĶ»": 1785,
      "Goo": 1786,
      "Twitter": 1787,
      "æ£": 1788,
      "ãĤĬãģ¨": 1789,
      "ãĥĿãĤ¤ãĥ³ãĥĪ": 1790,
      "èĩªåĪĨãģ®": 1791,
      "ä¸»æ¼Ķ": 1792,
      "ãģ®åĭ": 1793,
      "ãģĮåĩº": 1794,
      "æĻ®": 1795,
      "ãĤ±ãĥ¼ãĤ¹": 1796,
      "åģ´": 1797,
      "ic": 1798,
      "ãĤĴãģĻãĤĭ": 1799,
      "ãĥīãĥ«": 1800,
      "ãĤŃãĥ£ãĥ©": 1801,
      "ãģ§ãģįãģ¾ãģĻ": 1802,
      "æ¥µ": 1803,
      "æĹħ": 1804,
      "äººãĤĤ": 1805,
      "è£ħ": 1806,
      "ig": 1807,
      "ãĤ³ãĥ©": 1808,
      "åķĨåĵģ": 1809,
      "Google": 1810,
      "åī²": 1811,
      "æĸĻçĲĨ": 1812,
      "³¨": 1813,
      "¹åĪ¤": 1814,
      "ãĤīãģĭ": 1815,
      "å¤¢": 1816,
      "åĲĳãģĳ": 1817,
      "æĤª": 1818,
      "èĸ": 1819,
      "ç¥Ń": 1820,
      "æĿĳ": 1821,
      "åħ¬å¼ıãĤµãĤ¤ãĥĪ": 1822,
      "Facebook": 1823,
      "é©ļ": 1824,
      "ãĥĹãĥ©": 1825,
      "åł´æīĢ": 1826,
      "åĴĮ": 1827,
      "ãģ®è¨ĺäºĭ": 1828,
      "ãģ®æī": 1829,
      "ãĤ¯ãĥªãĤ¹ãĥŀãĤ¹": 1830,
      "ãģ¾ãģ¨": 1831,
      "48": 1832,
      "DV": 1833,
      "ãĥ¼ãĥĢ": 1834,
      "ãĥ»ãĢİ": 1835,
      "è«ĸ": 1836,
      "ãģŁãģł": 1837,
      "ãģĭãĤĭ": 1838,
      "å®¶æĹı": 1839,
      "ãĤµãĤ¤ãĤº": 1840,
      "ãģªãģĹ": 1841,
      "ç³»": 1842,
      "¡çĶ¨": 1843,
      "ãģ¾ãģ£ãģŁ": 1844,
      "åıĤåĬł": 1845,
      "al": 1846,
      "ãĤĴãģĬ": 1847,
      "ãĥĸãĥŃãĤ°": 1848,
      "ãģ§ãģįãģªãģĦ": 1849,
      "æĲº": 1850,
      "13": 1851,
      "ãĤ¤ãĥ¤": 1852,
      "ãĤıãģĳ": 1853,
      "ä»Ĭå¾Į": 1854,
      "çµĮé¨ĵ": 1855,
      "ãĤĴæ¼Ķ": 1856,
      "åĨħå®¹": 1857,
      "æºĢ": 1858,
      "18": 1859,
      "ãģĦãģĨ": 1860,
      "åĭ¢": 1861,
      "èºį": 1862,
      "ind": 1863,
      "æ²¢": 1864,
      "çĭ¬": 1865,
      "åĮĹ": 1866,
      "!?": 1867,
      "ãĤĴè¦ĭãĤĭ": 1868,
      "çĴ°": 1869,
      "ãģĭãĤīãģ¯": 1870,
      "ãĤĴãģĶ": 1871,
      "ãģ«æĮ": 1872,
      "åİ»": 1873,
      "çµĲå©ļ": 1874,
      "ãĢģâĢľ": 1875,
      "ãģ§ãģ¯ãģªãģı": 1876,
      "ãĥ»ãĥ»": 1877,
      "è²»": 1878,
      "è¦ĸèģ´": 1879,
      "ãĤĴéģ¸": 1880,
      "ãĥ¡ãĥĩãĤ£ãĤ¢": 1881,
      "ãģ¾ãģ¾": 1882,
      "ç¨ĭ": 1883,
      "å¼ķãģį": 1884,
      "ãģ«ãģ¨ãģ£ãģ¦": 1885,
      "æĴĥ": 1886,
      "ä½¿ãģĪãĤĭ": 1887,
      "ãģ©ãģĵ": 1888,
      "ãĥ¡ãĥ¼ãĥ«": 1889,
      "ou": 1890,
      "éĻ¤": 1891,
      "ãģ®ãģĤãĤĭ": 1892,
      "ãģĪãģªãģĦ": 1893,
      "ãģ¨ãģĦãģĨãģĵãģ¨": 1894,
      "ãĤ±ãĥĥãĥĪ": 1895,
      "ãģķãģĽãĤĭ": 1896,
      "ä¸Ģçķª": 1897,
      "ãģĹãģ¾ãģ£ãģŁ": 1898,
      "ç±į": 1899,
      "å¯ĦãģĽ": 1900,
      "ĠD": 1901,
      "ĲŃè¼ī": 1902,
      "å®¤": 1903,
      "è¦ĭãĤĭ": 1904,
      "çĦ¡æĸĻ": 1905,
      "éŁ³æ¥½": 1906,
      "UR": 1907,
      "æĽ²": 1908,
      "åŁº": 1909,
      "ĠA": 1910,
      "ãģ®æķ": 1911,
      "ãģ®æŃ": 1912,
      "æ°Ĺãģ«ãģªãĤĭ": 1913,
      "USB": 1914,
      "ãĥ³ãĥŃãĥ¼ãĥī": 1915,
      "ãģĭãĤı": 1916,
      "ãģłãģ¨": 1917,
      "åĬ¹æŀľ": 1918,
      "è³ĩ": 1919,
      "æ¯Ķ": 1920,
      "ãĤ¿ãĤ¤ãĥĹ": 1921,
      "ãģ¡ãĤĩãģ£ãģ¨": 1922,
      "åį°": 1923,
      "ãĥĢãĤ¦ãĥ³ãĥŃãĥ¼ãĥī": 1924,
      "VI": 1925,
      "æ¹": 1926,
      "nt": 1927,
      "ãģ®ãĤĪãģĨãģ«": 1928,
      "å¥½ãģį": 1929,
      "ãĤ¹ãĤ«": 1930,
      "ãģ®å·": 1931,
      "è¦ı": 1932,
      "éģķãģĦ": 1933,
      "´»": 1934,
      "ãģĭãĤĤãģĹ": 1935,
      "ãĥ¬ãĤ¤": 1936,
      "å¤§ãģį": 1937,
      "è¨ĺéĮ²": 1938,
      "åĥķ": 1939,
      "ãģĺãĤĥãģªãģĦ": 1940,
      "ãģĮçĻ»åł´": 1941,
      "ä¸Ģæĸ¹": 1942,
      "ãĤ±ãĤ¢": 1943,
      "at": 1944,
      "re": 1945,
      "ãģĵãĤĵãģª": 1946,
      "å¤īãĤı": 1947,
      "ãģ«ãģĤãĤĭ": 1948,
      "ãģ®å¿": 1949,
      "ÃĹ": 1950,
      "ãģ£ãģĭãĤĬ": 1951,
      "äººãģ«": 1952,
      "çªģ": 1953,
      "ãĤªãĤ¹": 1954,
      "éĽ»åŃĲ": 1955,
      "ach": 1956,
      "âĹı": 1957,
      "ãĤĬãģ«": 1958,
      "æıĽ": 1959,
      "ãģ®ãģ«": 1960,
      "ãģ©ãĤĵãģª": 1961,
      "æ§ĭ": 1962,
      "ãģĺãĤģ": 1963,
      "èµ·ãģĵ": 1964,
      "24": 1965,
      "ãģ«ãģ¦": 1966,
      "ãģıãĤĮ": 1967,
      "æ³ģ": 1968,
      "ãĤĪãĤĬãĤĤ": 1969,
      "ãĥĦãĤ¤ãĥĥãĤ¿ãĥ¼": 1970,
      "ãģĹãģŁãĤĬ": 1971,
      "ãģ®å½": 1972,
      "ãģ¿ãģŁãģĦ": 1973,
      "æ¶Ī": 1974,
      "14": 1975,
      "ãĤīãģļ": 1976,
      "å·¥": 1977,
      "ãĤ¹ãĤ¿ãĤ¤ãĥ«": 1978,
      "ãĤ´ãĥ«": 1979,
      "ãĤĴåıĹãģĳ": 1980,
      "ãĥ¼ãĥį": 1981,
      "æĺŁ": 1982,
      "ãĥıãĤ¤": 1983,
      "ãĥķãĤ¡ãĤ¤ãĥ«": 1984,
      "å¥½ãģįãģª": 1985,
      "è¥¿": 1986,
      "ãģĹãģªãģĦ": 1987,
      "åıĬ": 1988,
      "ãĤ¦ãĤ£": 1989,
      "çĲĨçĶ±": 1990,
      "èĤ²": 1991,
      "ãĤ¢ãĤ¯ãĤ»": 1992,
      "©ĭ": 1993,
      "ãģĵãģ¡ãĤī": 1994,
      "ãĥķãĤ¡ãĥĥãĤ·ãĥ§ãĥ³": 1995,
      "ãĥĥãĤ»": 1996,
      "ãĤ°ãĥ«": 1997,
      "æĽ¿": 1998,
      "ãģ§ãģĹãĤĩãģĨãģĭ": 1999,
      "ãģ«åĩº": 2000,
      "ãĤĴæ¥½ãģĹ": 2001,
      "ãģ¤ãģ®": 2002,
      "ãĥ³ãģĮ": 2003,
      "ãģ®æĥ": 2004,
      "ãĥ¼ãĥĳ": 2005,
      "é£²": 2006,
      "éĸĵãģ«": 2007,
      "ãĤĴæĦŁ": 2008,
      "DVD": 2009,
      "ãģŁãģı": 2010,
      "ãģ®å°": 2011,
      "ãĥ³ãĥĦ": 2012,
      "æĸ°ãģŁ": 2013,
      "ãģĦãģ«": 2014,
      "ãĤĴåħ¥": 2015,
      "ãĥ³ãĥĹ": 2016,
      "ä»ĺãģį": 2017,
      "è¢«": 2018,
      "ãĤµãĥ¼": 2019,
      "æĻ¯": 2020,
      "ç·Ĵ": 2021,
      "ãĤīãģĹãģĦ": 2022,
      "è»¢èģ·": 2023,
      "įä½ľ": 2024,
      "æŃ»": 2025,
      "ç©¶": 2026,
      "è¾¼ãģ¿": 2027,
      "ãĥ¼ãĥªãĥ¼": 2028,
      "ãĤĵãģ©": 2029,
      "åħ·": 2030,
      "æĽ´": 2031,
      "ãģ®åĨĻ": 2032,
      "ĠG": 2033,
      "ãĥķãĥ«": 2034,
      "å¥³åĦª": 2035,
      "æ©ĭ": 2036,
      "ãĥ¼ãĥľ": 2037,
      "ãĤ³ãĥ³ãĥ": 2038,
      "ãĥģãĥ§": 2039,
      "ãģ®åĨĻçľŁ": 2040,
      "è²ł": 2041,
      "äºĪåĳĬ": 2042,
      "ãģ«å¯¾ãģĹãģ¦": 2043,
      "ar": 2044,
      "å¤±": 2045,
      "ãĤ«ãĥ¼ãĥī": 2046,
      "åĩºãģĻ": 2047,
      "ãĤ·ãĥ§ãĥ¼": 2048,
      "æľŁå¾ħ": 2049,
      "çģ½": 2050,
      "æµ·å¤ĸ": 2051,
      "ç«¯æľ«": 2052,
      "ãĥĸãĥ¬ãĥĥãĥĪ": 2053,
      "æľĢå¾Į": 2054,
      "ãģĤãĤĬãģ¾ãģĽãĤĵ": 2055,
      "çµĤäºĨ": 2056,
      "æľ¬å½ĵãģ«": 2057,
      "ãĥ©ãĤ¤ãĥ³": 2058,
      "ãģ®åł´": 2059,
      "ãĤıãĤĮãģŁ": 2060,
      "çī¹åĪ¥": 2061,
      "ãģ¦ãģ¯": 2062,
      "çŁ³": 2063,
      "çİĭ": 2064,
      "ãģªãĤĵãģ¦": 2065,
      "æ¿Ģ": 2066,
      "ĠL": 2067,
      "each": 2068,
      "ãģįãģ¾ãģĹãģŁ": 2069,
      "çĸĳ": 2070,
      "çī¹ãģ«": 2071,
      "ows": 2072,
      "eachy": 2073,
      "éº": 2074,
      "ãĥĪãĥĥãĥĹ": 2075,
      "åĪĩãĤĬ": 2076,
      "æ¡Ī": 2077,
      "21": 2078,
      "æį": 2079,
      "ãģ¯ãģļ": 2080,
      "ãĤīãĤĮãģ¦ãģĦãĤĭ": 2081,
      "æĺ¨": 2082,
      "çŃĸ": 2083,
      "ãĤĦãģĻãģĦ": 2084,
      "éĺ²": 2085,
      "éŁ¿": 2086,
      "ãĤ¹ãĥĨãĤ£": 2087,
      "ãģ¨ãģªãģ£ãģ¦ãģĦãĤĭ": 2088,
      "23": 2089,
      "TO": 2090,
      "Wind": 2091,
      "ãĥ³ãĤ¿ãĥ¼": 2092,
      "èĪ¬": 2093,
      "ĠB": 2094,
      "Ĥª": 2095,
      "ãĤĮãģ¦ãģĦãĤĭ": 2096,
      "ä¸İ": 2097,
      "Windows": 2098,
      "Peachy": 2099,
      "ãģ¨ãģĹãģŁ": 2100,
      "ãĥ¡ãĥ¼ãĤ«ãĥ¼": 2101,
      "ãĥĨãĥ¼ãĥŀ": 2102,
      "ç´Ļ": 2103,
      "ä½ĵé¨ĵ": 2104,
      "åħħéĽ»": 2105,
      "TA": 2106,
      "æ°ĳ": 2107,
      "å¿«": 2108,
      "çŃī": 2109,
      "éĩįè¦ģ": 2110,
      "å»": 2111,
      "ãģªãģĬ": 2112,
      "ãģĻãģĻ": 2113,
      "ç·ı": 2114,
      "æĢĿãģĦ": 2115,
      "æ±Ĥ": 2116,
      "è«ĩ": 2117,
      "ãģ§ãģĻãģĭ": 2118,
      "èĩªåĭķ": 2119,
      "an": 2120,
      "ãģĻãģĲ": 2121,
      "ä¸¡": 2122,
      "æŃ©": 2123,
      "è¨Ģèĳī": 2124,
      "åīįãģ«": 2125,
      "é£Łãģ¹": 2126,
      "ãĤĴãĤĤãģ£ãģ¨": 2127,
      "é»Ĵ": 2128,
      "lt": 2129,
      "ãģĤãĤĮãģ°": 2130,
      "è¦§": 2131,
      "å®Łãģ¯": 2132,
      "ãĥªãĤ¢ãĥ«": 2133,
      "ãĥĸãĥ©ãĥ³ãĥī": 2134,
      "éĹ": 2135,
      "ãģ®æĸ°": 2136,
      "ãģįãģŁãģĦ": 2137,
      "ãĤ¿ãĥĸãĥ¬ãĥĥãĥĪ": 2138,
      "ãģ£ãģı": 2139,
      "ãĥ©ãĥ³ãĤ¹": 2140,
      "ive": 2141,
      "çĶº": 2142,
      "ãĤĴæķ": 2143,
      "ãĥŀãĤ¤": 2144,
      "ãģķãĤĮãģ¦ãģĦãģ¾ãģĻ": 2145,
      "åĥį": 2146,
      "çŃĨ": 2147,
      "çĴ°å¢ĥ": 2148,
      "ãģĻãģĻãĤģ": 2149,
      "ãĤ¡": 2150,
      "ãĤ·ãĤ§": 2151,
      "çī©èªŀ": 2152,
      "ãĤ¤ãĥī": 2153,
      "å®³": 2154,
      "èªĮ": 2155,
      "èĭ¦": 2156,
      "ãĥ¼ãĥĭ": 2157,
      "å¸Į": 2158,
      "æ³¢": 2159,
      "ãĤĴãģ¤": 2160,
      "ãĤ³ãĥ³ãĥĨ": 2161,
      "å¾©": 2162,
      "è©³": 2163,
      "ãĤ·ãĥ§ãĥĥãĥĹ": 2164,
      "ä¼ģçĶ»": 2165,
      "çµĦãģ¿": 2166,
      "ãģ¹ãģį": 2167,
      "ãģ®ãĤ¢": 2168,
      "ä»»": 2169,
      "é¡į": 2170,
      "éłĥ": 2171,
      "çł": 2172,
      "ãģ«ãģĻãĤĭ": 2173,
      "åĲī": 2174,
      "ãĥĳãĥ³": 2175,
      "æ®ĭ": 2176,
      "ãĥªãĥ³ãĤ°": 2177,
      "èŃ·": 2178,
      "ãģ®åĩ": 2179,
      "ãģ®åī": 2180,
      "ãĥķãĥ¬": 2181,
      "å¾´": 2182,
      "éħįä¿¡": 2183,
      "ãģĹãģķ": 2184,
      "éĿĴ": 2185,
      "å¼·ãģĦ": 2186,
      "¾Į": 2187,
      "æĸ¹ãģĮ": 2188,
      "é¤¨": 2189,
      "ãĥ¼ãĥįãĥĥãĥĪ": 2190,
      "äººåħ¬": 2191,
      "å¸°": 2192,
      "èĢħãģ®": 2193,
      "ãĥ©ãĤ¤ãĥķ": 2194,
      "æºĲ": 2195,
      "ãĥ¬ãĥ³ãĤ¸": 2196,
      "URL": 2197,
      "SD": 2198,
      "ãĤĴç´¹ä»ĭ": 2199,
      "ãĥªãĤ¹ãĥĪ": 2200,
      "ãĤ¯ãĥŃ": 2201,
      "ç¤¾éķ·": 2202,
      "åĲįæ§ĺ": 2203,
      "ä»ĺãģĳ": 2204,
      "ãĥĵãĤ¸ãĥįãĤ¹": 2205,
      "ãģ®æ©Ł": 2206,
      "ãĥĢãĤ¤": 2207,
      "æĬķ": 2208,
      "æĤ©": 2209,
      "éĿŀå¸¸ãģ«": 2210,
      "TV": 2211,
      "ãģ°ãģĭãĤĬ": 2212,
      "ãģĮæı": 2213,
      "ãĤĮãģ¾ãģĽãĤĵ": 2214,
      "ãĤ·ãĥ¼": 2215,
      "ç´ļ": 2216,
      "æľĢãĤĤ": 2217,
      "æľĢè¿ĳ": 2218,
      "ãģ¿ãģ«": 2219,
      "ãĤ¦ãĤ¹": 2220,
      "ãģĦãģ¾ãģĹãģŁ": 2221,
      "åĢĴ": 2222,
      "ãĥ©ãĤ¤ãĥĸ": 2223,
      "èĤī": 2224,
      "ä¸»äººåħ¬": 2225,
      "ãĥĪãĥ©": 2226,
      "é¡ĺ": 2227,
      "ç«ĭãģ¡": 2228,
      "ãĤ¤ãĥ³ãĤ¿ãĥ¼ãĥįãĥĥãĥĪ": 2229,
      "çĽĽãĤĬ": 2230,
      "ãģĵãģĿ": 2231,
      "ãĤ¢ãĤ¯ãĤ·ãĥ§ãĥ³": 2232,
      "åĿ": 2233,
      "ãģĦãģı": 2234,
      "ãģĻãĤĮãģ°": 2235,
      "ãĤĤãģĤãĤĭ": 2236,
      "éĩĮ": 2237,
      "çĨ±": 2238,
      "40": 2239,
      "ĠN": 2240,
      "çĶŁãģį": 2241,
      "å¸Ĥåł´": 2242,
      "å¡": 2243,
      "ãģ§ãģĤãĤĬ": 2244,
      "æĹ¥æľ¬ãģ®": 2245,
      "ä»ĬåĽŀãģ®": 2246,
      "ç¦ģ": 2247,
      "ãģĿãģĵãģ§": 2248,
      "µģ": 2249,
      "çĮ": 2250,
      "ĠĠ": 2251,
      "ãĥĹãĥ©ãĤ¤": 2252,
      "ãĤ³ãĥ¢": 2253,
      "éģł": 2254,
      "è±ª": 2255,
      "æ¤ľ": 2256,
      "co": 2257,
      "å¹¸": 2258,
      "çĶ»åĥı": 2259,
      "ãĤ½ãĥĭãĥ¼": 2260,
      "éĢļä¿¡": 2261,
      "ãĤ¬ãĥ¼ãĥ«": 2262,
      "å·»": 2263,
      "æ¬²": 2264,
      "ãģ®åĨħ": 2265,
      "å®ŁéļĽãģ«": 2266,
      "èĪŀåı°": 2267,
      "ãģ«ãģĹãģŁ": 2268,
      "å¹´ãģ«": 2269,
      "çķ¥": 2270,
      "èµ¤": 2271,
      "ãĥĴãĥĥãĥĪ": 2272,
      "èıľ": 2273,
      "ãĥªãĥĨãĤ£": 2274,
      "ãĥ«ãģĮ": 2275,
      "æľŁéĸĵ": 2276,
      "é¨Ĵ": 2277,
      "ä»£è¡¨": 2278,
      "ãĥĹãĥ¬ãĥŁ": 2279,
      "æ±ł": 2280,
      "æı´": 2281,
      "èª¿æŁ»": 2282,
      "ãĥ´ãĤ£": 2283,
      "æģĭæĦĽ": 2284,
      "å´": 2285,
      "æľĢå¼·": 2286,
      "ä¸ĢèĪ¬": 2287,
      "ä¼ļåł´": 2288,
      "ME": 2289,
      "Wi": 2290,
      "å¹ħ": 2291,
      "ç¿Ĵ": 2292,
      "ĵįä½ľ": 2293,
      "ãģĻãĤĭãģĵãģ¨": 2294,
      "åĽł": 2295,
      "ä¸Ĭãģ§": 2296,
      "ãĤ¦ãĤ©": 2297,
      "æ°ĹæĮģãģ¡": 2298,
      "éĽĳ": 2299,
      "±ºå®ļ": 2300,
      "ãĤªãĤ¹ãĤ¹ãĥ¡": 2301,
      "ãģĳãĤĮãģ°": 2302,
      "æłª": 2303,
      "ãĥĩãĥ¼ãĥĪ": 2304,
      "ãĤŃãĥ¼": 2305,
      "ä¸Ģç·Ĵ": 2306,
      "ãģ®ãģ§ãģ¯ãģªãģĦ": 2307,
      "ãģĮãģĤãĤĬãģ¾ãģĻ": 2308,
      "ãĥªãĥ³": 2309,
      "ãģĹãģ¦ãģĬãĤĬ": 2310,
      "ãĤ½ãĥ³": 2311,
      "çĲĥ": 2312,
      "ãĥĽãĥ¼ãĥł": 2313,
      "ãĤĵãģ§ãģĦãĤĭ": 2314,
      "æĽ¸ç±į": 2315,
      "maz": 2316,
      "ãģĦãĤį": 2317,
      "ãĤĴéĢļ": 2318,
      "ãģ¦ãģĦãģı": 2319,
      "ãĥīãĤ³ãĥ¢": 2320,
      "ãģĻãģĶãģı": 2321,
      "au": 2322,
      "å«": 2323,
      "ãĥ¼ãĤ¹ãĥĪ": 2324,
      "ãĤĴæĲŃè¼ī": 2325,
      "åĦĦ": 2326,
      "ãģ®åĭķ": 2327,
      "!ãĢĮ": 2328,
      "åĽ£": 2329,
      "ãĥŃãĥ¼ãĥī": 2330,
      "èĩªçĦ¶": 2331,
      "è±Ĭ": 2332,
      "æ´»åĭķ": 2333,
      "æ°ıãģ¯": 2334,
      "ħåł±": 2335,
      "Ķ¯": 2336,
      "ãģĦãģ¦ãģĦãĤĭ": 2337,
      "ãģ«ãģĹãģ¦": 2338,
      "åĲ«": 2339,
      "ãĥĨãĤ¯": 2340,
      "å±ķéĸĭ": 2341,
      "ãĤĴéĽĨ": 2342,
      "ãģĮãģ§ãģįãĤĭ": 2343,
      "ãģ£ãģ¦ãģ¿": 2344,
      "çĻ»éĮ²": 2345,
      "Ult": 2346,
      "pp": 2347,
      "æĨ": 2348,
      "åŃ«": 2349,
      "çĬ¶æħĭ": 2350,
      "ãģ£ãģŁãĤĬ": 2351,
      "ãĥĲãĤ¤ãĤ¹": 2352,
      "ç¨¿": 2353,
      "ãĤĴæĮģãģ¤": 2354,
      "Ultra": 2355,
      "ãģ®ãģŁãĤģ": 2356,
      "ãģĮãģªãģĦ": 2357,
      "å®ħ": 2358,
      "å¾ĵ": 2359,
      "è¿İ": 2360,
      "ç¤¾ä¼ļ": 2361,
      "æ¼": 2362,
      "ãĤ¹ãĥĹãĥ¬": 2363,
      "ãģ®åĽ": 2364,
      "å±Ĭ": 2365,
      "ãģĻãģ¹ãģ¦": 2366,
      "ãĥ¢ãĥĲ": 2367,
      "ç§ĭ": 2368,
      "ãĤ®ãĥ£": 2369,
      "åıĭéģĶ": 2370,
      "ãĤªãĥªãĤ¸": 2371,
      "IT": 2372,
      "ãģ¼": 2373,
      "ãĤ¢ãĥ³": 2374,
      "æľĢé«ĺ": 2375,
      "è£ı": 2376,
      "ãģĿãģĨãģ§ãģĻ": 2377,
      "éľĩ": 2378,
      "çł´": 2379,
      "è¨ĺå¿µ": 2380,
      "æºĸ": 2381,
      "ãĥĹãĥ¬ãĥŁãĤ¢": 2382,
      "ãģĮè¦ĭ": 2383,
      "çµ¡": 2384,
      "å°İ": 2385,
      "å±ŀ": 2386,
      "ãĤŃãĥ£ãĥ©ãĤ¯ãĤ¿ãĥ¼": 2387,
      "è¤": 2388,
      "ç¾©": 2389,
      "ãģĻãģİãĤĭ": 2390,
      "ãĤĴæīĭ": 2391,
      "Mac": 2392,
      "å¬": 2393,
      "æķµ": 2394,
      "ãĤ¹ãĤ¿ãĥ¼ãĥĪ": 2395,
      "æĦıè¦ĭ": 2396,
      "ãģĿãĤĮãģŀ": 2397,
      "æ¶²": 2398,
      "ãģłãģĳãģ§ãģªãģı": 2399,
      "å²¡": 2400,
      "ãģĿãĤĮãģŀãĤĮ": 2401,
      "ãĤ¯ãĤ·ãĥ§ãĥ³": 2402,
      "ãĥĭãĥ¥ãĥ¼": 2403,
      "éŁ³å£°": 2404,
      "åľ§": 2405,
      "æ¸¬": 2406,
      "ãģĹãģ¦ãģĦãģı": 2407,
      "åĨ·": 2408,
      "éĿ¢çĻ½": 2409,
      "Ultrabook": 2410,
      "å®Ī": 2411,
      "ãĤ¿ãĥ³": 2412,
      "ãģ®ç¾": 2413,
      "2010": 2414,
      "ãģ¦ãģĦãģŁãģł": 2415,
      "ãģ®ãĤ«": 2416,
      "ãģ®åĬ": 2417,
      "è¨¼": 2418,
      "æī¹åĪ¤": 2419,
      "æ´¾": 2420,
      "ãĥĭãĤ³ãĥĭãĤ³": 2421,
      "AR": 2422,
      "ãģ®ãģ§ãģĻ": 2423,
      "ãģ¨ãģ¦ãĤĤ": 2424,
      "ãĥ³ãĤ¸ãĥ£": 2425,
      "å®®": 2426,
      "......": 2427,
      "!!": 2428,
      "ãĤĦãĤĬ": 2429,
      "ãĤ¨ãĤ¤": 2430,
      "17": 2431,
      "ãģ®åį": 2432,
      "æĢĸ": 2433,
      "ãĤ»ãĥ«": 2434,
      "ç§»": 2435,
      "ãĥĹãĥŃãĤ¸ãĤ§": 2436,
      "ãĤ¹ãĥĨãĥł": 2437,
      "----": 2438,
      "°ãĤĬ": 2439,
      "ãĥĥãĥķ": 2440,
      "ãĥªãĥ³ãĤ¯": 2441,
      "ãĥŁãĥ¼": 2442,
      "mazon": 2443,
      "ŀ¬": 2444,
      "ä¼ĳ": 2445,
      "æĿ¾": 2446,
      "äºĭä»¶": 2447,
      "åĭŁéĽĨ": 2448,
      "èĥĮ": 2449,
      "60": 2450,
      "å¤§åĪĩ": 2451,
      "ãģĦãĤĪ": 2452,
      "ãĤĴåĪ©çĶ¨": 2453,
      "ãģĮåħ¬éĸĭ": 2454,
      "æĢ¥": 2455,
      "åŃĲä¾Ľ": 2456,
      "ãĤªãĥªãĤ¸ãĥĬãĥ«": 2457,
      "ww": 2458,
      "Ġ2": 2459,
      "ĳæĪ¦": 2460,
      "Ķç©¶": 2461,
      "ãĤ¢ãĥ¼": 2462,
      "å®¿": 2463,
      "ãĥģãĥ¥": 2464,
      "æĬľ": 2465,
      "ãĤ¹ãĤ¿ãĥĥãĥķ": 2466,
      "æłªå¼ı": 2467,
      "jp": 2468,
      "ãģĮãģĤãģ£ãģŁ": 2469,
      "ãģĭãģ«": 2470,
      "æ°¸": 2471,
      "è³ªåķı": 2472,
      "æĹ©ãģı": 2473,
      "AS": 2474,
      "Ľ¸": 2475,
      "ãĥ¼ãĥĩãĤ£": 2476,
      "ãĤ·ãĤ¹ãĥĨãĥł": 2477,
      "ãĤıãģļ": 2478,
      "ä¸Ĭæĺł": 2479,
      "ãĤªãĥķãĤ£": 2480,
      "ä¸Ńãģ®": 2481,
      "è¿«": 2482,
      "å°ĤçĶ¨": 2483,
      "èĻ": 2484,
      "Ķ¾": 2485,
      "ãģ®æ°": 2486,
      "ãģĭãĤīãģ®": 2487,
      "ãģĺãģ¦": 2488,
      "ãĤ¯ãĥªãĥĥãĤ¯": 2489,
      "lu": 2490,
      "éį": 2491,
      "ĪĲ": 2492,
      "ãģ¾ãģķ": 2493,
      "ãĤ¦ãĥ³ãĥĪ": 2494,
      "ãĥĬãĥ¼": 2495,
      "éļİ": 2496,
      "ç½ª": 2497,
      "ç¨®é¡ŀ": 2498,
      "ãģ«éĸ¢ãģĻãĤĭ": 2499,
      "³¨çĽ®": 2500,
      "ãģªãģ®ãģĭ": 2501,
      "ç¦ı": 2502,
      "ãĤ±ãĥ¼": 2503,
      "æ¯į": 2504,
      "èĦļ": 2505,
      "åĪ¶ä½ľ": 2506,
      "ãĤ´ãĥ«ãĥķ": 2507,
      "ãģıãĤīãģĦ": 2508,
      "çµ±": 2509,
      "è³Ľ": 2510,
      "åĽ½åĨħ": 2511,
      "éŃĶ": 2512,
      "ãģĳãģªãģĦ": 2513,
      "éĢĥ": 2514,
      "å±Ģ": 2515,
      "å®¶éĽ»": 2516,
      "ãģĮè¡Į": 2517,
      "ãģĤãģ¾ãĤĬ": 2518,
      "ãģĻãĤĭãģĵãģ¨ãģĮ": 2519,
      "ãģĹãģ¦ãģıãĤĮãĤĭ": 2520,
      "éĢĨ": 2521,
      "ãĤ¹ãĥĪãĥ¼ãĥªãĥ¼": 2522,
      "ãĥİãĥ¼ãĥĪ": 2523,
      "å°ĳãģĹ": 2524,
      "ãĥ¢ãĥĲãĤ¤ãĥ«": 2525,
      "æŃ´": 2526,
      "ãģŁãģ¡ãģĮ": 2527,
      "CM": 2528,
      "ãĤĬãģ¾ãģĹãģŁ": 2529,
      "åı¸": 2530,
      "éĢł": 2531,
      "æĹ¥ãģ¯": 2532,
      "å¯Į": 2533,
      "çľł": 2534,
      "æĶ¿": 2535,
      "ãģĦãģĭãģĮ": 2536,
      "ãĤ¢ãĥī": 2537,
      "ãģĪãģ¦ãģĦãĤĭ": 2538,
      "ãģķãĤĵãģ®": 2539,
      "ãģĻãĤĭãģĵãģ¨ãģ§": 2540,
      "å¤§åŃ¦": 2541,
      "ãĤªãĥ¼ãĥĹ": 2542,
      "ãģĺãģŁ": 2543,
      "èĳĹ": 2544,
      "è¬Ŀ": 2545,
      "ãĥ¼ãĥĸãĥ«": 2546,
      "ãģ®è¨ĺäºĭãĤĴãĤĤãģ£ãģ¨": 2547,
      "ãģ§è©±é¡Į": 2548,
      "ãģĮãģĤãĤĬ": 2549,
      "ãĥĸãĥĥãĤ¯": 2550,
      "å¼¾": 2551,
      "ãģ®æĥħåł±": 2552,
      "åįģ": 2553,
      "æľĢåĪĿ": 2554,
      "ãģ®ä¸Ńãģ§": 2555,
      "Fi": 2556,
      "èĶ": 2557,
      "ĠI": 2558,
      "ãĤĴå¤ī": 2559,
      "ãĥŃãĥ³": 2560,
      "çĶŁãģ¾": 2561,
      "ä»¥ä¸ĭ": 2562,
      "æĲŃè¼ī": 2563,
      "ç¨ĭåº¦": 2564,
      "ĊĊ": 2565,
      "ãĥĨãĥ«": 2566,
      "å¯Ĩ": 2567,
      "å·®": 2568,
      "ãĤ¯ãĥªãĥ¼ãĥł": 2569,
      "ãĤ¦ãĤ§ãĤ¢": 2570,
      "ãĥ³ãĥĲãĥ¼": 2571,
      "ãĤ³ãĥ³ãĥĨãĥ³ãĥĦ": 2572,
      "ãģ®ç¾İ": 2573,
      "GA": 2574,
      "ãĤ¢ãĥĬ": 2575,
      "ãĤĴæĭ": 2576,
      "ãģ§ãģĻãĤĪãģŃ": 2577,
      "ãĤ½ãĥĭãĥĥãĤ¯": 2578,
      "è§¦": 2579,
      "é¦ĸ": 2580,
      "ãĤ¸ãĥ§ãĥ³": 2581,
      "æĲºå¸¯": 2582,
      "æľĪãģ«": 2583,
      "ãĤ¤ãĥ³ãĤ¿ãĥĵãĥ¥ãĥ¼": 2584,
      "åŃĺåľ¨": 2585,
      "Amazon": 2586,
      "âĢ²": 2587,
      "æķ´": 2588,
      "æĬĢè¡ĵ": 2589,
      "ãģľãģ²": 2590,
      "çħ": 2591,
      "ãĤĴçĽ®": 2592,
      "ãģ«æİ": 2593,
      "ãĥıãĥª": 2594,
      "æģĲ": 2595,
      "ãĢįãĢģ": 2596,
      "ãģ¿ãĤĵãģª": 2597,
      "ãĤĪãģĨãģł": 2598,
      "æ¯İæĹ¥": 2599,
      "æ£®": 2600,
      "ħå½ĵ": 2601,
      "ç´¢": 2602,
      "æĻ¶": 2603,
      "ãģĦãģŁãģĦ": 2604,
      "æ¯Ľ": 2605,
      "è¸": 2606,
      "ãģ®ãģ§ãģĻãģĮ": 2607,
      "æ¸©": 2608,
      "VIE": 2609,
      "ãģ®æģ": 2610,
      "è¡Ĺ": 2611,
      "æķħ": 2612,
      "äººæ°Ĺãģ®": 2613,
      "...ãĢĤ": 2614,
      "DI": 2615,
      "ch": 2616,
      "ãĤĴèªŃ": 2617,
      "æŃ¯": 2618,
      "çī¹å¾´": 2619,
      "æĶ¯": 2620,
      "ion": 2621,
      "ãģ®ä¸Ĭ": 2622,
      "åĪĹ": 2623,
      "ä¸ŃåĽ½": 2624,
      "ç·´": 2625,
      "åį°è±¡": 2626,
      "¡çĲĨ": 2627,
      "å¥Ī": 2628,
      "ãģªãģ©ãģ§": 2629,
      "æĥĳ": 2630,
      "ä¸ĸä»£": 2631,
      "éģķãģĨ": 2632,
      "ãĤ¾": 2633,
      "ãģ®ãĥ¡": 2634,
      "ãģĿãĤĮãģ¯": 2635,
      "ãģ®åĩº": 2636,
      ":ãĢĮ": 2637,
      "RE": 2638,
      "ãģ®æĬ": 2639,
      "ç¶Ļ": 2640,
      "æĬŀ": 2641,
      "åİ³": 2642,
      "èªįèŃĺ": 2643,
      "te": 2644,
      "Ġ3": 2645,
      "åĪ°": 2646,
      "ãģ¸ãģ¨": 2647,
      "ãģ®åŃĲ": 2648,
      "èªķ": 2649,
      "çĪ¶": 2650,
      "ãģ«è¦ĭ": 2651,
      "åįĥ": 2652,
      "æłªå¼ıä¼ļç¤¾": 2653,
      "³åĦª": 2654,
      "æĢĴ": 2655,
      "æľ¬ä½ĵ": 2656,
      "æ°Ĺãģ«åħ¥": 2657,
      "ä¿³åĦª": 2658,
      "ãģĵãĤĮãģ¾ãģ§": 2659,
      "æ¨©": 2660,
      "ãĥ¼ãĥľãĥ¼ãĥī": 2661,
      "ãģĽãģªãģĦ": 2662,
      "ãĥ¢ãĥİ": 2663,
      "ãĥĢãĥ¼": 2664,
      "ãĤ¿ãĤ¤ãĥł": 2665,
      "ãģ®é«ĺ": 2666,
      "ãģĮå¤ļãģĦ": 2667,
      "çµ¦": 2668,
      "ãĥĬãĤ½ãĥĭãĥĥãĤ¯": 2669,
      "ãĤĤãģ®ãģ®": 2670,
      "éģİåİ»": 2671,
      "70": 2672,
      "ãģĹãģ£ãģĭãĤĬ": 2673,
      "ãģĮãģ¤": 2674,
      "ãĥªãĤ¹": 2675,
      "ãģĹãģŁãĤī": 2676,
      "æĹ¥ãģĭãĤī": 2677,
      "ä¸Ģåº¦": 2678,
      "éĢļãĤĬ": 2679,
      "ä¹ħ": 2680,
      "ãĤĴè¿½": 2681,
      "ä»²": 2682,
      "ãģ«ãģĬãģĦãģ¦": 2683,
      "ãĥ´ãĤ¡": 2684,
      "mm": 2685,
      "ä¸¦": 2686,
      "ãĥįãĥĥãĥĪæİ²ç¤ºæĿ¿ãģ§ãģ¯": 2687,
      "ãĥĦãĤ¤ãĥ¼ãĥĪ": 2688,
      "«éľ²": 2689,
      "ºĢ": 2690,
      "èĮ": 2691,
      "ãģ¨ãģĻãĤĭ": 2692,
      "å¤§å®¹éĩı": 2693,
      "åĬŁ": 2694,
      "ãģªãģıãģª": 2695,
      "è¤ĩ": 2696,
      "¯ãĤĬ": 2697,
      "ãģ®ãĥĳ": 2698,
      "ãģ®æĢ": 2699,
      "ãĥ¯ãĤ¤ãĥĪ": 2700,
      "ãģ£ãģ±": 2701,
      "æĺ¨å¹´": 2702,
      "å¬ī": 2703,
      "±Ĥ": 2704,
      "ãĥ©ãĤ¤ãĥĪ": 2705,
      "ãģ®åĳ": 2706,
      "åĽ³": 2707,
      "çĶ¨æĦı": 2708,
      "å¨": 2709,
      "ãĥŃãĥ¼": 2710,
      "ãģ§ãģįãģŁ": 2711,
      "ãģ«å¯¾å¿ľ": 2712,
      "åģ¥": 2713,
      "çļĨãģķãĤĵ": 2714,
      "ãĥ¼ãĥĢãĥ¼": 2715,
      "MA": 2716,
      "ãĤ«ãĥ«": 2717,
      "ãĥ¡ãĤ¤ãĤ¯": 2718,
      "åĩºæĿ¥": 2719,
      "éĽ»åŃĲæĽ¸ç±į": 2720,
      "OVIE": 2721,
      "me": 2722,
      "æ»": 2723,
      "ãģĴãĤĭ": 2724,
      "æŀļ": 2725,
      "åĪĿãĤģãģ¦": 2726,
      "æ¨Ļ": 2727,
      "ãģ¬": 2728,
      "ãĤĴåıĸãĤĬ": 2729,
      "ãĤ¤ãĥ³ãĥĨ": 2730,
      "ä¸Ńãģ«": 2731,
      "ãĥĴãĥ¼ãĥŃ": 2732,
      "é¦¬": 2733,
      "ãģ¨ãĤĤãģ«": 2734,
      "ãĤĴçŁ¥": 2735,
      "ãģķãģ¾": 2736,
      "ãģ®åº": 2737,
      "ãģĹãģ¦ãģĬ": 2738,
      "è©±ãĤĴ": 2739,
      "çĬ¶æ³ģ": 2740,
      "ãĤĴæıı": 2741,
      "ç°¡åįĺãģ«": 2742,
      "èĶµ": 2743,
      "ãģĦãĤĴ": 2744,
      "ãĤ³ãĤ¹ãĥ¡": 2745,
      "å½©": 2746,
      "ãģĭãĤĤ": 2747,
      "åı¤": 2748,
      "åºŃ": 2749,
      "åĽ½éļĽ": 2750,
      "æĺłçĶ»ç¥Ń": 2751,
      "çģ«": 2752,
      "ãģ®å¥³æĢ§": 2753,
      "ãĤ¹ãĥĿãĥ¼ãĥĦ": 2754,
      "ãģ«åĲĳ": 2755,
      "æīĵ": 2756,
      "ãĥĬãĤ¤ãĥĪ": 2757,
      "éĥİ": 2758,
      "ãĥ¯ãĥ¼ãĤ¯": 2759,
      "ãĥıãĥ¼ãĥī": 2760,
      "èĢĥãģĪãĤĭ": 2761,
      "ç§ĺ": 2762,
      "ĠH": 2763,
      "æĹ¬": 2764,
      "ãĥŀãĥ¼": 2765,
      "åĩºãģĹ": 2766,
      "ãĥ¢ãĥĨ": 2767,
      "éĢ£çµ¡": 2768,
      "æ´»èºį": 2769,
      "ãģ®å¯": 2770,
      "åľĴ": 2771,
      "éļł": 2772,
      "éģİãģĶ": 2773,
      "SA": 2774,
      "éĢĶ": 2775,
      "ãģĭãĤīãĤĤ": 2776,
      "ä¸Ńå¿ĥ": 2777,
      "çľĮ": 2778,
      "æĸ°ãģŁãģª": 2779,
      "ãģĨãģ¡": 2780,
      "ãģ¦ãģĦãģªãģĦ": 2781,
      "åŃĲãģĮ": 2782,
      "ä¼ļèŃ°": 2783,
      "éĬĢ": 2784,
      "®ĭ": 2785,
      "é®": 2786,
      "ãĤĴåĭĻ": 2787,
      "ãĥģãĥ¼ãĥł": 2788,
      "å¯¾çŃĸ": 2789,
      "å¹´åıİ": 2790,
      "ãĤ¦ãĥĥãĥī": 2791,
      "èĢħãģ¯": 2792,
      "ä»¥å¤ĸ": 2793,
      "å¤ļãģıãģ®": 2794,
      "ãĤ«ãĥ©ãĥ¼": 2795,
      "æĸ¹ãģ¯": 2796,
      "èŃ¦": 2797,
      "ãģ«ãĤĪãĤĭãģ¨": 2798,
      "è©¦åĨĻ": 2799,
      "ãĤ³ãĥ©ãĥľ": 2800,
      "ä¸Ģç·Ĵãģ«": 2801,
      "å«Į": 2802,
      "ĠR": 2803,
      "ãĥĳãĥĬãĤ½ãĥĭãĥĥãĤ¯": 2804,
      "è¿°": 2805,
      "ãĥ¦ãĥĭ": 2806,
      "ãģ®åīį": 2807,
      "is": 2808,
      "ãģ®ä¸ĸçķĮ": 2809,
      "ãģĮåı¯èĥ½": 2810,
      "ãģ®å¹": 2811,
      "ãģ®å¼": 2812,
      "ãĥĸãĥª": 2813,
      "ãģĮæ±ºå®ļ": 2814,
      "ãģĿãģĨãģł": 2815,
      "è¬Ľ": 2816,
      "æ·±": 2817,
      "ãģ¾ãģ¨ãĤģ": 2818,
      "ãĤ¹ãĥ¼ãĥĳ": 2819,
      "ãĥŀãĥ«": 2820,
      "ãĢħãģ¨": 2821,
      "åĢį": 2822,
      "æ¥½ãģĹãĤģãĤĭ": 2823,
      "LE": 2824,
      "ãģ«ãģĭ": 2825,
      "ãģĮç¶ļ": 2826,
      "ãĤ±ãĥ¼ãĤ·ãĥ§ãĥ³": 2827,
      "è¶Ĭ": 2828,
      "ãģ«å¯¾ãģĹ": 2829,
      "åĬĩåł´": 2830,
      "ãĥĲãĤ¤": 2831,
      "æŃ¦": 2832,
      "åįł": 2833,
      "ãĥĢãĥ¼ãĤ¯": 2834,
      "è¡¨çı¾": 2835,
      "è´": 2836,
      "éī": 2837,
      "æ´Ĺ": 2838,
      "èĲ½ãģ¡": 2839,
      "ãĥĥãĥĶ": 2840,
      "ãĤıãĤĭ": 2841,
      "åħ¥ãĤĮ": 2842,
      "éł¼": 2843,
      "éģ¸æīĭ": 2844,
      "âĺħâĺħ": 2845,
      "22": 2846,
      "ãĤĴè¶ħ": 2847,
      "ãĤīãģĽ": 2848,
      "ãĢıãĢĤ": 2849,
      "ç«ĭãģ¤": 2850,
      "çĬ¯": 2851,
      "LAN": 2852,
      "ãĥ¼ãĥĭãĥ³ãĤ°": 2853,
      "åłĤ": 2854,
      "ä¸Ńãģ§": 2855,
      "å±ħ": 2856,
      "ä¿®": 2857,
      "éĥ¨å±ĭ": 2858,
      "åĢĭäºº": 2859,
      "ãģ®æĦı": 2860,
      "ãģ®æīĭ": 2861,
      "RO": 2862,
      "ãģ®ãĤ¨": 2863,
      "ãĤ¯ãĥģ": 2864,
      "å°Ĩ": 2865,
      "ãĥªãĥ¼ãĤ¹": 2866,
      "éĻį": 2867,
      "è¼ª": 2868,
      "æĦıåĳ³": 2869,
      "ãģ¾ãģļãģ¯": 2870,
      "éĹĺ": 2871,
      "ãģĹãģªãģĮãĤī": 2872,
      "ãģĭãĤīãģªãģĦ": 2873,
      "æīį": 2874,
      "ãĥĲãĥ³ãĤ¯": 2875,
      "å¸«": 2876,
      "å¸Ń": 2877,
      "é®®": 2878,
      "æ¸¡": 2879,
      "ãģ®åł´åĲĪ": 2880,
      "eb": 2881,
      "ãģªãģľ": 2882,
      "ä½Ļ": 2883,
      "ãĤ³ãĥ¼ãĤ¹": 2884,
      "ãģ¿ãģª": 2885,
      "ãĢıãĢİ": 2886,
      "èĢħãģĮ": 2887,
      "åĬĽãĤĴ": 2888,
      "éĻº": 2889,
      "éłĨ": 2890,
      "ãĥľãĥĩãĤ£": 2891,
      "ãĤĴä½¿ãģ£ãģ¦": 2892,
      "ãĥ¼ãĥĬãĥ¼": 2893,
      "ãģªãĤĵãģł": 2894,
      "ãĥĥãĥĦ": 2895,
      "æľį": 2896,
      "ãĤ¢ãĥĭ": 2897,
      "ãĥ¬ãĥ¼ãĤ·ãĥ§ãĥ³": 2898,
      "ãĥŀãĥ¼ãĤ¯": 2899,
      "è¡Įåĭķ": 2900,
      "åĮº": 2901,
      "æ¨¡": 2902,
      "ãģ¥ãģı": 2903,
      "28": 2904,
      "ãģĵãģ¨ãģ«": 2905,
      "ãĥ¯ãĥ¼": 2906,
      "oor": 2907,
      "ãĤĦãģ¯": 2908,
      "æ°ĹãģĮ": 2909,
      "ãģ«æĬ": 2910,
      "ãĥªãĥ¼ãĥ³": 2911,
      "ãģ»ãģ¨": 2912,
      "ãĤ¯ãĥģãĤ³ãĥŁ": 2913,
      "ãģĵãģł": 2914,
      "æī¿": 2915,
      "ãģªãģ©ãĤĴ": 2916,
      "ãĥ¼ãĥ«ãĥī": 2917,
      "éĻ£": 2918,
      "ãĤ³ãĥ¬ãĥ¼ãĥĪ": 2919,
      "500": 2920,
      "ãĤĬãģŁãģĦ": 2921,
      "ãĥ³ãĥĩ": 2922,
      "å¤§ãģª": 2923,
      "ä½¿ãģĨ": 2924,
      "è»į": 2925,
      "éĮ²çĶ»": 2926,
      "ãģ«å¯¾ãģĻãĤĭ": 2927,
      "ãģĹãģıãģª": 2928,
      "èĬ¸èĥ½": 2929,
      "door": 2930,
      "live": 2931,
      "æ©Łç¨®": 2932,
      "ãģłãģĳãģ©": 2933,
      "æİĽ": 2934,
      "æ¸Ī": 2935,
      "ãģ«å¤ī": 2936,
      "ãģĹãĤĥ": 2937,
      "ãĤĴçĻºè¡¨": 2938,
      "åįĶ": 2939,
      "ãĤ½ãĥ¼": 2940,
      "ä½ķãģĭ": 2941,
      "èĸĦ": 2942,
      "ãģ»ãģ¨ãĤĵãģ©": 2943,
      "į²": 2944,
      "ãģ¯ãģ©ãģĨ": 2945,
      "å¿Ĺ": 2946,
      "ç´Ķ": 2947,
      "é«ª": 2948,
      "ãĤŃãĥ£ãĤ¹ãĥĪ": 2949,
      "æ¸Ľ": 2950,
      "æľīåĲį": 2951,
      "ãĥĸãĥ©ãĥĥãĤ¯": 2952,
      "é§Ĩ": 2953,
      "livedoor": 2954,
      "ãģ§ãģĬ": 2955,
      "ãģ¦ãĤĭ": 2956,
      "ä¸¸": 2957,
      "ãģıãģªãĤĭ": 2958,
      "è¨ª": 2959,
      "ãģ®æĮ": 2960,
      "ãģ£ãģ¦ãģĹãģ¾ãģĨ": 2961,
      "æĽ¸ãģį": 2962,
      "ç·¨éĽĨéĥ¨": 2963,
      "ãĤ¤ãĥ³ãĥ": 2964,
      "çĶĺ": 2965,
      "ãĤ¤ãĥ³ãĤ¹ãĥĪ": 2966,
      "ãĤĴä½¿çĶ¨": 2967,
      "èµ·åĭķ": 2968,
      "ãĤ¢ãĤ¯ãĤ»ãĤ¹": 2969,
      "ãĤĤãģ£ãģ¨": 2970,
      "ãĤ¬ãĥ¼": 2971,
      "è©¦åĨĻä¼ļ": 2972,
      "ãĥĥãĤ°": 2973,
      "åĲĪãģĨ": 2974,
      "éĻ¢": 2975,
      "æłĦ": 2976,
      "æ´ĭ": 2977,
      "éĢ£è¼ī": 2978,
      "è¼Ŀ": 2979,
      "ãĥİãĥ³": 2980,
      "èĪĪåĳ³": 2981,
      "èĭ±èªŀ": 2982,
      "ä¾ĭãģĪãģ°": 2983,
      "ãģªãģĳãĤĮãģ°": 2984,
      "ãĥĻãĥ³ãĤ¸ãĥ£": 2985,
      "ç¾İãģĹãģĦ": 2986,
      "as": 2987,
      "çŀ¬": 2988,
      "ãģ«è¿ĳ": 2989,
      "ãĤĴä¸İ": 2990,
      "ãģĭãģ¤": 2991,
      "ä»®": 2992,
      "éĢĢ": 2993,
      "åł±éģĵ": 2994,
      "è§Ĵ": 2995,
      "ãģķãģĽãģ¦ãģĦãģŁãģł": 2996,
      "ç§ģãģ¯": 2997,
      "ãĥģãĥ§ãĤ³ãĥ¬ãĥ¼ãĥĪ": 2998,
      "å¾ĵæĿ¥": 2999,
      "ãĤ¯ãĥģãĤ³ãĥŁãĤĴè¦ĭãĤĭ": 3000,
      "è¡Ŀ": 3001,
      "ãĤ¹ãĤ¿ãĤ¤": 3002,
      "æ²»": 3003,
      "ãĥ¼ãĥŀãĥ³": 3004,
      "æ¶²æĻ¶": 3005,
      "ãģ¨åĲĮãģĺ": 3006,
      "ãģĻãģ§": 3007,
      "ãģıãĤĮãģŁ": 3008,
      "å¹´ãģ®": 3009,
      "æ°ĹåĪĨ": 3010,
      "æĦıå¤ĸ": 3011,
      "ç®Ĺ": 3012,
      "çłĶç©¶": 3013,
      "èªķçĶŁ": 3014,
      "®º": 3015,
      "ãģĦãģ§": 3016,
      "ãĥķãĥ©": 3017,
      "ãģ®æĿ": 3018,
      "ãģĮæĮ": 3019,
      "ç§ĳ": 3020,
      "ãģ®åĲį": 3021,
      "è©ķä¾¡": 3022,
      "æĳ": 3023,
      "ãĤĴåĳ¼": 3024,
      "èĩªçĶ±": 3025,
      "ãģĭãģªãĤĬ": 3026,
      "æĸĩåŃĹ": 3027,
      "ãĤ³ãĥŁãĥ¥": 3028,
      "ãģĿãģ®å¾Į": 3029,
      "ãģ®æķ°": 3030,
      "ãģĮå¿ħè¦ģ": 3031,
      "ãĤĦãģ£ãģ¦": 3032,
      "ãĤĴæĺ": 3033,
      "ãģ®æ§ĺ": 3034,
      "ãģ¿ãĤĭ": 3035,
      "çľ¼": 3036,
      "åĢī": 3037,
      "èª¬æĺİ": 3038,
      "TER": 3039,
      "æĹħè¡Į": 3040,
      "æĵįä½ľ": 3041,
      "ãģ®åķ": 3042,
      "åĬ©": 3043,
      "è»½ãģ«": 3044,
      "ãģ®ãĥĲ": 3045,
      "ãģĮå¤§": 3046,
      "ãĥ³ãĤ¸": 3047,
      "ãĤ·ãĥ¼ãĤº": 3048,
      "ãĤ¸ãĤª": 3049,
      "éģĬ": 3050,
      "èª²": 3051,
      "ãģ®ç·": 3052,
      "æŀĹ": 3053,
      "éĽ£ãģĹãģĦ": 3054,
      "è©³ç´°": 3055,
      "ãĤ¹ãĤ¤": 3056,
      "ãģ©ãĤĤ": 3057,
      "ãģĪãģ¾ãģĻ": 3058,
      "æł¹": 3059,
      "ãĤ¸ãĥ£ãĥĳãĥ³": 3060,
      "ãģ«ãģ¤ãģĦãģ¦ãģ¯": 3061,
      "è²·ãģĦ": 3062,
      "åº·": 3063,
      "ãģĦãģŁãģł": 3064,
      "æıı": 3065,
      "ãģĭãĤĤãģĹãĤĮãģ¾ãģĽãĤĵ": 3066,
      "ãģ®ãĤ³": 3067,
      "ãģĮå¢Ĺ": 3068,
      "ãĥ¡ãĥ¢": 3069,
      "æĦŁåĭķ": 3070,
      "èĪĹ": 3071,
      "æľ¬ä½ľãģ®": 3072,
      "ãģ«åĬł": 3073,
      "ãĤĴãģĭ": 3074,
      "åħ¥åĬĽ": 3075,
      "æ³¨æĦı": 3076,
      "ãĤĦãģ¯ãĤĬ": 3077,
      "ãģĦãģ¾": 3078,
      "ãģ®å§": 3079,
      "ãĤģãģ¦ãģĦãĤĭ": 3080,
      "ãĥĽãĥ¯ãĤ¤ãĥĪ": 3081,
      "åĨħãģ§": 3082,
      "å®¶åºŃ": 3083,
      "ãĥľãĤ¿ãĥ³": 3084,
      "ãĤĴå®Łçı¾": 3085,
      "ãĤĴè¨ĺéĮ²": 3086,
      "ãģĵãĤĵ": 3087,
      "å®ĩ": 3088,
      "éĸĵãģ§": 3089,
      "èµ°": 3090,
      "ãģĹãĤĩãģĨãģĭ": 3091,
      "ãĥĥãĤµ": 3092,
      "ãģ¡ãģª": 3093,
      "ä¸Ģäºº": 3094,
      "è¦ĭãģŁ": 3095,
      "å°Ħ": 3096,
      "ãĥĩãĤ£ãĤº": 3097,
      "åŃ¦çĶŁ": 3098,
      "åıĹãģĳ": 3099,
      "ç²¾": 3100,
      "ãĤ¹ãĤ±": 3101,
      "ä½Ĳ": 3102,
      "ãģįãģ£": 3103,
      "è£ľ": 3104,
      "éłĤ": 3105,
      "ãģĿãģ®ä»ĸ": 3106,
      "æİ¥ç¶ļ": 3107,
      "ãĥŃãĥ¼ãĥīãĤ·ãĥ§ãĥ¼": 3108,
      "æĴ®": 3109,
      "ãĤĴãĤ¯ãĥªãĥĥãĤ¯": 3110,
      "åħ¸": 3111,
      "ãģķãĤĮãģ¾ãģĹãģŁ": 3112,
      "çĻºéĢģ": 3113,
      "ãĥįãĥ«": 3114,
      "æĢ§èĥ½": 3115,
      "ãĥĽãĥĨãĥ«": 3116,
      "éĢ£ç¶ļ": 3117,
      "æ±ºå®ļ": 3118,
      "ãĤ¢ãĤ«ãĥĩ": 3119,
      "ãĥĥãĤ»ãĥ¼ãĤ¸": 3120,
      "ãĤ³ãĥŁãĥ¥ãĥĭ": 3121,
      "Ġ1": 3122,
      "ãĤĦãģĭãģª": 3123,
      "ãĥĭãĤ¢": 3124,
      "ãĥŁãĥį": 3125,
      "æĪ¸": 3126,
      "ãģ¨ãģĹãģ¦ãģ¯": 3127,
      "ç¶ļãģĳ": 3128,
      "ãĤ¢ãĥĥãĥĹãĥ«": 3129,
      "ãģ¨åĳ¼": 3130,
      "ãģıãģ¦": 3131,
      "åĲ¦": 3132,
      "ãģĿãģĨãģª": 3133,
      "ãĥ¬ãĥ³ãĤº": 3134,
      "åı²ä¸Ĭ": 3135,
      "ãĥĹãĥŃãĤ¸ãĤ§ãĤ¯ãĥĪ": 3136,
      "¤ľ": 3137,
      "å©": 3138,
      "Ġ4": 3139,
      "ãĤĴãģ¯": 3140,
      "ãĤ¢ãĥĻãĥ³ãĤ¸ãĥ£": 3141,
      "ãģĻãĤĭãģŁãĤģ": 3142,
      "ãĤŃãĥ¼ãĥľãĥ¼ãĥī": 3143,
      "ãģ¿ãģ®": 3144,
      "ãĥīãĤŃ": 3145,
      "åħ¨ä½ĵ": 3146,
      "ãģ»ãģĹãģĦ": 3147,
      "åİŁä½ľ": 3148,
      "ãģ¡ãĤĥãģĨ": 3149,
      "åħ±æľī": 3150,
      "ol": 3151,
      "ãĤ¹ãĤ³": 3152,
      "éĽ»æ°Ĺ": 3153,
      "åħ¨ãģ¦": 3154,
      "ç¶ļãģĳãĤĭ": 3155,
      "ãĤ¢ãĤ«ãĤ¦ãĥ³ãĥĪ": 3156,
      "è±ªèı¯": 3157,
      "th": 3158,
      "ãģĮé«ĺ": 3159,
      "åĩ¦": 3160,
      "æ°ıãģĮ": 3161,
      "ç¢ºèªį": 3162,
      "æ¬²ãģĹãģĦ": 3163,
      "å¬īãģĹãģĦ": 3164,
      "è¡ĿæĴĥ": 3165,
      "ãĤ¢ãĤ«ãĥĩãĥŁãĥ¼": 3166,
      "å©¦": 3167,
      "ãģĦãģ¡": 3168,
      "ãģ¯ãĤĦ": 3169,
      "è¨±": 3170,
      "ä½ľãĤĬ": 3171,
      "åĩºãģĹãģŁ": 3172,
      "åĲĪãģĦ": 3173,
      "ãĤĴæĦŁãģĺ": 3174,
      "GB": 3175,
      "Ľå¾ħ": 3176,
      "å¤§äºº": 3177,
      "åĨ¬": 3178,
      "ãĢı-": 3179,
      "äºĭæķħ": 3180,
      "ç¶ļãģį": 3181,
      "æ¸ħ": 3182,
      "ãģŁãģıãģķãĤĵ": 3183,
      "æ½": 3184,
      "ãĥķãĤ¸": 3185,
      "ãĤ«ãĥĲãĥ¼": 3186,
      "å¤ļæķ°": 3187,
      "è¾º": 3188,
      "ãĤĴç¢º": 3189,
      "ãģ£ãģ·": 3190,
      "ãģ«ãģªãĤĬãģ¾ãģĻ": 3191,
      "ĠF": 3192,
      "å¾¹": 3193,
      "ä»Ĭãģ¾ãģ§": 3194,
      "æĦŁè¦ļ": 3195,
      "åĳ³ãĤı": 3196,
      "çĽ¸æ¬¡": 3197,
      "ãĥĩãĤ¸ãĤ¿ãĥ«æ©ŁåĻ¨": 3198,
      "çµ¶å¯¾": 3199,
      "ãģ®æ©Łèĥ½": 3200,
      "å¹¸ãģĽ": 3201,
      "į²å¾Ĺ": 3202,
      "éłħ": 3203,
      "æĶ¹": 3204,
      "è¾¼ãĤĢ": 3205,
      "åºĥãģĮ": 3206,
      "NS": 3207,
      "OK": 3208,
      "bo": 3209,
      "çĩ": 3210,
      "ãģıãģªãģĦ": 3211,
      "ãĤ¯ãĥ«": 3212,
      "ãģķãĤĮãģ¾ãģĻ": 3213,
      "çļ®": 3214,
      "ãĥĸãĥ«ãĥ¼ãĥ¬": 3215,
      "éľĩçģ½": 3216,
      "cel": 3217,
      "ãĤĴè¿İ": 3218,
      "ãģĮå¤ļãģı": 3219,
      "ãĥ¡ãĥ³": 3220,
      "ãĤµãĥĿãĥ¼ãĥĪ": 3221,
      "ãĥįãĥĥãĥĪãĥ¦ãĥ¼ãĤ¶ãĥ¼": 3222,
      "ãĤªãĥ¼ãĥĹãĥ³": 3223,
      "26": 3224,
      "App": 3225,
      "Ex": 3226,
      "¬¡": 3227,
      "Ġ-": 3228,
      "ãģŁãĤĭ": 3229,
      "ãĤ¹ãĥª": 3230,
      "äºĶ": 3231,
      "çĦ¼": 3232,
      "ãģ¨ãģĹãģ¦ãĤĤ": 3233,
      "è¼ĥ": 3234,
      "ĊĠĊĠ": 3235,
      "èªŃãģ¿": 3236,
      "ãĤĴæİ¢": 3237,
      "ãĥıãĥªãĤ¦ãĥĥãĥī": 3238,
      "PU": 3239,
      "ãģ«ãģĤ": 3240,
      "ãĢĤãĢį": 3241,
      "äººé¡ŀ": 3242,
      "ãģĿãĤĤ": 3243,
      "éģħ": 3244,
      "ãģ¤ãģĳ": 3245,
      "ç´į": 3246,
      "å¯Ł": 3247,
      "éĻ½": 3248,
      "éłĳ": 3249,
      "ãĤŃãĥ£ãĥĹ": 3250,
      "æĦıèŃĺ": 3251,
      "ãĥĨãĤ£ãĥ³ãĤ°": 3252,
      "çĤº": 3253,
      "ãĤĴè¡ĮãģĨ": 3254,
      "ĠEN": 3255,
      "ãĤĴãģĶç´¹ä»ĭ": 3256,
      "ãĤ¤ãĤ±": 3257,
      "ãģ£ãģ¦ãĤĭ": 3258,
      "ãĤ¨ãĥª": 3259,
      "ãģĶãģĸ": 3260,
      "éĽ»æºĲ": 3261,
      "ä¼ĿãģĪ": 3262,
      "âĺĨ": 3263,
      "éĤ": 3264,
      "ãģĻãĤĭãģĵãģ¨ãģĮãģ§ãģįãĤĭ": 3265,
      "åľŁ": 3266,
      "é£Ľãģ³": 3267,
      "ãģįãģ£ãģĭãģĳ": 3268,
      "PS": 3269,
      "mi": 3270,
      "ãĥ³ãģ¯": 3271,
      "ãģĬæ°Ĺãģ«åħ¥": 3272,
      "ãģ¤ãģ¶": 3273,
      "ãĥŃãĤ´": 3274,
      "ä¼¸": 3275,
      "ãĤ¨ãĥĥãĥĪ": 3276,
      "åįĴ": 3277,
      "ç·ł": 3278,
      "çĽ®çļĦ": 3279,
      "ãĤĴä½¿ãģĨ": 3280,
      "ç®¡çĲĨ": 3281,
      "ãĥ¶": 3282,
      "ãĤ¹ãĤŃ": 3283,
      "ãģĻãĤĭãģ®ãģ¯": 3284,
      "äººãģ¨": 3285,
      "ãģ®æİ": 3286,
      "ãĥĨãĥ³": 3287,
      "å¯¾è±¡": 3288,
      "ãĤīãĤĮãģ¦": 3289,
      "åŁŁ": 3290,
      "æľ¬ä½ľãģ¯": 3291,
      "ãĥĸãĥ«ãĥ¼ãĥ¬ãĤ¤": 3292,
      "ir": 3293,
      "ãĤĴãĥģãĤ§ãĥĥãĤ¯": 3294,
      "æŁĦ": 3295,
      "åŁ·": 3296,
      "HDD": 3297,
      "å¤§ãģįãģı": 3298,
      "ãģ®æ°Ĺ": 3299,
      "ãģĻãģ§ãģ«": 3300,
      "HK": 3301,
      "Ġ5": 3302,
      "ãģ®ãĥŀ": 3303,
      "ãģĮãģĬ": 3304,
      "å®£": 3305,
      "ãĥĩãĤ£ãĤ¹ãĥĹãĥ¬": 3306,
      "äºĪæĥ³": 3307,
      "çĽ¸è«ĩ": 3308,
      "ãĤ³ãĥ¬ãĤ¯ãĤ·ãĥ§ãĥ³": 3309,
      "Ĳæ¡Ī": 3310,
      "ãģĦãģ£ãģŁ": 3311,
      "ãģĮãģĤ": 3312,
      "ãģ¨ãģªãĤĬ": 3313,
      "ãģ»ãģĨ": 3314,
      "æ°ıãģ®": 3315,
      "èĦ±": 3316,
      "ãģ®å¿ĥ": 3317,
      "1000": 3318,
      "ãģ¨åĲĮ": 3319,
      "ãĥ©ãĤ¹ãĥĪ": 3320,
      "ãĥ©ãĥªãĥ¼": 3321,
      "çľģ": 3322,
      "ãĥ¯ãĥ¼ãĥī": 3323,
      "ãĤ½ãĥķãĥĪãĥĲãĥ³ãĤ¯": 3324,
      "ãĥ³ãĥĳãĤ¯ãĥĪ": 3325,
      "²è¼ī": 3326,
      "åŃĲãģ®": 3327,
      "ä»¥åīį": 3328,
      "ãĤīãĤĮãģªãģĦ": 3329,
      "çħ§": 3330,
      "ãģ«çĻ»åł´": 3331,
      "ãģĭãĤĮ": 3332,
      "ãģĹãģ¦ãģįãģŁ": 3333,
      "ãĤıãģªãģĦ": 3334,
      "åįĹ": 3335,
      "ãģķãĤĵãģ«": 3336,
      "å°ĳå¥³": 3337,
      "ãĤ¹ãĥļãĤ·ãĥ£ãĥ«": 3338,
      "åŃ«ç¤¾éķ·": 3339,
      "Ĳº": 3340,
      "ãģ®ãģ§ãģ¯": 3341,
      "ãĥ©ãĤ¹": 3342,
      "ãģ®åİ": 3343,
      "åı³": 3344,
      "äºĭæ¥Ń": 3345,
      "éłĺ": 3346,
      "ãģĿãĤĮãģĮ": 3347,
      "ãģ®å·»": 3348,
      "éº»": 3349,
      "ãĥĩãĤ£ãĤ¹ãĥĹãĥ¬ãĤ¤": 3350,
      "29": 3351,
      "ãĥĪãĥ«": 3352,
      "çĶ³": 3353,
      "åºķ": 3354,
      "èĩªå®ħ": 3355,
      "å°±": 3356,
      "å½¼ãĤī": 3357,
      "ãģ®å§¿": 3358,
      "éĳ": 3359,
      "ãģ®å®Ł": 3360,
      "ãĤ»ãĤŃãĥ¥": 3361,
      "æĢĿèŃ°": 3362,
      "éĽ»åĬĽ": 3363,
      "ãģļãģ«": 3364,
      "ç©į": 3365,
      "è§£ç¦ģ": 3366,
      "äºĨæī¿": 3367,
      "ãģĭãĤıãģĦãģĦ": 3368,
      "ãĤ°ãĥ«ãĥ¼ãĥĹ": 3369,
      "ãģ£ãģıãĤĬ": 3370,
      "åĲįæ§ĺãģ«": 3371,
      "éīĦ": 3372,
      "ãĤ¢ãĥĭãĥ¡": 3373,
      "ãĤĴãģĹãģ¦ãģĦãĤĭ": 3374,
      "ãģ£ãģŁãĤī": 3375,
      "çı¾åľ¨ãģ®": 3376,
      "ãĤĨãĤĭ": 3377,
      "ãĢĲ": 3378,
      "è¡£": 3379,
      "ä¼¼": 3380,
      "ãĥĲãĥ«": 3381,
      "ãģ«æ³¨çĽ®": 3382,
      "ãģĵãĤĮãĤī": 3383,
      "æ¥ŃçķĮ": 3384,
      "ãĤ¢ãĤ¤ãĥīãĥ«": 3385,
      "éģİãģİ": 3386,
      "ãģĦãģ¤ãĤĤ": 3387,
      "ãĤ¤ãĥ³ãĤ¹ãĥĪãĥ¼ãĥ«": 3388,
      "ãĤ»ãĤŃãĥ¥ãĥªãĥĨãĤ£": 3389,
      "BE": 3390,
      "en": 3391,
      "ãģŁãĤī": 3392,
      "ãĥªãĥªãĥ¼ãĤ¹": 3393,
      "åĪĬ": 3394,
      "ãĤªãĥ¼": 3395,
      "åĩºä¼ļ": 3396,
      "ãĥķãĤ©ãĥ¼ãĥŀ": 3397,
      "ãĤĴè¦ĭãģ¦": 3398,
      "ãģŁãģ¡ãģ®": 3399,
      "ãģĭãģªãģĭ": 3400,
      "ãģ®å¯¾": 3401,
      "éłĳå¼µ": 3402,
      "éĳĳ": 3403,
      "ãĥĥãĤ«ãĥ¼": 3404,
      "ãĤ¸ãĤ¢": 3405,
      "ãĥ³ãĥĬ": 3406,
      "å¿ĺ": 3407,
      "ãĤ°ãĥŃ": 3408,
      "æĸ°èģŀ": 3409,
      "çĲĨè§£": 3410,
      "éħĴ": 3411,
      "è³ŀåĵģ": 3412,
      "æ²³": 3413,
      "åı¯èĥ½æĢ§": 3414,
      "ãģ²ãģ¨ãģ¤": 3415,
      "å¿«éģ©": 3416,
      "°åĽ²": 3417,
      "âĻ": 3418,
      "ŀľ": 3419,
      "ãĤĴä¸Ńå¿ĥ": 3420,
      "ãģĻãĤĭå£°": 3421,
      "éĽ°åĽ²": 3422,
      "ãĤıãģĭãĤĭ": 3423,
      "ãĤŃãĥ©": 3424,
      "ãĥ£ãĥ¼": 3425,
      "èĩªåĪĨãģĮ": 3426,
      "æ¼ĶãģĺãĤĭ": 3427,
      "äºĪç´Ħ": 3428,
      "æŁĵ": 3429,
      "å±ķç¤º": 3430,
      "åĪ¤æĸŃ": 3431,
      "è¬İ": 3432,
      "ä¸ĬãģĮãĤĬ": 3433,
      "æľªæĿ¥": 3434,
      "èĮ¶": 3435,
      "27": 3436,
      ":**": 3437,
      "ãĤĴä¸Ģ": 3438,
      "ãĥ¡ãĥĭãĥ¥ãĥ¼": 3439,
      "æĻ´": 3440,
      "å¯Ŀ": 3441,
      "æľĢçµĤ": 3442,
      "ãĤ²ãĤ¹ãĥĪ": 3443,
      "åĲĪãĤıãģĽãģ¦": 3444,
      "ãģĭãĤĤãģĹãĤĮãģªãģĦ": 3445,
      "æĽ¿ãģĪ": 3446,
      "ãģ£ãģ±ãĤĬ": 3447,
      "ãģķãģĽãģ¦ãģĦãģŁãģłãģįãģ¾ãģĻ": 3448,
      "HO": 3449,
      "ãĤ¯ãĤ¿": 3450,
      "ãģ©ãĤĮ": 3451,
      "ãģ¤ãģĭ": 3452,
      "æľ¬æł¼": 3453,
      "ãĥŃãĤ¤ãĥ³": 3454,
      "çļĦãģ«ãģ¯": 3455,
      "ãĥĿãĤ¹ãĤ¿ãĥ¼": 3456,
      "ä¸įæĢĿèŃ°": 3457,
      "è£½ä½ľ": 3458,
      "æĭĽå¾ħ": 3459,
      "ãĤĴçĽ®æĮĩ": 3460,
      "ãĥĴãĥ¼ãĥŃãĥ¼": 3461,
      "ĠW": 3462,
      "äºī": 3463,
      "å®Ļ": 3464,
      "ãĤ«ãĥ©": 3465,
      "ãĤ»ãĥ¬": 3466,
      "åĮĸãģĹãģŁ": 3467,
      "åı¯æĦĽ": 3468,
      "åĸľ": 3469,
      "ãģ¨ãģįãģ«": 3470,
      "åĨįçĶŁ": 3471,
      "ãģ®æĦŁ": 3472,
      "é³": 3473,
      "Ĥ©": 3474,
      "ãģ®ãģłãĤįãģĨãģĭ": 3475,
      "ãĤĴå¾Ĺ": 3476,
      "ãģĮéĽĨ": 3477,
      "è©°": 3478,
      "é«ĺéĢŁ": 3479,
      "åĮĸãģĻãĤĭ": 3480,
      "ä¾¡åĢ¤": 3481,
      "è¿°ãģ¹": 3482,
      "ct": 3483,
      "to": 3484,
      "ĠX": 3485,
      "ãĢĳ": 3486,
      "äººçĶŁ": 3487,
      "ãĥĲãĥ©": 3488,
      "å±¤": 3489,
      "ãģĦãģŁãģĹãģ¾ãģĻ": 3490,
      "è¾Ľ": 3491,
      "ãĤĴè¦ĭãģĽ": 3492,
      "å®ĮæĪĲ": 3493,
      "é§ħ": 3494,
      "ãĤĴæ¼ĶãģĺãĤĭ": 3495,
      "¡å¤§": 3496,
      "£ç¯Ģ": 3497,
      "ãģĿãģ®ç": 3498,
      "åīµ": 3499,
      "é£¾": 3500,
      "æģ¯": 3501,
      "ãģ«ãģªãĤĬãģ¾ãģĹãģŁ": 3502,
      "ç¬ĳãģĦ": 3503,
      "æĩ": 3504,
      "é½": 3505,
      "Ġ2012": 3506,
      "åĪ¸": 3507,
      "äººãĤĴ": 3508,
      "ãģ¤ãģ¤": 3509,
      "ãĥįãĤ¿": 3510,
      "åį±": 3511,
      "ãģĶäºĨæī¿": 3512,
      "ãĤ³ãĥ³ãĤ»": 3513,
      "æ¨ª": 3514,
      "è²©å£²åħĥ": 3515,
      "ãģĵãģĨãģĹãģŁ": 3516,
      "ä¾¿åĪ©ãģª": 3517,
      "ãĤ¹ãĥĶãĥ¼ãĥī": 3518,
      "ãĤ·ãĥ¼ãĤºãĥ³": 3519,
      "Excel": 3520,
      "ĠENTER": 3521,
      "ãģ®ãģªãģĦ": 3522,
      "ãĥ¡ãĥĥãĤ»ãĥ¼ãĤ¸": 3523,
      "ãĥŃãĥ¼ãĥ«": 3524,
      "åħ¥ãĤĬ": 3525,
      "è¨ĢãģĨ": 3526,
      "ãĥ¼ãĥĲãĥ¼": 3527,
      "for": 3528,
      "ãģ®ãģ¿": 3529,
      "ãģĭãģĦ": 3530,
      "ãģ¾ãģĹãĤĩãģĨ": 3531,
      "ãĥĹãĥ©ãĥ³": 3532,
      "ãĥ³ãĥŀ": 3533,
      "ãģ®ç«": 3534,
      "æĪĲéķ·": 3535,
      "ãĥĪãĥ¬ãĥ¼ãĥĭãĥ³ãĤ°": 3536,
      "ä¸Ģæĸ¹ãģ§": 3537,
      "éĽĳèªĮ": 3538,
      "ãĤ¢ãĤ«ãĥĩãĥŁãĥ¼è³ŀ": 3539,
      "Web": 3540,
      "ĿéĽ¢": 3541,
      "ãģ®ãģĶ": 3542,
      "ãĤĴãģĹãģŁ": 3543,
      "ãģ®å¸": 3544,
      "çµµ": 3545,
      "èªĩ": 3546,
      "çĶ¨ãģ®": 3547,
      "æĹ¥æľ¬èªŀ": 3548,
      "è¾¼ãģ¾": 3549,
      "éĢ±éĸĵ": 3550,
      "ä¿ĿèŃ·": 3551,
      "è·ĿéĽ¢": 3552,
      "ãĤ±ãĥ¼ãĤŃ": 3553,
      "¦Ĥ": 3554,
      "ãģ®ãģŁãĤģãģ«": 3555,
      "ãģ©ãģ¡ãĤī": 3556,
      "æ°Ĺãģ«": 3557,
      "éĿĻ": 3558,
      "ç«ĭãģ¦": 3559,
      "ãģ£ãģ¦ãģĦãģı": 3560,
      "æľĢæĸ°ä½ľ": 3561,
      "ãĤıãĤĮãģ¦ãģĦãĤĭ": 3562,
      "ãĤ¹ãĥĳãĤ¤": 3563,
      "ãĤĴä½ľãĤĭ": 3564,
      "ãģ§è¡Į": 3565,
      "ãĤĴéĸĭ": 3566,
      "ãģ£å¾Ĺ": 3567,
      "ãĤ¿ãĥĥãĥģ": 3568,
      "ãĥŁãĤ¹": 3569,
      "æİ¢": 3570,
      "å¿ħãģļ": 3571,
      "çĹĽ": 3572,
      "ãĤĴå§ĭ": 3573,
      "ãģªãģĭãģªãģĭ": 3574,
      "ãģ®åľ": 3575,
      "ãĤĴæŃ": 3576,
      "ãĤ±ãĥ¼ãĥĸãĥ«": 3577,
      "éĢļå¸¸": 3578,
      "çŁ¥ãģ£å¾Ĺ": 3579,
      "é¦ĻãĤĬ": 3580,
      "åħ¨åĽ½ãĥŃãĥ¼ãĥīãĤ·ãĥ§ãĥ¼": 3581,
      "åĸ¶æ¥Ń": 3582,
      "æĻ®éĢļ": 3583,
      "åŁºæľ¬": 3584,
      "ãĤªãĥķãĤ£ãĤ¹": 3585,
      "å®ĩå®Ļ": 3586,
      "ãĤĴéĸĭå§ĭ": 3587,
      "ä¸Ī": 3588,
      "ãģ®å±": 3589,
      "ãĤ·ãĥ³ãĤ°": 3590,
      "èĩªä½ĵ": 3591,
      "ãģ®çľ": 3592,
      "éĥ¨éĸĢ": 3593,
      "æ¥½ãģĹãģĦ": 3594,
      "ä¸»é¡Į": 3595,
      "åĸĦ": 3596,
      "ãĤ¢ãĥĻãĥ³ãĤ¸ãĥ£ãĥ¼ãĤº": 3597,
      "03": 3598,
      "?ãĢįãĢĮ": 3599,
      "HE": 3600,
      "ãģĦãģªãģĦ": 3601,
      "ãģĵãģªãģĹ": 3602,
      "åł±ãģĺ": 3603,
      "ãģĿãĤĮãĤĴ": 3604,
      "æıĲä¾Ľ": 3605,
      "éĺª": 3606,
      "èħķ": 3607,
      "æĻ®æ®µ": 3608,
      "ãģĮæıĲä¾Ľ": 3609,
      "ãģ®æģĭ": 3610,
      "å¤§å®¹éĩıãĥĲãĥĥãĥĨãĥªãĥ¼": 3611,
      "åĺ": 3612,
      "Ī¦": 3613,
      "ãģ®äººæ°Ĺ": 3614,
      "ãĥ»âĢľ": 3615,
      "ãģķãģĮ": 3616,
      "ãģįãģ®": 3617,
      "ä½ľæ¥Ń": 3618,
      "éļĬ": 3619,
      "ãĤ´ãĥª": 3620,
      "åŃ¦æł¡": 3621,
      "åħĪçĶŁ": 3622,
      "å°ĤéĸĢ": 3623,
      "ãĥ¬ãĥĵãĥ¥ãĥ¼ãĤ¢ãĥ¼": 3624,
      "ãģĶäºĨæī¿ãģıãģłãģķãģĦ": 3625,
      "ãģĮçĽ¸æ¬¡": 3626,
      "äºĴ": 3627,
      "ãĤ¸ãĥ³ãĤ°": 3628,
      "å°»": 3629,
      "å¦»": 3630,
      "èį·": 3631,
      "ãģ¾ãģķãģ«": 3632,
      "è´Ī": 3633,
      "ä¸»é¡ĮæŃĮ": 3634,
      "EX": 3635,
      "ãĤĴè§£": 3636,
      "åħ¼": 3637,
      "çīĩ": 3638,
      "åŃĲãģ©ãĤĤ": 3639,
      "èĢģ": 3640,
      "ãģ°ãĤĮãĤĭ": 3641,
      "æĮĻ": 3642,
      "ãĥ»ãĥ»ãĥ»": 3643,
      "æ¤ľç´¢": 3644,
      "ãĤ®ãĥ£ãĥ©ãĥªãĥ¼": 3645,
      "ãģ®è¨ĺäºĭãĤĴãĤĤãģ£ãģ¨è¦ĭãĤĭ": 3646,
      "æĳĺ": 3647,
      "300": 3648,
      "ãģ´": 3649,
      "ãģ¯ãģªãģĦ": 3650,
      "ãĤ¤ãĤº": 3651,
      "ãģ¨ãģĦãģĨãģ®ãģ¯": 3652,
      "ãģ®çŁ": 3653,
      "æ¸¯": 3654,
      "çŃĭ": 3655,
      "ç´łæĿĲ": 3656,
      "ĊĊĠĊĠ": 3657,
      "ãĤĴæİ¡çĶ¨": 3658,
      "çĹħ": 3659,
      "é½¢": 3660,
      "AM": 3661,
      "No": 3662,
      "éĨ": 3663,
      "ãĤ¤ãĥĦ": 3664,
      "ãĥ¬ãĥ³ãĥĪ": 3665,
      "çĶ»è³ª": 3666,
      "ç´Ģ": 3667,
      "ãĥĻãĥ¼ãĤ¹": 3668,
      "ãģĿãģĨãģĦãģĨ": 3669,
      "ãģĹãģĭãĤĤ": 3670,
      "ãģ¨è¨ĢãģĪãĤĭ": 3671,
      "ãĥ¼ãĥĨãĤ£ãĤ¹ãĥĪ": 3672,
      "ING": 3673,
      "Th": 3674,
      "ãĥĥãĤº": 3675,
      "ãģķãĤĴ": 3676,
      "ãĥ¬ãĥ¼": 3677,
      "ãĥ¬ãĤ³": 3678,
      "ãģķãĤĮãģ¦ãģĦãģŁ": 3679,
      "çĻºçĶŁ": 3680,
      "åĽŀçŃĶ": 3681,
      "ãĥ¯ãĥ³": 3682,
      "å¤īæĽ´": 3683,
      "åİŁåĽł": 3684,
      "âĹĭ": 3685,
      "ºåŃĲ": 3686,
      "ãģ®ãģĵãģ¨": 3687,
      "éĢı": 3688,
      "ãģ®æ¯": 3689,
      "ä¼Ĭ": 3690,
      "å¥ĩ": 3691,
      "å·¦": 3692,
      "ãĤĤãģ®ãģ§ãģĻ": 3693,
      "æİ¡çĶ¨": 3694,
      "igh": 3695,
      "ãģ®åĨħå®¹": 3696,
      "ãĥŀãĥ«ãĥģ": 3697,
      "ĿãģĦ": 3698,
      "ãģ®éŃħåĬĽ": 3699,
      "ãģ¨ãģĨ": 3700,
      "ãĤĴåĩº": 3701,
      "æĹ¥å¸¸": 3702,
      "åĽº": 3703,
      "ãĥŃãĥľ": 3704,
      "æµľ": 3705,
      "æģµ": 3706,
      "æĸĻéĩĳ": 3707,
      "ing": 3708,
      "å½±éŁ¿": 3709,
      "âĹĨ": 3710,
      "èĥ¸": 3711,
      "Ķ¾éĢģ": 3712,
      "ãĤ½ãĥ¼ãĤ·ãĥ£ãĥ«": 3713,
      "ãģĮå¯ĦãģĽ": 3714,
      "ãĥ¬ãĥĥ": 3715,
      "ãĥĹãĥĪ": 3716,
      "ãģĬãĤĪ": 3717,
      "ãĥĻãĤ¹ãĥĪ": 3718,
      "æĬ½": 3719,
      "ãģĿãģ®ãģ¾ãģ¾": 3720,
      "äººãĤĤå¤ļãģĦ": 3721,
      "ãĥ³ãĥĹãĥ«": 3722,
      "SSD": 3723,
      "ãĤĤå¤ļãģĦ": 3724,
      "ãĤ¤ãĤ¢": 3725,
      "ãĥŃãĥĥãĤ¯": 3726,
      "âĢķ": 3727,
      "ãĥŁãĥ©": 3728,
      "å£²ãĤĬ": 3729,
      "ç¤¾åĵ¡": 3730,
      "ãĥ¯ãĤ¤ãĥ³": 3731,
      "éĻ¸": 3732,
      "ãĥķãĤ©ãĥ¼ãĥł": 3733,
      "éģĭåĸ¶": 3734,
      "å®Įåħ¨": 3735,
      "é£²ãģ¿": 3736,
      "ãģ¦ãģ¯ãģĦãģĭãģĮ": 3737,
      "MI": 3738,
      "ãģ«ãģĶ": 3739,
      "ãĤīãģĹ": 3740,
      "ãĥĪãĥ¼ãĤ¯": 3741,
      "åĲĽ": 3742,
      "ãĥŀãĥį": 3743,
      "ãģ®çĬ": 3744,
      "ãĥķãĤ©ãĥ«": 3745,
      "ãģ¨ãģ®ãģĵãģ¨": 3746,
      "ç¹Ķ": 3747,
      "ãĥĹãĥ©ãĤ¹": 3748,
      "ãģ®å°ı": 3749,
      "æįķ": 3750,
      "åĶ": 3751,
      "ĲĨ": 3752,
      "ãĤĴè¦³": 3753,
      "ãģĭãĤĮãĤĭ": 3754,
      "ãĥĪãĥª": 3755,
      "ãĤ¢ãĤ¦": 3756,
      "åĪº": 3757,
      "ãĤĴæĴ®": 3758,
      "è¡Ģ": 3759,
      "æĺĶ": 3760,
      "åĭ¤": 3761,
      "ä¼ļè©±": 3762,
      "å¸ĥ": 3763,
      "æĹ¥æľ¬äºº": 3764,
      "åħ¬éĸĭãģķãĤĮãģŁ": 3765,
      "çĦ¡ç·ļ": 3766,
      "ä¸įå®ī": 3767,
      "ãĥĴãĥŃãĤ¤ãĥ³": 3768,
      "ãģªãĤĵãģ¨": 3769,
      "ãģ¨ãģĦãģĨãģĵãģ¨ãģł": 3770,
      "èĩªåĭķè»Ĭ": 3771,
      "ãĥĢãĤ¤ãĤ¨ãĥĥãĥĪ": 3772,
      "åĿĤ": 3773,
      "è¤ĩæķ°": 3774,
      "å°ĨæĿ¥": 3775,
      "ãģ¤ãģ¶ãĤĦ": 3776,
      "ia": 3777,
      "ãĤ¿ãĤ¤ãĥĪ": 3778,
      "ãģĻãĤĭãģªãģ©": 3779,
      "èĩ³": 3780,
      "éĽ»æ±ł": 3781,
      "åĲĮå£«": 3782,
      "å·¨": 3783,
      "æĬ¼": 3784,
      "ç§Ĵ": 3785,
      "éĩİèıľ": 3786,
      "ãĥĺãĥĥãĥī": 3787,
      "è£ħçĿĢ": 3788,
      "æīĵãģ¡": 3789,
      "è¨³": 3790,
      "ãĥŃãĤ°": 3791,
      "å¹´éĸĵ": 3792,
      "ãĤ¨ãĤ¯": 3793,
      "åī£": 3794,
      "åĮħ": 3795,
      "ç§°": 3796,
      "ãĤŃãĥ£ãĥªãĤ¢": 3797,
      "å¾Įãģ«": 3798,
      "ãĥĨãĤ£ãĥĸ": 3799,
      "ä½įç½®": 3800,
      "ãĤĴç¹": 3801,
      "ore": 3802,
      "ãģĹãģ¦ãĤĤãĤī": 3803,
      "´»çĶ¨": 3804,
      "éŁ³å£°èªįèŃĺ": 3805,
      "AN": 3806,
      "OL": 3807,
      "ce": 3808,
      "ãģ®ä½ľåĵģ": 3809,
      "ãģĮãģĦ": 3810,
      "ãĥ¼ãĥĴ": 3811,
      "ãĥĥãĤ³": 3812,
      "ãĤ¯ãĤ·ãĥ¼": 3813,
      "ãĤ·ãĥ³": 3814,
      "ãĥĩãĥ¥": 3815,
      "ãĤ¨ãĤ¢": 3816,
      "ãģĮæĤª": 3817,
      "ç«¶": 3818,
      "ç¸ģ": 3819,
      "å¸ĮæľĽ": 3820,
      "å´İ": 3821,
      "ãģĶãģĸãģĦãģ¾ãģĻ": 3822,
      "Tu": 3823,
      "ãģ¨åħ±": 3824,
      "ãģıãģ¨": 3825,
      "åĪĳ": 3826,
      "ãĤ¿ãĥ¬ãĥ³ãĥĪ": 3827,
      "ãĥ¬ãĥĻãĥ«": 3828,
      "ãģĹãģ¦ãģĹãģ¾ãģĨ": 3829,
      "ãĤĴæĢ": 3830,
      "ãĤ·ãĥį": 3831,
      "åĬ´": 3832,
      "ä¸Ģä½ĵ": 3833,
      "å¯º": 3834,
      "ãģ«æı": 3835,
      "æĻĤãģ¯": 3836,
      "å®Łæĸ½": 3837,
      "çŁŃ": 3838,
      "æĿ±äº¬éĥ½": 3839,
      "2009": 3840,
      "çĪĨ": 3841,
      "çĸĳåķı": 3842,
      "ãĤĴèģŀ": 3843,
      "ãĤĪãģĦ": 3844,
      "ãģĻãĤĭãģ¨ãģĦãģĨ": 3845,
      "æĹ¥ãģ¾ãģ§": 3846,
      "åĽ°": 3847,
      "ãĥŀãĤ¤ãĤ¯": 3848,
      "å¤§ãĥĴãĥĥãĥĪ": 3849,
      "åįļ": 3850,
      "åīĬ": 3851,
      "ãģĶãģ¨": 3852,
      "çĶ·åŃĲ": 3853,
      "ãģķãģĽãģ¦": 3854,
      "åºĹèĪĹ": 3855,
      "...ãĢį": 3856,
      "ãĤĴæıĲä¾Ľ": 3857,
      "èª°ãĤĤ": 3858,
      "ãģĻãģĶãģĦ": 3859,
      "¡ä»¶": 3860,
      "£¨": 3861,
      "ãĥªãĥ©": 3862,
      "å®ĺ": 3863,
      "ãģ®åĢ": 3864,
      "åºľ": 3865,
      "ãĥĭãĥ³ãĤ°": 3866,
      "ãĤĪãģĨãģ§ãģĻ": 3867,
      "ãĥŁãĥĭ": 3868,
      "ãĥ¢ãĥ¼ãĥī": 3869,
      "è²´": 3870,
      "è£ķ": 3871,
      "ç§Ģ": 3872,
      "åº¦ãģ¯": 3873,
      "ãĥ©ãĥ³ãĤ¯": 3874,
      "æ´»çĶ¨": 3875,
      "æĸĩåĮĸ": 3876,
      "å®īå¿ĥ": 3877,
      "åħħå®Ł": 3878,
      "èĩªèº«ãģ®": 3879,
      "ãĥĩãĤ£ãĤºãĥĭãĥ¼": 3880,
      "IC": 3881,
      "NHK": 3882,
      "éª": 3883,
      "ãĤ«ãĥĨ": 3884,
      "ãĥŃãĥŀ": 3885,
      "æİĪ": 3886,
      "èĪ¹": 3887,
      "ãĤ¢ãĥīãĥĲãĤ¤ãĤ¹": 3888,
      "éĸī": 3889,
      "åĲ¸": 3890,
      "å®Łãģ«": 3891,
      "å½ĵãģŁãĤĬ": 3892,
      "ãģªãģıãģ¦ãĤĤ": 3893,
      "ãģŁãģ¡ãģ¯": 3894,
      "ãĥ¼ãĥĵãĥ¼": 3895,
      "ç´łæķµ": 3896,
      "è¦ıæ¨¡": 3897,
      "ãģ®åİŁ": 3898,
      "ight": 3899,
      "QU": 3900,
      "¶Ī": 3901,
      "ãĤ¥": 3902,
      "ãģ¨èªŀ": 3903,
      "ãģ¨ãģ¨ãĤĤãģ«": 3904,
      "ãĥ¬ãĥĿãĥ¼ãĥĪ": 3905,
      "ãģĹãģ¦ãģıãĤĮ": 3906,
      "ãĤĴæŀľ": 3907,
      "ãģ£ãģ¦ãģıãĤĭ": 3908,
      "å¤§å¤ī": 3909,
      "ä»¥éĻį": 3910,
      "ãĥģãĥ£ãĥ¼": 3911,
      "èĸ¬": 3912,
      "æĤ©ãģ¿": 3913,
      "éĬĢåº§": 3914,
      "ay": 3915,
      "os": 3916,
      "ãģ®ãģłãģĮ": 3917,
      "ãģªãĤĬ": 3918,
      "ãĤ¢ãĥĢ": 3919,
      "å®Ŀ": 3920,
      "ãģ®ãģ§ãģĹãĤĩãģĨãģĭ": 3921,
      "çı¾åł´": 3922,
      "ãĤĴçį²å¾Ĺ": 3923,
      "éĸ¢éĢ£ãĥªãĥ³ãĤ¯": 3924,
      "ĠSt": 3925,
      "é¤Ĭ": 3926,
      "ä¹ĹãĤĬ": 3927,
      "èįĴ": 3928,
      "çªģçĦ¶": 3929,
      "æľĢå¾Įãģ«": 3930,
      "å¨ĺ": 3931,
      "éª¨": 3932,
      "II": 3933,
      "SNS": 3934,
      "ĠV": 3935,
      "ãĥ«ãģ®": 3936,
      "éĸĵéģķãģĦ": 3937,
      "è¿·": 3938,
      "ä¹¾": 3939,
      "èĢĥãģĪãģ¦": 3940,
      "èĦ³": 3941,
      "åįģåĪĨ": 3942,
      "ç·´ç¿Ĵ": 3943,
      "ãĤĴåĭĻãĤģãĤĭ": 3944,
      "ãģ®å¼·": 3945,
      "of": 3946,
      "ãĤĭãģĵãģ¨ãģĮ": 3947,
      "ãģ¯ãĤĤãģ¡ãĤįãĤĵ": 3948,
      "ãģĬéĩĳ": 3949,
      "ãĤ»ãĥ³ãĤ¿ãĥ¼": 3950,
      "ãĥ¼ãĤ¸ãĥ§": 3951,
      "æĽľ": 3952,
      "ãģĹãģ¾ãģĦ": 3953,
      "æĺİãĤīãģĭ": 3954,
      "çĹĩ": 3955,
      "ãģĬæ°Ĺãģ«åħ¥ãĤĬ": 3956,
      "ãĤĴæŀľãģŁ": 3957,
      "ãĤ¢ãĥ¼ãĥĨãĤ£ãĤ¹ãĥĪ": 3958,
      "æĢª": 3959,
      "ãĤµãĥł": 3960,
      "ãĥĵãĥ¥": 3961,
      "ç«¹": 3962,
      "å¿ľæı´": 3963,
      "åĪĿãģ®": 3964,
      "è§£åĥı": 3965,
      "ä¼Ŀèª¬": 3966,
      "åıİåħ¥": 3967,
      "æļ´": 3968,
      "¯ãĤĬè¿Ķ": 3969,
      "åģ¥åº·": 3970,
      "us": 3971,
      "ãģĦãģł": 3972,
      "ãģĭãģĽ": 3973,
      "ãĥ³ãĥį": 3974,
      "éĽ¨": 3975,
      "ãĥŃãĥ¼ãĥ©": 3976,
      "èĥ½åĬĽ": 3977,
      "ãģ¨æĢĿãģ£ãģŁ": 3978,
      "éŁĵåĽ½ãģ®": 3979,
      "æ¥½ãģĹãģ¿": 3980,
      "ä½¿ãģĦæĸ¹": 3981,
      "å·»ãģį": 3982,
      "ãģ®åĽ½": 3983,
      "01": 3984,
      "77": 3985,
      "ãģ®é«ĺãģĦ": 3986,
      "ãĢĤãĢĮ": 3987,
      "ãģĮé«ĺãģĦ": 3988,
      "ãģ¤ãģ¾ãĤĬ": 3989,
      "ãĥĲãĥª": 3990,
      "åħ¨ä¸ĸçķĮ": 3991,
      "éģ¸æĬŀ": 3992,
      "ä»ķæ§ĺ": 3993,
      "åºĥåĳĬ": 3994,
      "ãģ«éĸ¢ãģĹãģ¦": 3995,
      "åĭĿæīĭ": 3996,
      "æ¹¿": 3997,
      "è¢«å®³": 3998,
      "é¡ĺãģĦ": 3999,
      "åĲįæ§ĺãģ«ãĥĹãĥ¬ãĤ¼ãĥ³ãĥĪ": 4000,
      "ER": 4001,
      "ed": 4002,
      "¥ç¶ļ": 4003,
      "ãģĮè©±é¡Į": 4004,
      "ãģıãģĦ": 4005,
      "åĪ»": 4006,
      "ãģ§ãģĻãĤĪ": 4007,
      "ãĤµãĥ³": 4008,
      "ãĤµãĥ©": 4009,
      "ãĥīãĥ©ãĤ¤ãĥĸ": 4010,
      "ãĤ¦ãĥī": 4011,
      "ãģ®ç¬": 4012,
      "èĢħãģ«": 4013,
      "ãĥĩãĤ£ãĤ¹ãĤ¯": 4014,
      "ä¿ĿåŃĺ": 4015,
      "ãĥĨãĤ¯ãĥĭãĥĥãĤ¯": 4016,
      "ĠO": 4017,
      "ãģĵãģ®æĺłçĶ»": 4018,
      "ãģĤãģĴ": 4019,
      "ãģĿãĤį": 4020,
      "æĹ¥ãģ«ãģ¯": 4021,
      "ãģĬå®¢": 4022,
      "ãĥĩãĥĵãĥ¥ãĥ¼": 4023,
      "ä¸Ģãģ¤": 4024,
      "å£Ĭ": 4025,
      "ãĤ¨ãĥ³ãĤ¿": 4026,
      "çĦ¡ãģĦ": 4027,
      "ãĤ¹ãĥļãĥ¼ãĤ¹": 4028,
      "è·¡": 4029,
      "çķ°ãģªãĤĭ": 4030,
      "ç¯ĢéĽ»": 4031,
      "è¦ĸèģ´çİĩ": 4032,
      "æ¯Ķè¼ĥ": 4033,
      "ãĤĴæķĻ": 4034,
      "ain": 4035,
      "op": 4036,
      "ãĤĴçĻºå£²": 4037,
      "äº¡": 4038,
      "ãĥĥãĥĳ": 4039,
      "ãģĤãģ¨": 4040,
      "ãģ©ãģ®ãĤĪãģĨãģª": 4041,
      "ãģ®æĴ®å½±": 4042,
      "ãģ¨ãģĦãģĪãģ°": 4043,
      "å¹ķ": 4044,
      "ãĤŃãĥ¤": 4045,
      "ãĤµãĥ«": 4046,
      "ãģªãģ©ãģĮ": 4047,
      "æĸ°å®¿": 4048,
      "ãģ®ç§ĺ": 4049,
      "æ³£": 4050,
      "ãĤĤãģ®ãģł": 4051,
      "ãģ¾ãģĽãĤĵãģĭ": 4052,
      "èĬĿ": 4053,
      "å¾ħãģ¡": 4054,
      "ãĤĵãģ§ãģĻãģĳãģ©": 4055,
      "ãĤĴæĬ«éľ²": 4056,
      "ãĥ³ãĥĢãĥ¼": 4057,
      "ãĤ³ãĥ³ãĥĵ": 4058,
      "âĻª": 4059,
      "90": 4060,
      "IS": 4061,
      "ĭãģĮ": 4062,
      "ãģ®æ¨": 4063,
      "ãģĬãģĭ": 4064,
      "éģĤ": 4065,
      "ç´ºåŃĲ": 4066,
      "ãĤªãĥĸ": 4067,
      "ãĥ¯ãĤ¤": 4068,
      "èĩªåĪĨãģ§": 4069,
      "å½¼ãģ¯": 4070,
      "å¼·ãģı": 4071,
      "ãģ®ä¸ŃãģĭãĤī": 4072,
      "ãĤĴæĮģãģ¡": 4073,
      "ãģķãĤĮãģ¦ãģĬãĤĬ": 4074,
      "ãĤĴå®Łæĸ½": 4075,
      "äºĪåĳĬæĺłåĥı": 4076,
      "æģĲæĢĸ": 4077,
      "ãĤĴãģ¯ãģĺãĤģ": 4078,
      "DS": 4079,
      "res": 4080,
      "ãģ¯ãģĦ": 4081,
      "ãĤĤãģĤãĤĬ": 4082,
      "ãĥªãĤ³": 4083,
      "ãĤĵãģ¨": 4084,
      "ãģĤãĤī": 4085,
      "äººçī©": 4086,
      "å¼ģ": 4087,
      "ãĤ¦ãĥ«": 4088,
      "æĻĤæľŁ": 4089,
      "åľ°çĲĥ": 4090,
      "ãĥģãĥ£ãĥ³ãĤ¹": 4091,
      "ãģªãģ®ãģ«": 4092,
      "ç²§": 4093,
      "ãĤ³ãĥ³ãĤ»ãĥĹãĥĪ": 4094,
      "31": 4095,
      "EN": 4096,
      "Ġ8": 4097,
      "ãģ£ãģį": 4098,
      "ãģłãĤĪ": 4099,
      "ãĤĦãģ£ãģ±ãĤĬ": 4100,
      "ãĤ¦ãĥ³": 4101,
      "èĩªãĤī": 4102,
      "ãĥĳãĥ¼ãĥĨãĤ£": 4103,
      "å®Łçı¾": 4104,
      "æĮĳæĪ¦": 4105,
      "ãĤ¢ãĥĹãĥªãģ®": 4106,
      "ç´łæĻ´": 4107,
      "ä¸ĬãģĴãĤĭ": 4108,
      "ãģĸãģ¾": 4109,
      "åĽ½éļĽæĺłçĶ»ç¥Ń": 4110,
      "ãĥĢãĥ¼ãĤ¯ãĥĬãĤ¤ãĥĪ": 4111,
      "ãģ«åĬłãģĪ": 4112,
      "ãĥĥãĤµãĥ¼ãĤ¸": 4113,
      "ãĤ·ãĥįãĥŀ": 4114,
      "®æįķ": 4115,
      "ãĤĴçĻº": 4116,
      "éĢ®æįķ": 4117,
      "ãĤĴæ±º": 4118,
      "ä¸Ģè¦§": 4119,
      "ãĤ¨ãĥ«": 4120,
      "æĹ¥æľ¬ãģ§": 4121,
      "ãģŃãĤĭ": 4122,
      "ç¾İå®¹": 4123,
      "è¦³å®¢": 4124,
      "ãĤĴæĬ¼": 4125,
      "ãĤīãģĭãģĺãĤģ": 4126,
      "--------": 4127,
      "35": 4128,
      "ãģ§ãģĤãĤĮãģ°": 4129,
      "ãĤĴéĢģ": 4130,
      "ãĤ«ãĥĥãĥĹ": 4131,
      "ãģ¤ãģį": 4132,
      "éĽª": 4133,
      "å¤§å³¶": 4134,
      "ãĤ°ãĥª": 4135,
      "ä¸Ģéĥ¨": 4136,
      "ãĥĲãĥĥãĤ¯": 4137,
      "ãĤ»ãĥ³": 4138,
      "åħ¨ãģı": 4139,
      "ãĢħãģ®": 4140,
      "ä¹±": 4141,
      "ä½ľåĵģæĥħåł±": 4142,
      "ãĤ¢ãĥĥãĥĹãĥĩãĥ¼ãĥĪ": 4143,
      "ãģķãģĽãģŁ": 4144,
      "ä»ĸãģ®": 4145,
      "ãĤĵãģ§ãģĻãĤĪ": 4146,
      "ãĤ¯ãĥ©ãĥĸ": 4147,
      "ãĤ°ãĥ©ãĥł": 4148,
      "çŃĶãģĪ": 4149,
      "èħ¹": 4150,
      "ç§»åĭķ": 4151,
      "æĲºå¸¯éĽ»è©±": 4152,
      "çĬ¯ç½ª": 4153,
      "ãĥķãĤ¸ãĥĨãĥ¬ãĥĵ": 4154,
      "AL": 4155,
      "ãĤĤè¦ĭ": 4156,
      "ãĥ¼ãĥ¢": 4157,
      "ãĥ¼ãĥĩ": 4158,
      "ãĤĦãģĭ": 4159,
      "ä¸Ĭãģ®": 4160,
      "åĤ·": 4161,
      "ãģªãĤīãģªãģĦ": 4162,
      "ç¸®": 4163,
      "ãĤ¯ãĥ©ãĤ¦ãĥī": 4164,
      "ãĤªãĥ³ãĥ©ãĤ¤ãĥ³": 4165,
      "æ¹¾": 4166,
      "ãģĻãģĲãģ«": 4167,
      "æ¼«": 4168,
      "éĽ°åĽ²æ°Ĺ": 4169,
      "ãĥ¼ãĥĿ": 4170,
      "ãĤ«ãĥª": 4171,
      "ãģ£ãģ¦ãģĬãĤĬ": 4172,
      "èªĺ": 4173,
      "ãĤ¹ãĥĪãĥ¬": 4174,
      "ãĤ½ãĥ¼ãĥī": 4175,
      "åĮ»": 4176,
      "æĺłçĶ»ãģ®": 4177,
      "åīįãģ®": 4178,
      "ãĥķãĤ¡ãĥ¼": 4179,
      "çĶ·å¥³": 4180,
      "ntu": 4181,
      "åħ·ä½ĵ": 4182,
      "å»º": 4183,
      "ãĥŃãĥľãĥĥãĥĪ": 4184,
      "ll": 4185,
      "Ġ6": 4186,
      "ĠJ": 4187,
      "ãģ¨ãģĹ": 4188,
      "ãģ¨ãģĹãģ¦ãģĦãĤĭ": 4189,
      "ãģ¨èĢĥãģĪ": 4190,
      "ãĤĴåıĸ": 4191,
      "å¤§éĺª": 4192,
      "ä¼º": 4193,
      "ãĥĲãĤ¤ãĥĪ": 4194,
      "ãĥĳãĥĥ": 4195,
      "æľĢéģ©": 4196,
      "ãģ§ãĤĤãģĤãĤĭ": 4197,
      "æĹ¥æľ¬ãģ«": 4198,
      "å½ĵçĦ¶": 4199,
      "ãĢħãģ«": 4200,
      "ãĥĶãĤ½ãĥ¼ãĥī": 4201,
      "å¥³æĢ§ãģ®": 4202,
      "è¨ĪçĶ»": 4203,
      "äº¤æıĽ": 4204,
      "æľĢå¤§ãģ®": 4205,
      "éĬĥ": 4206,
      "ãģ«æĮĳæĪ¦": 4207,
      "·±": 4208,
      "æ¦Ĥ": 4209,
      "ãģĮæ®º": 4210,
      "ç¤¾ãģ®": 4211,
      "åħ¨ç±³": 4212,
      "ãĤ·ãĥ£ãĥ¬": 4213,
      "åıĹè³ŀ": 4214,
      "äºĮäºº": 4215,
      "èĻİ": 4216,
      "EC": 4217,
      "bu": 4218,
      "ãĤĴçĶŁ": 4219,
      "ãģĮåħ¥": 4220,
      "ãģłãģª": 4221,
      "ãģĤãĤīãģĭãģĺãĤģ": 4222,
      "ãĥ³ãĥĶ": 4223,
      "ä¸Ĭæīĭ": 4224,
      "åĩĦ": 4225,
      "å¥³ãģ®åŃĲ": 4226,
      "ãģĮæİ": 4227,
      "ãģ¨ãģªãĤĬãģ¾ãģĻ": 4228,
      "è¼©": 4229,
      "é£Łäºĭ": 4230,
      "ãĤĴéĢļãģĺãģ¦": 4231,
      "åĦĦåĨĨ": 4232,
      "oc": 4233,
      "çĢ": 4234,
      "ãģ«åıĸãĤĬ": 4235,
      "ãģ¦ãģıãģłãģķãģĦ": 4236,
      "ãģĻãģ¹ãģį": 4237,
      "ãģĭãĤĮãģŁ": 4238,
      "ãĤ¹ãĥ³": 4239,
      "ãĥ¼ãĥŁ": 4240,
      "ãģĵãģ¨ãģĭãĤī": 4241,
      "çĽĬ": 4242,
      "ãĤĪãģĨãģ«ãģªãĤĭ": 4243,
      "è¡ĮçĤº": 4244,
      "ãĤ»ãĤ¯ãĤ·ãĥ¼": 4245,
      "æķ£": 4246,
      "æķĹ": 4247,
      "ä¾Ŀ": 4248,
      "ãģłãģĳãģ«": 4249,
      "çı¾è±¡": 4250,
      "çķªåı·": 4251,
      "ãĤ¤ãĥ«ãĥī": 4252,
      "æ¬ł": 4253,
      "åķıãģĦ": 4254,
      "ãģĹãģ¦ãģĦãģªãģĦ": 4255,
      "å±Ĭãģĳ": 4256,
      "éĿ¢çĻ½ãģĦ": 4257,
      "è¸Ĭ": 4258,
      "AC": 4259,
      "Ġ7": 4260,
      "ãģ¨ãģĬ": 4261,
      "ãĤĴèªŀ": 4262,
      "ãģªãģĭ": 4263,
      "ãģĮå¤ļ": 4264,
      "ãĤĤãģ®ãģ§": 4265,
      "ãģ®å¾": 4266,
      "ãģ§ãģĻãģĭãĤī": 4267,
      "ãĤŃãĥ¬ãĤ¤": 4268,
      "äºĭå®Ł": 4269,
      "ãĤªãĤ·ãĥ£ãĥ¬": 4270,
      "ãĥĳãĥĥãĤ¯": 4271,
      "æĸ°çĻºå£²": 4272,
      "ç¾¤": 4273,
      "ä¹ĭ": 4274,
      "ãģ©ãģĨãģĭ": 4275,
      "ãģ¦ãĤĤãĤī": 4276,
      "ãģ«ãģĬãģĳãĤĭ": 4277,
      "è·¯": 4278,
      "æ¶Īè²»": 4279,
      "ãĤĴæ¥½ãģĹãĤĢ": 4280,
      "ãĤĴãģĶç´¹ä»ĭãģĹãģ¾ãģĻ": 4281,
      "Ĳºå¸¯": 4282,
      "800": 4283,
      "ãģ®ãĤĤãģ®": 4284,
      "ãģĨãģ¾": 4285,
      "ãĤīãģı": 4286,
      "ãĥŀãĥª": 4287,
      "çĻĴ": 4288,
      "éĽĦ": 4289,
      "å¤§äºĭ": 4290,
      "ãģĦãģŁãģłãģĳ": 4291,
      "ãģĵãĤĮãģĭãĤī": 4292,
      "ç¾İäºº": 4293,
      "ãģªãĤīãģ§ãģ¯": 4294,
      "çĽ´æİ¥": 4295,
      "éģĭåĳ½": 4296,
      "å¿ħè¦ģãģª": 4297,
      "ç©ºéĸĵ": 4298,
      "ãĥ³ãĥĳãĤ¤ãĤ¢": 4299,
      "ãĥĺãĤ¢": 4300,
      "ãĥĻãĥ«ãĤ»ãĥ«": 4301,
      "åŁ·çŃĨ": 4302,
      "¯Ķ": 4303,
      "µ®": 4304,
      "æ¢": 4305,
      "ãģ®åŁ": 4306,
      "ãĤ¸ãĥ¼": 4307,
      "ãĥ³ãĥĸ": 4308,
      "ä¸Ģçľ¼": 4309,
      "ãģ«æĪ": 4310,
      "ä¼ļè¦ĭ": 4311,
      "ãģ®ç¥": 4312,
      "ãĥłãĥ¼ãĥĵãĥ¼": 4313,
      "ãģªãģıãģ¦": 4314,
      "**ãĢĲ": 4315,
      "åĲĳä¸Ĭ": 4316,
      "ãĤĴä½¿ãģ£ãģŁ": 4317,
      "éĢ±æľ«": 4318,
      "å¦Ļ": 4319,
      "é»Ħ": 4320,
      "äºĪåĳĬç·¨": 4321,
      "éĩįè¦ģãģª": 4322,
      "Ľ¸ãģį": 4323,
      "BS": 4324,
      "èĨ": 4325,
      "èĵ": 4326,
      "ãģĭãģªãģĦ": 4327,
      "ãĤ¤ãĤ®": 4328,
      "ãĥ©ãĥĸ": 4329,
      "ãĤĴæ±Ĥ": 4330,
      "ãĥ³ãĥľ": 4331,
      "èĩªæ®º": 4332,
      "æ³ī": 4333,
      "éħ·": 4334,
      "ãĤīãĤĮãģ¾ãģĻ": 4335,
      "ãĤ¸ãĥ£ãĥ³": 4336,
      "æ¥½ãģĹãĤĢ": 4337,
      "æ·±ãģĦ": 4338,
      "éĽ¢å©ļ": 4339,
      "è¢ĭ": 4340,
      "åĳ¨å¹´": 4341,
      "âĢ²âĢ²": 4342,
      "ãģ®åķı": 4343,
      "ãĥķãĤ©ãĥ¼ãĥŀãĥ³ãĤ¹": 4344,
      "éĳĳè³ŀ": 4345,
      "èĻİãģ®å·»": 4346,
      "ãĥĻãĥ«ãĤ»ãĥ«ãĤ¯": 4347,
      "ãģ®ãĥª": 4348,
      "ãĥ¼ãĤ°ãĥ«": 4349,
      "ãĤĴéĸĭåĤ¬": 4350,
      "ãĥ¼ãĥ¯": 4351,
      "ãĥ³ãĥĩãĤ£": 4352,
      "ãĤ«ãĥķãĤ§": 4353,
      "ãĥ¡ãĥ³ãĥĲãĥ¼": 4354,
      "å¿Ļ": 4355,
      "ãģĮæ¼Ķ": 4356,
      "é«ĺæł¡": 4357,
      "æĬĹ": 4358,
      "åĨħèĶµ": 4359,
      "è¦ĸçĤ¹": 4360,
      "ãģ®åıĸ": 4361,
      "æ°¸éģł": 4362,
      "ä»²éĸĵ": 4363,
      "ãĤĴç¢ºèªį": 4364,
      "ãĤ«ãĥĨãĤ´ãĥª": 4365,
      "ãĤ¤ãĤ®ãĥªãĤ¹": 4366,
      "ID": 4367,
      "XY": 4368,
      "ãģ¾ãģ£ãģ¦ãģĦãĤĭ": 4369,
      "ãģ®çĦ": 4370,
      "ãĥ¯ãĤ¶": 4371,
      "æ¨¹": 4372,
      "ç¥ŀç¤¾": 4373,
      "ãģĦãģ¤ãģ§ãĤĤ": 4374,
      "å¤§åĪĩãģª": 4375,
      "ãģĦãĤĪãģĦãĤĪ": 4376,
      "çĶŁãģ¾ãĤĮ": 4377,
      "ãĤĴè¶ħãģĪãĤĭ": 4378,
      "ãģĵãģłãĤıãĤĬ": 4379,
      "ãĤŃãĥ£ãĥĹãĥĨãĥ³": 4380,
      "ãģ»ãģĨãģĮ": 4381,
      "!ãĢİ": 4382,
      "ãģ§è¦ĭ": 4383,
      "ãģĹãĤį": 4384,
      "ãģłãģ¨ãģĦãģĨ": 4385,
      "æľĪåı·": 4386,
      "æĪĳ": 4387,
      "çı¾å®Ł": 4388,
      "æĿ¥ãĤĭ": 4389,
      "ãģªãģĮãĤīãĤĤ": 4390,
      "ord": 4391,
      "ä»¥ä¸Ĭãģ®": 4392,
      "ãĤ°ãĥ©ãĥķãĤ£": 4393,
      "çĭ¬èĩª": 4394,
      "ie": 4395,
      "ı¡": 4396,
      "ãģĦãģ¯": 4397,
      "ãģ¨æĦŁãģĺ": 4398,
      "ãģĭãģĻ": 4399,
      "ãģĳãģ°": 4400,
      "è¨´": 4401,
      "ãģĬãģĦ": 4402,
      "ãĥĲãĥ¬ãĥ³": 4403,
      "ãģ¹ãĤĭ": 4404,
      "ãĥļãĥĥãĥĪ": 4405,
      "å¿ĥåľ°": 4406,
      "éħ¸": 4407,
      "æĭħå½ĵ": 4408,
      "ãĤĴä¸Ńå¿ĥãģ«": 4409,
      "MOVIE": 4410,
      "ĠiPhone": 4411,
      "ãĤ·ãĥ³ãĥĹãĥ«": 4412,
      "ãĥķãĥ©ãĥ³ãĤ¹": 4413,
      "ãĤ³ãĥ³ãĥĳãĤ¯ãĥĪ": 4414,
      "ãģ®æĪ¦": 4415,
      "ãĥŀãĤ¸": 4416,
      "ãĥŀãĥĥãĤµãĥ¼ãĤ¸": 4417,
      "çĽ®ãģ®": 4418,
      "ãģĹãģ¾ãģĦãģ¾ãģĻ": 4419,
      "ç¯ĩ": 4420,
      "éģĭè»¢": 4421,
      "ãģ®ä¸Ģãģ¤": 4422,
      "çĸ²": 4423,
      "è¸ı": 4424,
      "ãĤ³ãĥŁãĥ¥ãĥĭãĤ±ãĥ¼ãĤ·ãĥ§ãĥ³": 4425,
      "ãģ®çĬ¶": 4426,
      "AV": 4427,
      "BO": 4428,
      "ap": 4429,
      "Ġ10": 4430,
      "ãĤĬãĤĴ": 4431,
      "ãĤ¢ãĥ³ãĥī": 4432,
      "åĲ¹": 4433,
      "ãģ£ãģ¦ãģįãģŁ": 4434,
      "å¾Ĵ": 4435,
      "äºĭåĭĻ": 4436,
      "å°½": 4437,
      "ãĥįãĥĥãĥĪãĥ¯ãĥ¼ãĤ¯": 4438,
      "æıĥ": 4439,
      "ä¸ĩåı°": 4440,
      "å°ıãģķ": 4441,
      "ãĤĴæĬ±": 4442,
      "ç¸¾": 4443,
      "ãģ®æĺłåĥı": 4444,
      "ĠMOVIE": 4445,
      "æĬķç¨¿": 4446,
      "ãĥĪãĥ©ãĥĸãĥ«": 4447,
      "è±Ĭå¯Į": 4448,
      "ä»®éĿ¢": 4449,
      "ãĢĳ**": 4450,
      "çĢ¬": 4451,
      "fe": 4452,
      "ge": 4453,
      "ķç¨¿": 4454,
      "ãĥ¬ãĥĥãĥī": 4455,
      "ãģ¤ãģĦãģ«": 4456,
      "çµĨ": 4457,
      "ãĤ°ãĥĥãĤº": 4458,
      "å¼Ĭ": 4459,
      "è³¢": 4460,
      "åĮĸç²§": 4461,
      "å¤īåĮĸ": 4462,
      "ãĤĴåıĹè³ŀ": 4463,
      "æĨ¶": 4464,
      "è§£åĥıåº¦": 4465,
      "HP": 4466,
      "å¶": 4467,
      "éĪ": 4468,
      "ãģ®æĹ¥": 4469,
      "ãĤĴåĲ«": 4470,
      "ãĤĬãģĮ": 4471,
      "ãĤ¯ãĥ¼ãĥ«": 4472,
      "æĹ¢": 4473,
      "ãģĻãĤĭãģĵãģ¨ãĤĤ": 4474,
      "ãĤ³ãĥ³ãĥĪ": 4475,
      "å¥¥": 4476,
      "ãĤ¹ãĥĪãĥª": 4477,
      "ä¿º": 4478,
      "ãģĮæĬ": 4479,
      "ãģĵãģ¨ãģĮãģ§ãģįãģ¾ãģĻ": 4480,
      "åĲįåīį": 4481,
      "åħĪæĹ¥": 4482,
      "ãĤ¹ãĥĨãĥ¼ãĤ¸": 4483,
      "æļĹ": 4484,
      "åįĴæ¥Ń": 4485,
      "TI": 4486,
      "TX": 4487,
      "¨æĭ": 4488,
      "Ķ¹": 4489,
      "ãģŁãģ£ãģ·": 4490,
      "ãģ¯ãģĵãģ¡ãĤī": 4491,
      "ãĤ¤ãĥ³ãĥģ": 4492,
      "ãģ®æł": 4493,
      "ãģĬãģĻãģĻãĤģ": 4494,
      "å¤§æīĭ": 4495,
      "ãģ¨ãģĦãģĨãģĵãģ¨ãģ§": 4496,
      "å¾¡": 4497,
      "æĢ§ãĤĴ": 4498,
      "ãģ®çĲĨ": 4499,
      "ãĤ¹ãĥĪãĥ¬ãĤ¹": 4500,
      "ãĤ±ãĥ¼ãĤ¸": 4501,
      "ãĥĢãĥ¡": 4502,
      "çı¾ä»£": 4503,
      "æİ¨": 4504,
      "ãĤ´ãĥ¼ãĥ«": 4505,
      "åĤ¾": 4506,
      "è§£èª¬": 4507,
      "ãĥĭãĥ¥ãĥ¼ãĥ": 4508,
      "æ¡ľ": 4509,
      "è¡¨ç¤ºãģķãĤĮãĤĭ": 4510,
      "è¢«çģ½": 4511,
      "çµĦãģ¿åĲĪãĤıãģĽ": 4512,
      "ãĥ´ãĤ¡ãĥ³ãĥĳãĤ¤ãĤ¢": 4513,
      "æ¼«çĶ»": 4514,
      "ä»®éĿ¢ãĥ©ãĤ¤": 4515,
      "¨æĭ¶": 4516,
      "?**": 4517,
      "SH": 4518,
      "ãĥĮ": 4519,
      "ãģĭãģĹ": 4520,
      "ãģĭãģı": 4521,
      "ãģłãĤį": 4522,
      "ãĥ¬ãĥĥãĥĪ": 4523,
      "ãĥīãĤ¢": 4524,
      "æĶ»": 4525,
      "æĪĲåĪĨ": 4526,
      "ä¹Ł": 4527,
      "ãĤĴçªģ": 4528,
      "ãģĲãĤĭ": 4529,
      "ä½¿ãģĦãģĵãģªãģĹ": 4530,
      "åł´åĲĪãģ¯": 4531,
      "ãĤĵãģ©ãĤĵ": 4532,
      "åĥįãģı": 4533,
      "ãĤĴæııãģĦãģŁ": 4534,
      "ãĤ¹ãĥ¼ãĥĳãĥ¼": 4535,
      "ãĥ¶æľĪ": 4536,
      "ä¸Īå¤«": 4537,
      "CD": 4538,
      "Ubu": 4539,
      "ver": 4540,
      "ãģ§ãģĤ": 4541,
      "ãģ¯ä½ķ": 4542,
      "ãģ¦ãģĦãģ¾ãģĹãģŁ": 4543,
      "ãĥ©ãĥ³ãĥī": 4544,
      "ãģ®å¾Į": 4545,
      "ãģĬãģĨ": 4546,
      "ä½ľæĪĲ": 4547,
      "ãĥĥãĤ¯ãģª": 4548,
      "èĢ³": 4549,
      "è¦ģç´ł": 4550,
      "æµ®": 4551,
      "ãĤ·ãĥ£ãĥ¼ãĥĹ": 4552,
      "ãĤĴæĮĩ": 4553,
      "è«ĭ": 4554,
      "å¹ħåºĥ": 4555,
      "å°İåħ¥": 4556,
      "ãģ®æĥħåł±ãĤĴ": 4557,
      "ãĤŃãĥ¤ãĥİãĥ³": 4558,
      "Ubuntu": 4559,
      "PO": 4560,
      "ãģĦãģ®": 4561,
      "ãģķãģĪ": 4562,
      "ãģ®æĪĲ": 4563,
      "ãģĮæµģ": 4564,
      "è²ŀ": 4565,
      "å¾Įãģ®": 4566,
      "æ±Ł": 4567,
      "ãĤ·ãĥ£ãĥĦ": 4568,
      "åı°æ¹¾": 4569,
      "åı¯èĥ½ãģł": 4570,
      "æĤ²": 4571,
      "ãĤĴæĮģãģ£ãģ¦ãģĦãĤĭ": 4572,
      "ãģĹãģ¦ãģ¿ãĤĪãģĨ": 4573,
      "ãĥĺãĥ«": 4574,
      "ãģķãģ¾ãģĸãģ¾": 4575,
      "èŃ¦å¯Ł": 4576,
      "ãģ®çľŁ": 4577,
      "ãģĬãĤĪãģ³": 4578,
      "be": 4579,
      "ãģ¾ãģ¤": 4580,
      "ãĢįãĢģãĢĮ": 4581,
      "ãĥ«ãĥĪ": 4582,
      "ãĤ·ãĤ¢": 4583,
      "ãĥ¬ãĤ¹ãĥĪ": 4584,
      "æĹ¥éĸĵ": 4585,
      "åº«": 4586,
      "ãģĵãģ¨ãģĮãģĤãĤĭ": 4587,
      "åĲĮæĻĤãģ«": 4588,
      "å§«": 4589,
      "ä»¥æĿ¥": 4590,
      "ãĥķãĤ£ãĥ«": 4591,
      "ç´¹ä»ĭãģĹãģŁ": 4592,
      "çĽ£çĿ£ãģĮ": 4593,
      "åħ±æ¼Ķ": 4594,
      "ãĥ¡ãĥªãĥĥãĥĪ": 4595,
      "ãģ®ãģ§ãģ¯ãģªãģĦãģ§ãģĹãĤĩãģĨãģĭ": 4596,
      "ãĥĸãĥĥãĤ¯ãĥŀãĥ¼ãĤ¯": 4597,
      "Blu": 4598,
      "ãĤĴãģĹãģ¦": 4599,
      "ãģłãģ¨æĢĿãģĦãģ¾ãģĻ": 4600,
      "ãĤ¢ãĤ¸ãĤ¢": 4601,
      "ãĥ¡ãĤ¬": 4602,
      "å¤§ä¸Īå¤«": 4603,
      "ãĤıãģĭãĤĬ": 4604,
      "ãĥīãĥ©ãĤ¤": 4605,
      "ãĤĪãģĨãģ«ãģªãģ£ãģ¦ãģĦãĤĭ": 4606,
      "çķĻ": 4607,
      "ä¼ļåĵ¡": 4608,
      "çŁ¢": 4609,
      "ãģĤãĤĬãģĮ": 4610,
      "çī¹åħ¸": 4611,
      "åĨħãģ«": 4612,
      "ãĥ¦ãĥ¼ãĤ¶ãĥ¼ãģĮ": 4613,
      "å°ĳãģªãģĦ": 4614,
      "åŁİ": 4615,
      "å®īåħ¨": 4616,
      "ãģ«ãģĬãģĻãģĻãĤģ": 4617,
      "ä¾¡æł¼ãģ¯": 4618,
      "ç½®ãģį": 4619,
      "ãģĵãģĵãģ§": 4620,
      "çĶŁãģįãĤĭ": 4621,
      "ãģ«è¿ĳãģ¥ãģı": 4622,
      "ãģ®åľ°": 4623,
      "æĬ½éģ¸": 4624,
      "ãĥĭãĥ¥ãĥ¼ãĥ¨": 4625,
      "BI": 4626,
      "pl": 4627,
      "ãģĦãĤı": 4628,
      "ãĤĴãģ¨": 4629,
      "ãĤĴçĿĢ": 4630,
      "ãĥĥãĤŃ": 4631,
      "ãĤ¯ãĥ¬": 4632,
      "ãģĹãģŁãģ®ãģ¯": 4633,
      "ãģĳãĤĮ": 4634,
      "éģ¿": 4635,
      "ãĥīãĥª": 4636,
      "ãģ«æķ": 4637,
      "ãĥŁãĥ¥": 4638,
      "é«ĺæ©ĭ": 4639,
      "ç«ł": 4640,
      "ãģŁãĤģãģ®": 4641,
      "ãĥĶãĥ³ãĤ¯": 4642,
      "åĨħãģ®": 4643,
      "åİļ": 4644,
      "æ§ĺåŃĲ": 4645,
      "æŀĲ": 4646,
      "æ¸ĭ": 4647,
      "ãĤ¢ãĥĹãĥªãĤĴ": 4648,
      "ä¸ĩäºº": 4649,
      "çİī": 4650,
      "æŃ£ç¾©": 4651,
      "ä¼ĿãģĪãĤĭ": 4652,
      "éĢ²åĮĸ": 4653,
      "ãģ£ãģ½": 4654,
      "......ãĢĤ": 4655,
      "èĥĮæĻ¯": 4656,
      "ãĤªãĥķãĤ£ãĤ·ãĥ£ãĥ«": 4657,
      "éįĭ": 4658,
      "ãĤ¿ãĤ¤ãĥĪãĥ«": 4659,
      "HC": 4660,
      "MP": 4661,
      "ee": 4662,
      "éı¡": 4663,
      "ãĥ¼ãĥ¡": 4664,
      "ãģ£ãģ¡": 4665,
      "ãģ£ãģ¦ãģĬ": 4666,
      "ãĥīãĥ¬ãĤ¹": 4667,
      "çĽ®æ¨Ļ": 4668,
      "æħ£": 4669,
      "ĠPro": 4670,
      "ãģĤãģªãģŁãģ®": 4671,
      "åįĬæľŁ": 4672,
      "ç¹°ãĤĬ": 4673,
      "ãģ¾ãĤĭãģ§": 4674,
      "åĿĩ": 4675,
      "ãĥĹãĥ¬ãĥŁãĤ¢ãĥł": 4676,
      "èĦļæľ¬": 4677,
      "ãģ®æ§ĺåŃĲ": 4678,
      "ä¸įæĢĿèŃ°ãģª": 4679,
      "ãģĮæ®ºåĪ°": 4680,
      "right": 4681,
      "ãĤĴãĥĨãĥ¼ãĥŀ": 4682,
      "ãģ¦ãģĦãģ¦": 4683,
      "ãĥĲãĥ¼ãĥĪ": 4684,
      "ãĥĸãĥ¼ãĥł": 4685,
      "è¨ĢãģĦ": 4686,
      "ãĥķãĤ¡ãĤ¤": 4687,
      "ãĥĶãĥ¼": 4688,
      "è¶£": 4689,
      "è¾¼ãĤĵãģł": 4690,
      "èª¿æķ´": 4691,
      "ç¯Ħ": 4692,
      "éģĭåĭķ": 4693,
      "æļĳ": 4694,
      "LAXY": 4695,
      "ãĤ¬ãĥ¼ãĥ«ãĤº": 4696,
      "åİ³ãģĹãģĦ": 4697,
      "ãģĮæĮģ": 4698,
      "ãĤ¢ãĥĢãĥĹ": 4699,
      "å¶ĭ": 4700,
      "éĪ´": 4701,
      "µ·": 4702,
      "ãģ§ãģĤãģ£ãģŁ": 4703,
      "ãĤĴè³¼åħ¥": 4704,
      "ãģĵãģª": 4705,
      "ãĤ¿ãĤ°": 4706,
      "ãģ©ãģ®": 4707,
      "ãĤĴæ¸": 4708,
      "åĽĽ": 4709,
      "ãĤıãģ£ãģŁ": 4710,
      "ãģ¿ãģĮ": 4711,
      "åŃĲãģķãĤĵ": 4712,
      "çĶŁæĶ¾éĢģ": 4713,
      "è²¬": 4714,
      "ãĤ±ãĥ¼ãĥĪ": 4715,
      "æĦŁãĤĴ": 4716,
      "è¡¨æĥħ": 4717,
      "ãĤĤãģ®ãģĮ": 4718,
      "éłĪ": 4719,
      "ãĤ¯ãĥªãĤ¨ãĤ¤": 4720,
      "è¨Ńç½®": 4721,
      "ãģ£ãģ¦ãģĦãģªãģĦ": 4722,
      "ãĤĴæĦı": 4723,
      "ONE": 4724,
      "ãĤĴéģ¸æĬŀ": 4725,
      "éºĹ": 4726,
      "åľ§åĢĴ": 4727,
      "å¾¹åºķ": 4728,
      "çĶ³ãģĹ": 4729,
      "RING": 4730,
      "od": 4731,
      "ote": 4732,
      "ãĤĴåŃ¦": 4733,
      "ãĤ«ãĤ¹ãĤ¿": 4734,
      "ãĤŃãĤ¹": 4735,
      "ä¸Ńãģ§ãĤĤ": 4736,
      "ãĤ·ãĥ§ãĤ³ãĥ©": 4737,
      "ãĥ¢ãĥ³": 4738,
      "ãĥĦãĥ¼ãĥ«": 4739,
      "ä»ĺãģĳãģ¦": 4740,
      "æ©Łèĥ½ãģ¯": 4741,
      "ãĤ«ãĥ¼ãĤ¿ãĥ¼": 4742,
      "çĽ£çĿ£ãģ¯": 4743,
      "è¨Īç®Ĺ": 4744,
      "çĻºè¡¨ãģĹãģŁ": 4745,
      "ä¸ĬãģĴãģŁ": 4746,
      "ãĥĲãĥĥãĤ°": 4747,
      "ãģ®åıį": 4748,
      "ãģĵãģĨãģĦãģĨ": 4749,
      "èĪĪè¡Į": 4750,
      "åĲĳãģĳãģ®": 4751,
      "ãģ®åĭķçĶ»": 4752,
      "ãģĹãģ¦ãĤĭ": 4753,
      "ãĤıãĤĮãģ¦": 4754,
      "æīķ": 4755,
      "ãĢıãĢģ": 4756,
      "ãģ«æ®ĭ": 4757,
      "è¨ĺèĢħ": 4758,
      "éĿ©": 4759,
      "ç·Ĭ": 4760,
      "ãĥıãĥ³": 4761,
      "ç©´": 4762,
      "åı¯èĥ½ãģª": 4763,
      "ãģ£ãģ¦ãĤĤãĤī": 4764,
      "èĭ¥æīĭ": 4765,
      "çĮ«": 4766,
      "ãĥĭãĥ¥ãĥ¼ãĥ¨ãĥ¼ãĤ¯": 4767,
      "iOS": 4768,
      "ãģ§æĴ®å½±": 4769,
      "ãĥ¼ãĥ¤": 4770,
      "ãĤ·ãĥ«": 4771,
      "ãĥĩãĥĲãĤ¤ãĤ¹": 4772,
      "å½¦": 4773,
      "ãĤµãĥŃãĥ³": 4774,
      "ãģ§ãģ¯ãģĤãĤĬãģ¾ãģĽãĤĵ": 4775,
      "åĩºãģ¦": 4776,
      "æ©Łä¼ļ": 4777,
      "ãĥĻãĥ¼ãĥĪ": 4778,
      "éĢļè©±": 4779,
      "åīįçĶ°": 4780,
      "ãģ¨æĢĿãģ£ãģ¦": 4781,
      "è¾¼ãĤĵãģ§": 4782,
      "ãģ£ãģ¦ãģĦãģ¾ãģĹãģŁ": 4783,
      "é¦Ļå·Ŀ": 4784,
      "ãģĮåĩºãģ¦": 4785,
      "box": 4786,
      "ãģ®ç¬¬": 4787,
      "am": 4788,
      "ãģ«ä»ķ": 4789,
      "ãģĮãģĭ": 4790,
      "ãģŁãģĹãģ¦": 4791,
      "ãĤ¹ãĥ¼ãĥĦ": 4792,
      "ãģ®æ¸": 4793,
      "æĿ¡ä»¶": 4794,
      "ãĥĲãĥ©ãĥ³ãĤ¹": 4795,
      "ãĥĵãĥ¼ãĥ«": 4796,
      "è¡Įãģı": 4797,
      "åįĪ": 4798,
      "ãĥ¢ãĥĭ": 4799,
      "ãģļãģ£ãģ¨": 4800,
      "æĹ¥æľ¬ãģ§ãģ¯": 4801,
      "ãĥĿãĥ¼ãĥ«": 4802,
      "çī©èŃ°": 4803,
      "å¿ħè¦ĭ": 4804,
      "åĨĻçľŁå±ķ": 4805,
      "çµĮåĸ¶": 4806,
      "åºĥãģĴ": 4807,
      "ç¯ī": 4808,
      "æ§ĭæĪĲ": 4809,
      "ãĥĥãĥĶãĥ³ãĤ°": 4810,
      "BC": 4811,
      "ab": 4812,
      "çį": 4813,
      "ãģĭãģĮ": 4814,
      "ãģĭãģĹãģĦ": 4815,
      "ãĤĤå¤ļãģı": 4816,
      "ãģ®åł": 4817,
      "ãĥ¡ãĤ¤ãĥ³": 4818,
      "å¥®": 4819,
      "å¼±": 4820,
      "èĩªä¿¡": 4821,
      "ãģ¨ãģªãģ£ãģ¦ãģĦãģ¾ãģĻ": 4822,
      "çĦ¡çĲĨ": 4823,
      "éĢ±åĪĬ": 4824,
      "ãģ®åıĭ": 4825,
      "èįī": 4826,
      "ãģĦãĤįãģĦãĤį": 4827,
      "è¦ĭãģŁçĽ®": 4828,
      "Word": 4829,
      "ãģ®ä»ķäºĭ": 4830,
      "ãģ¨è¿°ãģ¹": 4831,
      "ãĥķãĥŃ": 4832,
      "ãĤĪãģĨãģ«ãģªãģ£ãģŁ": 4833,
      "ãĥĳãĤ¹": 4834,
      "æīĭè»½ãģ«": 4835,
      "ãģĵãģ®ãĤĪãģĨãģª": 4836,
      "ç¨¼": 4837,
      "åħ¬éĸĭãģķãĤĮãĤĭ": 4838,
      "ä½įãģ«": 4839,
      "ãģĪãģ¦ãģıãĤĮãĤĭ": 4840,
      "ãĤ¹ãĤ¯ãĥªãĥ¼ãĥ³": 4841,
      "ãģ£ãģ±ãģĦ": 4842,
      "ãĤĦãģĻãģı": 4843,
      "ç¬ĳé¡Ķ": 4844,
      "ãģ®æĸ¹ãģĮ": 4845,
      "ãĥĹãĥ©ãĤ¤ãĥĻãĥ¼ãĥĪ": 4846,
      "GALAXY": 4847,
      "ãģ¨åĳ¼ãģ°ãĤĮãĤĭ": 4848,
      "ãģ®æ°ĹæĮģãģ¡": 4849,
      "īå¼·": 4850,
      "ãģ®çķ¥": 4851,
      "ãĤĴå®Ī": 4852,
      "ãģŁãģ¾": 4853,
      "ãģįãģ¦": 4854,
      "éĸ²": 4855,
      "ãģ©ãĤĵãģ©ãĤĵ": 4856,
      "ãĤĴæĶ¯": 4857,
      "ãĤĴæ¤ľ": 4858,
      "ãĤ°ãĥ¬": 4859,
      "ãĤ¦ãĥł": 4860,
      "æ°ĹãĤĴ": 4861,
      "ãĥ¢ãĥģ": 4862,
      "æĦŁãģĺãĤĭ": 4863,
      "ãĥıãĥĥãĥĶ": 4864,
      "ç¶¾": 4865,
      "ãĥĽãĥ©ãĥ¼": 4866,
      "ãģĵãĤĮãģĮ": 4867,
      "ä»ĺå±ŀ": 4868,
      "ä½ķåº¦": 4869,
      "ä»Ĭå¹´ãģ¯": 4870,
      "çļĨãģķãĤĵãģĮ": 4871,
      "è¥²": 4872,
      "TOP": 4873,
      "éĹĩ": 4874,
      "ãĤĴæĲŃè¼īãģĹãģŁ": 4875,
      "ãģ«åĲĳãģĳãģ¦": 4876,
      "ãĤĴæĺł": 4877,
      "äºĶè¼ª": 4878,
      "ãģ´ãģ£ãģŁãĤĬ": 4879,
      "ç´łæĻ´ãĤīãģĹãģĦ": 4880,
      "ãģ«æĪ»": 4881,
      "400": 4882,
      "ãģ¯ãģĤãĤĭ": 4883,
      "ãģ¾ãĤĮãģŁ": 4884,
      "ãĤĵãģĺãĤĥãģªãģĦ": 4885,
      "ãĤ·ãĥĥãĥĹ": 4886,
      "ãĤ³ãĥį": 4887,
      "ãģ§ãģįãģ¦": 4888,
      "ãģªãģ©ãĤĤ": 4889,
      "ãģ«æ¸": 4890,
      "ãĥĢãĥ«": 4891,
      "ãĤĴæĮ¯ãĤĬè¿Ķ": 4892,
      "åĪ©çĶ¨ãģ§ãģįãĤĭ": 4893,
      "ãĥ³ãĥĨãĤ£": 4894,
      "ãĥŀãĥ³ãĤ¬": 4895,
      "èĭ±åĽ½": 4896,
      "QUOS": 4897,
      "ĳç´Ħ": 4898,
      "ĺåľ¨": 4899,
      "ãĥ¼ãĤ¼": 4900,
      "ãĤĭãģĵãģ¨": 4901,
      "ãĤĴèªĩ": 4902,
      "ãģłãģĹ": 4903,
      "ãĥĩãĥ³": 4904,
      "ãĤıãģĭãĤīãģªãģĦ": 4905,
      "ä½ľå®¶": 4906,
      "å¹´ä»£": 4907,
      "ä¸Ĭãģ§ãģ¯": 4908,
      "ãĥŁãĥ³ãĤ°": 4909,
      "ãĥ¯ãĤ¤ãĥ¤": 4910,
      "å·ŀ": 4911,
      "ãģ¾ãģ§ãģ®": 4912,
      "ãĥİãĥŁãĥį": 4913,
      "æı¡": 4914,
      "ä½ľåĵģãģ¯": 4915,
      "ãĤĴçĭ": 4916,
      "å°ıåŀĭ": 4917,
      "éŁĵæµģ": 4918,
      "ãģ®ä¸Ńãģ«": 4919,
      "ãĤĴä½ľæĪĲ": 4920,
      "ä½ıæīĢ": 4921,
      "æ£Ĵ": 4922,
      "ãĤĴéģ¸ãģ¶": 4923,
      "ãĤ¤ãĥ³ãĥĨãĥ«": 4924,
      "ãĥ¡ãĥ¢ãĥªãĥ¼": 4925,
      "åį±éĻº": 4926,
      "ãģ®åķıé¡Į": 4927,
      "EOS": 4928,
      "Ġ/": 4929,
      "ãģĻãģĵ": 4930,
      "ãĤ¢ãĥª": 4931,
      "ãģĤãģ£ãģ¦": 4932,
      "ãĤ·ãĥ¼ãĥĪ": 4933,
      "åŃ£ç¯Ģ": 4934,
      "ä¸Ĭãģ«": 4935,
      "ãģªãģ©ãģ¨": 4936,
      "ãģķãĤĵãģ¨": 4937,
      "å¿ĥéħį": 4938,
      "æı®": 4939,
      "ä¸įè¦ģ": 4940,
      "ãĤ²ãĥĥãĥĪ": 4941,
      "èº«ä½ĵ": 4942,
      "ãģªãĤĵãģ§ãģĻ": 4943,
      "ä»¥ä¸Ĭãģ«": 4944,
      "ãĤ¦ãĤ§ãĥĸ": 4945,
      "åĨįãģ³": 4946,
      "é£Ľè¡Į": 4947,
      "æľĿé®®": 4948,
      "ãģ®åĬĽ": 4949,
      "ãģ¯ãģ©ãģĨãģªãĤĭ": 4950,
      "ç´łæķµãģª": 4951,
      "ãģķãģ¾ãģĸãģ¾ãģª": 4952,
      "?ãĢĮ": 4953,
      "UBE": 4954,
      "ty": 4955,
      "çĥ": 4956,
      "ĥéĻ¤": 4957,
      "ãģĮçĽ®": 4958,
      "ãģĮéĽ£": 4959,
      "ãģ£ãģĵ": 4960,
      "åħµ": 4961,
      "ãĤŃãĥł": 4962,
      "ãĥīãĤŃãĥ¥": 4963,
      "å¹´é½¢": 4964,
      "è¦ĭãģĪãĤĭ": 4965,
      "å¯¿": 4966,
      "æĻĤãģ®": 4967,
      "ãģ®ç©": 4968,
      "ãģĮæºĢ": 4969,
      "ãĥĢãĥ³ãĤ¹": 4970,
      "ãģªãģıãģªãĤĭ": 4971,
      "ç¾İå¥³": 4972,
      "è¾ŀ": 4973,
      "æĪĲåĬŁ": 4974,
      "ç¬¬ä¸Ģ": 4975,
      "æĺİãĤĭ": 4976,
      "åıİéĮ²": 4977,
      "ãģĤãĤĬãģ¾ãģĻãģĭ": 4978,
      "GoogleãĥŃãĤ´": 4979,
      "ãĤ¹ãĤ¤ãĥ¼ãĥĦ": 4980,
      "ãģ®çĦ¡": 4981,
      "æ¸ĭè°·": 4982,
      "ãĥİãĥŁãĥįãĥ¼ãĥĪ": 4983,
      "ı¾": 4984,
      "ãģ®ãĤª": 4985,
      "ãĤĴè¨ĺå¿µ": 4986,
      "ãģķãģªãģĦ": 4987,
      "åħŃ": 4988,
      "ãĥ©ãĥ«": 4989,
      "ãĤ¿ãĤ¤ãĥ³": 4990,
      "ãĤ³ãĥ¼ãĥī": 4991,
      "ãĤ³ãĥ¼ãĥĬãĥ¼": 4992,
      "ãĥģãĤ±ãĥĥãĥĪ": 4993,
      "ãģĶå¿ľåĭŁ": 4994,
      "ãĥ¯ãĤ¤ãĥ«ãĥī": 4995,
      "ãĥĽãĥ³": 4996,
      "ãĥĶãĥ³": 4997,
      "ãģĿãĤĮãģ«": 4998,
      "ãģ¾ãģŁãģ¯": 4999,
      "åıĸæĿĲ": 5000,
      "ãĤ¢ãĥĹãĥªãģĮ": 5001,
      "è¿ĳãģı": 5002,
      "åıĤåħ¥": 5003,
      "ãĤĴæĬľ": 5004,
      "ç±³åĽ½": 5005,
      "èĭ¥ãģĦ": 5006,
      "ãģ¿ãģŁãģĦãģª": 5007,
      "ä»¥ä¸ĭãģ®": 5008,
      "ãĥ¼ãĤ¸ãĥ§ãĥ³": 5009,
      "AI": 5010,
      "zig": 5011,
      "¿Ģ": 5012,
      "ãģ®çĻºéĢģ": 5013,
      "ãĥĥãĤ¸": 5014,
      "ãģĻãĤĭãģĵãģ¨ãģ¯": 5015,
      "ãĤĴæ°": 5016,
      "ãģ®æ´»": 5017,
      "ãģ®æĲºå¸¯": 5018,
      "ãģĭãĤīå§ĭ": 5019,
      "ãĤ«ãĤ¹": 5020,
      "ãģĽãģļ": 5021,
      "ãģ§ãģįãģ¾ãģĽãĤĵ": 5022,
      "ãĤ¬ãĥ³": 5023,
      "å·±": 5024,
      "éģ¸ãģ°": 5025,
      "ãĤ¹ãĤ¿ãĤ¸ãĤª": 5026,
      "åľ°åŁŁ": 5027,
      "å½¹ç«ĭãģ¤": 5028,
      "éĻĲãĤĬ": 5029,
      "ãĤ²ãĥ¼ãĥłæ©Ł": 5030,
      "ĠEx": 5031,
      "å¤ªéĻ½": 5032,
      "ãĤ¹ãĥĿãĥĥãĥĪ": 5033,
      "igi": 5034,
      "é©ļãģį": 5035,
      "æ¯įè¦ª": 5036,
      "æ»ħ": 5037,
      "éĨ¸": 5038,
      "AX": 5039,
      "CPU": 5040,
      "cm": 5041,
      "digi": 5042,
      "mA": 5043,
      "ĠU": 5044,
      "ãģĦãģĮ": 5045,
      "ãģ¨ãĤ³ãĥ¡ãĥ³ãĥĪ": 5046,
      "ãĤĤãģĤãģ£ãģŁ": 5047,
      "ãģĻãĤĭæĸ¹æ³ķ": 5048,
      "ãĤµãĥĥãĤ«ãĥ¼": 5049,
      "å¾³": 5050,
      "ç´ħ": 5051,
      "ãĥĳãĥķãĤ©ãĥ¼ãĥŀãĥ³ãĤ¹": 5052,
      "åĲĮæĻĤ": 5053,
      "åł±åĳĬ": 5054,
      "ãĤ¯ãĥªãĤ¢": 5055,
      "åħĪéĢ±": 5056,
      "ãĥĹãĥŃãĤ°ãĥ©ãĥł": 5057,
      "ãģ¶ãĤĬ": 5058,
      "ãĥķãĤ£ãĥ¼ãĥ«": 5059,
      "æľīåĬ¹": 5060,
      "åİŁçĻº": 5061,
      "è£½åĵģãģ¯": 5062,
      "çĻºè¡¨ãģķãĤĮãģŁ": 5063,
      "ãĤ¹ãĥĳãĥ¼": 5064,
      "å½ĵéģ¸èĢħ": 5065,
      "ãģ«è¡Įãģı": 5066,
      "æºĢè¶³": 5067,
      "å¤īãĤıãĤĭ": 5068,
      "ãĤĴåħ¥åĬĽ": 5069,
      "ãģ®åĳ³": 5070,
      "LED": 5071,
      "çĩ¥": 5072,
      "ãĤĴç¹°ãĤĬ": 5073,
      "ock": 5074,
      "ãģ®åł±": 5075,
      "æĵ": 5076,
      "çª": 5077,
      "ĠZ": 5078,
      "ãģ®ãĤ³ãĥ¡ãĥ³ãĥĪ": 5079,
      "ãĤĴãĤĦ": 5080,
      "ãĤĴéĩį": 5081,
      "ãģĭãģ©ãģĨãģĭ": 5082,
      "ãĤ«ãĤ¦": 5083,
      "éĽħ": 5084,
      "æľ¬æľ¨": 5085,
      "å¤§åŀĭ": 5086,
      "ãĤ¨ãĥĶãĤ½ãĥ¼ãĥī": 5087,
      "æĪ»": 5088,
      "ãĥıãĥĥãĤ¯": 5089,
      "ãģĿãģ®ãģŁãĤģ": 5090,
      "å¤īãĤıãĤĬ": 5091,
      "ãģ®ãģĭãĤĤãģĹ": 5092,
      "ä¸ĭãģķãģĦ": 5093,
      "çµĮæ¸Ī": 5094,
      "æĭħ": 5095,
      "ä»ĸãģ«ãĤĤ": 5096,
      "åĢĭæĢ§": 5097,
      "ãĥ¼ãĥķãĤ©": 5098,
      "é©ļãģı": 5099,
      "æ²¢å°»": 5100,
      "ãģ«ãģ¨ãģ£ãģ¦ãģ¯": 5101,
      "å¤§ãģįãģĦ": 5102,
      "ãĤ·ãĤ§ãĤ¢": 5103,
      "ãĤ¢ãĤ¦ãĥĪ": 5104,
      "æ¦Ĥè¦ģ": 5105,
      "ãģĳãĤĮãģ©": 5106,
      "ka": 5107,
      "ģãģ¡": 5108,
      "ãģ«éĸ¢éĢ£": 5109,
      "ãģĹãģĮ": 5110,
      "ãĥªãĥ¼ãĥĢãĥ¼": 5111,
      "ãģ©ãģĵãĤį": 5112,
      "ãĥĩãĤ¹ãĤ¯": 5113,
      "åĭķãģį": 5114,
      "åĭķä½ľ": 5115,
      "æ´¥": 5116,
      "ç¾İåĳ³": 5117,
      "åĳ³æĸ¹": 5118,
      "ãĥªãĤ¢ãĥ³": 5119,
      "æĥħåł±ãĤĴ": 5120,
      "æĮĩæĳĺ": 5121,
      "çĶ·æĢ§ãģĮ": 5122,
      "æļ®": 5123,
      "å¤ªéĥİ": 5124,
      "INE": 5125,
      "ãĥ©ãĤ¤ãĥķãĥıãĥĥãĤ¯": 5126,
      "é¨Ĵåĭķ": 5127,
      "ä¹ħä¿Ŀ": 5128,
      "AP": 5129,
      "ãģ®éĸĵ": 5130,
      "ãģ®çĶŁ": 5131,
      "ãĤĴèĪŀåı°": 5132,
      "ãģ£ãģ¡ãĤĥ": 5133,
      "ãĥĥãĤŃãĥ¼": 5134,
      "æĹ¥ãĢħ": 5135,
      "ãģ®çı¾": 5136,
      "é«ĺç´ļ": 5137,
      "çĦ¦": 5138,
      "ãĥĻãĤ¤": 5139,
      "æĮ¨æĭ¶": 5140,
      "æĬĺ": 5141,
      "éģ¸ãģ³": 5142,
      "ãģ¹ãģı": 5143,
      "ãĥĹãĥ¬ãĥ¼ãĥ¤": 5144,
      "ä¸»ãģª": 5145,
      "è©±é¡Įãģ®": 5146,
      "è©±é¡Įãģ«ãģªãģ£ãģ¦ãģĦãĤĭ": 5147,
      "ä¸ĬãģĮãĤĭ": 5148,
      "ĠCUBE": 5149,
      "è¿½åĬł": 5150,
      "ãģ¡ãģªãģ¿ãģ«": 5151,
      "çĦ¡ç·ļLAN": 5152,
      "ãĥŀãĤ¤ãĤ¯ãĥŃ": 5153,
      "ä¹¾çĩ¥": 5154,
      "ãģĤãĤīãģĭãģĺãĤģãģĶäºĨæī¿ãģıãģłãģķãģĦ": 5155,
      "éĸ²è¦§": 5156,
      "ura": 5157,
      "ãģģ": 5158,
      "ãģī": 5159,
      "ãģ«ãģĦãĤĭ": 5160,
      "ãģĮçĻºå£²": 5161,
      "ãĥ¼ãĥļ": 5162,
      "ãĤ¤ãĤ¿": 5163,
      "ãĤ¢ãĥ¼ãĥĪ": 5164,
      "ãĥ³ãĥĵ": 5165,
      "çĻ¾": 5166,
      "ãģ¤ãģı": 5167,
      "ãĥĩãĤ¤": 5168,
      "çĽ¤": 5169,
      "äºĭéłħ": 5170,
      "ä¸ĬéĻ¸": 5171,
      "ãĤªãĥĪ": 5172,
      "å¯©": 5173,
      "åĪĨæŀĲ": 5174,
      "ãģ«æŃ": 5175,
      "ãģĶç´¹ä»ĭ": 5176,
      "å·¡": 5177,
      "åĢĻ": 5178,
      "ç¾İãģĹãģı": 5179,
      "æĿ¥ãģŁ": 5180,
      "åħĪè¡Į": 5181,
      "ink": 5182,
      "ãģ®ä¸Ńãģ§ãĤĤ": 5183,
      "èī¯ãģı": 5184,
      "ite": 5185,
      "è»½éĩı": 5186,
      "å¤ıãģ®": 5187,
      "ãĤŃãĥ¥ãĥ¼ãĥĪ": 5188,
      "ãĥĪãĥ¬ãĥ³ãĥī": 5189,
      "åĥķãģ¯": 5190,
      "ãĤ³ãĥ³ãĥĶ": 5191,
      "æĶ¿åºľ": 5192,
      "ãĤĴãĤ¯ãĥªãĥĥãĤ¯ãģĻãĤĭ": 5193,
      "ãģĬå®¢æ§ĺ": 5194,
      "å¼Ĭç¤¾": 5195,
      "AQUOS": 5196,
      "ç£¨": 5197,
      "Ġs": 5198,
      "Ĩ±": 5199,
      "ļ´": 5200,
      "ãģ«åĩºæ¼Ķ": 5201,
      "ãĤ¹ãģ®": 5202,
      "ãģ¾ãģ§ãĤĤ": 5203,
      "å¤®": 5204,
      "ãĥ³ãĥĭ": 5205,
      "æľ¬æĹ¥": 5206,
      "ãĥīãĤ¦": 5207,
      "ãĥŁãĥĥãĤ·ãĥ§ãĥ³": 5208,
      "è²¨": 5209,
      "æĹ¥æľ¬å¤§": 5210,
      "æĦŁæĥ³": 5211,
      "éĢļãģª": 5212,
      "èĤ©": 5213,
      "åĨĻçľŁãĤĴ": 5214,
      "ãĤ¢ãĤ¤ãĤ³ãĥ³": 5215,
      "åĬ¹çİĩ": 5216,
      "èĤĮãģ«": 5217,
      "éĢŁåº¦": 5218,
      "ãĥįãĥĥãĥĪæİ²ç¤ºæĿ¿ãģ§": 5219,
      "ãģŁãģłãģĹ": 5220,
      "ãģ®å½±": 5221,
      "åĲ«ãģ¾": 5222,
      "ç¦ıå³¶": 5223,
      "åĪºæ¿Ģ": 5224,
      "88": 5225,
      "DR": 5226,
      "Dro": 5227,
      "ãģ®éŁ³å£°èªįèŃĺ": 5228,
      "ãģłãģ£ãģ¦": 5229,
      "ãĤ¢ãĥ©": 5230,
      "ãģĹãģŁãģĮ": 5231,
      "äººãĢħ": 5232,
      "ãĤ³ãĥ¡": 5233,
      "ãģ®æµģ": 5234,
      "ãģķãĤĮãģªãģĦ": 5235,
      "æĺĩ": 5236,
      "è¦ĭãģ¦": 5237,
      "ãĤ¨ãĥªãĤ¢": 5238,
      "æĬ«éľ²": 5239,
      "ãĥĶãĥ¼ãĥ«": 5240,
      "å§ī": 5241,
      "ãģĿãģĨãģĹãģŁ": 5242,
      "æĿ¥æĹ¥": 5243,
      "æ¼ĶæĬĢ": 5244,
      "ãĤ¦ãĤ§ãĤ¤": 5245,
      "ãģªãģ®ãģ§ãģĻ": 5246,
      "ç¢ºãģĭãģ«": 5247,
      "ãĥ¼ãĥĲãĥ«": 5248,
      "ãĥ©ãĤ¤ãĥķãĤ¹ãĤ¿ãĤ¤ãĥ«": 5249,
      "ãĤĴéĢļãģĹãģ¦": 5250,
      "è±Ĭãģĭãģª": 5251,
      "ãĤĴèªŃãĤĢ": 5252,
      "ãģ«è¿ĳãģ¥ãģıãģŁãĤģ": 5253,
      "ãģĻãģĵãģĹ": 5254,
      "ãģĮéĽ£ãģĹãģıãģª": 5255,
      "ãĤĴè²·": 5256,
      "ãģĮä¸Ģ": 5257,
      "ãģ¯ä½¿ãģĦãģĵãģªãģĹ": 5258,
      "ãģįãĤĮ": 5259,
      "æĹ§": 5260,
      "ãĥķãĥª": 5261,
      "ãģ®æı": 5262,
      "ãĤģãĤīãĤĮãĤĭ": 5263,
      "ãģĬåºĹ": 5264,
      "ç´Ĺ": 5265,
      "ãĥĲãĥ³ãĥī": 5266,
      "å¯Ĵ": 5267,
      "ãĥįãĤ¤ãĥ«": 5268,
      "åĭķåĵ¡": 5269,
      "ãĥ¯ãĤ¯": 5270,
      "ãĤĪãĤĬãģĻãģĵãģĹ": 5271,
      "çı¾çĬ¶": 5272,
      "ãĥĽãĥ«": 5273,
      "ãĥķãĤ¡ãĥ¼ãĤ¹ãĥĪ": 5274,
      "å¿ĥãģĮ": 5275,
      "ä»ĺãģĳãĤĭ": 5276,
      "å°ıèª¬": 5277,
      "æŀľãģŁãģĹãģ¦": 5278,
      "å°ĳãģªãģı": 5279,
      "ç§ģãĤĤ": 5280,
      "éħįåĲĪ": 5281,
      "ãĤ¸ãĥ§ãĥĸ": 5282,
      "ãĥĩãĤ¸ãĤ¿ãĥ«éĢļ": 5283,
      "ãģ®åŃĺåľ¨": 5284,
      "çī¹éĽĨãĥļãĥ¼ãĤ¸": 5285,
      "åıįå¿ľ": 5286,
      "ãĤĴæĦŁãģĺãĤĭ": 5287,
      "æ©ĭä¸ĭ": 5288,
      "ãģ£ãģ¦ãģ¿ãģŁ": 5289,
      "ãĤĴæīĭãģ«åħ¥": 5290,
      "ãĥ¼ãĥĩãĤ£ãĥį": 5291,
      "çļĨãģķãĤĵãĤĪãĤĬãģĻãģĵãģĹ": 5292,
      "éĻ£ãģĮæıĲä¾Ľ": 5293,
      "ãĥĩãĤ¸ãĤ¿ãĥ«æ©ŁåĻ¨ãģ®": 5294,
      "ãĥĩãĤ¸ãĤ¿ãĥ«æ©ŁåĻ¨ãģ¯ä½¿ãģĦãģĵãģªãģĹ": 5295,
      "çı¾åľ¨ãģ®ãĥĩãĤ¸ãĤ¿ãĥ«æ©ŁåĻ¨ãģ¯ä½¿ãģĦãģĵãģªãģĹ": 5296,
      "ãĥªãĥ©ãĥĥãĤ¯ãĤ¹": 5297,
      "ãĥĳãĥĥãĤ±ãĥ¼ãĤ¸": 5298,
      "åŁ·çŃĨéĻ£ãģĮæıĲä¾Ľ": 5299,
      "ãģ®çķ¥ãģ§ãģĻ": 5300,
      "çļĨãģķãĤĵãģĮãĥĩãĤ¸ãĤ¿ãĥ«æ©ŁåĻ¨ãģ®": 5301,
      "éĢļãģªåŁ·çŃĨéĻ£ãģĮæıĲä¾Ľ": 5302,
      "ãģ«è¿ĳãģ¥ãģıãģŁãĤģãģ®æĥħåł±ãĤĴ": 5303,
      "ãģĮéĽ£ãģĹãģıãģªãģ£ãģ¦ãģĦãģ¾ãģĻ": 5304,
      "çļĨãģķãĤĵãĤĪãĤĬãģĻãģĵãģĹéĢļãģªåŁ·çŃĨéĻ£ãģĮæıĲä¾Ľ": 5305,
      "çı¾åľ¨ãģ®ãĥĩãĤ¸ãĤ¿ãĥ«æ©ŁåĻ¨ãģ¯ä½¿ãģĦãģĵãģªãģĹãģĮéĽ£ãģĹãģıãģªãģ£ãģ¦ãģĦãģ¾ãģĻ": 5306,
      "çļĨãģķãĤĵãĤĪãĤĬãģĻãģĵãģĹéĢļãģªåŁ·çŃĨéĻ£ãģĮæıĲä¾ĽãģĹãģ¾ãģĻ": 5307,
      "GI": 5308,
      "SI": 5309,
      "¬²": 5310,
      "ĥ³": 5311,
      "ãģ«åıĤåĬł": 5312,
      "ãģ«å¼·ãģĦ": 5313,
      "ãģĭãģĽãģªãģĦ": 5314,
      "ãģĤãģ®": 5315,
      "ãģĵãģ¨ãģ«ãģªãĤĭ": 5316,
      "éģ£": 5317,
      "ãĥĵãĥ¼": 5318,
      "ãĥĵãĤ¢": 5319,
      "ãĤ¦ãĥ³ãĥī": 5320,
      "ãĥĳãĥ¼ãĥĪ": 5321,
      "è³Ģ": 5322,
      "ãģĹãģ¦ãģĦãĤĭãģ®ãģ§": 5323,
      "åĲĮç¤¾": 5324,
      "å¾Įãģ¯": 5325,
      "çĲĨæĥ³": 5326,
      "ãĥľãĥ¼": 5327,
      "ãĥľãĥ¼ãĥ«": 5328,
      "æķ°ãģ¯": 5329,
      "ãĤĴè¦ĭãģ¤": 5330,
      "ãĤīãĤĮãģ¦ãģĦãģ¾ãģĻ": 5331,
      "ãĥĹãĥŃãĥķãĤ£ãĥ¼ãĥ«": 5332,
      "ãģłãģ£ãģŁãĤī": 5333,
      "ãģ®æĻĤéĸĵ": 5334,
      "å¯ĦãģĽãĤīãĤĮãģŁ": 5335,
      "ãģ®å¿ľ": 5336,
      "ãĥİãĥ¼ãĥĪPC": 5337,
      "è¬Ŀç½ª": 5338,
      "ãģĿãĤĤãģĿãĤĤ": 5339,
      "ãĤ¨ãĥªãĤ«": 5340,
      "è¶£åĳ³": 5341,
      "!ãĢı": 5342,
      "You": 5343,
      "ãģ«åĲĪãĤıãģĽãģ¦": 5344,
      "ãģ§å¤§": 5345,
      "ãģŁãģ¨": 5346,
      "ãĤĤãĤī": 5347,
      "ãĥĥãģ¨": 5348,
      "ãĤ«ãĥĩ": 5349,
      "ãĤŃãĥ³": 5350,
      "ãĥĵãĥ«": 5351,
      "åł´éĿ¢": 5352,
      "ä»ĬéĢ±": 5353,
      "ãģ®ç§": 5354,
      "è¨ĺæĨ¶": 5355,
      "ç¥¨": 5356,
      "è§£æ±º": 5357,
      "çĤ¹ãģ§": 5358,
      "è¨Īæ¸¬": 5359,
      "å®īå®ļ": 5360,
      "ãĤĤãģĹãĤį": 5361,
      "ãĤĴæīĵ": 5362,
      "ç¹ĭãģĮ": 5363,
      "å§¿åĭ¢": 5364,
      "ãģ®åĭķãģį": 5365,
      "ãģĤãĤīãĤĨãĤĭ": 5366,
      "åħŃæľ¬æľ¨": 5367,
      "36": 5368,
      "âĸ": 5369,
      "æ¾": 5370,
      "Ġlivedoor": 5371,
      "ãĤĴåĪĩ": 5372,
      "ãģĮæ°Ĺãģ«ãģªãĤĭ": 5373,
      "ãĤĤãģªãģĦ": 5374,
      "ãĥĥãĤ¿": 5375,
      "ãĥķãĥªãĥ¼": 5376,
      "ãģ®æ¥": 5377,
      "æľ¬çī©": 5378,
      "ãģ£ãģ¦ãģĹãģ¾ãģ£ãģŁ": 5379,
      "ãģ¿ãģŁ": 5380,
      "æĿŁ": 5381,
      "ãĥīãĤ¤ãĥĦ": 5382,
      "ãĥĬãĥĵ": 5383,
      "èģĸ": 5384,
      "ãĤĤãģ®ãģ¯": 5385,
      "ä¹ĥ": 5386,
      "ãĤ®ãĥ¼": 5387,
      "ãĥĸãĥ©ãĤ¦": 5388,
      "å©ļæ´»": 5389,
      "ãģªãģ®ãģł": 5390,
      "ãĤĴè¡Įãģ£ãģŁ": 5391,
      "ãģĤãģªãģŁãģ¯": 5392,
      "ãģ©ãģĵãģ§ãĤĤ": 5393,
      "ãģ«ãģĭãģı": 5394,
      "çŀ¬éĸĵ": 5395,
      "ç§ĳåŃ¦": 5396,
      "è²¬ä»»": 5397,
      "ãģ®ãĤ¢ãĥĹãĥª": 5398,
      "ãģ®çī©èªŀ": 5399,
      "ãģ§éĸĭåĤ¬": 5400,
      "ãĤĤãĤĤ": 5401,
      "ãģ¾ãģ§ãģ¯": 5402,
      "ãĥĪãĥŃ": 5403,
      "ãģĹãģŁè¨ĺäºĭ": 5404,
      "ãģĤãĤĮ": 5405,
      "ãĥ¡ãĥĨ": 5406,
      "ãģ¤ãģĦ": 5407,
      "ãģªãģ©ãģ¯": 5408,
      "ãĤ¨ãĤ³": 5409,
      "ãģ«æ¯Ķ": 5410,
      "åīįå¾Į": 5411,
      "å½ĵãģŁãĤĭ": 5412,
      "ãĤĴä½¿ãģĦ": 5413,
      "ä»ķäºĭãģĮ": 5414,
      "ãģ¨è¨ĢãģĨ": 5415,
      "éĿŀéĽ£": 5416,
      "ãģ®ä¸Ģéĥ¨": 5417,
      "ãģ®æĦĽ": 5418,
      "ãĤ¹ãĥĶãĥ¼ãĤ«ãĥ¼": 5419,
      "æ±Ĥäºº": 5420,
      "ãģ®ãģ§ãģ¯ãģªãģĦãģĭ": 5421,
      "è¿«åĬĽ": 5422,
      "ãĥ¬ãĥĥãĤ¹ãĥ³": 5423,
      "ãģ¤ãģ¶ãĤĦãģį": 5424,
      "ãĥĵãĥ¥ãĥ¼ãĥĨãĤ£": 5425,
      "ãĥŁãĥ¥ãĥ¼ãĤ¸": 5426,
      "150": 5427,
      "HONE": 5428,
      "Int": 5429,
      "ĠâĢľ": 5430,
      "ãģ¨æ¯Ķ": 5431,
      "ãģ¨ãģ«ãģĭãģı": 5432,
      "ãĤĤãģĤãĤĬãģ¾ãģĻ": 5433,
      "ãĥ«ãĤ¹": 5434,
      "ãĤ«ãĥĥãĥĪ": 5435,
      "ãĥŃãĥ³ãĥī": 5436,
      "ãĤıãģĸ": 5437,
      "ãģĽãģ¦": 5438,
      "ä¸Ńç¶Ļ": 5439,
      "æĻĤãģ«ãģ¯": 5440,
      "åħ¨éĥ¨": 5441,
      "åīįä½ľ": 5442,
      "ãĤĤãģ®ãĤĴ": 5443,
      "ãģ¨æĢĿãģ£ãģ¦ãģĦãĤĭ": 5444,
      "çı¾åľ¨ãģ¯": 5445,
      "ãĤ³ãĥŁãĥĥãĤ¯": 5446,
      "ãĥįãĥĥãĥĪæİ²ç¤ºæĿ¿ãģ§è©±é¡Į": 5447,
      "çĭĤ": 5448,
      "ãģ¾ãģ¨ãĤģãģ¦": 5449,
      "å»¶": 5450,
      "ãģ£ãģıãģĻ": 5451,
      "ãĤĴæĭħå½ĵ": 5452,
      "è¬Ľåº§": 5453,
      "æĬ¼ãģĹ": 5454,
      "åīĬéĻ¤": 5455,
      "84": 5456,
      "KD": 5457,
      "ãĤħ": 5458,
      "ãĤĴæĴ®å½±": 5459,
      "æī±": 5460,
      "ãĤ¨ãĥĨãĤ£": 5461,
      "ãģ®ç¨": 5462,
      "åīĽ": 5463,
      "æĺłçĶ»åĮĸ": 5464,
      "ãģļãĤĮ": 5465,
      "ç¶ļãģı": 5466,
      "ãĥĹãĥŃãĥ¡ãĥĨ": 5467,
      "åħĥæ°Ĺ": 5468,
      "æħ¢": 5469,
      "è³ªãģª": 5470,
      "æĭ¡å¤§": 5471,
      "æ¬¡ãģ®": 5472,
      "æ¬¡ç¬¬": 5473,
      "ãĥĩãĤ¸éĢļ": 5474,
      "ãĤĴæĮģãģ£ãģ¦": 5475,
      "è©¦ãģĹ": 5476,
      "éĥ½åĲĪ": 5477,
      "è¶³ãĤĴ": 5478,
      "ãģ®æĻ®": 5479,
      "ä»Ĭå¹´ãģ®": 5480,
      "ãģ®åĲĮ": 5481,
      "æ¤į": 5482,
      "ãģłãģĭãĤīãģĵãģĿ": 5483,
      "æĻ®åıĬ": 5484,
      "ãĤĴåħ¥ãĤĮ": 5485,
      "ĠNote": 5486,
      "ãģ®ãģ§ãģ¯ãģªãģĦãģłãĤįãģĨãģĭ": 5487,
      "ç·łãĤģ": 5488,
      "ãģ®å¯¾å¿ľ": 5489,
      "åĤ¾åĲĳ": 5490,
      "ãĤĴæ°Ĺ": 5491,
      "ãĥĹãĥŃãĥ¡ãĥĨãĤ¦ãĤ¹": 5492,
      "MC": 5493,
      "om": 5494,
      "¯éĿŀ": 5495,
      "ãģĦãģĪ": 5496,
      "ãĤĴå±ķéĸĭ": 5497,
      "ãģĻãģĮ": 5498,
      "ãģĭãģ£ãģ¦": 5499,
      "å¤§ä½ľ": 5500,
      "å¹´ãģ¯": 5501,
      "äºĭæħĭ": 5502,
      "ãĤªãĥ¼ãĥ«": 5503,
      "ãĥĳãĥ¯": 5504,
      "ãĤ¨ãĥ³": 5505,
      "ãĥŁãĥª": 5506,
      "è²¡": 5507,
      "çĽ®ãģĮ": 5508,
      "èĢħãĤĴ": 5509,
      "åĲĮæ§ĺ": 5510,
      "çŁ¥ãĤīãģªãģĦ": 5511,
      "ç¨İ": 5512,
      "åĦªç§Ģ": 5513,
      "ãĥĹãĥŃãĤ»": 5514,
      "ãĤĵãģłãĤĪ": 5515,
      "æħ®": 5516,
      "ç®±": 5517,
      "å²©": 5518,
      "ãĥıãĤ¤ãĥĵ": 5519,
      "æĸ°ãģŁãģ«": 5520,
      "ãĤĴçªģçł´": 5521,
      "ãĤ¸ãĥ§ãĥĸãĤº": 5522,
      "Hu": 5523,
      "per": 5524,
      "ãģ®æľ¬": 5525,
      "ãģĦãģª": 5526,
      "ãģ¨èģŀ": 5527,
      "ãģĮå§ĭ": 5528,
      "ãģĭãĤĮãģ¦ãģĦãĤĭ": 5529,
      "ãĥĪãĤ¤": 5530,
      "ãģĻãĤĭãģ®ãģĮ": 5531,
      "éģº": 5532,
      "ãĥ¡ãĥ³ãĤ¿": 5533,
      "å¥ĳç´Ħ": 5534,
      "è©ŀ": 5535,
      "çĻºä¿¡": 5536,
      "ãĤºãĥ¼ãĥł": 5537,
      "åĪĨãģĭãĤĬ": 5538,
      "å°¾": 5539,
      "ãģĵãĤĮãģ§": 5540,
      "ãģ¨æĢĿãģ£ãģ¦ãģĦãģ¾ãģĻ": 5541,
      "ãĥ³ãĥīãĤ¦": 5542,
      "ãģĿãĤĮãģ§ãĤĤ": 5543,
      "ãĥĹãĥ¬ãĤ¤": 5544,
      "çµĦç¹Ķ": 5545,
      "ä½ķãģĮ": 5546,
      "ãĤ®ãĥ¥": 5547,
      "ãĥģãĥ£ãĥ³ãĥį": 5548,
      "æĥ³åĥı": 5549,
      "ãģµãģī": 5550,
      "ãĤĴæ¼ĶãģĺãģŁ": 5551,
      "éŃĶæ³ķ": 5552,
      "æľīåĲįãģª": 5553,
      "äºĭåĭĻæīĢ": 5554,
      "ãģ£ãģıãģĻç´ºåŃĲ": 5555,
      "ãģµãģīãģ£ãģıãģĻç´ºåŃĲ": 5556,
      "75": 5557,
      "CO": 5558,
      "pe": 5559,
      "Ġfor": 5560,
      "ãģ«å¿ľ": 5561,
      "ãģĮãĥįãĥĥãĥĪ": 5562,
      "ãģ£ãģĿ": 5563,
      "ãĥĪãĤ¥": 5564,
      "ãĤ¯ãĥ©ãĤ¤": 5565,
      "ãĤ¢ãĥĶãĥ¼ãĥ«": 5566,
      "ãĥ«ãĥ¼ãĥł": 5567,
      "åħ«": 5568,
      "ãĤ³ãĥ¼ãĥĴ": 5569,
      "ãĤ«ãĥĬ": 5570,
      "èª¤": 5571,
      "åĭīå¼·": 5572,
      "ãĤ¨ãĥ³ãĤ¸": 5573,
      "æĸ¹ãĤĤ": 5574,
      "ãĤ¿ãĥ¼ãĥ³": 5575,
      "æĮ¯": 5576,
      "ãģ¾ãģ§ãģ«": 5577,
      "ãģ»ãģ¼": 5578,
      "ãĥĴãĥ«": 5579,
      "å¥³æĢ§ãģ¯": 5580,
      "ack": 5581,
      "å°ıæ²¢": 5582,
      "ãģĲãĤīãģĦ": 5583,
      "çĬ¬": 5584,
      "èıĮ": 5585,
      "åģµ": 5586,
      "ãĥ¬ãĥ³ãĤ¿ãĥ«": 5587,
      "ãĤĴåıĹãģĳãģŁ": 5588,
      "å½¼å¥³ãģ¯": 5589,
      "åĳ¨åĽ²": 5590,
      "ãĤıãģĳãģł": 5591,
      "ouch": 5592,
      "ãĤ¢ãĥ³ãĤ±ãĥ¼ãĥĪ": 5593,
      "éģİãģĶãģĻ": 5594,
      "å¾ĵæĿ¥ãģ®": 5595,
      "ãģ®åĲįåīį": 5596,
      "ãĤĴæĺİ": 5597,
      "é³¥": 5598,
      "ãĤ³ãĥ³ãĥĶãĥ¥ãĥ¼": 5599,
      "ãģ«ãģıãģĦ": 5600,
      "ãĤĴå¼ķãģį": 5601,
      "ãģ¿ãĤĭãģ¨": 5602,
      "ãĤµãĥªãĥ¼": 5603,
      "ãģ¨ãģĦãģĨè¨Ģèĳī": 5604,
      "ãĥŁãĥ«": 5605,
      "ãģĮæĭ": 5606,
      "è£ģ": 5607,
      "éķ·æĻĤéĸĵ": 5608,
      "æıĲ": 5609,
      "åľ°ãĥĩãĤ¸": 5610,
      "ãĥĴãĥ¥ãĥ¼": 5611,
      "ãĥķãĤ£ãĥĥãĥĪ": 5612,
      "æĻĤéĸĵãĤĴ": 5613,
      "ä¼Ŀçµ±": 5614,
      "èĦĤ": 5615,
      "åıĤèĢĥ": 5616,
      "ä½İãģĦ": 5617,
      "äººãĤĤãģĦãĤĭ": 5618,
      "çĦ¡æĸĻãģ§": 5619,
      "ãĤ¹ãĥĨãĤ£ãĥ¼ãĥĸ": 5620,
      "ãĥĨãĤ¯ãĥİ": 5621,
      "ãĥİãĥ¼ãĥĪãĥĳãĤ½ãĤ³ãĥ³": 5622,
      "æŃ´åı²": 5623,
      "ãģĨãģ¡ãģ«": 5624,
      "å®£è¨Ģ": 5625,
      "ãĥıãĥĥãĥĶãĥ¼": 5626,
      "ãģĮæºĢè¼ī": 5627,
      "mAh": 5628,
      "Drop": 5629,
      "##": 5630,
      "99": 5631,
      "IP": 5632,
      "Ġt": 5633,
      "ãģ®ãĥ¬": 5634,
      "ãģ®æľĢæĸ°": 5635,
      "ãģ«èĩ³": 5636,
      "ãĤĴçµĮ": 5637,
      "ãģªãģ®ãģĮ": 5638,
      "ãĥ©ãĤ¸ãĤª": 5639,
      "äººãģ«ãģ¯": 5640,
      "ãĥ¡ãĤ¤": 5641,
      "ãģ¤ãĤĤ": 5642,
      "å¥ª": 5643,
      "åĪĨãģ®": 5644,
      "çĽ®ãĤĴ": 5645,
      "ãģłãģĳãģ§ãģ¯": 5646,
      "é£¯": 5647,
      "çŁ¥èŃĺ": 5648,
      "åĬłèĹ¤": 5649,
      "æĺİãģĭ": 5650,
      "ãģ¶ãģķ": 5651,
      "ãģĹãģ¦ãģ¿ãģ¦ãģ¯ãģĦãģĭãģĮ": 5652,
      "ãģ²ãģ¨ãĤĬ": 5653,
      "æĤªãģĦ": 5654,
      "ãģ®ãģŁãĤģãģ®": 5655,
      "éĢĨãģ«": 5656,
      "ãĥ¦ãĥĭãĥ¼ãĤ¯": 5657,
      "ãģĹãĤĥãĤĮ": 5658,
      "æĩĲ": 5659,
      "GR": 5660,
      "ns": 5661,
      "¡çľł": 5662,
      "é¼": 5663,
      "ãģ®ãĤ¤ãĥ¡ãĥ¼ãĤ¸": 5664,
      "ãģ®ãģ§ãģ¯ãģªãģı": 5665,
      "ãģĦãĤĦ": 5666,
      "ãĤĴãĤ¤ãĥ¡ãĥ¼ãĤ¸": 5667,
      "ãģĮéĢ²": 5668,
      "ãĤĮãģĹãģĦ": 5669,
      "ãĤ³ãĤ¹ãĥĪ": 5670,
      "ãĤĴæ´»çĶ¨": 5671,
      "ãĥŃãĤ¤ãĥī": 5672,
      "ãĥĵãĥĥãĥĪ": 5673,
      "ãĤ¦ãĤ¤ãĥ«": 5674,
      "å£®": 5675,
      "ãĤ·ãĥ§ãĥĥãĥĶãĥ³ãĤ°": 5676,
      "åī¤": 5677,
      "é«ĺçĶ»è³ª": 5678,
      "æ³Ĭ": 5679,
      "ä¸ĸç´Ģ": 5680,
      "ãĤ¸ãĥ£ãĥ¼": 5681,
      "çĽ£çĿ£ãģ®": 5682,
      "ä»ķäºĭãĤĴ": 5683,
      "ãĤ¸ãĤ§ãĥĥãĥĪ": 5684,
      "å¦Ĥ": 5685,
      "ĠPHONE": 5686,
      "æķĻèĤ²": 5687,
      "ãĥ¼ãĥķãĤ§": 5688,
      "éĻĲå®ļãģ§": 5689,
      "æ®ĭå¿µ": 5690,
      "wwww": 5691,
      "çĶŁãģ¾ãĤĮãģŁ": 5692,
      "ãģ®å¹´": 5693,
      "çĩĥ": 5694,
      "ãĥ³ãĥĬãĥĥãĥĹ": 5695,
      "è³ŀåĵģãģ®çĻºéĢģ": 5696,
      "Ĥ©ãģ¿": 5697,
      "èĪĪè¡Įåıİåħ¥": 5698,
      "ãģ®å½±éŁ¿": 5699,
      "Hulu": 5700,
      "Rain": 5701,
      "ak": 5702,
      "bow": 5703,
      "ĠK": 5704,
      "ľæŁ»": 5705,
      "ãģ®ãĥı": 5706,
      "ãģ¨ä¸Ģç·Ĵãģ«": 5707,
      "ãģįãģ¡": 5708,
      "ãĤ³ãĥŃ": 5709,
      "è¨İ": 5710,
      "ãĤµãĥĹãĥ©ãĤ¤": 5711,
      "ãĤ¹ãĥĪãĤ¢": 5712,
      "éĸ¢ãĤı": 5713,
      "ä½ĵæĦŁ": 5714,
      "ãģłãģĳãģ®": 5715,
      "åħ¨åĵ¡": 5716,
      "åīįåĽŀ": 5717,
      "å§Ķ": 5718,
      "ãĥ©ãĤ¤ãĥ³ãĥĬãĥĥãĥĹ": 5719,
      "å¤ĸåĽ½": 5720,
      "çŁ¥ãĤĭ": 5721,
      "ä¸»å¼µ": 5722,
      "çĤİ": 5723,
      "éļĽãģ«": 5724,
      "åħ±æĦŁ": 5725,
      "ãĤĴãĤĤãģ£ãģ¦": 5726,
      "ãĤ½ãĥķãĥĪãĤ¦ãĤ§ãĤ¢": 5727,
      "åĲĪãĤıãģĽãģŁ": 5728,
      "çµ¶è³Ľ": 5729,
      "å¤«å©¦": 5730,
      "ãĤ¿ãĤ¤ãĥĹãģ®": 5731,
      "æĽ¿ãģĪãĤĭ": 5732,
      "å´©": 5733,
      "æĢĴãĤĬ": 5734,
      "SAL": 5735,
      "ãģ¯ãĤĦãģ¶ãģķ": 5736,
      "Apps": 5737,
      "ãģĮçĽ¸æ¬¡ãģĦãģł": 5738,
      "ãģ«ãģĶæĭĽå¾ħ": 5739,
      "ãģ¨åħ±ãģ«": 5740,
      "ãģ£ãģįãĤĬ": 5741,
      "ãģĨãģ¾ãģı": 5742,
      "ãģ®åŁº": 5743,
      "ãģĮæ¼ĶãģĺãĤĭ": 5744,
      "è²ŀåŃĲ": 5745,
      "ãĥ¬ãĤ¹ãĥĪãĥ©ãĥ³": 5746,
      "çĥĪ": 5747,
      "ãģ®æĻ®åıĬ": 5748,
      "ãĤ¦ãĤ¤ãĥ«ãĤ¹": 5749,
      "Rainbow": 5750,
      "RainbowApps": 5751,
      "PR": 5752,
      "mo": 5753,
      "ps": 5754,
      "é¬": 5755,
      "éİ": 5756,
      "ãģĹãģĭãģ£ãģŁ": 5757,
      "ä¸ģ": 5758,
      "ãģĤãģŁãĤĬ": 5759,
      "ãĥ¬ãĥ¼ãĥĪ": 5760,
      "ãģĬäºĴ": 5761,
      "ãĤµãĤ¯": 5762,
      "ãĤªãĥ¼ãĥĩãĤ£": 5763,
      "åīĩ": 5764,
      "åĽ½æ°ĳ": 5765,
      "ãĥĬãĤ¤": 5766,
      "æİĥéĻ¤": 5767,
      "å®¶ãģ®": 5768,
      "ãģĿãģĨãģ§ãģĻãģŃ": 5769,
      "æ¥½ãģĹãģı": 5770,
      "ãĥķãĤ©ãĥĪ": 5771,
      "ä¸»è¦ģ": 5772,
      "è±Ĩ": 5773,
      "ãģłãģ£ãģŁãĤĬ": 5774,
      "å½¹ãģ«": 5775,
      "åı¯èĥ½ãģ§ãģĻ": 5776,
      "æ¶¼": 5777,
      "åĲĦåĽ½": 5778,
      "ãĥ¼ãĥŃãĥĥãĥĳ": 5779,
      "æ³¨çĽ®ãĤĴéĽĨ": 5780,
      "ãģĿãĤĮãģŀãĤĮãģ®": 5781,
      "ãĤıãģļãģĭ": 5782,
      "éįµ": 5783,
      "ĪĲåĬŁ": 5784,
      "ãĤ¹ãĤ¿ãĤ¤ãĥªãĥ³ãĤ°": 5785,
      "èª²é¡Į": 5786,
      "ãĤ¹ãĤ³ãĥĥãĥĪ": 5787,
      "è¡£è£ħ": 5788,
      "åı¯æĦĽãģĦ": 5789,
      "éĢ±éĸĵãĥ©ãĥ³ãĤŃãĥ³ãĤ°": 5790,
      "ãĤ¹ãĥĳãĤ¤ãĥĢ": 5791,
      "éĬĥå£«": 5792,
      "ãģŁãģ£ãģ·ãĤĬ": 5793,
      "THE": 5794,
      "ax": 5795,
      "éĭ": 5796,
      "ĠHD": 5797,
      "ãĤĴãĥĹãĥ¬ãĤ¼ãĥ³ãĥĪ": 5798,
      "ãĥĥãĤ·ãĥ§": 5799,
      "ãĥ«ãĥ¼": 5800,
      "ãĥ«ãĥ¼ãĤ¿ãĥ¼": 5801,
      "ãĤĵãģ®": 5802,
      "ãģĹãģ¦ãģıãģłãģķãģĦ": 5803,
      "ãĥĲãĥ¬": 5804,
      "ãĥĸãĥ¼ãĤ¹": 5805,
      "çīĽ": 5806,
      "èĩªè»¢": 5807,
      "èĩªå·±": 5808,
      "ãĥĳãĥ©": 5809,
      "æľĪä¸ĭ": 5810,
      "ãĤ»ãĥª": 5811,
      "éĢ£æĲº": 5812,
      "ãĥĶãĥ©": 5813,
      "ãĤ¹ãĤ¿ãĥ³ãĥī": 5814,
      "ä¸įæºĢ": 5815,
      "è³ŀãĤĴåıĹè³ŀ": 5816,
      "å°ĳå¹´": 5817,
      "ç§ģãģĮ": 5818,
      "åħ±éĢļ": 5819,
      "ãĤ¯ãĥ©ãĤ¹": 5820,
      "ãĥ¨ãĥ¼ãĥŃãĥĥãĥĳ": 5821,
      "ation": 5822,
      "ãģ®å½¼": 5823,
      "ãĥķãĥ¬ãĥĥãĤ·ãĥ¥": 5824,
      "ITãĥ©ãĤ¤ãĥķãĥıãĥĥãĤ¯": 5825,
      "ãĤĴå¤īãģĪãĤĭ": 5826,
      "ãĥĹãĥ¬ãĥ¼ãĥ¤ãĥ¼": 5827,
      "980": 5828,
      "LO": 5829,
      "Ġ&": 5830,
      "ãĤĭãģ®ãģ¯": 5831,
      "ãģ¯ä¸Ģ": 5832,
      "ãģĹãģ¦ãģĹãģ¾ãģ£ãģŁ": 5833,
      "ãĤ³ãĥĶãĥ¼": 5834,
      "ãĥŀãĤ¹ãĤ¯": 5835,
      "å¤§äººãģ®": 5836,
      "èĩ¨": 5837,
      "ä¸Ńå³¶": 5838,
      "å£ģ": 5839,
      "åĩºåĬĽ": 5840,
      "ãĥĳãĥ¼": 5841,
      "ä»ĬæĹ¥": 5842,
      "ãĤ¨ãĥĩãĤ£": 5843,
      "ãģ®ç¶": 5844,
      "ä¿ĥ": 5845,
      "ãĥĬãĤ¹": 5846,
      "ãĤ±ãĥ³": 5847,
      "ä½ĵãĤĴ": 5848,
      "ãĥĽãĥĥãĥĪ": 5849,
      "éĿ¢åĢĴ": 5850,
      "è¾²": 5851,
      "åĪĿçĻ»åł´": 5852,
      "åľ°åħĥ": 5853,
      "ä¸įæĺİ": 5854,
      "è£½åĵģåĲį": 5855,
      "ä¸īéĬĥå£«": 5856,
      "èµ·ãģĵãģ£ãģŁ": 5857,
      "é¨ĴçĦ¶": 5858,
      "ãĥĽãĥ¼ãĥłãĥļãĥ¼ãĤ¸": 5859,
      "åĩ¦çĲĨ": 5860,
      "åĽºå®ļ": 5861,
      "èª°ãĤĤãģĮ": 5862,
      "!ãĢįãĢĮ": 5863,
      "\"ãĢĤ": 5864,
      "32": 5865,
      "ES": 5866,
      "¨ãģ¦": 5867,
      "ãģ½": 5868,
      "ãģ®è¦ĭ": 5869,
      "ãĤĴè©¦": 5870,
      "ãģĮãģĤãĤĮãģ°": 5871,
      "ãģķãģ¯": 5872,
      "ãģłãģ¨æĢĿãģĨ": 5873,
      "ãģįãģ¦ãģĦãĤĭ": 5874,
      "åħĲ": 5875,
      "ãģ®æĭ": 5876,
      "ãģ¨ãģĦãģĨå£°": 5877,
      "å£ĩ": 5878,
      "åĲĪæĪĲ": 5879,
      "ãģļãģ¤": 5880,
      "å¿ĥãĤĴ": 5881,
      "éķ·ãģĦ": 5882,
      "ä¸ĸçķĮãģ§": 5883,
      "ãĤ·ãĥ£ãĥ³ãĥĳ": 5884,
      "ãģłãģ£ãģŁãģĮ": 5885,
      "é¦´": 5886,
      "åĨĻçľŁãĤĴæĴ®": 5887,
      "éģķæ³ķ": 5888,
      "èªŃãĤģãĤĭ": 5889,
      "åĳĬçĻ½": 5890,
      "ãģĵãģ¨ãĤĤãģĤãĤĭ": 5891,
      "ãģµãĤĮãĤĭ": 5892,
      "ãĥķãĤ§ãĤ¤ãĤ¹": 5893,
      "äº¤éļĽ": 5894,
      "ãģıãģªãģ£ãģŁ": 5895,
      "ãĥĵãĤ¸ãĥįãĤ¹ãĥĳãĥ¼": 5896,
      "ãģ®æŃ´": 5897,
      "æľĢå¼·ãģ®": 5898,
      "ãģ®æĦıè¦ĭ": 5899,
      "çłĶç©¶æīĢ": 5900,
      "ãĤĴåĳ¼ãĤĵãģ§ãģĦãĤĭ": 5901,
      "ãģ®åķĨ": 5902,
      "ãģ®çĲĨçĶ±": 5903,
      "çī©èŃ°ãĤĴ": 5904,
      "ãĥģãĥ£ãĥ³ãĥįãĥ«": 5905,
      "èĩªè»¢è»Ĭ": 5906,
      "700": 5907,
      "§ãĤĮ": 5908,
      "ãģ®æĹ¥æľ¬": 5909,
      "ãģ®è²©å£²": 5910,
      "ãģ«ä¹Ĺ": 5911,
      "ãĤĴäºĪå®ļ": 5912,
      "ãģĹãģŁãģ¨ãģĦãģĨ": 5913,
      "ãĤ³ãĥ¼ãĥĩãĤ£ãĥį": 5914,
      "ãĥ¡ãĥ«": 5915,
      "äºĭãģĮ": 5916,
      "ä¸Ńãģ«ãģ¯": 5917,
      "ãĥ¥ãĤ¢ãĥ«": 5918,
      "ãĤ¨ãĥįãĥ«": 5919,
      "æĢ§ãģĮ": 5920,
      "ãĤ»ãĥ³ãĤ¹": 5921,
      "éĻ°": 5922,
      "ãģ¨ãģªãĤĬãģ¾ãģĹãģŁ": 5923,
      "å½ĵãģ¦": 5924,
      "åħ¬éĸĭãģ¨ãģªãĤĭ": 5925,
      "ä½ķãĤĤ": 5926,
      "åĪĩãĤĮ": 5927,
      "æĪ¦ãģĨ": 5928,
      "åĸ«": 5929,
      "éĩİçĲĥ": 5930,
      "æĿ±äº¬åĽ½éļĽæĺłçĶ»ç¥Ń": 5931,
      "ãģ¨ãĤĤè¨Ģ": 5932,
      "æ¶Ļ": 5933,
      "ãĤµãĤ¤ãĥī": 5934,
      "ç©ºæ°Ĺ": 5935,
      "ãĥĵãĤ¸ãĥ¥ãĤ¢ãĥ«": 5936,
      "æ¿ĥ": 5937,
      "æŃ³ãģ®": 5938,
      "ãĥĵãĥĩãĤªSAL": 5939,
      "çĶºä¼ļèŃ°": 5940,
      "ãģ®è¨ĺäºĭãĤĴãĤĤãģ£ãģ¨ãģ¿ãĤĭ": 5941,
      "ãģ®æĬĢ": 5942,
      "ä¿®æŃ£": 5943,
      "èĸĦåŀĭ": 5944,
      "ãģ®çŁ¥": 5945,
      "çįĦ": 5946,
      "æĹ¥æľ¬å¤§éľĩçģ½": 5947,
      "ãĥĵãĥĩãĤªSALON": 5948,
      "45": 5949,
      "NA": 5950,
      "Pad": 5951,
      "ãĤĤçĻ»åł´": 5952,
      "ãģķãģ¨": 5953,
      "ãĥªãĤª": 5954,
      "ãĤ¢ãĥ³ãĥĪ": 5955,
      "ãĤĦãģı": 5956,
      "ãĥĨãĤ¤": 5957,
      "ãĥĨãĤ¹ãĥĪ": 5958,
      "ãĤ°ãĥªãĥ¼ãĥ³": 5959,
      "çĻºéĽ»": 5960,
      "çĶŁçĶ£": 5961,
      "çĶŁå¾Ĵ": 5962,
      "ãģ®çŃ": 5963,
      "åĭķçī©": 5964,
      "è²¯": 5965,
      "æĺłçĶ»ãĤĴ": 5966,
      "ãĥ¯ãĥ¼ãĥ«ãĥī": 5967,
      "ãģĵãģ®ãĤĪãģĨãģ«": 5968,
      "ãģŁãĤģãģ«ãģ¯": 5969,
      "ãĥĽãĥ¼ãĥ«": 5970,
      "æ¥ŃåĭĻ": 5971,
      "ãĤ´ãĥ³": 5972,
      "ãģ¾ãģĽãĤĵãģ§": 5973,
      "ãģ«ãģ¤ãģĦãģ¦ãĤĤ": 5974,
      "å£°åĦª": 5975,
      "ãĤĴåıĹãģĳãĤĭ": 5976,
      "ãģĿãģ®åł´": 5977,
      "ãģ®åĲĪ": 5978,
      "é§Ħ": 5979,
      "çĴ§": 5980,
      "alax": 5981,
      "ãĤıãģĳãģ§ãģ¯ãģªãģĦ": 5982,
      "æ¹¯": 5983,
      "ãģ®å½¢": 5984,
      "çµĤäºĨãģĹãģ¾ãģĹãģŁ": 5985,
      "ãĤ¹ãĥĨãĤ£ãĥ¼ãĥ«": 5986,
      "MAX": 5987,
      "ãĤ³ãĥ©ãĥľãĥ¬ãĥ¼ãĤ·ãĥ§ãĥ³": 5988,
      "ãĤŃãĥ©ãĤŃãĥ©": 5989,
      "éģĭåĸ¶ãģĻãĤĭ": 5990,
      "ãĤĴæĢĿãģĦ": 5991,
      "é»Ħéĩĳ": 5992,
      "ãĤ´ãĥ¼ãĥ«ãĥĩãĥ³": 5993,
      "æ¾¤": 5994,
      "Dropbox": 5995,
      "DçĶ¨": 5996,
      "GH": 5997,
      "Ġa": 5998,
      "ãĤĭãģĭ": 5999,
      "ãģĮéĸĭåĤ¬": 6000,
      "ä¸ĥ": 6001,
      "ãĥĪãĥł": 6002,
      "ãģ®åĸ": 6003,
      "ãĥĨãĥ¼ãĥĸãĥ«": 6004,
      "åĭĩ": 6005,
      "ãĤªãĤ¤ãĥ«": 6006,
      "ãģ«ãģªãĤīãģªãģĦ": 6007,
      "åĳĪ": 6008,
      "è²¼": 6009,
      "æĦŁæĥħ": 6010,
      "ãĥ¼ãĤ¸ãĥ¥": 6011,
      "ç¶Ń": 6012,
      "ãģ¨ãģĹãģ¦ãģ®": 6013,
      "éļľ": 6014,
      "æµĦ": 6015,
      "å½¼ãģ®": 6016,
      "å¥³æĢ§ãģĮ": 6017,
      "ãĤ¸ãĥ£ãĥĥãĤ¯": 6018,
      "è¦³åħī": 6019,
      "ãĥĩãĤ¸ãĤ«ãĥ¡": 6020,
      "ãģ®åĨį": 6021,
      "åĲĦç¤¾": 6022,
      "ä¸ĬãģĮãģ£ãģ¦ãģĦãĤĭ": 6023,
      "éĽ¢ãĤĮ": 6024,
      "å®ĮçĴ§": 6025,
      "éľ²åĩº": 6026,
      "ãĥķãĤ¡ãĤ¤ãĥ«ãĤĴ": 6027,
      "ãĥģãĥ§ãĤ³": 6028,
      "åŃ«æŃ£ç¾©": 6029,
      "ç¤¾ä¼ļäºº": 6030,
      "ãĥĹãĥŃãĤ¸ãĤ§ãĤ¯ãĤ¿ãĥ¼": 6031,
      "ãĤĴçĻºè¡¨ãģĹãģŁ": 6032,
      "ãĤĴè¨ĺéĮ²ãģĹãģŁ": 6033,
      "ãĤ¹ãĤ±ãĥ¼ãĥ«": 6034,
      "çµ¶å¯¾ãģ«": 6035,
      "ãģĮå¯ĦãģĽãĤīãĤĮãģ¦ãģĦãĤĭ": 6036,
      "ç¯ĦåĽ²": 6037,
      "ãĥĩãĤ¸éĢļãģ®è¨ĺäºĭãĤĴãĤĤãģ£ãģ¨è¦ĭãĤĭ": 6038,
      "ãģįãģ¡ãĤĵãģ¨": 6039,
      "é¦´æŁĵ": 6040,
      "alaxy": 6041,
      "ky": 6042,
      "ne": 6043,
      "sow": 6044,
      "um": 6045,
      "½®": 6046,
      "ãģ«ä½¿": 6047,
      "ãĤĴåĬł": 6048,
      "ãģªãĤĵãģ§": 6049,
      "ãĤ¤ãĥģ": 6050,
      "ãĤĵãģ§ãĤĤ": 6051,
      "ãĤĵãģłãĤįãģĨ": 6052,
      "ãģ©ãģ®ãĤĪãģĨãģ«": 6053,
      "ãĥ¡ãĥ¼ãĥĪ": 6054,
      "çĽĹ": 6055,
      "ãĤªãĥķ": 6056,
      "ãĥŁãĥĥãĥī": 6057,
      "åį³": 6058,
      "æĻĤè¨Ī": 6059,
      "ãģ®çĤ": 6060,
      "çĽ®ãģ«": 6061,
      "ç¾½": 6062,
      "ãģ¨æĢĿãģĦ": 6063,
      "ãģ¨æĢĿãĤıãĤĮãĤĭ": 6064,
      "ãĥľãĥ¼ãĥī": 6065,
      "ãģ«ãģªãĤĭãģ¨": 6066,
      "ç¥Ĳ": 6067,
      "è£½éĢł": 6068,
      "ãģĹãģ¦ãģĦãģ¾ãģĹãģŁ": 6069,
      "ä¸ĬãģĴãģ¦": 6070,
      "å¼ķãģ£": 6071,
      "å¿ħè¦ģãģĮãģĤãĤĭ": 6072,
      "æģĭäºº": 6073,
      "ãģ®å¥³åŃĲ": 6074,
      "ãģ¡ãĤĥãĤĵãģŃãĤĭ": 6075,
      "èħ°": 6076,
      "ãģ®æŃ£": 6077,
      "ãĤ¢ãĤ¯ãĤ»ãĤµãĥªãĥ¼": 6078,
      "æĶ¯æı´": 6079,
      "ãĥ¢ãĥĨãĤŃ": 6080,
      "åįĶä¼ļ": 6081,
      "ãĤĴåĳ¼ãģ³": 6082,
      "ç´įå¾Ĺ": 6083,
      "ãĤ¤ãĤ±ãĥ¡ãĥ³": 6084,
      "ãĥĲãĥ©ãĤ¨ãĥĨãĤ£": 6085,
      "å¹ħåºĥãģĦ": 6086,
      "KDDI": 6087,
      "æľĪä¸ĭæĹ¬": 6088,
      "èŀ": 6089,
      "ĻãģĴ": 6090,
      "ãģ®çī¹": 6091,
      "ãģĮåºĥãģĮ": 6092,
      "ãģ¯ãģĬ": 6093,
      "ãĤ¤ãĥ³ãĥī": 6094,
      "ãģĻãĤĭãģ«ãģ¯": 6095,
      "ãĤĦãĤĭ": 6096,
      "ãĤ³ãĥŀ": 6097,
      "ãĥĨãĥ¬": 6098,
      "åĨĴ": 6099,
      "æī±ãģĦ": 6100,
      "ãĥĲãĤ·": 6101,
      "æ°Ĺãģ¥": 6102,
      "ãĤ·ãĥ§ãĥĥãĥĪ": 6103,
      "å±¥": 6104,
      "æĪ¿": 6105,
      "æĢĿãģĨ": 6106,
      "æĹ¥æľ¬ãģ§ãĤĤ": 6107,
      "ãģłãģĳãģ§ãĤĤ": 6108,
      "ãĥĿãĤ±ãĥĥãĥĪ": 6109,
      "ãĥıãĤ¦ãĤ¹": 6110,
      "å½ĵæĻĤ": 6111,
      "çĿ¡çľł": 6112,
      "ãģ¨æĢĿãģĦãģ¾ãģĹãģŁ": 6113,
      "å¤ĸåĩº": 6114,
      "ä¸įæŃ£": 6115,
      "æīĢå±ŀ": 6116,
      "ãĥ¦ãĥ¼ãĤ¶ãĥ¼ãģ¯": 6117,
      "éģĶæĪĲ": 6118,
      "æľĢæĸ°ãģ®": 6119,
      "ãĤĴæıĲæ¡Ī": 6120,
      "åĴ²": 6121,
      "ãĥ¼ãĥ¬ãĤ¹": 6122,
      "æ®ºåĪ°": 6123,
      "ãģ¾ãģ£ãģŁãģı": 6124,
      "è²łæĭħ": 6125,
      "ãĤ¿ãĥĸãĥ¬ãĥĥãĥĪç«¯æľ«": 6126,
      "çŃĨèĢħ": 6127,
      "ãģĮæıı": 6128,
      "çµ±éłĺ": 6129,
      "ãģ«æİ¥ç¶ļ": 6130,
      "ãģ®ç·¨": 6131,
      "æİ¢åģµ": 6132,
      "ãģ®æ¯į": 6133,
      "ãĤĴæķĻãģĪãģ¦": 6134,
      "ãĤ¦ãĥ«ãĥĪãĥ©": 6135,
      "zigsow": 6136,
      "FF": 6137,
      "NG": 6138,
      "TC": 6139,
      "Ġi": 6140,
      "Ġ**": 6141,
      "ãģ®ãģ»ãģĭ": 6142,
      "ãģ§è²©å£²": 6143,
      "ãĤĴé«ĺ": 6144,
      "ãģĮè§£ç¦ģ": 6145,
      "ãĤ¤ãĥ©ãĤ¹ãĥĪ": 6146,
      "çĻĤ": 6147,
      "åłª": 6148,
      "äºĭãĤĴ": 6149,
      "ç¤¼": 6150,
      "åĪĨãģĭãĤĭ": 6151,
      "æĸ¹åĲĳ": 6152,
      "ãģ®ç¯": 6153,
      "æķ¦": 6154,
      "ãģĶéĢ£çµ¡": 6155,
      "éĸ¢è¥¿": 6156,
      "ãĥ¼ãĤ¸ãĥ£": 6157,
      "éģ¸ãģ¶": 6158,
      "è¨ĺäºĭãģ§ãģ¯": 6159,
      "ooth": 6160,
      "æ¼Ķåĩº": 6161,
      "ç¥Ī": 6162,
      "ãĤ¢ãĥĹãĥªãĤ±ãĥ¼ãĤ·ãĥ§ãĥ³": 6163,
      "çĻºå£²ãģķãĤĮãĤĭ": 6164,
      "ãģ¨ãģ¯ãģĦãģĪ": 6165,
      "ãģķãĤīãģĦ": 6166,
      "çĶ·æĢ§ãģ¯": 6167,
      "åĪ¶éĻĲ": 6168,
      "ä½¿ãģĦåĭĿæīĭ": 6169,
      "ãĥ¼ãĥ©ãĤ¤": 6170,
      "ãģĻãģİãģ¦": 6171,
      "est": 6172,
      "ãĥĩãĥ¼ãĤ¿ãĤĴ": 6173,
      "ãģ¾ãģłãģ¾ãģł": 6174,
      "ãģ¡ãĤĩãģ£ãģ¨ãģĹãģŁ": 6175,
      "ãģıãĤĮãģ¾ãģĻ": 6176,
      "å¤±æķĹ": 6177,
      "å¡Ĺ": 6178,
      "çĪ¶è¦ª": 6179,
      "æ¨Ļæºĸ": 6180,
      "æĽ¸ãģįè¾¼ãģ¿": 6181,
      "ãĥīãĤŃãĥīãĤŃ": 6182,
      "ãĤªãĥ¼ãĤ¬": 6183,
      "ãĥ¬ãĥĵãĥ¥ãĥ¼ãĤ¢ãĥ¼åĭŁéĽĨ": 6184,
      "ãģ®å¿ľåĭŁ": 6185,
      "çī©èŃ°ãĤĴéĨ¸": 6186,
      "ãģ®ç·¨éĽĨ": 6187,
      "600": 6188,
      "MO": 6189,
      "èĴ": 6190,
      "ãģ§æ´»èºį": 6191,
      "ãģıãĤĵ": 6192,
      "ãģĻãĤĭãģłãģĳãģ§": 6193,
      "åı¶": 6194,
      "ãģ®æĤª": 6195,
      "æ°Ĺè»½ãģ«": 6196,
      "é¡§": 6197,
      "ãĤ¨ãĤ¹ãĥĪ": 6198,
      "ãģ®ç²": 6199,
      "æķ¬": 6200,
      "é«ĺçĶŁ": 6201,
      "å®ļçķª": 6202,
      "æīĭè»½": 6203,
      "ãģĦãģŁãĤī": 6204,
      "èĪª": 6205,
      "iPod": 6206,
      "ãĥķãĤ©ãĥ¼": 6207,
      "ä¸ĭè¨ĺ": 6208,
      "ãĤīãĤĮãģ¾ãģĹãģŁ": 6209,
      "åħĪãģ«": 6210,
      "çµĲãģ³": 6211,
      "è¿ĳãģĦ": 6212,
      "èªŃãĤĢ": 6213,
      "èıĵ": 6214,
      "åģľ": 6215,
      "ãĤ¸ãĥ§ãĥ¼": 6216,
      "èĪĪå¥®": 6217,
      "è·µ": 6218,
      "etooth": 6219,
      "ãģĭãĤıãģĦ": 6220,
      "ãĤ¦ãĤ£ãĥ³ãĥīãĤ¦": 6221,
      "æµ·å¤ĸãĥīãĥ©ãĥŀ": 6222,
      "ãģĹãģ¦ãģĬãĤĬãģ¾ãģĻ": 6223,
      "ãģ®æĢ§": 6224,
      "ãģĭãģ¤ãģ¦": 6225,
      "æĶ¹åĸĦ": 6226,
      "å°±èģ·": 6227,
      "ãĤĴçĽ®æĮĩãģĻ": 6228,
      "ãģ®ç¥ŀ": 6229,
      "å¦Ļãģª": 6230,
      "ãĥ¼ãĥ¯ãĥ¼ãĥī": 6231,
      "åĲ¹ãģį": 6232,
      "ãģ®ç©º": 6233,
      "Intel": 6234,
      "ãĤĴçµĮãģ¦": 6235,
      "åłªèĥ½": 6236,
      "SU": 6237,
      "YO": 6238,
      "ot": 6239,
      "rid": 6240,
      "ãģ®ãĤ¹": 6241,
      "ãģ¨åĽŀçŃĶ": 6242,
      "ãģĹãģ®": 6243,
      "ãģĮãĤĵ": 6244,
      "ãģ¾ãģ£ãģ¦": 6245,
      "ãģĵãģ®æĻĤ": 6246,
      "ãģĻãĤĭåł´åĲĪ": 6247,
      "åı«": 6248,
      "æĹ¥æĻĤ": 6249,
      "ãĤģãĤīãĤĮãģŁ": 6250,
      "ãģĭãĤīãģ§ãģĻ": 6251,
      "ãĤŃãĥ¼ãĥ¯ãĥ¼ãĥī": 6252,
      "æĿ¯": 6253,
      "ãģªãģ©ãģ«": 6254,
      "ãĥįãĤ¹": 6255,
      "è¨Ģãģ£ãģ¦": 6256,
      "æĦŁãģĮ": 6257,
      "åĢ«": 6258,
      "ãĥ©ãĤ¤ãĤ¸ãĥ³ãĤ°": 6259,
      "ãģĿãģĨãģ§": 6260,
      "çī©ãĤĴ": 6261,
      "å¤ĸç·ļ": 6262,
      "èĩªåĪĨãģ«": 6263,
      "åĲĳãģĭ": 6264,
      "èº«è¿ĳ": 6265,
      "å½¼ãģĮ": 6266,
      "ãĤ³ãĥ³ãĤµãĥ«": 6267,
      "æľīæĸĻ": 6268,
      "èµ·æºĲ": 6269,
      "æ¬¡ä¸ĸä»£": 6270,
      "å¥³åŃĲãģ®": 6271,
      "ãĤĴæĮģãģ£ãģŁ": 6272,
      "æľ¬ä½ľãģ§": 6273,
      "å¢ĹãģĪãĤĭ": 6274,
      "ãģĵãģ¨ãĤĤãģĤãĤĬ": 6275,
      "å¯¾å¿ľãģ®": 6276,
      "å®ĮäºĨ": 6277,
      "ãģ«ãģªãģ£ãģ¦ãģĹãģ¾ãģĨ": 6278,
      "å½¢ãģ§": 6279,
      "èĬ¸äºº": 6280,
      "è©³ãģĹãģı": 6281,
      "èĳĹä½ľ": 6282,
      "ä½ĲèĹ¤": 6283,
      "å®£ä¼Ŀ": 6284,
      "å¿ĺãĤĮ": 6285,
      "æ²³æľ¬": 6286,
      "è´ĪãĤĭ": 6287,
      "ãģ«æıı": 6288,
      "ãģ®åİŁåĽł": 6289,
      "ãģ®ç§ĺå¯Ĩ": 6290,
      "å°ıãģķãģª": 6291,
      "ãĥ¡ãĥ³ãĤ¿ãĥªãĥ¼": 6292,
      "èŀį": 6293,
      "59": 6294,
      "ãģ¨ãĤĬ": 6295,
      "ãģĮãĤĭ": 6296,
      "ãĤīãģĹãģķ": 6297,
      "ãģįãģ£ãģ¨": 6298,
      "ãģĤãģµãĤĮãĤĭ": 6299,
      "ãģĿãģ®æĻĤ": 6300,
      "æĺ¯éĿŀ": 6301,
      "æĿī": 6302,
      "ãĥĲãĤ¿ãĥ¼": 6303,
      "ãĥģãĥ³": 6304,
      "ãĥģãĥ©": 6305,
      "ãĥĳãĥª": 6306,
      "ãģ§ãģįãĤĭãģ®ãģ§": 6307,
      "ãĤ¤ãĥ³ãĤ°": 6308,
      "çĽ®ãģ§": 6309,
      "å¤ļæ©Łèĥ½": 6310,
      "æĿ¥åł´": 6311,
      "ãĤĴè¦ĭãģŁ": 6312,
      "æĿ±èĬĿ": 6313,
      "ä½ľåĵģãĤĴ": 6314,
      "æ²ĸ": 6315,
      "ãģ®ä¸Ńãģ«ãģ¯": 6316,
      "èī²ãģ®": 6317,
      "ãĥĩãĤ¶ãĤ¤": 6318,
      "ãĥĹãĥ¬ãĤ¼ãĥ³ãĥĪãģ¯": 6319,
      "æ··": 6320,
      "è¿ĶãģĹ": 6321,
      "ãģ®äººçĶŁ": 6322,
      "ãģ®å½¹": 6323,
      "çĸĳæĥĳ": 6324,
      "ãĤĴæķĳ": 6325,
      "èĭ¦åĬ´": 6326,
      "ãģĦãģıãģ¤ãģĭ": 6327,
      "ãĥĭãĤ³ãĥĭãĤ³åĭķçĶ»": 6328,
      "ãĥıãĥ¼ãĥīãĥĩãĤ£ãĤ¹ãĤ¯": 6329,
      "ãĤ¤ãĥ³ãĥ¡": 6330,
      "ãģĶãģ¨ãģ«": 6331,
      "ãģ®åĢĭ": 6332,
      "å·»ãģįèµ·ãģĵ": 6333,
      "éĪ´æľ¨": 6334,
      "å§Ķåĵ¡": 6335,
      "´Ĺ": 6336,
      "éĤª": 6337,
      "ãģ«å¤§": 6338,
      "ãĤĴãģĭãģĳ": 6339,
      "ãģĮãģ¡": 6340,
      "ãģĮä¸Ģçķª": 6341,
      "ãģĮçĶ¨æĦı": 6342,
      "ãģŁãģ£ãģŁ": 6343,
      "ãĤīãģĮ": 6344,
      "ãģķãģ«": 6345,
      "ãĥŃãĤ±": 6346,
      "å¾®": 6347,
      "è¦ĭéĢĥ": 6348,
      "å°ĭ": 6349,
      "ãĤ¨ãĥ¼ãĤ·ãĥ§ãĥ³": 6350,
      "ãģ«æģ": 6351,
      "é«ĺæĢ§èĥ½": 6352,
      "æīĭãģª": 6353,
      "ãģĹãģ¦ãģĦãĤĭãģ¨ãģĦãģĨ": 6354,
      "ãĥĿãĥŃ": 6355,
      "ãģĹãģ¾ãģĹãĤĩãģĨ": 6356,
      "çŁ¥ãĤīãĤĮãĤĭ": 6357,
      "æ±Ĺ": 6358,
      "ä»ķçµĦãģ¿": 6359,
      "ãĤ·ãĥ£ãĥīãĤ¦": 6360,
      "åĲĳãģį": 6361,
      "åħĪè¼©": 6362,
      "ãĤĴç©": 6363,
      "ãĥ³ãĥĨãĥĬ": 6364,
      "æĶ¾å°Ħ": 6365,
      "çµĤãĤıãĤĬ": 6366,
      "ãģ¨ãģĵãĤįãģĮ": 6367,
      "å¦ĸ": 6368,
      "ãģµãģŁãĤĬ": 6369,
      "æķĻæİĪ": 6370,
      "ä»ĺãģįåĲĪ": 6371,
      "æĬķè³ĩ": 6372,
      "çĮ¿": 6373,
      "ãģ«å¯¾å¿ľãģĹãģŁ": 6374,
      "åĩºæĿ¥ãĤĭ": 6375,
      "ãģĮæ±ºå®ļãģĹãģŁ": 6376,
      "åĬĩåł´çīĪ": 6377,
      "ãģ®æĮĩ": 6378,
      "æĦıå¤ĸãģª": 6379,
      "ä¼¸ãģ³": 6380,
      "ãĤ¸ãĥ£ãĥ³ãĥ«": 6381,
      "ãĤ¢ãĥĢãĥĹãĤ¿ãĥ¼": 6382,
      "ãģ®åł±éģĵ": 6383,
      "é¬¼": 6384,
      "ãĤªãĥ¼ãĤ¬ãĥĭãĥĥãĤ¯": 6385,
      "by": 6386,
      "ãģ®çĶ·": 6387,
      "ãģĨãĤĮãģĹãģĦ": 6388,
      "ãĤīãģĻ": 6389,
      "ãĥĥãĤ«": 6390,
      "ãģĵãģ®æ": 6391,
      "ãģķãģ¦": 6392,
      "ãĤ¿ãĥĸ": 6393,
      "ãĥ¬ãĥĩãĤ£": 6394,
      "ãĤģãģªãģĦ": 6395,
      "å¤§çµ±éłĺ": 6396,
      "åĨĬ": 6397,
      "ãĥĲãĥ¼ãĤ¸ãĥ§ãĥ³": 6398,
      "èĩŃ": 6399,
      "ãĥĥãĤ¯ãĤ¢ãĥĥãĥĹ": 6400,
      "åĪĨãģĳ": 6401,
      "ãĤ¨ãĥ¬": 6402,
      "ãĤ¨ãĤ¹ãĥĨ": 6403,
      "ãĤ¹ãĥĪãĥ¼ãĥª": 6404,
      "ãģ§ãĤĤä½¿ãģĪãĤĭ": 6405,
      "ä½ĵéĩį": 6406,
      "éĽĨä¸Ń": 6407,
      "çī¹å®ļ": 6408,
      "ãĥļãĥ³": 6409,
      "ç¾İèĤĮ": 6410,
      "æ¥½å¤©": 6411,
      "æķ°ãģĮ": 6412,
      "ä½ľåĵģãģ®": 6413,
      "æ©Łèĥ½ãģĮ": 6414,
      "ãĤ®ãĥª": 6415,
      "è¨Ńè¨Ī": 6416,
      "éģİæ¿Ģ": 6417,
      "ãĥģãĥ£ãĥ¬ãĥ³ãĤ¸": 6418,
      "æĲį": 6419,
      "ãģ®å¥½": 6420,
      "ãĥĲãĥ¼ãĤ°": 6421,
      "ãģĤãģªãģŁãģĮ": 6422,
      "æĸ°ãģĹãģĦiPad": 6423,
      "çĶŁæ´»ä¿ĿèŃ·": 6424,
      "ä¸»æ¼Ķãģ®": 6425,
      "³¨æĦı": 6426,
      "ä»Ĭå¾ĮãĤĤ": 6427,
      "å»ĥ": 6428,
      "å·®ãģĹ": 6429,
      "æĶ¯æĮģ": 6430,
      "ãĤĴè¿½åĬł": 6431,
      "ãĤĴæııãģı": 6432,
      "æİĽãģĳ": 6433,
      "éģĬãģ³": 6434,
      "ç²¾ç¥ŀ": 6435,
      "ä¼¸ãģ°": 6436,
      "ãĤ¹ãĤŃãĥ³": 6437,
      "ç©įæ¥µ": 6438,
      "ãĤ°ãĥŃãĥ¼ãĥĲãĥ«": 6439,
      "âĢķâĢķ": 6440,
      "å½ĵãģŁãĤĬåīį": 6441,
      "ãĥĢãĥ¼ãĤ¯ãĥĬãĤ¤ãĥĪãĥ©ãĤ¤ãĤ¸ãĥ³ãĤ°": 6442,
      "ä¾Ŀéł¼": 6443,
      "å¿ĻãģĹãģĦ": 6444,
      "ut": 6445,
      "łĶç©¶": 6446,
      "ãģ®ãģłãĤįãģĨ": 6447,
      "ãĥ¼ãĥĻ": 6448,
      "ãģ¾ãĤĮ": 6449,
      "ãģıãĤĬ": 6450,
      "æĸ¬": 6451,
      "äººãĤĦ": 6452,
      "ãĤģãģ¾ãģĻ": 6453,
      "ãĤ«ãĥŃ": 6454,
      "ãģ£ãģ¦ãģ¯": 6455,
      "ç´«": 6456,
      "ãĥĭãĥ¼ãĤº": 6457,
      "çĻºè¦ĭ": 6458,
      "çĻºå±ķ": 6459,
      "éĸĵéģķ": 6460,
      "æľĢä½İ": 6461,
      "æĸ¹ãģ«": 6462,
      "ãģ®çĭ": 6463,
      "ãĥĢãĥ³": 6464,
      "ãģĵãģ¨ãģĮãģ§ãģį": 6465,
      "åħ¨çĦ¶": 6466,
      "ä¸ĸçķĮä¸Ń": 6467,
      "åĪĿå¿ĥ": 6468,
      "ãĤ¢ãĥĹãĥªãģ¯": 6469,
      "éĩĳé¡į": 6470,
      "å®¹çĸĳ": 6471,
      "å¾ħæľĽ": 6472,
      "ower": 6473,
      "èĲĮ": 6474,
      "ãĤŃãĥ¥ãĤ¢": 6475,
      "ãĥĢãĤ¦ãĥ³": 6476,
      "ãģ®æķĻ": 6477,
      "å¤īãĤıãģ£ãģŁ": 6478,
      "ãģ®å°ĳ": 6479,
      "çī¹åĪ¥ãģª": 6480,
      "ä¼ĳãģ¿": 6481,
      "éįĽ": 6482,
      "ãģĵãĤĵãģĵãĤĵ": 6483,
      "çĦ¼ãģį": 6484,
      "åĺĺ": 6485,
      "èĵĦ": 6486,
      "ãģ®çĬ¶æħĭ": 6487,
      "ãĥķãĤ£ãĥ«ãĥł": 6488,
      "ãĤĴæĦıèŃĺ": 6489,
      "GoogleãĥŃãĤ´ãģĮ": 6490,
      "ãģ®æĲºå¸¯éĽ»è©±": 6491,
      "CE": 6492,
      "VE": 6493,
      "ci": 6494,
      "¬ł": 6495,
      "ãĤĴåħ¬éĸĭ": 6496,
      "ãĤĴåĤĻ": 6497,
      "ãģ¾ãĤĵ": 6498,
      "ãģķãģĻãģĮ": 6499,
      "ãĥªãĥĥãĤ·ãĥ¥": 6500,
      "ãģĬåķıãģĦ": 6501,
      "ãĤŃãĥĥãĥĪ": 6502,
      "èªł": 6503,
      "ãĤ°ãĥ¬ãĤ¤": 6504,
      "ãģ¨ãģĦãģĨãģ®ãģĮ": 6505,
      "å¹´åº¦": 6506,
      "äºĭæĥħ": 6507,
      "ãģ«ãģªãĤĮãĤĭ": 6508,
      "æľĪãģ®": 6509,
      "ãĤ¨ãĥĥãĤ»": 6510,
      "ãĤ»ãĥĥãĤ¯ãĤ¹": 6511,
      "åľı": 6512,
      "ãģ®çĪ": 6513,
      "ãģĮæ±º": 6514,
      "éĽ»åĭķ": 6515,
      "ãģłãģĳãģ§ãģ¯ãģªãģı": 6516,
      "ç«ľ": 6517,
      "åĦŁ": 6518,
      "ä¹³": 6519,
      "åıĹä»ĺ": 6520,
      "éŁ³ãĤĴ": 6521,
      "ãģªãĤīãģ°": 6522,
      "å¿ħéłĪ": 6523,
      "æĪ¦çķ¥": 6524,
      "åħĥãģ«": 6525,
      "æħİ": 6526,
      "æĻĤéĸĵãģĮ": 6527,
      "éŃļ": 6528,
      "ç§ģãģŁãģ¡": 6529,
      "æ¬¡ãģ«": 6530,
      "ãģ£ãģ¦ãģĦãģ¦": 6531,
      "ãģ®åı¯": 6532,
      "ãģĹãģ¦ãģ¿ãģ¦ãģıãģłãģķãģĦ": 6533,
      "éĥ½å¸Ĥ": 6534,
      "ãĤĴè¡Įãģ£ãģ¦ãģĦãĤĭ": 6535,
      "æķĻå®¤": 6536,
      "ãĤ¸ãĥ¥ãĤ¢ãĥ«": 6537,
      "åī²ãĤĬ": 6538,
      "ç¦ģæŃ¢": 6539,
      "ãģ®æ°´": 6540,
      "ç¶Ļç¶ļ": 6541,
      "ãģ®åºĥ": 6542,
      "åĩĦãģĦ": 6543,
      "ãģ®åıĸãĤĬ": 6544,
      "µ·å¤ĸ": 6545,
      "ãģ«æ¸¡": 6546,
      "ãĥĩãĤ¹ãĤ¯ãĥĪãĥĥãĥĹ": 6547,
      "éĭŃ": 6548,
      "ãģ®æŃ´åı²": 6549,
      "2000": 6550,
      "ãģ®è©±": 6551,
      "ãģ®ãĥĹãĥŃ": 6552,
      "ãģ«åŁº": 6553,
      "ãģŁãģ³": 6554,
      "ãģ¾ãĤīãģªãģĦ": 6555,
      "ãĤ¢ãĥŀ": 6556,
      "äººãģ§": 6557,
      "ãĥ¬ãĥ¼ãĤ¹": 6558,
      "è¨º": 6559,
      "æľ¬æĿ¥": 6560,
      "ãĥĩãĥ¥ãĥ¼": 6561,
      "ãĥĲãĥĥãĥĪ": 6562,
      "ãģĤãĤĭæĹ¥": 6563,
      "ãĥĳãĥ¯ãĥ¼": 6564,
      "ä»Ĭãģ®": 6565,
      "ä»Ĭãģ¯": 6566,
      "ä»ĬæĹ¥ãģ¯": 6567,
      "ä»Ĭåº¦ãģ¯": 6568,
      "ãĥŁãĤ¹ãĥĨ": 6569,
      "ãĤ»ãĥŃ": 6570,
      "æķ·": 6571,
      "æĢĿãĤıãģļ": 6572,
      "æĦŁè¬Ŀ": 6573,
      "ãĥįãĥĥãĥĪãģ§": 6574,
      "å§ĭãĤģãģŁ": 6575,
      "æ²¹": 6576,
      "æŃ£ãģĹãģĦ": 6577,
      "éľĬ": 6578,
      "æİ²è¼ī": 6579,
      "ãĤĴåıĹãģĳãģ¦": 6580,
      "ãģ®åıĤ": 6581,
      "ãģĹãģ¦ãģ¿ãĤĭ": 6582,
      "ãĥ¼ãĥªãĥ³ãĤ°": 6583,
      "éĥ½ä¼ļ": 6584,
      "ãĥ¼ãĥ©ãĥ¼": 6585,
      "ãĤ¹ãĥļãĥĥãĤ¯": 6586,
      "å½¢å¼ı": 6587,
      "è³ĩæĸĻ": 6588,
      "è»¢èģ·ãģ¯": 6589,
      "ãĤ±ãĥ¼ãĤ¿ãĤ¤": 6590,
      "èĬ¸èĥ½çķĮ": 6591,
      "æĦıå¤ĸãģ¨": 6592,
      "éĤ£": 6593,
      "ãĤ»ãĥ¬ãĥĸ": 6594,
      "ãĤ·ãĥįãĥŀãĤº": 6595,
      "ãĥĲãĥ¬ãĥ³ãĤ¿ãĤ¤ãĥ³": 6596,
      "ãĤĴèªĩãĤĭ": 6597,
      "ãĤĴè¨ĺå¿µãģĹãģ¦": 6598,
      "ãģĶå¿ľåĭŁãģıãģłãģķãģĦ": 6599,
      "Ch": 6600,
      "IA": 6601,
      "NT": 6602,
      "¹è©ķ": 6603,
      "âĨ": 6604,
      "ãģ®ãĤĪãģĨ": 6605,
      "ãĤĴåĪĩãĤĬ": 6606,
      "ãģĹãģŁãģĵãģ¨": 6607,
      "åĪ·": 6608,
      "ãģ®æ³": 6609,
      "ãģ¨ãģĦãģĨãģ¨": 6610,
      "ãĥĲãĤ«": 6611,
      "ä¸Ńãģ§ãģĻ": 6612,
      "å®ŁåĬĽ": 6613,
      "å®ŁåĨĻ": 6614,
      "æ³¡": 6615,
      "ãĤŃãĥ£ãĥİãĥ³": 6616,
      "çŁ¥ãĤĬ": 6617,
      "èªŀãĤĭ": 6618,
      "åºĹéłŃ": 6619,
      "ãĥīãĥ©ãĥĥãĤ°": 6620,
      "èģ·åł´": 6621,
      "å±±æľ¬": 6622,
      "çµĤãĤı": 6623,
      "ãģ¨è¨ĢãģĪãģ°": 6624,
      "ãģ£ãģ¦ãģĦãģĨ": 6625,
      "å¦ĥ": 6626,
      "ãĥĩãĤ¸ãĤ¿ãĥ«ãĤ«ãĥ¡ãĥ©": 6627,
      "ãģ®å£²": 6628,
      "ãĥ¼ãĥ©ãĥ³ãĥī": 6629,
      "å¼µãĤĬ": 6630,
      "æĻĤä»£ãģ®": 6631,
      "ãģ®æī¹åĪ¤": 6632,
      "ãģ«æĮĳ": 6633,
      "ãĥŀãĤ¤ãĤº": 6634,
      "æľĢåĪĿãģ«": 6635,
      "æľĢåĪĿãģ¯": 6636,
      "SATA": 6637,
      "åįĶåĬĽ": 6638,
      "åĩºä¼ļãģĦ": 6639,
      "The": 6640,
      "ãĥ¬ãĤ³ãĥ¼ãĥĢãĥ¼": 6641,
      "åī£å¿ĥ": 6642,
      "è¸ıãģ¿": 6643,
      "ãĥīãĥ©ãĤ¤ãĥĲãĥ¼": 6644,
      "ãĤĴèĪŀåı°ãģ«": 6645,
      "ãĥŃãĥ³ãĥīãĥ³": 6646,
      "ãĥĨãĤ¯ãĥİãĥŃ": 6647,
      "ET": 6648,
      "eF": 6649,
      "ur": 6650,
      "Ġ9": 6651,
      "Ĳį": 6652,
      "ãģĦãģ¦ãģĦãģ¾ãģĻ": 6653,
      "ãģ¨è©±": 6654,
      "ãģĹãģ¿": 6655,
      "ãĤĴå¤§": 6656,
      "ãĤĴä»£è¡¨": 6657,
      "ãĤĴèĢĥãģĪãĤĭ": 6658,
      "ãģªãģĺ": 6659,
      "ãģŁãģªãģĦ": 6660,
      "ãģĨãĤĭ": 6661,
      "åħĭ": 6662,
      "ãģ®å¦": 6663,
      "ãģ®æĤ©ãģ¿": 6664,
      "ãĥŀãĤ¹": 6665,
      "ãĥŀãĤ¦ãĤ¹": 6666,
      "ãĤ«ãĤ¤": 6667,
      "ãĤŃãĥ¼ãĥĹ": 6668,
      "ä¼´": 6669,
      "ãģĽãģŁ": 6670,
      "å¹´æľ«": 6671,
      "äºĭãģ«": 6672,
      "ãĥĲãĤ¹": 6673,
      "ãĥģãĥ¼ãĤº": 6674,
      "åį´": 6675,
      "ãģ®ãģĭãģª": 6676,
      "æĿ±åĮĹ": 6677,
      "ä¸įè¶³": 6678,
      "ç«ĭãģ£ãģŁ": 6679,
      "ãĤĴç½®": 6680,
      "çĻ»åł´ãģĻãĤĭ": 6681,
      "è§£æ¶Ī": 6682,
      "ãģķãĤīãģ«ãģ¯": 6683,
      "ãĥ¦ãĥ¼ãĤ¶": 6684,
      "ãĥķãĤ£ãĥª": 6685,
      "ãĥĨãĥ¬ãĥĵçķªçµĦ": 6686,
      "éĩįãģª": 6687,
      "å½¹ãģ®": 6688,
      "è»¢éĢģ": 6689,
      "åĪ¥ãģ«": 6690,
      "ãĤĴè¡ĮãģĦ": 6691,
      "ãĤ¢ãĥ«ãĥĲ": 6692,
      "ãģ®ãĤĤãģ¨": 6693,
      "çĽ¸æīĭãģ«": 6694,
      "ãĥķãĥ«ãĥ¼ãĥĦ": 6695,
      "é£Łãģ¹ãĤĭ": 6696,
      "å¾©æ´»": 6697,
      "ãģ¿ãĤĵãģªãģ§": 6698,
      "ãģĹãģ£ãģĭãĤĬãģ¨": 6699,
      "ãĤĴè¿½æ±Ĥ": 6700,
      "ä½Ļè£ķ": 6701,
      "ãĤ¹ãĤ¿ãĤ¤ãĥªãĥĥãĤ·ãĥ¥": 6702,
      "è©°ãĤģ": 6703,
      "ãģ®å±ķ": 6704,
      "ãĥĩãĥ¥ãĥ¼ãĤ¹": 6705,
      "ãĤ»ãĥ³ãĤµãĥ¼": 6706,
      "ãģ¾ãģĽãĤĵãģ§ãģĹãģŁ": 6707,
      "HV": 6708,
      "LU": 6709,
      "ile": 6710,
      "st": 6711,
      "··": 6712,
      "ãģĦãģĳãģªãģĦ": 6713,
      "ãģ«åĲĮ": 6714,
      "ãĤĴçĦ¡": 6715,
      "ãĤĴè¨Ńå®ļ": 6716,
      "ãĥªãĥ¢": 6717,
      "ãģĻãĤĭãģĭ": 6718,
      "ãģĻãĤĭãģŁãĤģãģ«": 6719,
      "äººãģŁãģ¡": 6720,
      "ãĤĴæį": 6721,
      "ãĤĴæĽ¸": 6722,
      "ãģ®æ¼Ķ": 6723,
      "ãģ®æĶ¯": 6724,
      "ãģ¨ãģĦãģĦ": 6725,
      "æī¹è©ķ": 6726,
      "ä¸Ńå¤®": 6727,
      "ãĥķãĤ»": 6728,
      "è¨ĺåħ¥": 6729,
      "ãģĮæ¸": 6730,
      "æĹ¥æľ¬åĽ½åĨħ": 6731,
      "æĦŁåº¦": 6732,
      "ãĥ¼ãĤ¸ãĥ£ãĥ¼": 6733,
      "ãĥĿãĥ¼ãĤº": 6734,
      "ãģ«ãĤĤéĸ¢ãĤı": 6735,
      "ç¶ļãģĦãģ¦": 6736,
      "æµ¦": 6737,
      "æĿ±æĹ¥æľ¬å¤§éľĩçģ½": 6738,
      "åĦªãģĹãģĦ": 6739,
      "ãģ¨ãģ¯æĢĿ": 6740,
      "æŁĶ": 6741,
      "éĩįéĩı": 6742,
      "å¸¸èŃĺ": 6743,
      "è¦³ãĤĭ": 6744,
      "èī²ãĢħãģª": 6745,
      "ãģ¨è¨ĢãĤıãĤĮ": 6746,
      "è©¦åĲĪ": 6747,
      "å¦¹": 6748,
      "ãĤĴä½ľãĤĬ": 6749,
      "éĽ»è©±çķªåı·": 6750,
      "åĮĹæľĿé®®": 6751,
      "ĠAll": 6752,
      "èĩªåĭķçļĦãģ«": 6753,
      "åĥįãģį": 6754,
      "ç¨®é¡ŀãģ®": 6755,
      "ãĤĴèªŃãģ¿": 6756,
      "ãģ®åºĹ": 6757,
      "ãĤĴãģĭãģĳãģ¦": 6758,
      "Think": 6759,
      "ãģĤãĤĬãģĮãģ¨ãģĨ": 6760,
      "ãĥīãĤŃãĥ¥ãĥ¡ãĥ³ãĤ¿ãĥªãĥ¼": 6761,
      "éģ¸ãģ°ãĤĮãģŁ": 6762,
      "ãĤªãĥĪãĥĬ": 6763,
      "ãĤŃãĥ¥ãĥ¼ãĥĪãģª": 6764,
      "ãĤ¹ãĥĳãĤ¤ãĥĢãĥ¼ãĥŀãĥ³": 6765,
      "ãĤ¢ãĥ«ãĥĲãĥł": 6766,
      "NO": 6767,
      "Ľ²": 6768,
      "ãĥ¼ãģ¯": 6769,
      "ãĤĴèĢĥãģĪ": 6770,
      "ãĥ³ãģ¨": 6771,
      "ãĤ¢ãĥ¬ãĥ³ãĤ¸": 6772,
      "åħļ": 6773,
      "ãĤ¸ãĥł": 6774,
      "ãģĪãĤīãĤĮãĤĭ": 6775,
      "ãĤĴæ®ĭ": 6776,
      "ãģ¿ãģļ": 6777,
      "ä¸ĢæŃ©": 6778,
      "ãģ«ãģªãģ£ãģ¦ãģĦãģ¾ãģĻ": 6779,
      "ãģķãĤĵãĤĤ": 6780,
      "éĽ»æ³¢": 6781,
      "å½ĵåĪĿ": 6782,
      "çı¾åľ°": 6783,
      "èŃ²": 6784,
      "ãĥĦãĥªãĥ¼": 6785,
      "å®¶ãģ«": 6786,
      "åĨĨãģ§": 6787,
      "ãģĿãĤĮãģ§": 6788,
      "æĿ¥å¹´": 6789,
      "erve": 6790,
      "éĢģãĤĬ": 6791,
      "ä½ľåĵģãģĮ": 6792,
      "ä¸ĩéĥ¨": 6793,
      "å°ıãģķãģĦ": 6794,
      "ãģĹãģıãģªãģĦ": 6795,
      "èģ·åħ¼": 6796,
      "æĮĩåİŁ": 6797,
      "ä¸ĬãģĮãģ£ãģŁ": 6798,
      "æ·³": 6799,
      "æľĢå¤§ç´ļ": 6800,
      "åĢ¤æ®µ": 6801,
      "ãĥĦãĤ¤ãĥĥãĤ¿ãĥ¼ãģ§": 6802,
      "çĲĨçĶ±ãģ¯": 6803,
      "éĺ²æ°´": 6804,
      "ãģ®æ©Łä¼ļ": 6805,
      "å¡©": 6806,
      "æ¸¬å®ļ": 6807,
      "ãģĮåħ¬éĸĭãģķãĤĮãģŁ": 6808,
      "é³´": 6809,
      "ãģĮæĤªãģĦ": 6810,
      "apan": 6811,
      "ãĤĴæĺłçĶ»": 6812,
      "ãģ«ãĤĤéĸ¢ãĤıãĤīãģļ": 6813,
      "èģ·åħ¼ç¾İ": 6814,
      "GPU": 6815,
      "SP": 6816,
      "bps": 6817,
      "get": 6818,
      "un": 6819,
      "ux": 6820,
      "ªåĬĽ": 6821,
      "¾į": 6822,
      "èĺ": 6823,
      "é¾į": 6824,
      "ãģ®ãĤµ": 6825,
      "ãģ®çĻºè¨Ģ": 6826,
      "ãģ®è£ı": 6827,
      "ãĤĴãģĤ": 6828,
      "ãĤĴä½ĵé¨ĵ": 6829,
      "ãĤĴåįł": 6830,
      "ãģĮå±Ĭ": 6831,
      "ãģĭãģĳãĤĭ": 6832,
      "ãĤ¹ãĥł": 6833,
      "ãĥªãĥ¥": 6834,
      "ãģ®åĤ": 6835,
      "åı©": 6836,
      "ãĤĴæµģ": 6837,
      "ãģ®æ¶": 6838,
      "ãģ®æ¬¡": 6839,
      "ãģ¨ãģĦãģĪãĤĭ": 6840,
      "åĭ§": 6841,
      "å¹´å¾Į": 6842,
      "åºģ": 6843,
      "éĩĿ": 6844,
      "å¼Ł": 6845,
      "ãĥĳãĥįãĥ«": 6846,
      "æľĪãģĭãĤī": 6847,
      "è¡Įãģį": 6848,
      "ãĤ»ãĥŁ": 6849,
      "åĵģè³ª": 6850,
      "è¨ĺè¼ī": 6851,
      "è²¸": 6852,
      "åĽŀç·ļ": 6853,
      "éĽ»è»Ĭ": 6854,
      "ãģĵãģ®è¨ĺäºĭ": 6855,
      "ãĤ¬ãĤ¤ãĥī": 6856,
      "onic": 6857,
      "ãĢħæľ¨": 6858,
      "ç¶ļãģĳãģ¦": 6859,
      "ãĤĢãģĹãĤį": 6860,
      "åĦªãĤĮãģŁ": 6861,
      "ãģªãĤīãģļ": 6862,
      "çĤ¹ãģĮ": 6863,
      "åĻĤ": 6864,
      "ãģĹãģ¦ãģĦãģ¦": 6865,
      "ãĤ·ãĥªãĥ¼ãĤºãģ®": 6866,
      "orce": 6867,
      "ãĤĴæĬĳ": 6868,
      "å¤©æīį": 6869,
      "æĸ½è¨Ń": 6870,
      "ãģĵãĤĵãģªãģ«": 6871,
      "ãģ®åĨĻçľŁãĤ®ãĥ£ãĥ©ãĥªãĥ¼": 6872,
      "ãĤ·ãĤ§ãĥ«": 6873,
      "éĿĴæĺ¥": 6874,
      "æľĢè¿ĳãģ§ãģ¯": 6875,
      "ãĥĽãĥ¼ãĥłãĤº": 6876,
      "ãĥ¦ãĥĭãĥĥãĥĪ": 6877,
      "è´ħ": 6878,
      "è¼Ŀãģı": 6879,
      "ãĥŁãĥįãĥ¼ãĤ·ãĥ§ãĥ³": 6880,
      "ãģĮãģĤãģ£ãģ¦": 6881,
      "HOãĤ·ãĥįãĥŀãĤº": 6882,
      "ãĥŁãĥ©ãĥ¼ãĥ¬ãĤ¹": 6883,
      "ãĥķãĤ©ãĥ«ãĥĢ": 6884,
      "ress": 6885,
      "ä»®éĿ¢ãĥ©ãĤ¤ãĥĢãĥ¼": 6886,
      "ãĤĴçĭĻ": 6887,
      "ãģ«éĸ¢éĢ£ãģĹãģŁè¨ĺäºĭ": 6888,
      "çĥĪãģª": 6889,
      "ãģ®æĬĢè¡ĵ": 6890,
      "é¡§å®¢": 6891,
      "Bl": 6892,
      "De": 6893,
      "RA": 6894,
      "WN": 6895,
      "Ġof": 6896,
      "ãģ§æĶ¾éĢģ": 6897,
      "ãĤĴè¡¨ç¤º": 6898,
      "ãĤĴè¨ª": 6899,
      "ãģªãģ«": 6900,
      "ãģªãģį": 6901,
      "ãĤ¹ãģ¯": 6902,
      "ãģĤãģ£": 6903,
      "è¨£": 6904,
      "ãģĬãģ¯": 6905,
      "ãĤıãģĭãģ£ãģŁ": 6906,
      "å¥´": 6907,
      "ãĥīãĥĲãĤ¤": 6908,
      "å¹´ãģĭãĤī": 6909,
      "ãĤºãĥł": 6910,
      "è¡ĮãĤıãĤĮãģŁ": 6911,
      "ãĤ·ãĥ§ãĥ¼ãĥĪ": 6912,
      "ãģĮæ¬¡": 6913,
      "ãĥıãĥ©": 6914,
      "ãģ«ãĤĤå¯¾å¿ľ": 6915,
      "çŁ¥ãĤīãģĽ": 6916,
      "æ±ļ": 6917,
      "çĶ°ä¸Ń": 6918,
      "ãģ¶ãĤĬãģ«": 6919,
      "æľīåĲī": 6920,
      "ä¿Ŀæ¹¿": 6921,
      "èĤĮãģ®": 6922,
      "éŃħäºĨ": 6923,
      "ãģ®å¤§ãģįãģª": 6924,
      "èĥĨ": 6925,
      "ãĤªãĥªãĥĨãĤ£": 6926,
      "ãģ®åŃ£ç¯Ģ": 6927,
      "ãģ§ãģĹãģŁãģĮ": 6928,
      "å¹³åĿĩ": 6929,
      "åĳ¨ãĤĬ": 6930,
      "ç©¶æ¥µ": 6931,
      "ĠGTX": 6932,
      "çµĤäºĨå¾Į": 6933,
      "é¨Ĵãģİ": 6934,
      "å²¡æľ¬": 6935,
      "ãģ®åĬ¹": 6936,
      "è³ĽåĲ¦": 6937,
      "ãĤªãĥ¼ãĥĹãĥĭãĥ³ãĤ°": 6938,
      "ãģªãģıãģªãģ£ãģŁ": 6939,
      "ãĥıãĥ¼ãĥīãĤ¦ãĤ§ãĤ¢": 6940,
      "èĲ½ãģ¡çĿĢ": 6941,
      "åĢĭäººæĥħåł±": 6942,
      "ãģ®æĿ±": 6943,
      "ãĤ³ãĥŁãĥ¥ãĥĭãĥĨãĤ£": 6944,
      "æľ¬æł¼çļĦãģª": 6945,
      "å¥ĩè·¡": 6946,
      "ãģĹãģ¦ãģıãĤĮãģ¾ãģĻ": 6947,
      "BOX": 6948,
      "Bluetooth": 6949,
      "ãĤĴå®ĪãĤĭ": 6950,
      "eForce": 6951,
      "64": 6952,
      "TBS": 6953,
      "WE": 6954,
      "ry": 6955,
      "æ¢¨": 6956,
      "Ġ12": 6957,
      "ãģ®åħ¬éĸĭ": 6958,
      "ãģĦãģ¦ãģĦãģŁ": 6959,
      "ãģ«åħĪ": 6960,
      "ãģĹãģ¡ãĤĥ": 6961,
      "ãĥ¼ãĥĽ": 6962,
      "ãĢį-": 6963,
      "ãĤīãģĽãĤĭ": 6964,
      "ãĥ«ãĥ¼ãĥ«": 6965,
      "ãģ®åģ": 6966,
      "æĸī": 6967,
      "æĹ¥ãģ«æ": 6968,
      "æĹ¥ç«ĭ": 6969,
      "ãģªãģĦãģ¨": 6970,
      "è¡Ľ": 6971,
      "å¹»": 6972,
      "ãĤµãĥ¼ãĥģ": 6973,
      "åĩºèº«": 6974,
      "åŃĲãģ¯": 6975,
      "åħ¥ç¤¾": 6976,
      "ãĤ¹ãĤ¿ãĥ³ãĥĪ": 6977,
      "éķ·æľŁ": 6978,
      "ãĤ´ãĥ¼ãĥ«ãĥī": 6979,
      "ãĤ´ãĤ·ãĥĥãĥĹ": 6980,
      "åľ°éľĩ": 6981,
      "ãĤ¤ãĥ«ãĥŁãĥįãĥ¼ãĤ·ãĥ§ãĥ³": 6982,
      "ç¬¬ä¸ī": 6983,
      "çµĲå±Ģ": 6984,
      "éĩĳãĤĴ": 6985,
      "ina": 6986,
      "å¥½è©ķ": 6987,
      "ãģĦãģĦãģŃ": 6988,
      "èī¯ãģĭãģ£ãģŁ": 6989,
      "æĭį": 6990,
      "åįĺãģ«": 6991,
      "ãģ¨è¨ĢãĤıãĤĮãĤĭ": 6992,
      "ãģ»ãģ©ãģ®": 6993,
      "ãģ£ãģ´": 6994,
      "ãĤĴæĬķ": 6995,
      "é¦ĻéĩĮ": 6996,
      "ãĥķãĤ¡ãĥ³ãĤ¿": 6997,
      "æµģè¡Į": 6998,
      "åĭķçĶ»ãĤĴ": 6999,
      "å¤ľæĻ¯": 7000,
      "ãĥĵãĥĩãĤªãĤ«ãĥ¡ãĥ©": 7001,
      "ãĤĴæ¼Ķåĩº": 7002,
      "ãģ®æŃĮ": 7003,
      "ãģ®å·®": 7004,
      "èĤ²æĪĲ": 7005,
      "ãĤĴæ¥½ãģĹãĤģãĤĭ": 7006,
      "æįľæŁ»": 7007,
      "éĺ²æŃ¢": 7008,
      "TOHOãĤ·ãĥįãĥŀãĤº": 7009,
      "å¾©èĪĪ": 7010,
      "ãĤ¦ãĤ©ãĥ¼ãĤº": 7011,
      "åĽ£ä½ĵ": 7012,
      "æīįèģ·åħ¼ç¾İ": 7013,
      "ãģ®åł´åĲĪãģ¯": 7014,
      "the": 7015,
      "éĢıæĺİ": 7016,
      "è¤ĩæķ°ãģ®": 7017,
      "åħ·ä½ĵçļĦãģª": 7018,
      "ãĥ¢ãĥĭãĤ¿ãĥ¼": 7019,
      "ä½ķåº¦ãĤĤ": 7020,
      "ç£¨ãģį": 7021,
      "erved": 7022,
      "320": 7023,
      "DE": 7024,
      "FBI": 7025,
      "®¡çĲĨ": 7026,
      "¯İ": 7027,
      "é¹": 7028,
      "ĵģ": 7029,
      "ãģ®çĻºå£²": 7030,
      "ãģ«èĪĪåĳ³": 7031,
      "ãģĹãĤĦãģĻãģĦ": 7032,
      "ãģĭãģĳãģ¦": 7033,
      "ãģķãĤı": 7034,
      "ãĥ¬ãĤª": 7035,
      "ãĤ³ãĤ¢": 7036,
      "ãĤģãģ«": 7037,
      "ãĥŀãĤ¬": 7038,
      "è¡Ĩ": 7039,
      "å¹¼": 7040,
      "ãĥĲãĥ³": 7041,
      "âĢĿ": 7042,
      "ãĥĿãĥ¼ãĤ¿": 7043,
      "ãĥĹãĥªãĥ³ãĥĪ": 7044,
      "ãĥĹãĥŃãĥĩãĥ¥ãĥ¼ãĤ¹": 7045,
      "çĻ»åł´ãģĹãģŁ": 7046,
      "ãģĹãģĭãģªãģĦ": 7047,
      "é£ŁæĿĲ": 7048,
      "æĪ¦äºī": 7049,
      "æĭł": 7050,
      "ita": 7051,
      "ç¯ł": 7052,
      "ç¸Ħ": 7053,
      "ãģ®åŃ¦": 7054,
      "æ®µéļİ": 7055,
      "è¦ĸèģ´èĢħ": 7056,
      "ç·ıåĲĪ": 7057,
      "ĠStore": 7058,
      "ãĤĴåŃ¦ãģ¶": 7059,
      "ãĥ³ãĥĭãĥ³ãĤ°": 7060,
      "ãĤ¤ãĥ³ãĥ¡ãĥ³ãĥĪ": 7061,
      "é¦ĻéĩĮå¥Ī": 7062,
      "110": 7063,
      "34": 7064,
      "CK": 7065,
      "Galaxy": 7066,
      "ãĤ¹ãĤ¯ãĥªãĥ¼ãĥł": 7067,
      "è¦Ĩ": 7068,
      "ãĤ³ãĥªãĥ³": 7069,
      "æĺĵ": 7070,
      "ãĤ·ãĥĶ": 7071,
      "ä½ľãģ£ãģŁ": 7072,
      "çĻºè¦ļ": 7073,
      "ãĥĵãĥĥãĤ¯": 7074,
      "ãĥĳãĥ¼ãĥĦ": 7075,
      "ãĤ¨ãĥķãĤ»": 7076,
      "åĳĤ": 7077,
      "ä¼ļãģĦ": 7078,
      "æĸ¹ãģ®": 7079,
      "åĲĪãģ£ãģŁ": 7080,
      "æīĭéĸĵ": 7081,
      "ãģĹãģ¦ãģĦãĤĭãģ¨": 7082,
      "æĺłçĶ»ãģ¯": 7083,
      "æĺłçĶ»æī¹è©ķ": 7084,
      "ãģ¨ãģªãģ£ãģ¦": 7085,
      "ä»£ãģ®": 7086,
      "ä»£ãĤıãĤĬ": 7087,
      "éģ¸æĮĻ": 7088,
      "ãģķãĤĮãĤĭãģĵãģ¨": 7089,
      "ä¿¡éł¼": 7090,
      "åŀĭãģ®": 7091,
      "èµ·çĶ¨": 7092,
      "éħįå¸ĥ": 7093,
      "äººãģĮå¤ļãģĦ": 7094,
      "æĮĩå®ļ": 7095,
      "ray": 7096,
      "å®¢è¦³": 7097,
      "åĲĦç¨®": 7098,
      "æ·»": 7099,
      "åıįå¯¾": 7100,
      "ãĤ¹ãĥĶãĥ«": 7101,
      "ãĤĴãģĬãģķãĤīãģĦ": 7102,
      "è²łãģĳ": 7103,
      "Ķ¯ä¸Ģ": 7104,
      "ãĤ¤ãĥ³ãĥĨãĥªãĤ¢": 7105,
      "è©±ãĤĴèģŀ": 7106,
      "é§Ĩãģĳ": 7107,
      "ãĤĴä¸İãģĪãĤĭ": 7108,
      "ãģĦãģŁãģłãģĦãģŁ": 7109,
      "ãģ®æģĭæĦĽ": 7110,
      "ãĤ¹ãĥĪãĥ¬ãĥ¼ãĤ¸": 7111,
      "é«ĺæ©ĭãģ¿ãģª": 7112,
      "ãĤ«ãĤ¹ãĤ¿ãĥŀãĤ¤ãĤº": 7113,
      "æ²¢å°»ãĤ¨ãĥªãĤ«": 7114,
      "çī©èŃ°ãĤĴéĨ¸ãģĹãģ¦ãģĦãĤĭ": 7115,
      "ãĤĴä»£è¡¨ãģĻãĤĭ": 7116,
      "è´ħæ²¢": 7117,
      "ãĥĿãĥ¼ãĤ¿ãĥĸãĥ«": 7118,
      "kg": 7119,
      "Ġin": 7120,
      "ãģ®äºĪåĳĬæĺłåĥı": 7121,
      "ãģ«ç«ĭãģ¡": 7122,
      "ãģĹãģªãģĳãĤĮãģ°": 7123,
      "ãģĹãģ¤ãģ¤": 7124,
      "ãģĮèµ·ãģĵ": 7125,
      "ä»Ļ": 7126,
      "ãģĬãģı": 7127,
      "ãģ¤ãģªãģĮ": 7128,
      "æľ¬ç·¨": 7129,
      "æľ¬ãĥĹãĥ¬ãĤ¼ãĥ³ãĥĪãģ¯": 7130,
      "å¤§ä¼ļ": 7131,
      "ãĤŃãĥŃ": 7132,
      "ãĤ°ãĥ¼ãĤ°ãĥ«": 7133,
      "ãģ¨ãģĦãģĨè³ªåķı": 7134,
      "ç´¯": 7135,
      "ãĤĪãģĨãģ¨": 7136,
      "åĪĨãģ«": 7137,
      "ä»ĬæľĪ": 7138,
      "ãĤ¹ãĥĪãĥ©": 7139,
      "æķĳ": 7140,
      "ä¾µ": 7141,
      "åħ¬åľĴ": 7142,
      "ãĥıãĥŀ": 7143,
      "é£´": 7144,
      "åł±ãģĺãģŁ": 7145,
      "ãĥķãĤ¡ãĥŁ": 7146,
      "ãģĦãģŁãĤĬ": 7147,
      "ãĤŃãĥ£ãĥ³": 7148,
      "çľŁãģ£": 7149,
      "ãĥľãĥ¼ãĥĬ": 7150,
      "æµ©": 7151,
      "ãĥķãĤ©ãĥŃãĥ¼": 7152,
      "åľ°ä¸Ĭ": 7153,
      "ç¬¬äºĮ": 7154,
      "ä¸įåı¯": 7155,
      "ä¸įåĢ«": 7156,
      "éĩĳåŃĲ": 7157,
      "ä½įãĤĴçį²å¾Ĺ": 7158,
      "ãģĮãģĤãĤĭãģ®ãģ§": 7159,
      "iPhoneãĤĴ": 7160,
      "ãĤ¿ãĤ¤ãĤ¿": 7161,
      "ãĥ¼ãĥŀãĥ¼": 7162,
      "ãĥĸãĥ©ãĤ·": 7163,
      "éŁĵåĽ½ãĤ³ãĤ¹ãĥ¡": 7164,
      "ãĤ¹ãĤ¯ãĥ¼ãĥ«": 7165,
      "çīĪãģ®": 7166,
      "ãĥ¢ãĥĩãĥ«ãģ®": 7167,
      "ãĤĴæİ²è¼ī": 7168,
      "ãĤĴæĦĽ": 7169,
      "mar": 7170,
      "èª°ãģ§ãĤĤ": 7171,
      "ãģ¡ãĤĥãĤĵãģ¨": 7172,
      "ãģıãģªãĤĬ": 7173,
      "ãĤĴãģĬå±Ĭãģĳ": 7174,
      "çĽĽãĤĬä¸ĬãģĮãĤĬ": 7175,
      "ç·¨éĽĨéĥ¨çļĦ": 7176,
      "åĲ¦å®ļ": 7177,
      "ãĤĴè¿İãģĪ": 7178,
      "Apple": 7179,
      "Tube": 7180,
      "ãĥ©ãĥ³ãĤ¯ãĤ¤ãĥ³": 7181,
      "ãĤ¨ãĥ³ãĤ¿ãĥ¼ãĥĨ": 7182,
      "ãĥ¼ãĥŁãĥ³ãĤ°": 7183,
      "ãĤ¢ãĥ³ãĥīãĥŃãĤ¤ãĥī": 7184,
      "ãĤ³ãĥ³ãĥĪãĥŃãĥ¼ãĥ«": 7185,
      "YouTube": 7186,
      "ãĤĴç©į": 7187,
      "ãĤ¨ãĥķãĤ»ãĤŃãĥ¥ãĤ¢": 7188,
      "ãĤ¹ãĥĶãĥ«ãĥĲãĥ¼ãĤ°": 7189,
      "SS": 7190,
      "ºéºĹ": 7191,
      "Ľ´": 7192,
      "ãģ®ãĤĴ": 7193,
      "ãģ®çĽ®": 7194,
      "ãģ®åĪ©çĶ¨": 7195,
      "ãĥ¼ãĤ¿ãĥ«": 7196,
      "ãģ«è¿«": 7197,
      "ãģ¨ãģķãģĽãģ¦ãģĦãģŁãģłãģįãģ¾ãģĻ": 7198,
      "ãģªãĤĤãģ®": 7199,
      "ãĤĵãģłãģĳãģ©": 7200,
      "ãģ®åĮ": 7201,
      "ãĤ³ãĥ¼ãĥ«": 7202,
      "ãģĵãģ¨ãģ§ãģĻ": 7203,
      "ãģĬç¬ĳãģĦ": 7204,
      "å¹´ãģ§": 7205,
      "ãĤªãĥ¼ãĥĪ": 7206,
      "ãĥģãĥĥãĥĹ": 7207,
      "ãĥĵãĥ³ãĤ°": 7208,
      "åħ¥ãĤĮãĤĭ": 7209,
      "åĽŀçĽ®": 7210,
      "ãĥĢãĥĸãĥ«": 7211,
      "éģ¸ãĤĵãģł": 7212,
      "ãĤ¹ãĤ¿ãĥ³ãĥĢ": 7213,
      "éķ·ãģı": 7214,
      "æģ¥": 7215,
      "ä½įãģ¯": 7216,
      "ãĤ¢ãĥĥãĥĹãĥ«ãģĮ": 7217,
      "ãĤ¢ãĤ¤ãĥĩ": 7218,
      "ãģªãĤĵãģĭ": 7219,
      "èµ·ãģį": 7220,
      "æ¡Ĳ": 7221,
      "ãĤ¸ãĥ¥ãĥ¼ãĥ«": 7222,
      "èĩªçĦ¶ãģ¨": 7223,
      "æ¯Ľç©´": 7224,
      "æ·±ãģı": 7225,
      "ãģ®æĮģãģ¡": 7226,
      "çĶĺãģĦ": 7227,
      "èĩªçĶ±ãģ«": 7228,
      "ãģĵãĤĮãĤīãģ®": 7229,
      "æ¨ªæµľ": 7230,
      "å·¦åı³": 7231,
      "åĶ±": 7232,
      "ä¼ºãģĦãģ¾ãģĹãģŁ": 7233,
      "æľĢéģ©ãģª": 7234,
      "åľ§åĢĴçļĦãģª": 7235,
      "ãĤ¤ãĤ¿ãĥªãĤ¢": 7236,
      "ãĤ³ãĥ¡ãĥĩãĤ£": 7237,
      "ãģŁãģ¨ãģĪãģ°": 7238,
      "ãĥĸãĥ©ãĤ¦ãĤ¶": 7239,
      "ãĥįãĥĥãĥĪæİ²ç¤ºæĿ¿ãģ§è©±é¡Įãģ«ãģªãģ£ãģ¦ãģĦãĤĭ": 7240,
      "ãĥĴãĥ«ãĤº": 7241,
      "ãĤ»ãĥªãĥķ": 7242,
      "ãĥ¡ãĥ¼ãĥĪãĥ«": 7243,
      "èĳĹä½ľæ¨©": 7244,
      "ãĤ¹ãĤ¿ãĥ³ãĥĢãĥ¼ãĥī": 7245,
      "!!ãĢį": 7246,
      "Book": 7247,
      "WS": 7248,
      "ZO": 7249,
      "fic": 7250,
      "hi": 7251,
      "nes": 7252,
      "ox": 7253,
      "ure": 7254,
      "xi": 7255,
      "you": 7256,
      "µ´": 7257,
      "Ġp": 7258,
      "ĠPC": 7259,
      "ãģ®èī¯ãģĦ": 7260,
      "ãģĦãģļãĤĮ": 7261,
      "ãģ«éĻĲ": 7262,
      "ãģĹãģ°": 7263,
      "ãĤĴå¼·": 7264,
      "ãĤĴå¢Ĺ": 7265,
      "ãĥĪãĥ©ãĥ³": 7266,
      "ãĤ¯ãĤ¤ãĤº": 7267,
      "ãĤ¢ãĥ¯ãĥ¼ãĥī": 7268,
      "ãģ¨ãģĦãģ£ãģ¦ãĤĤ": 7269,
      "ãĤŃãĥĥãĥģ": 7270,
      "èĩ´": 7271,
      "åĪĨéĩİ": 7272,
      "å°Ĭ": 7273,
      "ãĤ¨ãĥĮ": 7274,
      "æŃĵ": 7275,
      "ãģĵãģ¨ãģĮå¤ļãģĦ": 7276,
      "åĲįãĤĴ": 7277,
      "ãĤīãĤĮãģ¦ãģĦãģŁ": 7278,
      "inux": 7279,
      "è¿ĳå¹´": 7280,
      "åŁĭ": 7281,
      "åºĥãģĴãĤĭ": 7282,
      "è¶³ãĤĬ": 7283,
      "ãģ¨ãģįãģ¯": 7284,
      "é¢¨æĻ¯": 7285,
      "ãĤĨãģ£ãģıãĤĬ": 7286,
      "èĭ±ä¼ļè©±": 7287,
      "ãģ®æĻĤä»£": 7288,
      "icro": 7289,
      "Facebookãĥļãĥ¼ãĤ¸": 7290,
      "èĤ²ãģ¦": 7291,
      "é£²ãĤĢ": 7292,
      "çĮ®": 7293,
      "çĬ¶æħĭãģ§": 7294,
      "å°ĤçĶ¨ãģ®": 7295,
      "ãģ®åĳ¨": 7296,
      "æİĽãģĳãĤĭ": 7297,
      "ãĤ¤ãĤ±ãĤ·ãĥ§ãĥĥãĥĹ": 7298,
      "éº»éĩĮ": 7299,
      "oft": 7300,
      "æĺİãĤīãģĭãģ«": 7301,
      "ãĥŀãĤ¸ãĥĥãĤ¯": 7302,
      "ç·Ĭå¼µ": 7303,
      "ãĥ¯ãĤ¤ãĥ¤ãĥ¬ãĤ¹": 7304,
      "æ¤įçī©": 7305,
      "ãĤ³ãĥ¼ãĥĴãĥ¼": 7306,
      "ãĥ¦ãĥĭãĥ¼ãĤ¯ãģª": 7307,
      "ãģ®åķĨåĵģ": 7308,
      "é»ĦéĩĳæĻĤä»£": 7309,
      "åĪĿå¿ĥèĢħ": 7310,
      "ThinkPad": 7311,
      "getter": 7312,
      "37": 7313,
      "5000": 7314,
      "85": 7315,
      "AG": 7316,
      "Bee": 7317,
      "MD": 7318,
      "MS": 7319,
      "Ret": 7320,
      "èĽ": 7321,
      "Ġres": 7322,
      "ãģ®ãĤµãĤ¤ãĥĪ": 7323,
      "ãģ®èī²": 7324,
      "ãĤ¹ãģĮ": 7325,
      "ãģ£ãģĹãĤĥ": 7326,
      "ãĤ¯ãĤ·": 7327,
      "ãĥ©ãĥ³ãĥģ": 7328,
      "ãģĹãģŁãģ¨": 7329,
      "ãģĹãģŁãģ¨ãģĵãĤį": 7330,
      "ãĤĴæ¨": 7331,
      "ãĤĴæºĢ": 7332,
      "ãĤ«ãĤ·": 7333,
      "ãĤ«ãĥ¬": 7334,
      "ãģ¤ãģĳãĤĭ": 7335,
      "ãĥīãĥªãĥ³ãĤ¯": 7336,
      "ãĤªãĥ¼ãĤ¹ãĥĪ": 7337,
      "çļĩ": 7338,
      "ãĤ¨ãĥį": 7339,
      "æīĭãģ«åħ¥": 7340,
      "ãģĹãģ¦ãģĦãĤĭãģĮ": 7341,
      "å¤ļãģĭãģ£ãģŁ": 7342,
      "ç¶ºéºĹ": 7343,
      "ãĤ¬ãĥ©": 7344,
      "å¾ĮãģĭãĤī": 7345,
      "éĿ¢ãģ«": 7346,
      "è¦ģæ³¨æĦı": 7347,
      "ãģķãĤĮãĤĭãģ¨": 7348,
      "ä½ķãĤĴ": 7349,
      "æ¬Ħ": 7350,
      "ãģ²ãĤį": 7351,
      "åŀ£": 7352,
      "ãģ©ãģĨãģĦãģĨ": 7353,
      "èģ·æ¥Ń": 7354,
      "èª¿ãģ¹": 7355,
      "ãĤıãģĽãĤĭ": 7356,
      "ãĥ´ãĤ§": 7357,
      "è¦ªåıĭ": 7358,
      "å¤©çĦ¶": 7359,
      "å¤©åłĤ": 7360,
      "ãĤĴæī¹åĪ¤": 7361,
      "éłŃçļ®": 7362,
      "å¤§ãģįãģªè©±é¡Į": 7363,
      "åģ´ãģ«": 7364,
      "ãĥĸãĥŃãĤ°ãģ§": 7365,
      "ä»Ĭå¾Įãģ®": 7366,
      "è¦ıæł¼": 7367,
      "å·¥å¤«": 7368,
      "ank": 7369,
      "ãĤĴæķ´": 7370,
      "å¾©å¸°": 7371,
      "å¡ļ": 7372,
      "ãģ®åĽŀ": 7373,
      "æºĸåĤĻ": 7374,
      "æĹ©ãģıãĤĤ": 7375,
      "å¯Įå£«": 7376,
      "Amazonãģ®": 7377,
      "ãĤĴå§ĭãĤģ": 7378,
      "ãĥĥãĤŃãĥª": 7379,
      "ãĤ¯ãĥªãĤ¨ãĤ¤ãĥĨãĤ£ãĥĸ": 7380,
      "æļ®ãĤīãģĹ": 7381,
      "ç´¯è¨Ī": 7382,
      "05": 7383,
      "AD": 7384,
      "HI": 7385,
      "Linux": 7386,
      "ear": 7387,
      "ho": 7388,
      "åĶ¯ä¸Ģ": 7389,
      "Ġright": 7390,
      "ãģ®ãĥŁ": 7391,
      "ãģªãģĲ": 7392,
      "ãģĮãģ¦": 7393,
      "ãģĮãĤªãĤ¹ãĤ¹ãĥ¡": 7394,
      "ãģ¯ãģĺ": 7395,
      "ãģ¯æ°¸éģł": 7396,
      "ãĤ¤ãĤ¤": 7397,
      "ãĥĥãĤŃãĥ³ãĤ°": 7398,
      "ãĥĪãĥ³": 7399,
      "ãģıãģĻ": 7400,
      "ãĥ¬ãĤ¯ãĥĪ": 7401,
      "ãĤĦãĤī": 7402,
      "ãģ®æ¥½ãģĹ": 7403,
      "ãĥŀãĥĥãĤ¯ãĤ¹": 7404,
      "ãĤ«åĽ½": 7405,
      "ãĤ«ãĥĥãĤ³": 7406,
      "ä¸Ĭæĺĩ": 7407,
      "åĪĨãģĭãĤīãģªãģĦ": 7408,
      "ä»ĬãĤĦ": 7409,
      "ãģ«æĥ": 7410,
      "ãģ«æĤ©": 7411,
      "ãĤ»ãĥ©ãĥ¼": 7412,
      "ãģĮæ¬²": 7413,
      "é«ĺãģı": 7414,
      "ãģĦãģ¦ãĤĤ": 7415,
      "ãģĵãĤĮãĤĴ": 7416,
      "ãģ¨æĢĿãģ£ãģ¦ãģĦãģŁ": 7417,
      "ä¸ĭãĤį": 7418,
      "ä¸ĸçķĮãģ®": 7419,
      "åħĪç«¯": 7420,
      "ãĥĹãĥŃãĥĩãĥ¥ãĥ¼": 7421,
      "çµĲæ§ĭ": 7422,
      "æ°ıãģ«": 7423,
      "èº«ãģ«ãģ¤": 7424,
      "ãĥĴãĥ³ãĥĪ": 7425,
      "ãĤĵãģ§ãģĦãģŁ": 7426,
      "å¥³æĢ§ãģ«": 7427,
      "è©±é¡Įãģ«": 7428,
      "è±¡å¾´": 7429,
      "ãģ¨ãģĵãĤįãģł": 7430,
      "çĶ·æĢ§ãģ®": 7431,
      "çģ¯": 7432,
      "2008": 7433,
      "å¯ĦãĤĬ": 7434,
      "with": 7435,
      "199": 7436,
      "èĲ½ãģ¨": 7437,
      "AndroidãĤ¢ãĥĹãĥª": 7438,
      "Androidç«¯æľ«": 7439,
      "éŃħåĬĽçļĦãģª": 7440,
      "ç¿Į": 7441,
      "çĨ±ãģĦ": 7442,
      "ãģ»ãģĭåħ¨åĽ½ãĥŃãĥ¼ãĥīãĤ·ãĥ§ãĥ¼": 7443,
      "ãģ¯ãģļãģ§ãģĻ": 7444,
      "ä»»å¤©åłĤ": 7445,
      "èĪŀåı°æĮ¨æĭ¶": 7446,
      "ãĤ¢ãĥīãĥ¬ãĤ¹": 7447,
      "ç§ĺå¯Ĩ": 7448,
      "æ´ĹãģĦ": 7449,
      "ãģĦãģŁãģłãģı": 7450,
      "ãĤ»ãĥ¬ãĤ¯ãĥĪ": 7451,
      "ãģ«éĸ¢ãģĹãģ¦ãģ¯": 7452,
      "ãĤ°ãĥ©ãĥķãĤ£ãĥĥãĤ¯": 7453,
      "è¢«çģ½åľ°": 7454,
      "ãģ¾ãģ¤æ¯Ľ": 7455,
      "ãģ®åıįå¿ľ": 7456,
      "åīįçĶ°æķ¦": 7457,
      "ãģĦãĤįãģĦãĤįãģª": 7458,
      "ãģ«å¼·ãģĦåĳ³æĸ¹": 7459,
      "ãĥıãĤ¤ãĥĵãĤ¸ãĥ§ãĥ³": 7460,
      "ãĤµãĥĹãĥ©ãĤ¤ãĤº": 7461,
      "ãĤ³ãĥ¼ãĥĩãĤ£ãĥįãĥ¼ãĥĪ": 7462,
      "Ġreserved": 7463,
      "Ġrights": 7464,
      "04": 7465,
      "GãĥĲãĤ¤ãĥĪ": 7466,
      "OR": 7467,
      "hoo": 7468,
      "las": 7469,
      "®ãģĪ": 7470,
      "ãģ®ãĥĿãĤ¤ãĥ³ãĥĪ": 7471,
      "ãģ¨ãģ£ãģ¦ãĤĤ": 7472,
      "ãĤĴãģĹãģ¦ãģĦãģŁ": 7473,
      "ãĤĴåīįãģ«": 7474,
      "ãģĮå¤ļæķ°": 7475,
      "ãģĻãģ¨": 7476,
      "ãĥ¼ãĥ´": 7477,
      "ãģ¾ãģĹãģĦ": 7478,
      "ãĤĬãģĻãĤĭ": 7479,
      "ãĤ¢ãĤ¹": 7480,
      "ãĤ¢ãĥŃãĥŀ": 7481,
      "ãĥ©ãĥªãĤ¢": 7482,
      "ãĤ·ãĥĥãĤ¯": 7483,
      "ãĥŀãĥĦ": 7484,
      "ãģ£ãģ¦ãģįãģ¾ãģĹãģŁ": 7485,
      "ãĤŃãĥ³ãĥī": 7486,
      "ãģ¨ãģĦãģĨãģĵãģ¨ãģ¯": 7487,
      "è¦ĭãģĽ": 7488,
      "ãģ®çĸ": 7489,
      "ç·ĳ": 7490,
      "åĽŀãĤĬ": 7491,
      "åĽŀãĤ¢ãĤ«ãĥĩãĥŁãĥ¼è³ŀ": 7492,
      "æīĭåħ¥ãĤĮ": 7493,
      "å¤ļæ§ĺ": 7494,
      "éģ¸åĩº": 7495,
      "èĩªåĪĨèĩªèº«": 7496,
      "åħ¬éĸĭãģķãĤĮ": 7497,
      "çĽ¸å½ĵ": 7498,
      "å¥½ãģ¿": 7499,
      "è©±é¡Įä½ľ": 7500,
      "è¦³ãģ¦": 7501,
      "æŃ£çĽ´": 7502,
      "æ¬¡åĽŀ": 7503,
      "ãĤ¸ãĥ§ãĥ¼ãĤ¸": 7504,
      "ãĥ´ãĤ©": 7505,
      "ç®¡": 7506,
      "åĨįçı¾": 7507,
      "ãĥĩãĥ¼ãĤ¿æ©ŁåĻ¨": 7508,
      "èĬ¸è¡ĵ": 7509,
      "ç¥ŃãĤĬ": 7510,
      "ãĤ´ãĥ«ãĥķãĤ¡ãĥ¼": 7511,
      "éĺ²ãģĲ": 7512,
      "åĲīçĶ°": 7513,
      "ãĤĴç´¹ä»ĭãģĻãĤĭ": 7514,
      "com": 7515,
      "æľĢé«ĺãģ®": 7516,
      "ãĤ¾ãĥ¼ãĥĪ": 7517,
      "ãģ®æĢĿãģĦ": 7518,
      "æ¨¡æ§ĺ": 7519,
      "ãģ®ç·ı": 7520,
      "èĩªå®ħãģ§": 7521,
      "å¿«éģ©ãģ«": 7522,
      "togetter": 7523,
      "ãģ®ç«ĭ": 7524,
      "ãĤ·ãĥ³ãĤ°ãĥ«": 7525,
      "ç«¹å³¶": 7526,
      "----------------": 7527,
      "å¤§å³¶åĦª": 7528,
      "çĸ²ãĤĮ": 7529,
      "fect": 7530,
      "åĮĸç²§åĵģ": 7531,
      "å½ĵéģ¸èĢħæ§ĺ": 7532,
      "ãĤ«ãĤ¦ãĥ³ãĤ¿ãĥ¼": 7533,
      "ãģ®æ¥Ń": 7534,
      "çĤİä¸Ĭ": 7535,
      "ãģ®ç²¾": 7536,
      "ãĤ¹ãĥłãĥ¼ãĤº": 7537,
      "Black": 7538,
      "Mbps": 7539,
      "Tra": 7540,
      "io": 7541,
      "é¶": 7542,
      "ãģ®ä¸ĭ": 7543,
      "ãģ®è£½åĵģ": 7544,
      "ãģ®ãĤ¹ãĥŀãĥĽ": 7545,
      "ãģ«è£ħçĿĢ": 7546,
      "ãĤĴä¿Ŀ": 7547,
      "ãģĮãģ§ãģį": 7548,
      "ãģĮçĻºçĶŁ": 7549,
      "ãģ¯ãģ©ãģĵ": 7550,
      "ãĤĤãģĶãģĸãģĦãģ¾ãģĻ": 7551,
      "ãģ¾ãģĦ": 7552,
      "çĶ²": 7553,
      "ãģıãĤī": 7554,
      "å¤ķ": 7555,
      "ãĤ¢ãĥ¬": 7556,
      "åħĦ": 7557,
      "ãĤ¿ãĥ¯ãĥ¼": 7558,
      "ãģĤãĤĵ": 7559,
      "ãģĹãģ¦ãģ»ãģĹãģĦ": 7560,
      "éĢ¸": 7561,
      "çµŀ": 7562,
      "çĻºæĥ³": 7563,
      "æ°Ĺä»ĺ": 7564,
      "åĩºçīĪ": 7565,
      "èĩªæħ¢": 7566,
      "å°ģ": 7567,
      "ãģĮæµ®": 7568,
      "ãĥĬãĥ³ãĥĲãĥ¼": 7569,
      "è©±ãģĹ": 7570,
      "ãģŃãģ¦": 7571,
      "ãĥıãĥ¼ãĥĪ": 7572,
      "ãĥıãĥ¼ãĥĸ": 7573,
      "ãģ¨ãģªãģı": 7574,
      "ãĤ¬ãĤ¸ãĤ§ãĥĥãĥĪ": 7575,
      "åĲĮä½ľ": 7576,
      "éļ£": 7577,
      "åº¦ãģĮ": 7578,
      "ãĥ©ãĤ¤ãĤ¿ãĥ¼": 7579,
      "ãĥľãĥĥãĤ¯ãĤ¹": 7580,
      "çĦ¡ãģı": 7581,
      "ine": 7582,
      "éĸ¢éĢ£æĥħåł±": 7583,
      "åĨĻçľŁå®¶": 7584,
      "æ¥½ãģĹãĤĵãģ§": 7585,
      "ãģ§ãģ¯ãģªãģĦãģĭ": 7586,
      "ãĤªãĥªãĥ³ãĥĶ": 7587,
      "æķĻãģĪãģ¦": 7588,
      "éĸĭçĻºãģĹãģŁ": 7589,
      "ãĥ¼ãĥķãĤ£": 7590,
      "çĨŁ": 7591,
      "ç¯Ģç´Ħ": 7592,
      "ãĤĴæ¼Ķãģĺ": 7593,
      "è²»çĶ¨": 7594,
      "ãĤĴåħ¥ãĤĮãĤĭ": 7595,
      "æĢĸãģĦ": 7596,
      "ãģĹãģıãģªãģ£ãģŁ": 7597,
      "ä¸¸ãģ®åĨħ": 7598,
      "æĩ¸": 7599,
      "è¾¼ãģ¾ãĤĮãģŁ": 7600,
      "ãģªãĤīãģ§ãģ¯ãģ®": 7601,
      "ç´«å¤ĸç·ļ": 7602,
      "ãģ«åŁºãģ¥": 7603,
      "aV": 7604,
      "µĲ": 7605,
      "ĺãĤĬ": 7606,
      "ãģ®CM": 7607,
      "ãģ®çī¹å¾´": 7608,
      "ãģ®ãģ²ãģ¨ãģ¤": 7609,
      "ãģ«ãĤı": 7610,
      "ãģ«ãĤ¢ãĤ¯ãĤ»ãĤ¹": 7611,
      "ãģ§ä¸Ģ": 7612,
      "ãģĻãĤī": 7613,
      "ãģĭãģ¯": 7614,
      "ãģ£ãģ¡ãĤĥãģĨ": 7615,
      "ãģĨãģ©": 7616,
      "ãģķãģ£ãģĿ": 7617,
      "ãģĪãģ«": 7618,
      "ãĥ³ãĥĮ": 7619,
      "ãĤ«ãĥ¼ãĥļ": 7620,
      "ãĤ°ãĥªãĥ¼": 7621,
      "çĶ»ç´ł": 7622,
      "ãĥĲãĥĪãĥ«": 7623,
      "ãģ®çĹ": 7624,
      "åĽŀãĤĭ": 7625,
      "è£¸": 7626,
      "åīįãģĭãĤī": 7627,
      "ãģĿãģĨãģĦãģ£ãģŁ": 7628,
      "çĻ»å£ĩ": 7629,
      "ä¹Ļ": 7630,
      "ãģłãģ£ãģŁãģ®ãģ§": 7631,
      "åĪ¥ãģ®": 7632,
      "çĻºè¡¨ä¼ļ": 7633,
      "éľĢ": 7634,
      "ãģĹãģ¦ãģĦãģįãģ¾ãģĻ": 7635,
      "å¸Ĥéķ·": 7636,
      "æĬĢãģĮæºĢè¼ī": 7637,
      "åĲĮãģĺãģı": 7638,
      "ç´°ãģĭãģĦ": 7639,
      "äº¤æµģ": 7640,
      "åĳ¨è¾º": 7641,
      "ä½ıå®ħ": 7642,
      "ãĥ¬ãĥĵãĥ¥ãĥ¼ãĤ¢": 7643,
      "ãĥĹãĥ©ãĥģ": 7644,
      "ç³»ãģ®": 7645,
      "åį°åĪ·": 7646,
      "ãģĦãĤįãĤĵãģª": 7647,
      "æĶ¿æ²»": 7648,
      "ãĤĴå¤īæĽ´": 7649,
      "ãģ®ç¾İãģĹãģķ": 7650,
      "ĠRes": 7651,
      "ãĥĲãĤ¤ãĤª": 7652,
      "ãģ«å¤īèº«": 7653,
      "ä½ĲãĢħæľ¨": 7654,
      "mik": 7655,
      "ãģ«çĻ»åł´ãģĻãĤĭ": 7656,
      "è¾Ľåı£": 7657,
      "ãģĲãĤĭãģ¿": 7658,
      "ãĥ¡ãĤ¬ãĥį": 7659,
      "ãĤªãĥķãĤ£ãĤ·ãĥ£ãĥ«ãĤµãĤ¤ãĥĪ": 7660,
      "ãĥ¢ãĥģãĥ¼ãĥķ": 7661,
      "ãĤĴæĮ¯ãĤĬè¿ĶãĤĭ": 7662,
      "ãĥŀãĤ¤ãĤ¯ãĥŃãĤ½ãĥķãĥĪ": 7663,
      "åīĽåĬĽ": 7664,
      "åģľæŃ¢": 7665,
      "ãĥģãĥ³ãĤ³": 7666,
      "è¨ºæĸŃ": 7667,
      "ãĤªãĥªãĥ³ãĥĶãĥĥãĤ¯": 7668,
      "ãģķãģ£ãģĿãģı": 7669,
      "33": 7670,
      "Dæĺłåĥı": 7671,
      "Mo": 7672,
      "TG": 7673,
      "ca": 7674,
      "rive": 7675,
      "çĳ": 7676,
      "ãģ®ä»£è¡¨": 7677,
      "ãģ«åĪĨ": 7678,
      "ãģ¨çŃĶ": 7679,
      "ãģĹãĤĤ": 7680,
      "ãĤĴå·»ãģįèµ·ãģĵ": 7681,
      "ãģĮå¼·": 7682,
      "ãģĮãģĦãĤĭ": 7683,
      "ãģĮæ¥½ãģĹãĤģãĤĭ": 7684,
      "ãģĻãĤĮ": 7685,
      "ãĤĤãģªãģı": 7686,
      "ãĥ¼ãĥ¦": 7687,
      "ãĤ¢ãĥĲãĤ¿ãĥ¼": 7688,
      "ãģĤãģ¨ãģ¯": 7689,
      "åĲ¾": 7690,
      "ãģĹãģ¦ãģıãĤĮãģŁ": 7691,
      "ãĥŀãĥĥãĥģ": 7692,
      "æľ¬éŁ³": 7693,
      "ãģĽãģ£": 7694,
      "ä¸ĬåĢī": 7695,
      "åł´ãģ§": 7696,
      "ãĥįãĥ¼ãĥł": 7697,
      "ãģ«æºĢ": 7698,
      "ãģ®çİ": 7699,
      "ãĥłãĥĢ": 7700,
      "ãģĮæ±Ĥ": 7701,
      "å®Łè·µ": 7702,
      "åĲĪãĤ³ãĥ³": 7703,
      "ãĤ±ãĥĨãĤ£ãĥ³ãĤ°": 7704,
      "æĢĿãģ£ãģŁ": 7705,
      "ãģ®ãģ§ãģĤãĤĮãģ°": 7706,
      "çıį": 7707,
      "éĽĨçµĲ": 7708,
      "ãĤ¬ãĤ¹": 7709,
      "ãĢħãģĮ": 7710,
      "åĢŁ": 7711,
      "è¨ĺäºĭTOP": 7712,
      "éĿ¢æİ¥": 7713,
      "ãĥĹãĥªãĥ³": 7714,
      "ãĤ´ãĥ¼ãĤ¹ãĥĪ": 7715,
      "æıĲæ¡Ī": 7716,
      "æ¬§": 7717,
      "èĢĥãģĪãģŁ": 7718,
      "æĥħåł±ãģĮ": 7719,
      "çĤ¹ãĤĴ": 7720,
      "èŃ°åĵ¡": 7721,
      "ãĤ¹ãĥŀãĥ¼ãĥĪãĥķãĤ©ãĥ³ãĤĦ": 7722,
      "é¡ĶãĤĴ": 7723,
      "åĲĦåľ°": 7724,
      "é¢¨åĳĤ": 7725,
      "ãĥ¼ãĥĨãĤ£ãĥ³ãĤ°": 7726,
      "ãģĿãģĵãģ«": 7727,
      "ç²ī": 7728,
      "é£Ľãģ°": 7729,
      "éŃħåĬĽçļĦ": 7730,
      "æŃ¢ãĤģ": 7731,
      "ãĤĴãģĶæĭĽå¾ħ": 7732,
      "ãģ®å°Ĥ": 7733,
      "ãĥŀãĤ¤ãĤ±": 7734,
      "åĲīé«ĺ": 7735,
      "ãĥĹãĥ©ãĤ¤ãĥĲãĤ·": 7736,
      "èĩªçĦ¶ãģª": 7737,
      "è§¦ãĤĮ": 7738,
      "è¤ĩéĽĳ": 7739,
      "ä»¥å¤ĸãģ«ãĤĤ": 7740,
      "ãģ®åīįãģ«": 7741,
      "ãģ«è¿ĳãģĦ": 7742,
      "æ¶²æĻ¶ãĥĨãĥ¬ãĥĵ": 7743,
      "æ½¤": 7744,
      "kamik": 7745,
      "âĨĴ": 7746,
      "ä¸ĬåĢīè³¢": 7747,
      "kamikura": 7748,
      "321": 7749,
      "ik": 7750,
      "Ġm": 7751,
      "ãģ«ç½®": 7752,
      "ãģ«è¿½": 7753,
      "ãģ§æıı": 7754,
      "ãĤĴçĽĽãĤĬ": 7755,
      "ãģĮéĸĭ": 7756,
      "ãģłãĤī": 7757,
      "ãĤĵãģ§ãģĻãģĮ": 7758,
      "ãģĻãĤĭãĤĤãģ®": 7759,
      "äººæĿĲ": 7760,
      "æĹ¥çĻºå£²": 7761,
      "ãĥķãĥ¼ãĥī": 7762,
      "ãģ¾ãģĻãģĮ": 7763,
      "ãĤģãģŁãģĦ": 7764,
      "ãģĬå¾Ĺ": 7765,
      "åŃĿ": 7766,
      "å¹¹": 7767,
      "å¤§çĶŁ": 7768,
      "ä½ľãĤĮãĤĭ": 7769,
      "ãģ¨ãģĦãģĨãĤĤãģ®": 7770,
      "ç´ĭ": 7771,
      "è¦ĭäºĭ": 7772,
      "åŃĲãģ¨": 7773,
      "èĢĲ": 7774,
      "ãģķãĤĵãģ¾": 7775,
      "è²¢": 7776,
      "è²«": 7777,
      "å®Łè¡Į": 7778,
      "æ³¥": 7779,
      "å®ļæľŁ": 7780,
      "æīĭãģ®": 7781,
      "ãĥ¯ãĤ¤ãĥī": 7782,
      "ãĤ¬ãĥĥãĥĦ": 7783,
      "éł»": 7784,
      "ãĥľãĥ³": 7785,
      "ãģĹãģ¾ãģĦãģ¾ãģĹãģŁ": 7786,
      "æ§ĺãģ«": 7787,
      "ãĤĮãģ°ãģĦãģĦ": 7788,
      "ãĤ·ãĥ£ãĥĥãĤ¿ãĥ¼": 7789,
      "èµ°ãĤĬ": 7790,
      "æ¯Ĵ": 7791,
      "çµĲæĪĲ": 7792,
      "å°ıæŀĹ": 7793,
      "çĻºå£²ãģķãĤĮãģŁ": 7794,
      "æĽ¸åºĹ": 7795,
      "ãĤ¿ãĤ¤ãĥŁãĥ³ãĤ°": 7796,
      "ãģ©ãģĨãģĹãģ¦ãĤĤ": 7797,
      "èģŀãģĵ": 7798,
      "ç·ļãĤĴ": 7799,
      "ãģ¨è¨Ģãģ£ãģ¦ãĤĤ": 7800,
      "æ¥½ãģĹãģ¿ãģ«": 7801,
      "PCä¾¿åĪ©": 7802,
      "ãģ¨ãģĵãĤįãģ§": 7803,
      "ãĤ¤ãĥ³ãĤ¿ãĥ¼ãĥķãĤ§": 7804,
      "æļĸ": 7805,
      "çķ°ãģªãĤĬ": 7806,
      "ãĤ¢ãĥ¡ãĥªãĤ«ãģ®": 7807,
      "æºĢè¼ī": 7808,
      "ãĥªãĤ¢ãĥ«ãĤ¿ãĤ¤ãĥł": 7809,
      "æ±łçĶ°": 7810,
      "ãĤĦãĤĬãģŁãģĦ": 7811,
      "ãĤ¨ãĤ¤ãĥªãĤ¢ãĥ³": 7812,
      "éļİæ®µ": 7813,
      "ãģĮè¡ĮãĤıãĤĮãģŁ": 7814,
      "æŃ´ä»£": 7815,
      "Fire": 7816,
      "åįłãģĦ": 7817,
      "ãģ¿ãģªãģķãĤĵ": 7818,
      "ãģªãĤĵãģłãģĭ": 7819,
      "éģħãĤĮãĤĭ": 7820,
      "iri": 7821,
      "Tunes": 7822,
      "ãģ®æ¨©": 7823,
      "ĠJapan": 7824,
      "ãĤ°ãĥ©ãĥķãĤ£ãĥĥãĤ¯ãĤ¹": 7825,
      "ãĥīãĥªãĥ¼ãĥł": 7826,
      "å¤§åŀĭå¤§å®¹éĩıãĥĲãĥĥãĥĨãĥªãĥ¼": 7827,
      "ãģ®æµģãĤĮ": 7828,
      "Ġtouch": 7829,
      "ãĥĵãĤ¸ãĥįãĤ¹ãĥĳãĥ¼ãĤ½ãĥ³": 7830,
      "ãĥŁãĤ¹ãĥĨãĥªãĥ¼": 7831,
      "PCä¾¿åĪ©æĬĢãģĮæºĢè¼ī": 7832,
      "LINE": 7833,
      "St": 7834,
      "UN": 7835,
      "YA": 7836,
      "il": 7837,
      "èİ": 7838,
      "ãģ®èµ·æºĲ": 7839,
      "ãģ«æĸ°": 7840,
      "ãĤĴéĢ²": 7841,
      "ãģªãģ®ãģ¯": 7842,
      "ãģĮäººæ°Ĺ": 7843,
      "ãģĮéģĭåĸ¶ãģĻãĤĭ": 7844,
      "ãĤ¤ãĥ¼ãĥ©ãĤ¤": 7845,
      "æľĹ": 7846,
      "ãĤ¢ãĤŃ": 7847,
      "ãģĻãĤĭãģĵãģ¨ãĤĴ": 7848,
      "ãĤĴæ´»": 7849,
      "ãģĬãĤĤãģĹãĤį": 7850,
      "å¹²": 7851,
      "ãĥŃãĥ³ãĤ°": 7852,
      "ä¸Ģè¦ĭ": 7853,
      "ãĤ¨ãĥŃ": 7854,
      "ãģ®çĨ±": 7855,
      "å±Ī": 7856,
      "ãģĮæį": 7857,
      "ãĤ¬ãĤ¤": 7858,
      "éĥ¨ãģ®": 7859,
      "æĮ¯ãĤĬ": 7860,
      "ãģĿãģ®ãģ»ãģĭ": 7861,
      "ãģĵãĤĮãģ«ãĤĪãĤĬ": 7862,
      "æµ´": 7863,
      "æ¥½æĽ²": 7864,
      "ä»ķä¸ĬãģĮãĤĬ": 7865,
      "æ³ķäºº": 7866,
      "æĽ¸é¡ŀ": 7867,
      "çİ²": 7868,
      "ãģ¨ãĤĤãģ¨": 7869,
      "ãģ£ãģ¦ãģĦãģĦ": 7870,
      "æµ·éģĵ": 7871,
      "åħīåŃ¦": 7872,
      "ĠCh": 7873,
      "ç°¡åįĺãģª": 7874,
      "ãĥ¼ãĥķãĤ¡": 7875,
      "å½¼å¥³ãģĮ": 7876,
      "ãģĵãģĵãģ¾ãģ§": 7877,
      "ãĤ³ãĥ©ãĥł": 7878,
      "åĮĹæµ·éģĵ": 7879,
      "ãģ®æķµ": 7880,
      "ãĥıãĤ¤ãĥĸãĥª": 7881,
      "å¥³åĦªè³ŀ": 7882,
      "ãĤĴãģ¤ãģĳ": 7883,
      "ãĤ³ãĥ³ãĥĨãĤ¹ãĥĪ": 7884,
      "åĲįæ§ĺãĤĴãģĶæĭĽå¾ħ": 7885,
      "ãģ§ãģĤãĤĬãģªãģĮãĤī": 7886,
      "ä¸ĢèĪ¬çļĦãģª": 7887,
      "ãģ®åĽ£": 7888,
      "éłħçĽ®": 7889,
      "ĊĠĊĠĊĠĊĠ": 7890,
      "ãģ©ãĤĮãģłãģĳ": 7891,
      "åĸľãģ³": 7892,
      "ãģ®å±±": 7893,
      "ãģ¨è¨ĢãģĪãĤĭãģłãĤįãģĨ": 7894,
      "éģĤãģ«": 7895,
      "ãĤĤè¦ĭãĤīãĤĮãģŁ": 7896,
      "è¸ĬãĤĬ": 7897,
      "ç´ĹæłĦ": 7898,
      "ãģ®ç§»": 7899,
      "èıĵåŃĲ": 7900,
      "ãģĮãĤĵãģ°": 7901,
      "ãĤ¹ãĤŃãĥ³ãĤ±ãĤ¢": 7902,
      "é»ĦéĩĳæĻĤä»£ç¯ĩ": 7903,
      "Trans": 7904,
      "65": 7905,
      "Dock": 7906,
      "ies": 7907,
      "vie": 7908,
      "·»": 7909,
      "ãģ®èī¯": 7910,
      "ãģ®äºĮ": 7911,
      "ãģ®éģķãģĦ": 7912,
      "ãģ«ãģĹãģ¦ãģĦãĤĭ": 7913,
      "ãģ«ç¶ļãģį": 7914,
      "ãģ¨ãģı": 7915,
      "ãģĹãģ«": 7916,
      "ãģĮãģĦãģŁ": 7917,
      "ãģĮåł±ãģĺ": 7918,
      "ãģĻãģ£ãģĭãĤĬ": 7919,
      "ãĤ¹ãĥİ": 7920,
      "ãĤ¹ãĤ¤ãĥ³ãĤ°": 7921,
      "ãģ¾ãģĹãģ¦": 7922,
      "ãĤīãģĹãģı": 7923,
      "ãĤīãģªãģĭãģ£ãģŁ": 7924,
      "ãģķãģ§": 7925,
      "ãĤ¿ãĥĪãĤ¥": 7926,
      "ãĤ·ãĥĨãĤ£": 7927,
      "æĹ¥éŁĵ": 7928,
      "ãĤ³ãĥ¼ãĥģ": 7929,
      "ãĤĴæ·±": 7930,
      "ãĤĴæĥ³": 7931,
      "ãģ¾ãģĻãģ¾ãģĻ": 7932,
      "ãĤģãģ¦ãģĦãģ¾ãģĻ": 7933,
      "ãĥŀãĥĪ": 7934,
      "ãģ¤ãģĳãģŁ": 7935,
      "æľ¬æ°Ĺ": 7936,
      "ãĥīãĥ³": 7937,
      "ç´³": 7938,
      "ä¸Ĭåĵģ": 7939,
      "ä¸Ĭåı¸": 7940,
      "ãģ§ãģįãģªãģĭãģ£ãģŁ": 7941,
      "ãĥĳãĥĨãĤ£": 7942,
      "ãĥįãĤ¤": 7943,
      "ãģ«æĭ": 7944,
      "ãģ«æĴ®å½±": 7945,
      "æĸ¹ãĤĴ": 7946,
      "ãģ®ç§ĭ": 7947,
      "ãģĮæ¿Ģ": 7948,
      "ãĤ½ãĥ³ãĤ°": 7949,
      "ãĥĬãĥĸãĥ«": 7950,
      "ãĥĬãĥģãĥ¥": 7951,
      "å¯¾æ±º": 7952,
      "ç¤¾åĨħ": 7953,
      "ãĥĻãĥ¼ãĤ·ãĥ§ãĥ³": 7954,
      "é£½": 7955,
      "å½ĵæĹ¥": 7956,
      "ãģĿãģ®ãĤĤãģ®": 7957,
      "åĲįãģ®": 7958,
      "ãģĴãģŁ": 7959,
      "ãĤ´ãĥŁ": 7960,
      "ä¸ĸçķĮãģ«": 7961,
      "ç¥Ŀ": 7962,
      "æ®Ĭ": 7963,
      "ãģŁãģ¡ãģ«": 7964,
      "ãĤ¸ãĥ£ãĥ³ãĥĹ": 7965,
      "ãĤĴä½¿ãģĪãģ°": 7966,
      "èªŃèĢħ": 7967,
      "åĪ¥ãĤĮ": 7968,
      "ãĥīãĥ©ãĤ´ãĥ³": 7969,
      "å¢ĹãģĪ": 7970,
      "æ±ºãģĹãģ¦": 7971,
      "è¶ħå¤§ä½ľ": 7972,
      "ãģ®æĺ¥": 7973,
      "åıĭäºº": 7974,
      "ãĥĲãĥĥãĥĨãĥª": 7975,
      "ãģ®äººéĸĵ": 7976,
      "åĲĳãģĳãģ«": 7977,
      "åĭ¢æıĥ": 7978,
      "PeachyãĤ¢ãĥĹãĥªãģ®": 7979,
      "åħħéĽ»ãģ§ãģįãĤĭ": 7980,
      "æĨ§ãĤĮ": 7981,
      "ãģ¼ãģĨ": 7982,
      "ãģĮè¡ĮãĤıãĤĮ": 7983,
      "ãģĮãģĤãĤĬãģ¾ãģĹãģŁ": 7984,
      "ãģ®æĬķç¨¿": 7985,
      "ãģ«è¦ĭãģĪãĤĭ": 7986,
      "ãģĹãģ¦ãģĬãģı": 7987,
      "éļłãģĹ": 7988,
      "ãĥĸãĥªãĥĥãĤ¸": 7989,
      "ãĤĴä½¿çĶ¨ãģĹãģŁ": 7990,
      "ãĤĴè¿İãģĪãĤĭ": 7991,
      "æ¢ħ": 7992,
      "æĬ½éģ¸ãģ®ä¸Ĭ": 7993,
      "åįĪå¾Į": 7994,
      "æĵ¢": 7995,
      "ãĥĥãĤ¿ãĥª": 7996,
      "ãģ®ç¨®": 7997,
      "éĥ½åĲĪãģ«ãĤĪãĤĬ": 7998,
      "peria": 7999,
      "ãĥŁãĥ«ãĤ¯": 8000,
      "ãĤĴäºĪå®ļãģĹãģ¦ãģĬãĤĬãģ¾ãģĻ": 8001,
      "ãģ®åĸ¶": 8002,
      "å®¢è¦³çļĦãģ«": 8003,
      "ãĤªãĥ¼ãĤ¹ãĥĪãĥ©ãĥªãĤ¢": 8004,
      "ãģ¯æ°¸éģłãģ«": 8005,
      "®ãģĪç½®ãģį": 8006,
      "ãĤ«ãĥ¼ãĥļãĥĥãĥĪ": 8007,
      "68": 8008,
      "Cop": 8009,
      "DA": 8010,
      "EE": 8011,
      "LI": 8012,
      "Xperia": 8013,
      "and": 8014,
      "ffic": 8015,
      "hite": 8016,
      "ud": 8017,
      "yright": 8018,
      "¡å¼µ": 8019,
      "ãģ®ãĥĩãĤ¶ãĤ¤ãĥ³": 8020,
      "ãĥ¼ãģ«": 8021,
      "ãģ«çĸĳåķı": 8022,
      "ãģĮä»ĺ": 8023,
      "ãģĮéĸĭå§ĭ": 8024,
      "ãģĮå½ĵãģŁãĤĭ": 8025,
      "ãĤĤãģ¯ãĤĦ": 8026,
      "ãģ®å¢": 8027,
      "ãģĬéħĴ": 8028,
      "ãĥŀãĤ°": 8029,
      "ãĥŃãĥ¼ãĤº": 8030,
      "å¤§å¥½ãģįãģª": 8031,
      "ãĤ·ãĥģ": 8032,
      "ãĤµãĥ¼ãĥĲãĥ¼": 8033,
      "åºĬ": 8034,
      "åĩį": 8035,
      "ãĥĭãĤŃ": 8036,
      "ãĤĪãģĨãģ§": 8037,
      "ãĥĵãĥĥãĤ°": 8038,
      "åĩºãģĹãģ¦": 8039,
      "ãģ«æĪĲåĬŁ": 8040,
      "æĸ¹å¼ı": 8041,
      "æĸ°ä½ľ": 8042,
      "åĲĪãģĽ": 8043,
      "ç·¯": 8044,
      "ãĤ¤ãĥ³ãĤ¯ãĤ¿": 8045,
      "æīĭãĤĴ": 8046,
      "æĹ¥æľ¬ä¸ĬéĻ¸": 8047,
      "ãĥıãĥ³ãĥī": 8048,
      "è¨ĺäºĭãģ«ãĤĪãĤĭãģ¨": 8049,
      "åĪ©çĽĬ": 8050,
      "ãĤįãģĨãģ«": 8051,
      "çĶ°ãģķãĤĵ": 8052,
      "ä¸ĭãģĮ": 8053,
      "çĶ·ãģĮ": 8054,
      "ãĤ¢ãĥĹãĥªãģ§": 8055,
      "æł¼å¥½": 8056,
      "ãģªãĤĭæĬ½éģ¸ãģ®ä¸Ĭ": 8057,
      "çµĮçĶ±": 8058,
      "çµĮç·¯": 8059,
      "éŃĤ": 8060,
      "èī²ãĥŀãĥ«ãĥģ": 8061,
      "è£½åĵģæĥħåł±": 8062,
      "æĸĩç«ł": 8063,
      "çķªçµĦãģ¯": 8064,
      "âĹİ": 8065,
      "è©¦é¨ĵ": 8066,
      "ãĤĮãģ¦ãģĹãģ¾ãģĨ": 8067,
      "ãģ«ãģªãĤĬãģŁãģĦ": 8068,
      "ãĤ·ãĥ¼ãĥ³ãģ¯": 8069,
      "ãģ§ãģĹãģŁãģĭ": 8070,
      "æ¯İå¹´": 8071,
      "è³¼åħ¥ãģĹãģŁ": 8072,
      "è©ķåĪ¤": 8073,
      "ãĤ¹ãĤ«ãĤ¤ãĥĦ": 8074,
      "ãĥĢãĤ¤ãĥ¬ãĤ¯ãĥĪ": 8075,
      "WiMAX": 8076,
      "æ¼¢": 8077,
      "ç§ĭèĳī": 8078,
      "å²¡æĿĳ": 8079,
      "ãĤ¢ãĥĬãĥŃãĤ°": 8080,
      "ãģ®åĩºæ¼Ķ": 8081,
      "ãģ®å¹³": 8082,
      "éłĨæ¬¡": 8083,
      "ãĤŃãĥ£ãĤ¹ãĥĪãģĮ": 8084,
      "ãĥĩãĤ£ãĤºãĥĭ": 8085,
      "ç¶ļãģĳãģ¦ãģĦãĤĭ": 8086,
      "æĦŁè¦ļãģ§": 8087,
      "å½¼ãĤīãģ¯": 8088,
      "ãĤĴæ¼ĶãģĺãĤĭãģ®ãģ¯": 8089,
      "æ¬łãģĭãģĽãģªãģĦ": 8090,
      "ãĥĳãĥĥãĤ¯BC": 8091,
      "ä»®éĿ¢ãĥ©ãĤ¤ãĥĢ": 8092,
      "POP": 8093,
      "çªĵ": 8094,
      "ç¶ŃæĮģ": 8095,
      "ãģ®çĪ¶": 8096,
      "ãĤŃãĥ£ãĥİãĥ³ãĤ¤ãĥ³ãĤ¯ãĤ¿": 8097,
      "ç·¨éĽĨéĥ¨çļĦæĺłçĶ»æī¹è©ķ": 8098,
      "ãĤ¢ãĤ¤ãĥĩãĤ¢": 8099,
      "ãĥŀãĥĦãĤ³": 8100,
      "ãĥŀãĤ¤ãĤ±ãĥ«": 8101,
      "ãĥıãĤ¤ãĥĸãĥªãĥĥãĥī": 8102,
      "Copyright": 8103,
      "èī²ãĥŀãĥ«ãĥģãĥĳãĥĥãĤ¯BC": 8104,
      "ãĤ¹ãĤ«ãĤ¤ãĥĦãĥªãĥ¼": 8105,
      "ãĤŃãĥ£ãĥİãĥ³ãĤ¤ãĥ³ãĤ¯ãĤ¿ãĥ³ãĤ¯": 8106,
      "èī²ãĥŀãĥ«ãĥģãĥĳãĥĥãĤ¯BCI": 8107,
      "OM": 8108,
      "Ġd": 8109,
      "ãģ®ãĥĪãĥĥãĥĹ": 8110,
      "ãģ«éĢ²": 8111,
      "ãģ«ãģĵãģł": 8112,
      "ãĤĭãģĵãģ¨ãģ§": 8113,
      "ãĤĭãĤįãģĨãģ«": 8114,
      "ãģĹãģªãģı": 8115,
      "ãĤĴçĶ¨": 8116,
      "ãĤĴè¦ļ": 8117,
      "ãĤĴèµ·ãģĵ": 8118,
      "ãģĮãģĶãģĸãģĦãģ¾ãģĻ": 8119,
      "ãģ¯ãģĤãĤĬãģ¾ãģĽãĤĵ": 8120,
      "ãĤ¹ãĥŃ": 8121,
      "ãĤ¤ãĤª": 8122,
      "ãĤ¤ãĤªãĥ³": 8123,
      "ãĥĥãĤ·": 8124,
      "æĹ¦": 8125,
      "ãĤĪãģĭãģ£ãģŁ": 8126,
      "ãģĻãĤĭãģ®ãģĭ": 8127,
      "ãģĹãģ¦ãģįãģ¾ãģĹãģŁ": 8128,
      "ãģ®æĵįä½ľ": 8129,
      "ãģĵãģ¨ãģªãģı": 8130,
      "éģĩ": 8131,
      "ãĤ«ãĤ¯": 8132,
      "åŃ¤": 8133,
      "ãĥĩãĥ¢": 8134,
      "åłĢ": 8135,
      "ãģ«ãģªãģ£ãģ¦ãģĦãģŁ": 8136,
      "ãģ®çłĶç©¶": 8137,
      "ãĥ¢ãĥ¼ãĤ·ãĥ§ãĥ³": 8138,
      "ãĤ½ãĥ¼ãĤ¹": 8139,
      "é«ĺãģķ": 8140,
      "ãĥĻãĥ³ãĥģ": 8141,
      "ãģĤãĤĬãģ¾ãģĹãģŁ": 8142,
      "ãģ¸ãģ®æī¹åĪ¤": 8143,
      "ãĥĶãĤ¯": 8144,
      "ãĥĶãĥĥãĤ¿ãĥª": 8145,
      "çŁ¥åŃĲ": 8146,
      "æķ°å¤ļãģı": 8147,
      "è±ļ": 8148,
      "åĦªåħĪ": 8149,
      "éŁ³è³ª": 8150,
      "ãĤ¢ãĥĥãĥĹãĥŃãĥ¼ãĥī": 8151,
      "iPhoneãĤĦ": 8152,
      "èĬ½": 8153,
      "åºĥãģı": 8154,
      "ãģĿãĤĵãģªä¸Ń": 8155,
      "å¥³åŃĲä¼ļ": 8156,
      "ort": 8157,
      "å¤©åĽ½": 8158,
      "ãĥįãĥĥãĥĪæİ²ç¤ºæĿ¿ãģ«ãģ¯": 8159,
      "éĥ½åĨħ": 8160,
      "åł´åĲĪãĤĤãģĶãģĸãģĦãģ¾ãģĻ": 8161,
      "ãģĤãģªãģŁãĤĤ": 8162,
      "ç¸¦": 8163,
      "èĲ½ãģ¨ãģĹ": 8164,
      "ç¿Ķ": 8165,
      "æ®ºãģĻ": 8166,
      "å½ĵéģ¸ãģ«ãģ¤ãģĦãģ¦ãģ¯": 8167,
      "ä¸»æ¼ĶãĤĴåĭĻãĤģãĤĭ": 8168,
      "TAR": 8169,
      "SDHC": 8170,
      "çĮĽ": 8171,
      "DIA": 8172,
      "ãģ®ãĥ¡ãĥ³ãĥĲãĥ¼": 8173,
      "ãģĮãģ¤ãģĦãģ«": 8174,
      "ãģ¬ãģĦ": 8175,
      "éĬĢè¡Į": 8176,
      "ãĤ¸ãĥ£ãĥĳãĥ³ãĥĹãĥ¬ãĥŁãĤ¢": 8177,
      "è²·ãģĦçī©": 8178,
      "ãĥ¡ãĥ¢ãĥª": 8179,
      "mixi": 8180,
      "ãĥŀãĥįãĥ¼ãĤ¸ãĥ£ãĥ¼": 8181,
      "ãĥªãĤ³ãĥ¼ãĥķãĤ©": 8182,
      "å¼ģèŃ·": 8183,
      "ãģĮå¤ļå°ĳ": 8184,
      "ãģĦãĤıãĤĨãĤĭ": 8185,
      "ãĥĳãĤ¹ãĥ¯ãĥ¼ãĥī": 8186,
      "ç¾İåĳ³ãģĹãģĦ": 8187,
      "ãģ«æ¯Ķãģ¹": 8188,
      "ãĥªãĥ¢ãĤ³ãĥ³": 8189,
      "Ľ´æĸ°": 8190,
      "µ´ãģ³": 8191,
      "ãģ®åĸ¶æ¥Ń": 8192,
      "ãĤĭãĤįãģĨãģ«åī£å¿ĥ": 8193,
      "ãĥªãĤ³ãĥ¼ãĥķãĤ©ãĥĪ": 8194,
      "900": 8195,
      "BB": 8196,
      "CG": 8197,
      "Ya": 8198,
      "lo": 8199,
      "£®": 8200,
      "èľ": 8201,
      "Ġ2011": 8202,
      "ãģ®ä¸¡": 8203,
      "ãģ¨è¦ĭ": 8204,
      "ãĤĴéĢ£": 8205,
      "ãĤĴé£¾": 8206,
      "ãĤĤè¡Į": 8207,
      "ãĤ¤ãĤ¸": 8208,
      "ãĥĥãĥĿ": 8209,
      "ãģıãģ¾ãģ§": 8210,
      "ä½³": 8211,
      "ãģ®åĦ": 8212,
      "åı¥": 8213,
      "ãĥ¬ãĥĥãĥĦ": 8214,
      "ãĤĦãģĮãģ¦": 8215,
      "ãĤĴæ§ĭ": 8216,
      "ãĤĴæĶ¾": 8217,
      "ãĤĴæ¶Ī": 8218,
      "ãģĭãĤīè¦ĭ": 8219,
      "ãģĬåīį": 8220,
      "ãĤ«æľĪ": 8221,
      "ãĥŃãĥĲãĥ¼ãĥĪ": 8222,
      "ä½ľãĤīãĤĮãģŁ": 8223,
      "ãĤªãĤ¿": 8224,
      "ãĥĵãĥĵ": 8225,
      "å¯§": 8226,
      "åĩºèį·": 8227,
      "ãĤ¨ãĥ³ãĤ¿ãĥ¼": 8228,
      "ãģĮæģ": 8229,
      "å®ŁçĶ¨": 8230,
      "æĹ¥æľ¬ãģ¯": 8231,
      "éĢļè²©": 8232,
      "åĲĮæľŁ": 8233,
      "éļĨ": 8234,
      "ãĥĦãĥ¤": 8235,
      "ãĤĴè¦ĭãģĽãĤĭ": 8236,
      "çĦ¡é§Ħ": 8237,
      "åĨĻçľŁãģ¯": 8238,
      "ãĤ¿ãĤ¤ãĥ³ãĥĩ": 8239,
      "ãĥģãĥ£ãĥ³": 8240,
      "ç´łçĽ´": 8241,
      "ãĤ¸ãĤ§ãĥ«": 8242,
      "èŃ°è«ĸ": 8243,
      "å¿ħè¦ģäºĭéłħ": 8244,
      "äºĮäººãģ®": 8245,
      "è¦ªåŃĲ": 8246,
      "ãĥ¢ãĥĩãĥ«ãģĮ": 8247,
      "ãģĹãģ¦ãģĦãģŁãģł": 8248,
      "ãĤ·ãĥ¼ãĥ³ãģ§": 8249,
      "ç´°ãģª": 8250,
      "çĹ©": 8251,
      "ç¹ģ": 8252,
      "éģ©åĪĩ": 8253,
      "çĪ½": 8254,
      "ãģ«è¡Įãģ£ãģŁ": 8255,
      "äººéĸĵéĸ¢ä¿Ĥ": 8256,
      "ãģ©ãģĵãģĭ": 8257,
      "ĠLTE": 8258,
      "æŃ©ãģı": 8259,
      "ãĥªãĤ¢ãĥ«ãģª": 8260,
      "éłĥãģĭãĤī": 8261,
      "ãģĦãģıãĤī": 8262,
      "æĦıè¦ĭãĤĤ": 8263,
      "Ultrabooker": 8264,
      "èĻļ": 8265,
      "èĳĹåĲį": 8266,
      "åİ³æŃ£": 8267,
      "ãĥŀãĥ¼ãĤ±ãĥĥãĥĪ": 8268,
      "ãģ®æĦıåĳ³": 8269,
      "è©¦åĨĻä¼ļãģ«": 8270,
      "æ±ºå®ļãģķãģĽãģ¦ãģĦãģŁãģłãģįãģ¾ãģĻ": 8271,
      "ãģ®ç«¯": 8272,
      "ãĥ¼ãĥĿãĥª": 8273,
      "ãĤ»ãĤ¯ãĤ·ãĥ¼ãģª": 8274,
      "ãģĦãģŁãģłãģĳãĤĭ": 8275,
      "ãĤĴæ±ĤãĤģãĤĭ": 8276,
      "ãĤĴåĲ«ãĤĢ": 8277,
      "ãĤ¬ãĥ¼ãĥ«ãĤºãĤ³ãĥ¬ãĤ¯ãĤ·ãĥ§ãĥ³": 8278,
      "åĢĻè£ľ": 8279,
      "å§īå¦¹": 8280,
      "ä¸ģå¯§": 8281,
      "å°ĭãģŃ": 8282,
      "ãĤ¨ãĥĥãĤ»ãĥ³ãĤ¹": 8283,
      "ãĥŀãĤ¹ãĤ³ãĥŁ": 8284,
      "WEB": 8285,
      "é¹¿": 8286,
      "ãĥĹãĥ©ãĤ¤ãĥĲãĤ·ãĥ¼ãĥĿãĥª": 8287,
      "'s": 8288,
      "46": 8289,
      ":ãĢİ": 8290,
      "MB": 8291,
      "Ġwith": 8292,
      "ãģ®é¦¬": 8293,
      "ãģĦãģ¨": 8294,
      "ãģĦãģ£ãģ±ãģĦ": 8295,
      "ãģĹãģª": 8296,
      "ãĤĴãĤĪãĤĬ": 8297,
      "ãĤĴç¤º": 8298,
      "ãĤĴå¤±": 8299,
      "ãĢĤ**": 8300,
      "ãģĮãģŁãģıãģķãĤĵ": 8301,
      "ãĤ¹ãĤ´": 8302,
      "ãĤīãģĭãģª": 8303,
      "ãĥĥãĤ·ãĥ£": 8304,
      "ãĤ¯ãĤªãĥªãĥĨãĤ£": 8305,
      "åħį": 8306,
      "ãģĻãĤĭãģ®ãģ§": 8307,
      "ãĤ¸ãĥ³": 8308,
      "ãĤĦãģĭãģ«": 8309,
      "ãĤĴæµ´ãģ³": 8310,
      "ãģ®æ³¨çĽ®": 8311,
      "ãģ®æĶ¾éĢģ": 8312,
      "ãĥŀãĤ¶": 8313,
      "ãĤ«ãĤ»ãĥĥãĥĪ": 8314,
      "ãģ§ãģĻãģĹ": 8315,
      "ãĥ¡ãĥ³ãĥĲ": 8316,
      "æ°·": 8317,
      "ãģķãĤĮãģ¦ãģĦãģªãģĦ": 8318,
      "ãĤµãĤµãĤ¤ãĤº": 8319,
      "å¹´çĶŁ": 8320,
      "ä¸ĢçĶŁ": 8321,
      "ãģ§ãģįãĤĮãģ°": 8322,
      "å¥³çİĭ": 8323,
      "ãĥįãĤ¯": 8324,
      "ãģ«æº": 8325,
      "æĸ°è£½åĵģ": 8326,
      "çļĦãģ§": 8327,
      "ä½¿ãģ£ãģ¦ãģĦãĤĭ": 8328,
      "çľī": 8329,
      "çĽ®ç·ļ": 8330,
      "ãģĹãģ¦ãģĦãĤĭãģ®ãģĮ": 8331,
      "åħ¬æ¼Ķ": 8332,
      "åħ¨èº«": 8333,
      "åĪĿæĮĳæĪ¦": 8334,
      "åĬłå·¥": 8335,
      "æ°ıãģ¨": 8336,
      "ãĤĵãģ§ãģĦãģ¾ãģĻ": 8337,
      "ä¿¡ãģĺ": 8338,
      "ãģĳãĤĭãģ¨": 8339,
      "æł¼éĹĺ": 8340,
      "æĻĤéĸĵãģ¯": 8341,
      "èªŃæĽ¸": 8342,
      "æĿ±äº¬ãĤ¬ãĥ¼ãĥ«ãĤºãĤ³ãĥ¬ãĤ¯ãĤ·ãĥ§ãĥ³": 8343,
      "ãĤµãĥ¼ãĥĵãĤ¹çµĤäºĨå¾Į": 8344,
      "æĶ¾é¡Į": 8345,
      "let": 8346,
      "åħ±åĲĮ": 8347,
      "ãģĹãģŁãģĦãģ¨ãģĦãģĨ": 8348,
      "è¬Ģ": 8349,
      "ãĤĵãģ§ãģĻãĤĪãģŃ": 8350,
      "ãģĹãģ¦ãģ¿ãģ¦ãģ¯": 8351,
      "ãĤĴãĤĤãĤī": 8352,
      "ãĥ¼ãĥĲãĤ¹": 8353,
      "ç©ºæ¸¯": 8354,
      "ĠTe": 8355,
      "èĩªèº«ãģĮ": 8356,
      "ãģ®äººãģ«": 8357,
      "ä½ıãĤĢ": 8358,
      "ãĥĹãĥ©ãĥĥãĥĪ": 8359,
      "ãĤ¤ãĥ¤ãĥ«": 8360,
      "ãģ®å¿ħ": 8361,
      "å·¥åł´": 8362,
      "ãģ®æĸ°ä½ľ": 8363,
      "ãģĻãģ¹ãģ¦ãģ®": 8364,
      "MacBook": 8365,
      "æĬľç¾¤": 8366,
      "éŃĶå¥³": 8367,
      "ãģ«æİ²è¼ī": 8368,
      "éĽ»åŃĲæĽ¸ç±įãģ¯æ°¸éģłãģ«": 8369,
      "èĢĥãģĪãĤĭãģ¨": 8370,
      "è©¦åĨĻä¼ļãģ«ãģĶæĭĽå¾ħ": 8371,
      "æ½Ķ": 8372,
      "ãĤ¯ãĥ«ãĥŀ": 8373,
      "çĽ¸è«ĩèĢħ": 8374,
      "ãģ®æĦŁæĥ³": 8375,
      "ãĤĴå§ĭãĤģãģŁ": 8376,
      "ãĥķãĤ©ãĥ¼ãĥłãģĭãĤī": 8377,
      "çĪĨçĻº": 8378,
      "ĠVita": 8379,
      "ãĤ³ãĥ³ãĥĵãĥĭ": 8380,
      "ãĥŀãĥªãĥªãĥ³": 8381,
      "ãģ®çĬ¶æ³ģ": 8382,
      "ãĤĴæīĵãģ¡": 8383,
      "ãģ®ç¶ļ": 8384,
      "èªŃãĤģãĤĭãģ®ãģĭ": 8385,
      "å§Ķåĵ¡ä¼ļ": 8386,
      "NTT": 8387,
      "ãģªãģįãĤĥ": 8388,
      "ãĤ¨ãĥĮãĥĹãĥ©ãĤ¹": 8389,
      "ãģĽãģ£ãģĭãģı": 8390,
      "éģħãĤĮãĤĭåł´åĲĪãĤĤãģĶãģĸãģĦãģ¾ãģĻ": 8391,
      "åİ³æŃ£ãģªãĤĭæĬ½éģ¸ãģ®ä¸Ĭ": 8392,
      "ãĤµãĥ¼ãĥĵãĤ¹çµĤäºĨå¾Įãģ¯ãģ©ãģĨãģªãĤĭ": 8393,
      "éĽ»åŃĲæĽ¸ç±įãģ¯æ°¸éģłãģ«èªŃãĤģãĤĭãģ®ãģĭ": 8394,
      "55": 8395,
      "CS": 8396,
      "GRE": 8397,
      "Ĭæı¡": 8398,
      "ãģ®çĻ»åł´": 8399,
      "ãģ®é¦ĸ": 8400,
      "ãģ§ãģĹãĤĩ": 8401,
      "ãģ¨é¡Į": 8402,
      "ãģªãĤģ": 8403,
      "ãģĮä¸»": 8404,
      "ãģĮå¥½ãģį": 8405,
      "ãģĮå®Łçı¾": 8406,
      "ãģ¯å¤§": 8407,
      "ãģĨãģĭãģĮ": 8408,
      "äºĢ": 8409,
      "ãĥ¬ãĤ¢": 8410,
      "ãĤĴæĶ¹": 8411,
      "ãĥ³ãĥĿ": 8412,
      "ãĥŀãĤ·ãĥ³": 8413,
      "ãĤ«ãĥ³": 8414,
      "éĽĩ": 8415,
      "æľ¬äºº": 8416,
      "ãģ¨ãģĦãģĦãģ¾ãģĻ": 8417,
      "ãģ¨ãģĦãģĨãģĭ": 8418,
      "ãģĤãĤĭãģĦãģ¯": 8419,
      "ãĥģãĥª": 8420,
      "æĢ§æł¼": 8421,
      "çļĦãģ«ãĤĤ": 8422,
      "ãģ§ãĤĤãģªãģĦ": 8423,
      "ãģĮæ³¨çĽ®": 8424,
      "ãĤ½ãĥ³ãģĮ": 8425,
      "æīĭãģĮ": 8426,
      "ãģĹãģ¦ãģĦãĤĭãģŁãĤģ": 8427,
      "ç«¥": 8428,
      "çľŁå®Ł": 8429,
      "ãĥĦãĤ¢ãĥ¼": 8430,
      "å®¶ãģ§": 8431,
      "ç¾İãģĹãģķ": 8432,
      "ãĥĹãĥŃãģ®": 8433,
      "éĢģä¿¡": 8434,
      "çĻºå£²ãģĻãĤĭ": 8435,
      "åİŁå®¿": 8436,
      "ç´¹ä»ĭãģĹãĤĪãģĨ": 8437,
      "ãĥ¦ãĥ¼ãĤ¶ãĥ¼ãģ®": 8438,
      "æŁ´": 8439,
      "çĤ¹ãĤĤ": 8440,
      "ãĤ¼ãĥŃ": 8441,
      "éŁĵåĽ½äºº": 8442,
      "èģŀãģį": 8443,
      "æĺłåĥıãĤĴ": 8444,
      "ãģ®æĺŁ": 8445,
      "ãĤ¹ãĥŀãĥĽãģ®": 8446,
      "åĳ¼åĲ¸": 8447,
      "ĠTV": 8448,
      "é£Ľè·ĿéĽ¢": 8449,
      "èª°ãģĭ": 8450,
      "éĥ¨åĪĨãģ¯": 8451,
      "ãģķãĤĮãģ¦ãģĹãģ¾ãģĨ": 8452,
      "Twitterãģ§": 8453,
      "å¼ķãģįç¶ļãģį": 8454,
      "ãģĵãģ¡ãĤīãģ¯": 8455,
      "ãĤĴåħ¥ãĤĮãģ¦": 8456,
      "å®ĪãĤĬ": 8457,
      "ãĥĭãĤ³ãĥĭãĤ³çĶºä¼ļèŃ°": 8458,
      "ãģ®åį±": 8459,
      "èĻ«": 8460,
      "åĩºæĿ¥äºĭ": 8461,
      "å¿Ĺéĥİ": 8462,
      "livedooræ±Ĥäºº": 8463,
      "ãĤ¹ãĤ¤ãĥĥãĥģ": 8464,
      "çľģãĤ¨ãĥį": 8465,
      "Excelãģ§": 8466,
      "ĠENTERãģ®": 8467,
      "ãģĮå¤ļãģĭãģ£ãģŁ": 8468,
      "ãģ®å¾©": 8469,
      "ãģ®ãģĭãĤĤãģĹãĤĮãģªãģĦ": 8470,
      "è£ģåĪ¤": 8471,
      "ãģ¤ãĤĤãĤĬ": 8472,
      "ãĥĶãĥ©ãĥŁãĥĥãĥī": 8473,
      "ãģ®æ¯įè¦ª": 8474,
      "ãĤ¦ãĥ«ãĥĪãĥ©ãĥŀãĥ³": 8475,
      "èŃ²æ¸¡": 8476,
      "è³ĽåĲ¦ä¸¡": 8477,
      "æģ¥ãģļ": 8478,
      "Retina": 8479,
      "ãģ®çİĭ": 8480,
      "è²¢çĮ®": 8481,
      "ãģĮå¤ļå°ĳéģħãĤĮãĤĭåł´åĲĪãĤĤãģĶãģĸãģĦãģ¾ãģĻ": 8482,
      "ãĥªãĤ³ãĥ¼ãĥķãĤ©ãĥĪãĤ®ãĥ£ãĥ©ãĥªãĥ¼": 8483,
      "%ãĢģ": 8484,
      "180": 8485,
      "An": 8486,
      "Dis": 8487,
      "GZ": 8488,
      "RI": 8489,
      "Re": 8490,
      "fter": 8491,
      "°è±¡": 8492,
      "Ġon": 8493,
      "ãģ±": 8494,
      "ãģĩ": 8495,
      "ãģ®åħ¥": 8496,
      "ãĤĴä¼ĿãģĪãĤĭ": 8497,
      "ãģĮãģĦãģĦ": 8498,
      "ãģ¯ãģĦãģĭãģĮ": 8499,
      "ãĤ¹ãĥŁãĤ¹": 8500,
      "ãĥ¼ãĥĶ": 8501,
      "ãĥĪãĥŀãĥĪ": 8502,
      "ãĥªãĤµãĥ¼ãĥģ": 8503,
      "ä½µ": 8504,
      "ãĤ¢ãĥĥãĤ³": 8505,
      "ãģĵãģ¨ãģł": 8506,
      "ãģĬãģĹãĤĥãĤĮ": 8507,
      "ãĥĨãĤŃ": 8508,
      "ãģ¨ãģĦãģĨãģ®ãĤĤ": 8509,
      "å¾Ĳ": 8510,
      "ãĤįãģĹãģĦ": 8511,
      "ãĥĳãĥ¬": 8512,
      "ãĤ¨ãĥ¼ãĥ«": 8513,
      "ãĤ¨ãĥ³ãĥī": 8514,
      "çĶŁåĳ½": 8515,
      "ãĥŁãĥ³": 8516,
      "ãĤ»ãĤ¹": 8517,
      "è²§": 8518,
      "å®ŁæĦŁ": 8519,
      "ãĤ¶ãĥ¼ãĥī": 8520,
      "åĬĽãģ§": 8521,
      "æĦŁãģ®ãģĤãĤĭ": 8522,
      "ãĥĿãĤ¸": 8523,
      "ãĥĿãĥĥãĥĹ": 8524,
      "ãĥıãĥªãĥ¼": 8525,
      "éĽĨãģ¾ãģ£ãģŁ": 8526,
      "ãĥĶãĥĥãĤ¯ãĤ¢ãĥĥãĥĹ": 8527,
      "å®¶æĶ¿": 8528,
      "åĪ©å¤«": 8529,
      "ãĥįãĥĥãĥĪä¸Ĭãģ§": 8530,
      "èĤ¡": 8531,
      "æķ°åŃĹ": 8532,
      "ãĤ¯ãĥªãĥ³ãĤ°": 8533,
      "ä»ĺãģĳãģŁ": 8534,
      "ãģ«ãģ¤ãģªãģĮ": 8535,
      "ãĤĴç¯": 8536,
      "ãģ²ãģ©": 8537,
      "åı°æķ°": 8538,
      "ãĥĨãĥ¬ãĥĵãģ§": 8539,
      "æ²¡": 8540,
      "ç½°": 8541,
      "éħįæħ®": 8542,
      "ãĥ³ãĤ¹ãĤ¿ãĥ¼": 8543,
      "ãĤµãĥ¼ãĥĵãĤ¹ãģ®": 8544,
      "è¶ħä¼ļèŃ°": 8545,
      "å¦Ĭ": 8546,
      "ãģĹãģ¦ãģ¿ãģŁ": 8547,
      "ãĥ¼ãĥªãĥ¼ãĤº": 8548,
      "èĹ¤åİŁ": 8549,
      "ãģ®å¤§ãģį": 8550,
      "ãĥĸãĥŃãĥĥãĤ¯": 8551,
      "çĶ£æ¥Ń": 8552,
      "åĩºæ¼ĶèĢħ": 8553,
      "æ®ºäºº": 8554,
      "ãģ«æĮģ": 8555,
      "ãģ®å·¨": 8556,
      "åıĬãģ³": 8557,
      "çłĤ": 8558,
      "å«ģ": 8559,
      "åĪ¶ä½ľç·¨éĽĨ": 8560,
      "åı¸ä¼ļ": 8561,
      "é§Ĩãģĳãģ¦": 8562,
      "ãģĭãĤĤãģĹãĤĮãģ¾ãģĽãĤĵãģĮ": 8563,
      "ãĤ¹ãĤ±ãĤ¸ãĥ¥ãĥ¼ãĥ«": 8564,
      "ãĤĴæİ¢ãģĻ": 8565,
      "éĤ¦": 8566,
      "éĤĦ": 8567,
      "ãĤ¹ãĤŃãĥ«": 8568,
      "ãĤĴæŃ©": 8569,
      "å£²ãĤĬä¸ĬãģĴ": 8570,
      "ãĤ°ãĥªãĥķãĤ£": 8571,
      "ãĤ·ãĥ³ãĥĹãĥ«ãģª": 8572,
      "è±Ĭå¯Įãģª": 8573,
      "TION": 8574,
      "ãģ®æ´»åĭķ": 8575,
      "ãģ®ãģĭãĤĤãģĹãĤĮãģ¾ãģĽãĤĵ": 8576,
      "å¯©æŁ»": 8577,
      "ãĥĽãĥ«ãĥĢãĥ¼": 8578,
      "ãĤ³ãĥ³ãĥĶãĥ¥ãĥ¼ãĤ¿ãĥ¼": 8579,
      "ITãĥ©ãĤ¤ãĥķãĥıãĥĥãĤ¯Twitter": 8580,
      "åĲĳãģĭãģĨ": 8581,
      "æ²ĸç¸Ħ": 8582,
      "éģİæ¿Ģãģª": 8583,
      "æ±łçĶ°åĪ©å¤«": 8584,
      "®ãģĪç½®ãģįãĤ²ãĥ¼ãĥłæ©Ł": 8585,
      "è³ĽåĲ¦ä¸¡è«ĸ": 8586,
      "å®¶æĶ¿å©¦": 8587,
      "CIA": 8588,
      "OC": 8589,
      "Sky": 8590,
      "VS": 8591,
      "vol": 8592,
      "ãģ®åĪĿ": 8593,
      "ãģ®ãĤµãĥ¼ãĥĵãĤ¹": 8594,
      "ãģ®ãĤ¹ãĤ¿ãĥĥãĥķ": 8595,
      "ãģ«ãģĦ": 8596,
      "ãĤĴå¿ľæı´": 8597,
      "ãģĮè¡¨ç¤ºãģķãĤĮãĤĭ": 8598,
      "ãģ¯ä»¥ä¸ĭãģ®": 8599,
      "ãģĭãģĹãģŁ": 8600,
      "ãĤĮãģ¾ãģĻ": 8601,
      "ãģĵãģ®æ©Łä¼ļ": 8602,
      "ãģķãĤĤ": 8603,
      "åĪĢ": 8604,
      "æĸİ": 8605,
      "ãģĳãĤĵ": 8606,
      "ãģĭãĤīãģł": 8607,
      "ãĥŀãĤ¹ãĤ¿ãĥ¼": 8608,
      "ãĥĩãĥ´ãĤ£": 8609,
      "ãĤ·ãĥŁ": 8610,
      "ä¸ĢåĪĩ": 8611,
      "ãĥģãĥ¼ãĤ¯": 8612,
      "æĸ°ãģĹãģıãģªãģ£ãģŁ": 8613,
      "ãĥłãĤ«ãĥĩ": 8614,
      "ä¿Ĭ": 8615,
      "æ©ŁãģĮ": 8616,
      "ä½ĵãģĮ": 8617,
      "ãĤ¬ãĥ©ãĤ¹": 8618,
      "éĢ£åĭķ": 8619,
      "çī¹è¨Ń": 8620,
      "ãĥİãĥľ": 8621,
      "ãĥİãĤ¤ãĤº": 8622,
      "ãĥįãĥĥãĥĪä¸Ĭãģ§ãģ¯": 8623,
      "ä¸ĸçķĮåĲĦåĽ½": 8624,
      "ãĤ·ãĥ£ãĥķãĥĪ": 8625,
      "ãĤ²ãĥ³": 8626,
      "åıĹè¬Ľ": 8627,
      "ãĤĴç£¨": 8628,
      "ãģķãĤĮãģ¦ãģĦãĤĭãģ®ãģ§": 8629,
      "æĻĤéĸĵãģ§": 8630,
      "éŁĵåĽ½ãģ§": 8631,
      "çķªçµĦãģ®": 8632,
      "åĪ¤æĺİ": 8633,
      "ade": 8634,
      "ãĤĮãģ¦ãģĬãĤĬ": 8635,
      "ãģĵãģ¨ãģ¯ãģªãģĦ": 8636,
      "æľĢæĸ°è¨ĺäºĭ": 8637,
      "ãģĵãģĨãģĦãģ£ãģŁ": 8638,
      "ĠPhone": 8639,
      "ãģ¨æĢĿãģĦãģ¾ãģĻãģĮ": 8640,
      "æ¯İæľĪ": 8641,
      "ãĥ¼ãĥģãĥ£": 8642,
      "ãģ«è¡Įãģ£ãģ¦": 8643,
      "ãĤ¸ãĥ¥ãĤ¨": 8644,
      "Facebookãģ§": 8645,
      "ãĥĹãĥ©ãĤº": 8646,
      "æ§ĭéĢł": 8647,
      "ãģ«åĩºãģ¦": 8648,
      "è©³ãģĹãģĦ": 8649,
      "éłĥãĤĴäºĪå®ļãģĹãģ¦ãģĬãĤĬãģ¾ãģĻ": 8650,
      "ãĤĴç´¹ä»ĭãģĹãĤĪãģĨ": 8651,
      "æľĢè¿ĳãģ¯": 8652,
      "ãĤĴæĲŃè¼īãģĻãĤĭ": 8653,
      "ITãĥĭãĥ¥ãĥ¼ãĤ¹": 8654,
      "ãģ®åįĬ": 8655,
      "å¨ģ": 8656,
      "ãĤĴè¶ħãģĪãģŁ": 8657,
      "ãģĿãģ®ä»ĸãģ«ãĤĤ": 8658,
      "ãĤ°ãĥŃãĥ¼ãĥĸ": 8659,
      "ä¼ĬèĹ¤": 8660,
      "Ķ¾éĢģãģķãĤĮãģŁ": 8661,
      "å®Įåħ¨ãģ«": 8662,
      "è²´éĩįãģª": 8663,
      "æĽľæĹ¥": 8664,
      "edia": 8665,
      "ãĤ¹ãĥĪãĥ¬ãĥĥãĥģ": 8666,
      "çĻĴãģĹ": 8667,
      "ãĥĻãĥ«ãĤ»ãĥ«ãĤ¯é»ĦéĩĳæĻĤä»£ç¯ĩ": 8668,
      "æĬ½éģ¸ãģ§": 8669,
      "åıĤåħ¥ãģĻãĤĭ": 8670,
      "éİĸ": 8671,
      "ãĤ¨ãĥįãĥ«ãĤ®ãĥ¼": 8672,
      "ãģ®çĭ¬": 8673,
      "ãģ«åħĪé§Ĩãģĳãģ¦": 8674,
      "é«ĺæ©ĭãģ¿ãģªãģ¿": 8675,
      "ãģĮæ¬²ãģĹãģĦ": 8676,
      "ãģ¬ãģĦãģĲãĤĭãģ¿": 8677,
      "Yahoo": 8678,
      "ãĥĹãĥ©ãĥĥãĥĪãĥķãĤ©ãĥ¼ãĥł": 8679,
      "-ãĢı": 8680,
      "Core": 8681,
      "NEC": 8682,
      "ri": 8683,
      "su": 8684,
      "Ħæĥ³": 8685,
      "ãģ®è¡Į": 8686,
      "ãĥ¼ãĤ¶ãĥ¼": 8687,
      "ãģ«ãģ¾ãģ§": 8688,
      "ãģ«æľŁå¾ħ": 8689,
      "ãģ«ãģ´ãģ£ãģŁãĤĬ": 8690,
      "ãĤĴä¼Ŀ": 8691,
      "ãģĮçĻºè¡¨": 8692,
      "ãģĮå¥½ãģįãģª": 8693,
      "ãģĮãĤ¹ãĤ¿ãĥ¼ãĥĪ": 8694,
      "ãģĭãģĽãĤĭ": 8695,
      "ãĤĤæ®ºãģĻ": 8696,
      "ãĤ¯ãĤ¤": 8697,
      "ãĤ¢ãĥ¡": 8698,
      "ãĤĵãģ§ãģįãģŁ": 8699,
      "ãĥ©ãĥ³ãĥĭãĥ³ãĤ°": 8700,
      "ãĤ·ãĥķãĥĪ": 8701,
      "ãģĻãĤĭãĤĪãģĨãģª": 8702,
      "äººäºĭ": 8703,
      "äººæķ°": 8704,
      "ãģ®æ±º": 8705,
      "ãģĭãĤīãģŃ": 8706,
      "ãĥ¡ãĤ¤ãĥī": 8707,
      "æĺ¼": 8708,
      "ãģ¿ãģ¾ãģĹãģŁ": 8709,
      "ãģ¿ãģ¦ãģ¯ãģĦãģĭãģĮ": 8710,
      "ãģĽãģ°": 8711,
      "å¥ı": 8712,
      "ãĤµãĥª": 8713,
      "ä¸Ģãģ¤ãģ®": 8714,
      "äºĭåīįãģ«": 8715,
      "ä¸Ĭä½į": 8716,
      "æĻº": 8717,
      "å¯Ľ": 8718,
      "æ°Ĺåĳ³": 8719,
      "åĩºãģĹãģ¦ãģĦãĤĭ": 8720,
      "åŃĲå½¹": 8721,
      "çĶ¨éĢĶ": 8722,
      "ãĥĳãĤ¦": 8723,
      "åĪĨãģ§": 8724,
      "ãģ«æį": 8725,
      "ãģ«æĶ¯": 8726,
      "ãģ®çĿ": 8727,
      "ãĥªãĥ¼ãĤ¬": 8728,
      "åĭķãģı": 8729,
      "åĲĪè¨Ī": 8730,
      "ãģĶãģı": 8731,
      "ãģĵãģ®ä½ľåĵģ": 8732,
      "éĢļçŁ¥": 8733,
      "ãĥĽãĥ³ãĥĢ": 8734,
      "å¾ĮåįĬ": 8735,
      "åº¦ãģ®": 8736,
      "ä»£çĲĨ": 8737,
      "è¦ģæ±Ĥ": 8738,
      "çŁ¥ãĤĮãģªãģĦ": 8739,
      "ãĥķãĤ©ãĥŃ": 8740,
      "èĤª": 8741,
      "ä¸ĭãģĴ": 8742,
      "çµĦãĤĢ": 8743,
      "ä¸ĸçķĮè¦³": 8744,
      "åľ°æĸ¹": 8745,
      "èªŀãģ£ãģŁ": 8746,
      "ãģłãģ£ãģŁãģ®ãģĭ": 8747,
      "å°ıå³¶": 8748,
      "iPhoneãģĮæį": 8749,
      "ãģķãĤīãģªãĤĭ": 8750,
      "ãĥ¦ãĥ¼ãĤ¶ãĥ¼ãĤĤ": 8751,
      "rome": 8752,
      "ç§ģãģ®": 8753,
      "çĶ±éĩĮ": 8754,
      "çĻ½ãģĦ": 8755,
      "ä¼ļç¤¾ãģ®": 8756,
      "ãģĤãĤĬãģ¾ãģĻãģĮ": 8757,
      "ãĥĩãĤ¸ãĤ¿ãĥ«ä¸Ģçľ¼": 8758,
      "éĸĭåĤ¬ãģķãĤĮãĤĭ": 8759,
[...]
