{
  "version": "1.0",
  "truncation": null,
  "padding": null,
  "added_tokens": [
    {
      "id": 0,
      "content": "<pad>",
      "single_word": false,
      "lstrip": false,
      "rstrip": false,
      "normalized": false,
      "special": true
    },
    {
      "id": 1,
      "content": "<bos>",
      "single_word": false,
      "lstrip": false,
      "rstrip": false,
      "normalized": false,
      "special": true
    },
    {
      "id": 2,
      "content": "<eos>",
      "single_word": false,
      "lstrip": false,
      "rstrip": false,
      "normalized": false,
      "special": true
    },
    {
      "id": 3,
      "content": "<unk>",
      "single_word": false,
      "lstrip": false,
      "rstrip": false,
      "normalized": false,
      "special": true
    },
    {
      "id": 4,
      "content": "<mask>",
      "single_word": false,
      "lstrip": false,
      "rstrip": false,
      "normalized": false,
      "special": true
    }
  ],
  "normalizer": {
    "type": "NFKC"
  },
  "pre_tokenizer": null,
  "post_processor": null,
  "decoder": null,
  "model": {
    "type": "Unigram",
    "unk_id": 3,
    "vocab": [
      [
        "<pad>",
        0.0
      ],
      [
        "<bos>",
        0.0
      ],
      [
        "<eos>",
        0.0
      ],
      [
        "<unk>",
        0.0
      ],
      [
        "<mask>",
        0.0
      ],
      [
        "の",
        -3.095845871338123
      ],
      [
        "。",
        -3.5183398081264246
      ],
      [
        "を",
        -3.787710509474574
      ],
      [
        "、",
        -3.7966072028751787
      ],
      [
        "に",
        -3.812892654323062
      ],
      [
        "が",
        -3.949768479164005
      ],
      [
        "は",
        -4.1809883598922255
      ],
      [
        "と",
        -4.466554356590984
      ],
      [
        "も",
        -4.770904410384011
      ],
      [
        "で",
        -4.846422412848305
      ],
      [
        "・",
        -4.860346120102004
      ],
      [
        "や",
        -4.93346640529974
      ],
      [
        "(",
        -4.942981782304809
      ],
      [
        "した",
        -5.0119254623103515
      ],
      [
        "する",
        -5.13041956914418
      ],
      [
        ")",
        -5.135864322030583
      ],
      [
        "る",
        -5.172116994854024
      ],
      [
        "た",
        -5.188013546710744
      ],
      [
        "国",
        -5.329375131661341
      ],
      [
        "い",
        -5.3613110153398065
      ],
      [
        "から",
        -5.451672095940212
      ],
      [
        "年",
        -5.53678202313861
      ],
      [
        "である",
        -5.549907225014604
      ],
      [
        "し、",
        -5.588805905171263
      ],
      [
        "大",
        -5.621131696665325
      ],
      [
        "し",
        -5.636208381600595
      ],
      [
        "な",
        -5.648579188354741
      ],
      [
        "が、",
        -5.709585928438337
      ],
      [
        "て",
        -5.720172797682142
      ],
      [
        "して",
        -5.72502802296318
      ],
      [
        "平氏",
        -5.740479472400095
      ],
      [
        "は、",
        -5.754502263555533
      ],
      [
        "義",
        -5.767068376946816
      ],
      [
        "など",
        -5.780188257294542
      ],
      [
        "一",
        -5.828858280057713
      ],
      [
        "として",
        -5.840765439479527
      ],
      [
        "った",
        -5.84358828976205
      ],
      [
        " ",
        -5.849479103608241
      ],
      [
        "1",
        -5.897965787974152
      ],
      [
        "中",
        -5.8995700418951476
      ],
      [
        "政",
        -5.903946456386875
      ],
      [
        "後",
        -5.952492923024236
      ],
      [
        "将軍",
        -6.031322119169193
      ],
      [
        "え",
        -6.0321005575668
      ],
      [
        "ら",
        -6.055363950778313
      ],
      [
        "には",
        -6.0801307204307165
      ],
      [
        "この",
        -6.09506827170425
      ],
      [
        "こと",
        -6.095642158157309
      ],
      [
        "く",
        -6.104722697996939
      ],
      [
        "上",
        -6.119722185122769
      ],
      [
        "元",
        -6.120093094889056
      ],
      [
        "子",
        -6.183026101621611
      ],
      [
        "3",
        -6.183740949580189
      ],
      [
        "後白河",
        -6.185427240705703
      ],
      [
        "その",
        -6.193591187357157
      ],
      [
        "家",
        -6.214062658153379
      ],
      [
        "人",
        -6.214551766602517
      ],
      [
        "か",
        -6.214608839001996
      ],
      [
        "氏",
        -6.2157699370361446
      ],
      [
        "軍",
        -6.2485105495479605
      ],
      [
        "」",
        -6.250693603859698
      ],
      [
        "による",
        -6.251752058282016
      ],
      [
        "「",
        -6.257025367990407
      ],
      [
        "2",
        -6.29841491417953
      ],
      [
        "出",
        -6.3244920957770105
      ],
      [
        "幕府",
        -6.346993148498855
      ],
      [
        "派",
        -6.3555218802746145
      ],
      [
        "山",
        -6.360588957780157
      ],
      [
        "長",
        -6.3619290905033825
      ],
      [
        "ま",
        -6.368245440601635
      ],
      [
        "れ",
        -6.392700140329765
      ],
      [
        "事",
        -6.402169709137411
      ],
      [
        "された",
        -6.404359465517562
      ],
      [
        "り",
        -6.4196448020382055
      ],
      [
        "下",
        -6.438955233579145
      ],
      [
        "期",
        -6.440697953017972
      ],
      [
        "院",
        -6.441754302560504
      ],
      [
        "地",
        -6.443160440831496
      ],
      [
        "乱",
        -6.444144402427121
      ],
      [
        "武士",
        -6.488107914691476
      ],
      [
        "となった",
        -6.488197736700619
      ],
      [
        "実",
        -6.525127805414965
      ],
      [
        "西",
        -6.530730923343622
      ],
      [
        "平",
        -6.531537579331958
      ],
      [
        "足利",
        -6.5320645956211845
      ],
      [
        "正",
        -6.532522460891127
      ],
      [
        "力",
        -6.558278863536085
      ],
      [
        "であった",
        -6.562909523569595
      ],
      [
        "め",
        -6.5688307262726875
      ],
      [
        "す",
        -6.5754536958406495
      ],
      [
        "高",
        -6.575552071362493
      ],
      [
        "時代",
        -6.580278567359212
      ],
      [
        "成",
        -6.5804296818816885
      ],
      [
        "明",
        -6.581124813741521
      ],
      [
        "的",
        -6.5954546757420704
      ],
      [
        "清盛は",
        -6.608137032578222
      ],
      [
        "立",
        -6.628497077382202
      ],
      [
        "って",
        -6.629139771988502
      ],
      [
        "いた",
        -6.629407447756404
      ],
      [
        "対",
        -6.62973160796545
      ],
      [
        "前",
        -6.630513613507674
      ],
      [
        "内",
        -6.630974419313542
      ],
      [
        "京都",
        -6.631644850340018
      ],
      [
        "勢力",
        -6.659682670461856
      ],
      [
        "領",
        -6.681557844943695
      ],
      [
        "政権",
        -6.6819767665786625
      ],
      [
        "戦",
        -6.683266057199733
      ],
      [
        "合",
        -6.683806569670069
      ],
      [
        "土",
        -6.6838074233329525
      ],
      [
        "み",
        -6.683807423339053
      ],
      [
        "により",
        -6.695030824607682
      ],
      [
        "まで",
        -6.69957835821552
      ],
      [
        "寺",
        -6.708205607679644
      ],
      [
        "東",
        -6.735186808519211
      ],
      [
        "本",
        -6.73870089377243
      ],
      [
        "宗",
        -6.738702716758011
      ],
      [
        "う",
        -6.738828638313047
      ],
      [
        "発",
        -6.738884924715466
      ],
      [
        "制",
        -6.739239297952939
      ],
      [
        "見",
        -6.7393202318425365
      ],
      [
        "親",
        -6.739321519420625
      ],
      [
        "要",
        -6.739362978894534
      ],
      [
        "銭",
        -6.739362978894609
      ],
      [
        "支配",
        -6.739426245969363
      ],
      [
        "日本",
        -6.740015279182568
      ],
      [
        "ない",
        -6.752230970608649
      ],
      [
        "6",
        -6.780021126839072
      ],
      [
        "平氏政権",
        -6.794432438543611
      ],
      [
        "所",
        -6.796794479799371
      ],
      [
        "定",
        -6.797211823497445
      ],
      [
        "ていた",
        -6.797537552407645
      ],
      [
        "関",
        -6.79793403619
      ],
      [
        "行",
        -6.797993069081086
      ],
      [
        "道",
        -6.798186508306358
      ],
      [
        "り、",
        -6.8066044303157005
      ],
      [
        "清盛",
        -6.819989439967175
      ],
      [
        "権力",
        -6.8254608933733385
      ],
      [
        "世",
        -6.840824446257136
      ],
      [
        "では",
        -6.85294207119308
      ],
      [
        "通",
        -6.859042759412279
      ],
      [
        "つ",
        -6.8600864533727535
      ],
      [
        "京",
        -6.8600968547665655
      ],
      [
        "任",
        -6.860520189006117
      ],
      [
        "能",
        -6.860682040093625
      ],
      [
        "源",
        -6.860683549847813
      ],
      [
        "経済",
        -6.860717509825285
      ],
      [
        "など、",
        -6.867292399385045
      ],
      [
        "これ",
        -6.893021309064079
      ],
      [
        "文化",
        -6.908593887751035
      ],
      [
        "盛",
        -6.924542147059313
      ],
      [
        "方",
        -6.925521804206907
      ],
      [
        "反",
        -6.9262330791641675
      ],
      [
        "じ",
        -6.926966522950519
      ],
      [
        "決",
        -6.927311434351921
      ],
      [
        "結",
        -6.927352344403834
      ],
      [
        "によって",
        -6.927356985206498
      ],
      [
        "地方",
        -6.928973798199043
      ],
      [
        "政治",
        -6.9290653607014
      ],
      [
        "していた",
        -6.929355692013587
      ],
      [
        "大名",
        -6.9300593558292265
      ],
      [
        "ている",
        -6.941748146274048
      ],
      [
        "される",
        -6.9458595484472205
      ],
      [
        "ことが",
        -6.979653932872523
      ],
      [
        "られ",
        -6.991027491572451
      ],
      [
        "応仁の乱",
        -6.991986076486246
      ],
      [
        "『",
        -6.994773428473755
      ],
      [
        "室町時代",
        -6.996430869023609
      ],
      [
        "という",
        -6.99665538118621
      ],
      [
        "安",
        -6.997555543899354
      ],
      [
        "流",
        -6.9976318106213915
      ],
      [
        "南",
        -6.998166656353095
      ],
      [
        "貴族",
        -6.998280268455822
      ],
      [
        "位",
        -6.998664533939261
      ],
      [
        "新",
        -6.998760961929483
      ],
      [
        "師",
        -6.998773422669674
      ],
      [
        "ず",
        -6.998781746401646
      ],
      [
        "と呼ばれる",
        -6.9995002548373115
      ],
      [
        "重盛",
        -6.999575193990406
      ],
      [
        "また、",
        -7.012329310667656
      ],
      [
        "ち",
        -7.020987604958448
      ],
      [
        "への",
        -7.04023422780075
      ],
      [
        "的に",
        -7.04705280033858
      ],
      [
        "5",
        -7.050381531005013
      ],
      [
        "後の",
        -7.050758068590617
      ],
      [
        "ため",
        -7.058981707886538
      ],
      [
        "き",
        -7.068897966198968
      ],
      [
        "代",
        -7.0726706455427815
      ],
      [
        "信",
        -7.073831860481846
      ],
      [
        "強",
        -7.074721785637181
      ],
      [
        "北",
        -7.07508883082042
      ],
      [
        "建",
        -7.075133599553043
      ],
      [
        "海",
        -7.075654666353138
      ],
      [
        "従",
        -7.075663098339276
      ],
      [
        "部",
        -7.0756648524557795
      ],
      [
        "田",
        -7.075704033441837
      ],
      [
        "頼",
        -7.075704103458511
      ],
      [
        "和",
        -7.0757048233236794
      ],
      [
        "だった",
        -7.0782253517818825
      ],
      [
        "せ",
        -7.079977686126403
      ],
      [
        "的な",
        -7.080889826370582
      ],
      [
        "などの",
        -7.082302959884119
      ],
      [
        "へ",
        -7.0998290282109435
      ],
      [
        "にも",
        -7.142026484037455
      ],
      [
        "自",
        -7.156277623588668
      ],
      [
        "応",
        -7.158058331547686
      ],
      [
        "記",
        -7.158651987034689
      ],
      [
        "者",
        -7.15869816556809
      ],
      [
        "利",
        -7.158932511727986
      ],
      [
        "わ",
        -7.158956759072958
      ],
      [
        "来",
        -7.1589748313071055
      ],
      [
        "門",
        -7.159026876114158
      ],
      [
        "々",
        -7.159038156658166
      ],
      [
        "基盤",
        -7.159038157289906
      ],
      [
        "伊勢",
        -7.159099171898497
      ],
      [
        "室町幕府",
        -7.160209309127081
      ],
      [
        "て、",
        -7.166400038492054
      ],
      [
        "され、",
        -7.175072309084097
      ],
      [
        "ため、",
        -7.186606395641952
      ],
      [
        "清盛の",
        -7.225655283854772
      ],
      [
        "特",
        -7.22628557216189
      ],
      [
        "平氏政権は",
        -7.229013195918311
      ],
      [
        "武家",
        -7.236251883908508
      ],
      [
        "化",
        -7.24108087858083
      ],
      [
        "名",
        -7.244158651495443
      ],
      [
        "っていた",
        -7.24679154365699
      ],
      [
        "だ",
        -7.247503819329201
      ],
      [
        "重",
        -7.24840396892635
      ],
      [
        "生",
        -7.2495858729405125
      ],
      [
        "三",
        -7.249768088131324
      ],
      [
        "不",
        -7.2498198627569534
      ],
      [
        "開",
        -7.249866288591888
      ],
      [
        "多",
        -7.249871415413698
      ],
      [
        "伝",
        -7.2498876203356355
      ],
      [
        "7",
        -7.24991340469641
      ],
      [
        "追討",
        -7.24993257836047
      ],
      [
        "させた",
        -7.249946272318574
      ],
      [
        "守",
        -7.249947246350851
      ],
      [
        "日宋貿易",
        -7.249947247567556
      ],
      [
        "延暦寺",
        -7.249947464017493
      ],
      [
        "さらに",
        -7.249990278600835
      ],
      [
        "都市",
        -7.250198001196916
      ],
      [
        "管領",
        -7.250386424461183
      ],
      [
        "ており、",
        -7.2504522969167855
      ],
      [
        "しかし",
        -7.250620250340127
      ],
      [
        "院政",
        -7.2540177033843
      ],
      [
        "月",
        -7.299176722776265
      ],
      [
        "寺社",
        -7.304105666695787
      ],
      [
        "で、",
        -7.321805509447012
      ],
      [
        "武家政権",
        -7.331211424514601
      ],
      [
        "公家",
        -7.337644899610782
      ],
      [
        "面",
        -7.339992301455849
      ],
      [
        "継",
        -7.346321336912045
      ],
      [
        "集",
        -7.346684572359687
      ],
      [
        "0",
        -7.346969005047633
      ],
      [
        "光",
        -7.348293305345302
      ],
      [
        "形",
        -7.348458736959582
      ],
      [
        "天皇",
        -7.34852346482651
      ],
      [
        "日",
        -7.3486117893113665
      ],
      [
        "倉",
        -7.348808459261587
      ],
      [
        "交",
        -7.348836929097833
      ],
      [
        "関係",
        -7.348888506544716
      ],
      [
        "王",
        -7.349260550595379
      ],
      [
        "すること",
        -7.349585225430855
      ],
      [
        "職",
        -7.349599629358757
      ],
      [
        "教",
        -7.349615031214826
      ],
      [
        "入",
        -7.349618744652222
      ],
      [
        "であり、",
        -7.349686477277894
      ],
      [
        "け",
        -7.34978144913606
      ],
      [
        "再",
        -7.349901567298353
      ],
      [
        "続",
        -7.349917808352579
      ],
      [
        "点",
        -7.349931668338453
      ],
      [
        "兵",
        -7.349945338724039
      ],
      [
        "保",
        -7.34994704150925
      ],
      [
        "理",
        -7.349947047362688
      ],
      [
        "指",
        -7.349947247568223
      ],
      [
        "退",
        -7.349947247568236
      ],
      [
        "失",
        -7.349947247568307
      ],
      [
        "設",
        -7.349947247568364
      ],
      [
        "荘園",
        -7.350018985769774
      ],
      [
        "三好",
        -7.350145269855766
      ],
      [
        "となる",
        -7.350315901932532
      ],
      [
        "あり",
        -7.350699501037585
      ],
      [
        "南朝",
        -7.350788414831289
      ],
      [
        "流通",
        -7.351520119192504
      ],
      [
        "14",
        -7.3516355722120785
      ],
      [
        "正盛",
        -7.352289483936682
      ],
      [
        "15",
        -7.353815198899532
      ],
      [
        "永",
        -7.354521652698812
      ],
      [
        "きた",
        -7.357730498461519
      ],
      [
        "書",
        -7.357740957710735
      ],
      [
        "そ",
        -7.415008444972653
      ],
      [
        "治",
        -7.421224324192512
      ],
      [
        "より",
        -7.435093343585496
      ],
      [
        "では、",
        -7.436508008899066
      ],
      [
        "以",
        -7.449689448591162
      ],
      [
        "藤原",
        -7.4522061349821005
      ],
      [
        "同",
        -7.456681311183036
      ],
      [
        "朝",
        -7.458426157972455
      ],
      [
        "主",
        -7.458713395166024
      ],
      [
        "用",
        -7.458847956211304
      ],
      [
        "都",
        -7.459664292593612
      ],
      [
        "義満",
        -7.46006586216578
      ],
      [
        "画",
        -7.4605448662819995
      ],
      [
        "言",
        -7.460630326563869
      ],
      [
        "物",
        -7.461013077488278
      ],
      [
        "御",
        -7.461024287419431
      ],
      [
        "神",
        -7.461038057403622
      ],
      [
        "体",
        -7.461057536073772
      ],
      [
        "び",
        -7.461057702006312
      ],
      [
        "鎌倉時代",
        -7.461057863082689
      ],
      [
        "増",
        -7.461058358624577
      ],
      [
        "手",
        -7.461058358680721
      ],
      [
        "先",
        -7.46105835868181
      ],
      [
        "父",
        -7.461058358681846
      ],
      [
        "機",
        -7.46105835868185
      ],
      [
        "吉",
        -7.461058358681877
      ],
      [
        "村",
        -7.46105835868188
      ],
      [
        "金",
        -7.461058358681887
      ],
      [
        "無",
        -7.4610583586819255
      ],
      [
        "収",
        -7.461058358681937
      ],
      [
        "外",
        -7.461058358681941
      ],
      [
        "摂関家",
        -7.461058358686309
      ],
      [
        "庶民",
        -7.461058359016554
      ],
      [
        "建築",
        -7.461058360345584
      ],
      [
        "解",
        -7.461061100270095
      ],
      [
        "させる",
        -7.461063284006899
      ],
      [
        "戦国大名",
        -7.46106928707637
      ],
      [
        "なかった",
        -7.461095609183681
      ],
      [
        "礼法",
        -7.461154752706699
      ],
      [
        "義材",
        -7.4612768335256785
      ],
      [
        "義視",
        -7.461536663719363
      ],
      [
        "発達",
        -7.461723572721497
      ],
      [
        "されていた",
        -7.462141894110145
      ],
      [
        "有力",
        -7.462206445658503
      ],
      [
        "交通",
        -7.462297094175387
      ],
      [
        "これにより",
        -7.463378478934519
      ],
      [
        "対立",
        -7.463419566999834
      ],
      [
        "信長",
        -7.463749384301004
      ],
      [
        "すると、",
        -7.463854593475126
      ],
      [
        "さ",
        -7.465101654602869
      ],
      [
        "これら",
        -7.4653856728074866
      ],
      [
        "になる",
        -7.467380259985859
      ],
      [
        "家人",
        -7.46845147805884
      ],
      [
        "その後、",
        -7.471298806735346
      ],
      [
        "高国",
        -7.473448940204289
      ],
      [
        "代将軍",
        -7.477751319622008
      ],
      [
        "され",
        -7.551613183897276
      ],
      [
        "している",
        -7.558098079229577
      ],
      [
        "あ",
        -7.5677537122767795
      ],
      [
        "よう",
        -7.568470901626759
      ],
      [
        "全",
        -7.57919349406343
      ],
      [
        "向",
        -7.581716944448277
      ],
      [
        "また",
        -7.581755435778396
      ],
      [
        "室町",
        -7.583049534406614
      ],
      [
        "商",
        -7.583589584787822
      ],
      [
        "態",
        -7.584226519523556
      ],
      [
        "文",
        -7.585040515401389
      ],
      [
        "使",
        -7.585576718422561
      ],
      [
        "条",
        -7.585723580611852
      ],
      [
        "進",
        -7.585943890730148
      ],
      [
        "法",
        -7.585949158832281
      ],
      [
        "亡",
        -7.586043246885025
      ],
      [
        "む",
        -7.586045512660948
      ],
      [
        "養",
        -7.586048330793722
      ],
      [
        "広",
        -7.586048786583085
      ],
      [
        "城",
        -7.58604894352882
      ],
      [
        "延",
        -7.586058055832311
      ],
      [
        "工",
        -7.586058358690313
      ],
      [
        "層",
        -7.586058358690412
      ],
      [
        "宮",
        -7.5860583586909645
      ],
      [
        "階",
        -7.586058358691059
      ],
      [
        "における",
        -7.586058358691119
      ],
      [
        "確立",
        -7.586058361654883
      ],
      [
        "院近臣",
        -7.586059007265614
      ],
      [
        "大きく",
        -7.586072766242264
      ],
      [
        "ほか、",
        -7.586074471101599
      ],
      [
        "大きな",
        -7.586080894738342
      ],
      [
        "細川",
        -7.586095234595307
      ],
      [
        "新たな",
        -7.58609573379791
      ],
      [
        "一方で",
        -7.58615070286445
      ],
      [
        "となり、",
        -7.586253722280446
      ],
      [
        "忠盛",
        -7.58654922051384
      ],
      [
        "義政は",
        -7.586645049741595
      ],
      [
        "記』",
        -7.586648897031386
      ],
      [
        "義尚",
        -7.586738136025671
      ],
      [
        "建武",
        -7.586950619429352
      ],
      [
        "北朝",
        -7.5870792823882995
      ],
      [
        "宗全",
        -7.587319657524548
      ],
      [
        "勝元",
        -7.5874614335588575
      ],
      [
        "武力",
        -7.5875695743412965
      ],
      [
        "安定",
        -7.588203502390667
      ],
      [
        "こうした",
        -7.588451501836445
      ],
      [
        "となってい",
        -7.588700286370344
      ],
      [
        "との",
        -7.5889326760947515
      ],
      [
        "所領",
        -7.588998887100372
      ],
      [
        "化した",
        -7.596106063731159
      ],
      [
        "武",
        -7.601143281593702
      ],
      [
        "公",
        -7.601784779771099
      ],
      [
        "足利義満",
        -7.605219500037781
      ],
      [
        "とした",
        -7.6073462415925
      ],
      [
        "いった",
        -7.647402047421976
      ],
      [
        "これは",
        -7.6487929129518095
      ],
      [
        "義政の",
        -7.687179163216669
      ],
      [
        "史書",
        -7.7176435368496
      ],
      [
        "争",
        -7.722096519816281
      ],
      [
        "諸",
        -7.7234154262004004
      ],
      [
        "勢",
        -7.727102339239075
      ],
      [
        "基",
        -7.727244506409798
      ],
      [
        "有",
        -7.727403592344213
      ],
      [
        "動",
        -7.727595255952846
      ],
      [
        "もある",
        -7.727677921567303
      ],
      [
        "社会",
        -7.727974543472076
      ],
      [
        "臣",
        -7.728051563592463
      ],
      [
        "承",
        -7.728150544393369
      ],
      [
        "当",
        -7.728366491096845
      ],
      [
        "持",
        -7.728406650809356
      ],
      [
        "近",
        -7.728501549874865
      ],
      [
        "存",
        -7.728514985361811
      ],
      [
        "営",
        -7.728552452418832
      ],
      [
        "場",
        -7.728580227930648
      ],
      [
        "皇",
        -7.728618806208271
      ],
      [
        "町",
        -7.728659933210593
      ],
      [
        "衆",
        -7.728730290627841
      ],
      [
        "幕",
        -7.728808188927625
      ],
      [
        "楽",
        -7.7288357978900555
      ],
      [
        "両",
        -7.728850088700909
      ],
      [
        "分",
        -7.72885277748271
      ],
      [
        "抗",
        -7.728869659694999
      ],
      [
        "最",
        -7.728884873263906
      ],
      [
        "性",
        -7.7289054669863955
      ],
      [
        "屋",
        -7.728913264470396
      ],
      [
        "知行国",
        -7.728913897889404
      ],
      [
        "連",
        -7.728915097522906
      ],
      [
        "殿",
        -7.728915249285979
      ],
      [
        "富",
        -7.728915459546303
      ],
      [
        "頭",
        -7.728915499771582
      ],
      [
        "阿",
        -7.728915501548146
      ],
      [
        "廃",
        -7.728915501548146
      ],
      [
        "観",
        -7.728915501548168
      ],
      [
        "意",
        -7.72891550154819
      ],
      [
        "浦",
        -7.728915501548212
      ],
      [
        "鎌倉幕府",
        -7.728915501551018
      ],
      [
        "水",
        -7.728915501587354
      ],
      [
        "げ",
        -7.728915501588031
      ],
      [
        "堺",
        -7.7289155015880855
      ],
      [
        "弟",
        -7.728915501588089
      ],
      [
        "運",
        -7.728915501588098
      ],
      [
        "急死",
        -7.728915501647314
      ],
      [
        " - ",
        -7.728917592980846
      ],
      [
        "海賊",
        -7.728994014239842
      ],
      [
        "存在",
        -7.729316120108487
      ],
      [
        "形成",
        -7.729439077437613
      ],
      [
        "軍事的",
        -7.729736244511103
      ],
      [
        "高倉天皇",
        -7.731248260065992
      ],
      [
        "期 ",
        -7.740025149937058
      ],
      [
        "なく",
        -7.746235055851721
      ],
      [
        "れた",
        -7.748544591078168
      ],
      [
        "へと",
        -7.751986181128543
      ],
      [
        "ようになった",
        -7.763934611983538
      ],
      [
        "特に",
        -7.768311533634148
      ],
      [
        "まり",
        -7.782492221034577
      ],
      [
        "代将軍足利義",
        -7.875906200012319
      ],
      [
        "時",
        -7.889858412397441
      ],
      [
        "直",
        -7.891871933274777
      ],
      [
        "4",
        -7.892643457369481
      ],
      [
        "』",
        -7.89474733088556
      ],
      [
        "統",
        -7.894758860530617
      ],
      [
        "座",
        -7.894896083373452
      ],
      [
        "江",
        -7.895094373603055
      ],
      [
        "在",
        -7.8951089170642135
      ],
      [
        "料",
        -7.895235156783582
      ],
      [
        "僧",
        -7.8954590544411
      ],
      [
        "河",
        -7.895494796383799
      ],
      [
        "役",
        -7.895495737107999
      ],
      [
        "与",
        -7.89550370510632
      ],
      [
        "数",
        -7.895507613981541
      ],
      [
        "8",
        -7.895551287219762
      ],
      [
        "式",
        -7.895552427908463
      ],
      [
        "命",
        -7.8955546363156355
      ],
      [
        "原",
        -7.895555798160469
      ],
      [
        "貞",
        -7.895561096328692
      ],
      [
        "説",
        -7.895569317344039
      ],
      [
        "とする見解",
        -7.895574907273689
      ],
      [
        "知",
        -7.895576360501776
      ],
      [
        "族",
        -7.895577990984381
      ],
      [
        "ろ",
        -7.89557871728482
      ],
      [
        "仁",
        -7.8955808314938185
      ],
      [
        "ぐ",
        -7.895580907932553
      ],
      [
        "半",
        -7.895582085292036
      ],
      [
        "伴",
        -7.895582156662119
      ],
      [
        "敗",
        -7.8955821675198194
      ],
      [
        "古",
        -7.895582168214807
      ],
      [
        "議",
        -7.895582168214811
      ],
      [
        "翌",
        -7.895582168214819
      ],
      [
        "残",
        -7.895582168214824
      ],
      [
        "種",
        -7.895582168214827
      ],
      [
        "津",
        -7.89558216821483
      ],
      [
        "ぶ",
        -7.895582168214835
      ],
      [
        "野",
        -7.895582168214835
      ],
      [
        "放",
        -7.895582168214835
      ],
      [
        "止",
        -7.89558216821484
      ],
      [
        "令",
        -7.895582168214851
      ],
      [
        "ー",
        -7.8955821682148555
      ],
      [
        "本願寺派",
        -7.8955821682148715
      ],
      [
        "瀬戸内海",
        -7.895582168214876
      ],
      [
        "馬",
        -7.895582168214887
      ],
      [
        "波",
        -7.895582168220473
      ],
      [
        "比",
        -7.8955821682525915
      ],
      [
        "占",
        -7.89558216825462
      ],
      [
        "共",
        -7.895582168254723
      ],
      [
        "論",
        -7.8955821682547285
      ],
      [
        "頃",
        -7.895582168254734
      ],
      [
        "認",
        -7.895582168254734
      ],
      [
        "秀",
        -7.895582168254752
      ],
      [
        "回",
        -7.89558216825476
      ],
      [
        "と考えられている",
        -7.895582168254762
      ],
      [
        "在地領主",
        -7.895582463152616
      ],
      [
        "学界では",
        -7.895583120415536
      ],
      [
        "同時に",
        -7.8955960708816475
      ],
      [
        "足利将軍家",
        -7.8956026418142375
      ],
      [
        "戦国時代",
        -7.895606732828409
      ],
      [
        "だけで",
        -7.895620185338322
      ],
      [
        "を与え",
        -7.895641362574186
      ],
      [
        "を行う",
        -7.8956696773367
      ],
      [
        "世紀",
        -7.895700129859352
      ],
      [
        "6年)",
        -7.895754043807775
      ],
      [
        "生産",
        -7.89579602179307
      ],
      [
        "民衆",
        -7.895800929670907
      ],
      [
        "活動",
        -7.895801156791959
      ],
      [
        "3年)",
        -7.895879835584816
      ],
      [
        "市場",
        -7.895975571448091
      ],
      [
        "絵画",
        -7.895981767306742
      ],
      [
        "仏教",
        -7.8961550198724435
      ],
      [
        "がある",
        -7.896338517397025
      ],
      [
        "取り",
        -7.896400100529406
      ],
      [
        "やがて",
        -7.896913870870858
      ],
      [
        "されている",
        -7.8970671786241144
      ],
      [
        "後白河と清盛",
        -7.897382656746215
      ],
      [
        "それ",
        -7.898375217912284
      ],
      [
        "んで",
        -7.899447426526527
      ],
      [
        " 室町時代",
        -7.903325021881917
      ],
      [
        "西軍",
        -7.903795782009711
      ],
      [
        "歴史",
        -7.909648009641509
      ],
      [
        "以後",
        -7.910961673552066
      ],
      [
        "られた",
        -7.913245867820278
      ],
      [
        "しく",
        -7.9176320250583565
      ],
      [
        "(116",
        -7.950932512391881
      ],
      [
        "2年(1",
        -8.03127805321818
      ],
      [
        "権",
        -8.065033443501218
      ],
      [
        "になった",
        -8.070283008731938
      ],
      [
        "市",
        -8.088110628087161
      ],
      [
        "勝",
        -8.093242651995359
      ],
      [
        "達",
        -8.09433049544584
      ],
      [
        "史",
        -8.094398431630067
      ],
      [
        "身",
        -8.094654712708275
      ],
      [
        "支",
        -8.094728270589464
      ],
      [
        "官",
        -8.094847078632977
      ],
      [
        "仏",
        -8.094883212513956
      ],
      [
        "二",
        -8.094967633725327
      ],
      [
        "撃",
        -8.095046637276344
      ],
      [
        "陣",
        -8.0950589038034
      ],
      [
        "配",
        -8.095265448783369
      ],
      [
        "術",
        -8.09529957282166
      ],
      [
        "学",
        -8.095311037166816
      ],
      [
        "荘",
        -8.095353583150617
      ],
      [
        "評",
        -8.095365833810446
      ],
      [
        "経",
        -8.09537044499832
      ],
      [
        "賀",
        -8.095459228878038
      ],
      [
        "様",
        -8.095491539446119
      ],
      [
        "去",
        -8.095495436216362
      ],
      [
        "害",
        -8.095509555930095
      ],
      [
        "旧",
        -8.09553638385093
      ],
      [
        "相",
        -8.095536967312823
      ],
      [
        "焼",
        -8.095542512716708
      ],
      [
        "終",
        -8.095555749173384
      ],
      [
        "別",
        -8.095571897297708
      ],
      [
        "興",
        -8.095572133027561
      ],
      [
        "崩",
        -8.095572273871468
      ],
      [
        "復",
        -8.095573372410547
      ],
      [
        "帰",
        -8.095573372410616
      ],
      [
        "編",
        -8.095576225116652
      ],
      [
        "系",
        -8.095579907935276
      ],
      [
        "心",
        -8.09558040774199
      ],
      [
        "造",
        -8.095581013733904
      ],
      [
        "常",
        -8.095581073051067
      ],
      [
        "施",
        -8.095581159865738
      ],
      [
        "側",
        -8.095581449462658
      ],
      [
        "織",
        -8.095581588145091
      ],
      [
        "補",
        -8.09558163903587
      ],
      [
        "衛",
        -8.095581992656353
      ],
      [
        "量",
        -8.095582161563382
      ],
      [
        "良",
        -8.095582168145269
      ],
      [
        "茶",
        -8.095582168197545
      ],
      [
        "圧",
        -8.095582168214817
      ],
      [
        "移",
        -8.095582168214822
      ],
      [
        "限",
        -8.095582168214836
      ],
      [
        "郎",
        -8.095582168214849
      ],
      [
        "ト",
        -8.095582168214854
      ],
      [
        "ス",
        -8.095582168214854
      ],
      [
        "住",
        -8.095582168214854
      ],
      [
        "他",
        -8.095582168214873
      ],
      [
        "ぎ",
        -8.095582168214904
      ],
      [
        "私",
        -8.095582168214918
      ],
      [
        "等",
        -8.09558216821493
      ],
      [
        "着",
        -8.095582168242657
      ],
      [
        "始めた",
        -8.095582168245306
      ],
      [
        "閉",
        -8.095582168249619
      ],
      [
        "クーデター",
        -8.095582168254658
      ],
      [
        "宣",
        -8.095582168254689
      ],
      [
        "援",
        -8.0955821682547
      ],
      [
        "幸",
        -8.095582168254701
      ],
      [
        "口",
        -8.095582168254726
      ],
      [
        "病",
        -8.095582168254726
      ],
      [
        "衡",
        -8.095582168254758
      ],
      [
        "研",
        -8.095582168254758
      ],
      [
        "康",
        -8.095582168254765
      ],
      [
        "独自の",
        -8.095582168350877
      ],
      [
        "義昭は",
        -8.095582168739554
      ],
      [
        "太政大臣",
        -8.095582171966907
      ],
      [
        "を利用して",
        -8.095582435875103
      ],
      [
        "明応の政変",
        -8.095582572646318
      ],
      [
        "安徳天皇",
        -8.09558267505682
      ],
      [
        "について",
        -8.095583456340565
      ],
      [
        "後継者",
        -8.095586864151269
      ],
      [
        "ここに",
        -8.095587356586227
      ],
      [
        "整備",
        -8.095587451909811
      ],
      [
        "を行い、",
        -8.095591876340295
      ],
      [
        "大内氏",
        -8.09561679410035
      ],
      [
        "今川",
        -8.09562035872352
      ],
      [
        "昇進",
        -8.0956521640177
      ],
      [
        "付け",
        -8.095670761508337
      ],
      [
        "があった",
        -8.095689557887262
      ],
      [
        "関白",
        -8.09573623984903
      ],
      [
        "を行った",
        -8.095848613446922
      ],
      [
        "の地位",
        -8.095932621378791
      ],
      [
        "禅宗",
        -8.096026438759917
      ],
      [
        "引き",
        -8.096106583204833
      ],
      [
        "上洛",
        -8.096408135018564
      ],
      [
        "現地",
        -8.096954890394091
      ],
      [
        "基実",
        -8.09793001703476
      ],
      [
        "事態",
        -8.098634785186645
      ],
      [
        "向上",
        -8.099649669718461
      ],
      [
        "ていく",
        -8.102686253931449
      ],
      [
        "こ",
        -8.282351464841698
      ],
      [
        "になってい",
        -8.292365744448947
      ],
      [
        "9",
        -8.312704301097018
      ],
      [
        "7年)",
        -8.317133172700201
      ],
      [
        "においては",
        -8.318942656832844
      ],
      [
        "以降、",
        -8.319791726922944
      ],
      [
        "ど",
        -8.342002401155446
      ],
      [
        "義政が",
        -8.343577879391828
      ],
      [
        "ば",
        -8.343604047832928
      ],
      [
        "現",
        -8.343824537828395
      ],
      [
        "社",
        -8.3439307874436
      ],
      [
        "管",
        -8.344272971201612
      ],
      [
        "元年(11",
        -8.344284914397525
      ],
      [
        "忠",
        -8.344535832124777
      ],
      [
        "天",
        -8.344542823362627
      ],
      [
        "輸",
        -8.34481894961835
      ],
      [
        "絵",
        -8.344956997556354
      ],
      [
        "室",
        -8.345113739761615
      ],
      [
        "芸",
        -8.345219784158482
      ],
      [
        "問",
        -8.345235973593814
      ],
      [
        "成立した",
        -8.345429738651355
      ],
      [
        "策",
        -8.345436176381401
      ],
      [
        "殺",
        -8.34548905167585
      ],
      [
        "降",
        -8.345524241928034
      ],
      [
        "六",
        -8.345537028532316
      ],
      [
        "突",
        -8.345537028533252
      ],
      [
        "風",
        -8.345540972737478
      ],
      [
        "慶",
        -8.345550714471846
      ],
      [
        "太平記",
        -8.345575984280341
      ],
      [
        "太",
        -8.345576435535508
      ],
      [
        "木",
        -8.345579931344233
      ],
      [
        "末",
        -8.345580971246411
      ],
      [
        "果",
        -8.345581006015948
      ],
      [
        "徳",
        -8.345581379042885
      ],
      [
        "暦",
        -8.34558152258117
      ],
      [
        "難",
        -8.345581678104974
      ],
      [
        "異",
        -8.345582057619703
      ],
      [
        "征",
        -8.34558216581994
      ],
      [
        "夷",
        -8.34558216582014
      ],
      [
        "鎮",
        -8.345582168024606
      ],
      [
        "装",
        -8.345582168214811
      ],
      [
        "修",
        -8.345582168214811
      ],
      [
        "切",
        -8.34558216821482
      ],
      [
        "必",
        -8.345582168214824
      ],
      [
        "揺",
        -8.345582168214829
      ],
      [
        "色",
        -8.345582168214833
      ],
      [
        "ル",
        -8.345582168214836
      ],
      [
        "鞆",
        -8.345582168214836
      ],
      [
        "謀",
        -8.345582168214836
      ],
      [
        "処",
        -8.345582168214843
      ],
      [
        "貢",
        -8.345582168214843
      ],
      [
        "奪",
        -8.345582168214843
      ],
      [
        "導",
        -8.345582168214852
      ],
      [
        "打",
        -8.345582168214852
      ],
      [
        "鎌倉公方",
        -8.345582168214856
      ],
      [
        "献",
        -8.345582168214868
      ],
      [
        "日明貿易",
        -8.345582168214868
      ],
      [
        "例",
        -8.345582168214886
      ],
      [
        "手工業",
        -8.345582168216328
      ],
      [
        "嫡",
        -8.345582168254603
      ],
      [
        "ね",
        -8.345582168254676
      ],
      [
        "輝",
        -8.345582168254692
      ],
      [
        "棟",
        -8.345582168254701
      ],
      [
        "布",
        -8.345582168254715
      ],
      [
        "きっかけ",
        -8.345582168254724
      ],
      [
        "味",
        -8.345582168254733
      ],
      [
        "巨",
        -8.345582168254733
      ],
      [
        "断",
        -8.34558216825474
      ],
      [
        "還",
        -8.34558216825474
      ],
      [
        "建春門院",
        -8.345582168254749
      ],
      [
        "松",
        -8.345582168254756
      ],
      [
        "感",
        -8.345582168254756
      ],
      [
        "栄",
        -8.345582168254756
      ],
      [
        "寄",
        -8.345582168254756
      ],
      [
        "火",
        -8.345582168254762
      ],
      [
        "征夷大将軍",
        -8.345582170649429
      ],
      [
        "国守護人・地頭",
        -8.345582170891216
      ],
      [
        "平治の乱",
        -8.345582464383796
      ],
      [
        "が相次いで",
        -8.345582746696937
      ],
      [
        "といわれ",
        -8.345582894920703
      ],
      [
        "書院造",
        -8.34558364876597
      ],
      [
        "を中心に",
        -8.345584163953884
      ],
      [
        "北面武士",
        -8.345586158064842
      ],
      [
        "が起こ",
        -8.345586170721102
      ],
      [
        "同じく",
        -8.345588211359292
      ],
      [
        "ようになり、",
        -8.345596961277092
      ],
      [
        "の性格",
        -8.345598276503196
      ],
      [
        "伊豆",
        -8.345600922927183
      ],
      [
        "高倉上皇",
        -8.345604537504542
      ],
      [
        "攻撃",
        -8.34563755108343
      ],
      [
        "御所を",
        -8.345651774688736
      ],
      [
        "が続いた",
        -8.345661623088695
      ],
      [
        "姿勢",
        -8.345662145653103
      ],
      [
        "とともに",
        -8.345697661614526
      ],
      [
        "、両者",
        -8.345703092887781
      ],
      [
        "農民",
        -8.345720623596174
      ],
      [
        "が多く",
        -8.34572857976683
      ],
      [
        "一方、",
        -8.345893719787854
      ],
      [
        "学問",
        -8.345928480817582
      ],
      [
        "が強い",
        -8.345948783896853
      ],
      [
        "の成立",
        -8.345976148409324
      ],
      [
        "の発生",
        -8.345983961171104
      ],
      [
        "商品",
        -8.34599596432696
      ],
      [
        "政長を",
        -8.34609266712599
      ],
      [
        "史料",
        -8.346125582376784
      ],
      [
        "んだ",
        -8.346161890962321
      ],
      [
        "反平氏の",
        -8.346261317091841
      ],
      [
        "言仁親王",
        -8.346420908329014
      ],
      [
        "は主に",
        -8.346513604560249
      ],
      [
        "ものであり、",
        -8.346752386150564
      ],
      [
        "を形成し",
        -8.348639429537968
      ],
      [
        "初",
        -8.400037265149363
      ],
      [
        "参",
        -8.514790898383957
      ],
      [
        "優",
        -8.567072777747516
      ],
      [
        "余",
        -8.658435598828584
      ],
      [
        "、白河",
        -8.666801379794851
      ],
      [
        "白河は",
        -8.669112013467887
      ],
      [
        "ん",
        -8.669572761794573
      ],
      [
        "白河上皇",
        -8.669606083006377
      ],
      [
        "図",
        -8.669607946162724
      ],
      [
        "石",
        -8.6768662294134
      ],
      [
        "取",
        -8.677136278583891
      ],
      [
        "討",
        -8.677854584322723
      ],
      [
        "清",
        -8.67790098230516
      ],
      [
        "変",
        -8.67790779631452
      ],
      [
        "べ",
        -8.67795350347033
      ],
      [
        "引",
        -8.67797899090046
      ],
      [
        "好",
        -8.678172209491997
      ],
      [
        "民",
        -8.678246651073026
      ],
      [
        "品",
        -8.678339994440208
      ],
      [
        "情",
        -8.67839341604185
      ],
      [
        "活",
        -8.678437518109618
      ],
      [
        "求",
        -8.678553097282768
      ],
      [
        "園",
        -8.678595500906752
      ],
      [
        "会",
        -8.678661349574147
      ],
      [
        "農",
        -8.678722874050614
      ],
      [
        "ほ",
        -8.678771509306133
      ],
      [
        "細",
        -8.678806121507183
      ],
      [
        "南北朝時代",
        -8.67881977521896
      ],
      [
        "抱",
        -8.678849503571417
      ],
      [
        "小笠原",
        -8.678856694527996
      ],
      [
        "俗",
        -8.678858179285365
      ],
      [
        "治承三年の政変",
        -8.678874630071807
      ],
      [
        "功",
        -8.67887567494896
      ],
      [
        "完",
        -8.67888038048214
      ],
      [
        "深",
        -8.6788824251952
      ],
      [
        "母",
        -8.678885755390917
      ],
      [
        "闘",
        -8.678890509330015
      ],
      [
        "格",
        -8.678892866246557
      ],
      [
        "拠",
        -8.67889613212963
      ],
      [
        "隆",
        -8.678897629461689
      ],
      [
        "逃",
        -8.678900923363338
      ],
      [
        "激",
        -8.678900996227712
      ],
      [
        "仲",
        -8.6789076240187
      ],
      [
        "起",
        -8.678909769850346
      ],
      [
        "督",
        -8.678915267315027
      ],
      [
        "島",
        -8.678915320889553
      ],
      [
        "落",
        -8.678915442449549
      ],
      [
        "除",
        -8.678915500409449
      ],
      [
        "譲",
        -8.678915500582558
      ],
      [
        "斎",
        -8.678915501548149
      ],
      [
        "七",
        -8.678915501548149
      ],
      [
        "為",
        -8.678915501548154
      ],
      [
        "識",
        -8.67891550154816
      ],
      [
        "作",
        -8.67891550154816
      ],
      [
        "シ",
        -8.67891550154816
      ],
      [
        "気",
        -8.67891550154816
      ],
      [
        "伏",
        -8.67891550154816
      ],
      [
        "如",
        -8.67891550154816
      ],
      [
        "首",
        -8.67891550154816
      ],
      [
        "繰り広げ",
        -8.67891550154816
      ],
      [
        "禁",
        -8.678915501548172
      ],
      [
        "抑",
        -8.678915501548172
      ],
      [
        "華",
        -8.678915501548172
      ],
      [
        "検非違使",
        -8.678915501548172
      ],
      [
        "執",
        -8.678915501548182
      ],
      [
        "典",
        -8.678915501548182
      ],
      [
        "ニ",
        -8.678915501548182
      ],
      [
        "恩",
        -8.678915501548182
      ],
      [
        "像",
        -8.678915501548182
      ],
      [
        "寿",
        -8.678915501548182
      ],
      [
        "花",
        -8.678915501548182
      ],
      [
        "1970年代",
        -8.678915501548182
      ],
      [
        "資",
        -8.678915501548193
      ],
      [
        "肥",
        -8.678915501548193
      ],
      [
        "田堵農民層",
        -8.678915501548193
      ],
      [
        "牛",
        -8.6789155015482
      ],
      [
        "タ",
        -8.678915501548204
      ],
      [
        "航",
        -8.678915501548206
      ],
      [
        "ざ",
        -8.678915501548206
      ],
      [
        "権を掌握した",
        -8.678915501548216
      ],
      [
        "鹿",
        -8.678915501548227
      ],
      [
        "邸",
        -8.678915501548227
      ],
      [
        "採",
        -8.678915501548227
      ],
      [
        "注",
        -8.678915501548227
      ],
      [
        "張",
        -8.678915501548227
      ],
      [
        "陸",
        -8.678915501548227
      ],
      [
        "隊",
        -8.678915501548227
      ],
      [
        "弓",
        -8.67891550154825
      ],
      [
        "宋",
        -8.678915501548271
      ],
      [
        "坊",
        -8.678915501548271
      ],
      [
        "端",
        -8.678915501548271
      ],
      [
        "の保護を受け",
        -8.678915501548271
      ],
      [
        "を目指す",
        -8.678915501548284
      ],
      [
        "六角征伐",
        -8.678915501548385
      ],
      [
        "に基づく",
        -8.678915501548452
      ],
      [
        "巻き込",
        -8.678915501548508
      ],
      [
        "に就任する",
        -8.678915501549147
      ],
      [
        "奉公衆",
        -8.678915501549888
      ],
      [
        "比叡山",
        -8.67891550155292
      ],
      [
        "→",
        -8.678915501587683
      ],
      [
        "税",
        -8.678915501587964
      ],
      [
        "若",
        -8.678915501587964
      ],
      [
        ":",
        -8.678915501587996
      ],
      [
        "固",
        -8.678915501588008
      ],
      [
        "乗",
        -8.678915501588008
      ],
      [
        "イ",
        -8.67891550158802
      ],
      [
        "推",
        -8.67891550158803
      ],
      [
        "(大阪府",
        -8.67891550158803
      ],
      [
        "毛",
        -8.678915501588042
      ],
      [
        "敵",
        -8.678915501588053
      ],
      [
        "志",
        -8.678915501588053
      ],
      [
        "ぼ",
        -8.678915501588053
      ],
      [
        "羽",
        -8.678915501588072
      ],
      [
        "陥",
        -8.678915501588076
      ],
      [
        "閣",
        -8.678915501588076
      ],
      [
        "堂",
        -8.678915501588076
      ],
      [
        "総",
        -8.678915501588087
      ],
      [
        "幼",
        -8.678915501588087
      ],
      [
        "賞",
        -8.678915501588097
      ],
      [
        "革",
        -8.678915501588097
      ],
      [
        "県",
        -8.678915501588097
      ],
      [
        "登",
        -8.678915501588097
      ],
      [
        "弱",
        -8.678915501588097
      ],
      [
        "襲",
        -8.678915501588097
      ],
      [
        "普",
        -8.678915501588097
      ],
      [
        "静",
        -8.678915501588097
      ],
      [
        "未曽有の",
        -8.678915501588097
      ],
      [
        "持明院統",
        -8.678915504074334
      ],
      [
        "は日蓮宗",
        -8.678915511484321
      ],
      [
        "それに伴う",
        -8.678915526797855
      ],
      [
        "によれば、",
        -8.678915562767108
      ],
      [
        "を中心とした",
        -8.678915579191058
      ],
      [
        "軍事衝突を",
        -8.678915587553819
      ],
      [
        "関係にあった",
        -8.678915652821305
      ],
      [
        "と異なり、",
        -8.678915655494613
      ],
      [
        "と言える",
        -8.678916122447243
      ],
      [
        "連携して",
        -8.678916537798864
      ],
      [
        "園城寺",
        -8.678916577180768
      ],
      [
        "薨去)",
        -8.678916771117375
      ],
      [
        "有力守護大名",
        -8.678917495370653
      ],
      [
        "なければ",
        -8.67891816412446
      ],
      [
        "源頼朝",
        -8.678919057171191
      ],
      [
        "立太子",
        -8.678920009149813
      ],
      [
        "2年(117",
        -8.678920043583323
      ],
      [
        "といえる",
        -8.678920561497181
      ],
      [
        "ところ",
        -8.678923018042614
      ],
      [
        "向かう",
        -8.67892389729863
      ],
      [
        "当初は",
        -8.678926282675219
      ],
      [
        "勝元と宗全",
        -8.678935929890587
      ],
      [
        "室町時代後期",
        -8.678941774092994
      ],
      [
        "最初の",
        -8.67894713899031
      ],
      [
        "軍事力",
        -8.678947376227333
      ],
      [
        "もあって",
        -8.67895654004933
      ],
      [
        "長慶は",
        -8.6789592704994
      ],
      [
        "明らか",
        -8.678960724539055
      ],
      [
        "平氏一門",
        -8.678966768671716
      ],
      [
        "以降は",
        -8.678974890626852
      ],
      [
        "に任命",
        -8.678975470635171
      ],
      [
        "長らく",
        -8.678978312547667
      ],
      [
        "8年)",
        -8.67898276566182
      ],
      [
        "に対抗",
        -8.679004682235302
      ],
      [
        "従来の",
        -8.679121619231498
      ],
      [
        "高倉院政",
        -8.679285283972227
      ],
      [
        "関東で",
        -8.6795351769121
      ],
      [
        "を促し",
        -8.683540977329944
      ],
      [
        "てしまった",
        -8.700929389100997
      ],
      [
        "年・151",
        -9.012135963670222
      ],
      [
        "されるようになっ",
        -9.045676197270728
      ],
      [
        "威",
        -9.076806037072018
      ],
      [
        "満",
        -9.09466462800469
      ],
      [
        "改",
        -9.156900082848312
      ],
      [
        "彫",
        -9.16956599631891
      ],
      [
        "呼ばれる",
        -9.172678059410593
      ],
      [
        "将",
        -9.172722398482005
      ],
      [
        "尚",
        -9.17562893680249
      ],
      [
        "よ",
        -9.175643622919683
      ],
      [
        "洛",
        -9.176512435494615
      ],
      [
        "域",
        -9.177132128740865
      ],
      [
        "禅",
        -9.177184209783213
      ],
      [
        "裏",
        -9.17736559229093
      ],
      [
        "度",
        -9.177524298642021
      ],
      [
        "稙",
        -9.17765582886498
      ],
      [
        "界",
        -9.17766065728987
      ],
      [
        "辞",
        -9.177741194533393
      ],
      [
        "係",
        -9.177757445905554
      ],
      [
        "表",
        -9.177965487476138
      ],
      [
        "伊",
        -9.178062167520181
      ],
      [
        "今",
        -9.178080894282363
      ],
      [
        "足",
        -9.178132504162674
      ],
      [
        "産",
        -9.178152873345086
      ],
      [
        "礼",
        -9.178386629450848
      ],
      [
        "維",
        -9.17843461651529
      ],
      [
        "府",
        -9.178464831451555
      ],
      [
        "接",
        -9.178477017527966
      ],
      [
        "済",
        -9.178605539690604
      ],
      [
        "川",
        -9.178624114859414
      ],
      [
        "納",
        -9.178720472707619
      ],
      [
        "居",
        -9.17886179197979
      ],
      [
        "規",
        -9.178870931555208
      ],
      [
        "積",
        -9.178897332307702
      ],
      [
        "銀",
        -9.178897999066242
      ],
      [
        "担",
        -9.178902639036725
      ],
      [
        "-",
        -9.178906716969543
      ],
      [
        "極",
        -9.178909561732702
      ],
      [
        "件",
        -9.178910657148219
      ],
      [
        "述",
        -9.178911791339937
      ],
      [
        "薨",
        -9.178913428363472
      ],
      [
        "携",
        -9.178913809375125
      ],
      [
        "望",
        -9.178914858797816
      ],
      [
        "転",
        -9.17891540501504
      ],
      [
        "享",
        -9.178915420557146
      ],
      [
        "浄",
        -9.178915501515487
      ],
      [
        "斯波義廉を",
        -9.178915501548147
      ],
      [
        "避",
        -9.178915501548156
      ],
      [
        "累",
        -9.178915501548156
      ],
      [
        "催",
        -9.178915501548156
      ],
      [
        "仰",
        -9.178915501548156
      ],
      [
        "庁",
        -9.178915501548156
      ],
      [
        "服",
        -9.178915501548156
      ],
      [
        "ヨーロッパ",
        -9.178915501548156
      ],
      [
        "兵を撤退させること",
        -9.178915501548156
      ],
      [
        "狙",
        -9.178915501548165
      ],
      [
        "綱",
        -9.178915501548175
      ],
      [
        "緒",
        -9.178915501548175
      ],
      [
        "判",
        -9.178915501548175
      ],
      [
        "飢",
        -9.178915501548175
      ],
      [
        "陰",
        -9.178915501548175
      ],
      [
        "扱",
        -9.178915501548175
      ],
      [
        "第",
        -9.178915501548175
      ],
      [
        "ラ",
        -9.178915501548175
      ],
      [
        "千",
        -9.178915501548175
      ],
      [
        "草",
        -9.178915501548175
      ],
      [
        "具",
        -9.178915501548175
      ],
      [
        "駆",
        -9.178915501548175
      ],
      [
        "坂",
        -9.178915501548175
      ],
      [
        "供",
        -9.178915501548175
      ],
      [
        "疑",
        -9.178915501548175
      ],
      [
        "祐",
        -9.178915501548175
      ],
      [
        "録",
        -9.178915501548175
      ],
      [
        "飛",
        -9.178915501548175
      ],
      [
        "左",
        -9.178915501548175
      ],
      [
        "ッ",
        -9.178915501548175
      ],
      [
        "東大寺や国衙の支配",
        -9.178915501548175
      ],
      [
        "義昭を支持して",
        -9.178915501548175
      ],
      [
        "荘園を没収した",
        -9.178915501548175
      ],
      [
        "5月宣旨を",
        -9.178915501548175
      ],
      [
        "幕府の権威が失墜した",
        -9.178915501548182
      ],
      [
        "児",
        -9.178915501548191
      ],
      [
        "谷",
        -9.178915501548191
      ],
      [
        "ノ",
        -9.178915501548191
      ],
      [
        "正平3年/貞和4年(134",
        -9.178915501548191
      ],
      [
        "北山文化・東山文化",
        -9.178915501548191
      ],
      [
        "則",
        -9.178915501548211
      ],
      [
        "筆",
        -9.178915501548211
      ],
      [
        "洋",
        -9.178915501548211
      ],
      [
        "宇",
        -9.178915501548211
      ],
      [
        "パ",
        -9.178915501548211
      ],
      [
        "鋳",
        -9.178915501548211
      ],
      [
        "宝",
        -9.178915501548211
      ],
      [
        "船",
        -9.178915501548211
      ],
      [
        "車",
        -9.178915501548211
      ],
      [
        "逆",
        -9.178915501548211
      ],
      [
        "惟",
        -9.178915501548211
      ],
      [
        "ヶ",
        -9.178915501548211
      ],
      [
        "右",
        -9.178915501548211
      ],
      [
        "を軍事的に直轄支配する",
        -9.178915501548211
      ],
      [
        "将軍直轄の軍事力",
        -9.178915501548211
      ],
      [
        "た慈照寺",
        -9.178915501548211
      ],
      [
        "陶",
        -9.17891550154822
      ],
      [
        "致",
        -9.178915501548248
      ],
      [
        "蔵",
        -9.178915501548248
      ],
      [
        "熱",
        -9.178915501548248
      ],
      [
        "概",
        -9.178915501548248
      ],
      [
        "律",
        -9.178915501548248
      ],
      [
        "八",
        -9.178915501548248
      ],
      [
        "諱",
        -9.178915501548248
      ],
      [
        "紙",
        -9.178915501548248
      ],
      [
        "明徳3年/元中9年",
        -9.178915501548248
      ],
      [
        "1980年代頃から",
        -9.178915501548248
      ],
      [
        "天皇を擁立し",
        -9.178915501548248
      ],
      [
        "高級織物",
        -9.178915501548248
      ],
      [
        "、堀越公方",
        -9.178915501548257
      ],
      [
        "績",
        -9.178915501548266
      ],
      [
        "賢",
        -9.178915501548284
      ],
      [
        "寝",
        -9.178915501548284
      ],
      [
        "唐",
        -9.178915501548284
      ],
      [
        "渡",
        -9.178915501548284
      ],
      [
        "過",
        -9.178915501548284
      ],
      [
        "洞",
        -9.178915501548284
      ],
      [
        "ム",
        -9.178915501548284
      ],
      [
        "米",
        -9.178915501548284
      ],
      [
        "笑",
        -9.178915501548284
      ],
      [
        "治承5年(1181年)",
        -9.178915501548284
      ],
      [
        "借",
        -9.178915501548321
      ],
      [
        "南学派を開く",
        -9.178915501548357
      ],
      [
        "代将軍に擁立し",
        -9.178915501548357
      ],
      [
        "積極的に行われた",
        -9.178915501548541
      ],
      [
        "(1179年)",
        -9.178915501549806
      ],
      [
        "『平家物語』",
        -9.178915501550337
      ],
      [
        "高倉の即位",
        -9.178915501551016
      ],
      [
        "明徳の和約によ",
        -9.178915501556862
      ],
      [
        "返",
        -9.178915501565285
      ],
      [
        "に対する返礼",
        -9.17891550157116
      ],
      [
        "約",
        -9.178915501579423
      ],
      [
        "頼朝の挙兵",
        -9.17891550157952
      ],
      [
        "思",
        -9.17891550158416
      ],
      [
        "範",
        -9.178915501587287
      ],
      [
        "小",
        -9.178915501587667
      ],
      [
        "免",
        -9.178915501587804
      ],
      [
        "顕",
        -9.178915501587879
      ],
      [
        "久",
        -9.178915501587914
      ],
      [
        "然",
        -9.178915501587914
      ],
      [
        "未",
        -9.178915501587927
      ],
      [
        "ア",
        -9.178915501587936
      ],
      [
        "局",
        -9.178915501587952
      ],
      [
        "の重代相伝の家人",
        -9.178915501587952
      ],
      [
        "破",
        -9.178915501588007
      ],
      [
        "類",
        -9.178915501588007
      ],
      [
        "懐良親王",
        -9.178915501588007
      ],
      [
        "混",
        -9.178915501588024
      ],
      [
        "締",
        -9.178915501588024
      ],
      [
        "安元3年(1177年)",
        -9.178915501588024
      ],
      [
        "鹿ケ谷の陰謀",
        -9.178915501588024
      ],
      [
        "階級の富裕化に",
        -9.178915501588024
      ],
      [
        "梅",
        -9.178915501588044
      ],
      [
        "句",
        -9.178915501588044
      ],
      [
        "戻",
        -9.178915501588044
      ],
      [
        "婿",
        -9.178915501588044
      ],
      [
        "遂",
        -9.178915501588044
      ],
      [
        "豊",
        -9.178915501588062
      ],
      [
        "台",
        -9.178915501588062
      ],
      [
        "臨",
        -9.178915501588062
      ],
      [
        "マ",
        -9.178915501588062
      ],
      [
        "崎",
        -9.178915501588062
      ],
      [
        "誤",
        -9.178915501588062
      ],
      [
        "薩",
        -9.178915501588062
      ],
      [
        "窯",
        -9.178915501588062
      ],
      [
        "罪",
        -9.178915501588062
      ],
      [
        "恐",
        -9.178915501588062
      ],
      [
        "兄",
        -9.178915501588062
      ],
      [
        "コ",
        -9.178915501588062
      ],
      [
        "を如実に表しており、",
        -9.178915501588062
      ],
      [
        "関係史料が少ないため",
        -9.178915501588062
      ],
      [
        "この状況を見た義",
        -9.178915501588062
      ],
      [
        "を務めた時は",
        -9.178915501588062
      ],
      [
        "を一時停止する",
        -9.178915501588062
      ],
      [
        "東アジア",
        -9.178915501588062
      ],
      [
        "強く影響した",
        -9.178915501588062
      ],
      [
        "福原行幸",
        -9.178915501588062
      ],
      [
        "後鳥羽天皇",
        -9.178915501588062
      ],
      [
        "小康状態",
        -9.178915501588062
      ],
      [
        "葉",
        -9.17891550158807
      ],
      [
        "危",
        -9.17891550158808
      ],
      [
        "旧来の支配勢力と同質化し",
        -9.17891550158808
      ],
      [
        "仁安3年(1168年)",
        -9.17891550158808
      ],
      [
        "「三議一統」",
        -9.17891550158808
      ],
      [
        "両統迭立",
        -9.17891550158808
      ],
      [
        "貨幣経済が浸透し",
        -9.17891550158808
      ],
      [
        "撃を受けた",
        -9.17891550158808
      ],
      [
        "覚",
        -9.178915501588088
      ],
      [
        "万",
        -9.178915501588088
      ],
      [
        "旗",
        -9.178915501588088
      ],
      [
        "十",
        -9.178915501588097
      ],
      [
        "鏡",
        -9.178915501588097
      ],
      [
        "防",
        -9.178915501588097
      ],
      [
        "男",
        -9.178915501588097
      ],
      [
        "読",
        -9.178915501588097
      ],
      [
        "厳",
        -9.178915501588097
      ],
      [
        "樹",
        -9.178915501588097
      ],
      [
        "港",
        -9.178915501588097
      ],
      [
        "ン",
        -9.178915501588097
      ],
      [
        "否",
        -9.178915501588097
      ],
      [
        "休",
        -9.178915501588097
      ],
      [
        "速",
        -9.178915501588097
      ],
      [
        "瓦",
        -9.178915501588097
      ],
      [
        "治承4年(1180年)",
        -9.178915501588097
      ],
      [
        "信長によって京都から追放され",
        -9.178915501588097
      ],
      [
        "東南アジアに",
        -9.178915501588097
      ],
      [
        "福原の山荘へ",
        -9.178915501588097
      ],
      [
        "自治的性格を持っていた",
        -9.178915501588097
      ],
      [
        "は斯波義将",
        -9.178915501588097
      ],
      [
        "木曾義仲",
        -9.178915501588097
      ],
      [
        "浄土真宗",
        -9.17891550162076
      ],
      [
        "元暦2年(1185年)",
        -9.178915501630586
      ],
      [
        "の良好な関係",
        -9.17891550165095
      ],
      [
        "の基礎とな",
        -9.178915501677274
      ],
      [
        "(1467年",
        -9.178915501731366
      ],
      [
        "一条兼良",
        -9.178915501764397
      ],
      [
        "延暦寺と院勢力との",
        -9.178915501775156
      ],
      [
        "細川京兆家",
        -9.178915502053718
      ],
      [
        "鎮守府将軍",
        -9.178915502071499
      ],
      [
        "としての用途が",
        -9.17891550224527
      ],
      [
        "ほとんど",
        -9.17891550253856
      ],
      [
        "に使われる",
        -9.178915502578327
      ],
      [
        "1333年",
        -9.178915502739999
      ],
      [
        "本格的な武家政権",
        -9.17891550293767
      ],
      [
        "守護・地頭の",
        -9.178915503096519
      ],
      [
        "に将軍職を譲",
        -9.178915503189783
      ],
      [
        "や都市の発達により",
        -9.178915503627195
      ],
      [
        "東三条殿",
        -9.178915503907408
      ],
      [
        "ることができる",
        -9.178915504125866
      ],
      [
        "に積極的に",
        -9.178915504211815
      ],
      [
        "元年)または",
        -9.178915506579575
      ],
      [
        "園城寺・興福寺など",
        -9.178915506819076
      ],
      [
        "せいけん",
        -9.178915506951785
      ],
      [
        "大内政弘",
        -9.178915507738038
      ],
      [
        "支配に当たらせ",
        -9.178915508424666
      ],
      [
        "の成立をもたら",
        -9.178915509870896
      ],
      [
        "京へ進軍",
        -9.17891551209038
      ],
      [
        "生産量の向上",
        -9.178915521046848
      ],
      [
        "南北朝合一",
        -9.178915522893975
      ],
      [
        "享徳の乱",
        -9.178915523468149
      ],
      [
        "書かれている",
        -9.178915527205588
      ],
      [
        "は軍事貴族の",
        -9.178915527973327
      ],
      [
        "することができ、",
        -9.178915535720336
      ],
      [
        "仁安2年",
        -9.17891553869735
      ],
      [
        "には見られない",
        -9.178915543704427
      ],
      [
        "しばらく",
        -9.1789155569996
      ],
      [
        "大内義興",
        -9.178915558549962
      ],
      [
        "永享の乱",
        -9.178915560659357
      ],
      [
        "(1392年",
        -9.178915567876954
      ],
      [
        "姿勢を見せ",
        -9.178915568058148
      ],
      [
        "ともいえる",
        -9.17891557834903
      ],
      [
        "二条親政派",
        -9.178915590503628
      ],
      [
        "を解任され",
        -9.178915591346302
      ],
      [
        "につながる",
        -9.178915612102424
      ],
      [
        "引き起こし",
        -9.178915613971306
      ],
      [
        "武士の起源",
        -9.178915654255121
      ],
      [
        "永3年(1",
        -9.178915675786707
      ],
      [
        "富田林",
        -9.178915678133341
      ],
      [
        "平氏の軍制の",
        -9.178915687749546
      ],
      [
        "支配体制が",
        -9.178915696210533
      ],
      [
        "をもたらした",
        -9.178915709383507
      ],
      [
        "に代わって",
        -9.17891574160277
      ],
      [
        "的な存在だと",
        -9.17891574436404
      ],
      [
        "畠山政長と",
        -9.178915751243409
      ],
      [
        "を抱いていた",
        -9.178915754715485
      ],
      [
        "明徳の乱",
        -9.178915796019865
      ],
      [
        ")を出産",
        -9.17891580520731
      ],
      [
        "政権的な性格",
        -9.178915861720464
      ],
      [
        "は完全に",
        -9.178915868302607
      ],
      [
        "氏の家督",
        -9.178915884120208
      ],
      [
        "政治の中心",
        -9.178915962683806
      ],
      [
        "によってもたらされ",
        -9.178915964341618
      ],
      [
        "ある程度",
        -9.1789159742631
      ],
      [
        "ような中で",
        -9.1789159831083
      ],
      [
        "元年(14",
        -9.178915997220063
      ],
      [
        "、殿上人",
        -9.178916047312827
      ],
      [
        "を焼き払い",
        -9.178916066338974
      ],
      [
        "冊封を受け",
        -9.178916155250167
      ],
      [
        "反幕府方の",
        -9.178916432373638
      ],
      [
        "なくなったため",
        -9.178916489822056
      ],
      [
        "と非難し",
        -9.178916615321967
      ],
      [
        "に引き入れ",
        -9.17891769104341
      ],
      [
        "が並立する",
        -9.178918467452121
      ],
      [
        "幕府」や足利義",
        -9.178918788577406
      ],
      [
        "また、この時代に",
        -9.17891891405211
      ],
      [
        "をめぐって",
        -9.17891998430655
      ],
      [
        "の正統性",
        -9.178920687073315
      ],
      [
        "系列化し",
        -9.178922088136943
      ],
      [
        "に支えられ",
        -9.17892233995898
      ],
      [
        "明応2年(1493年)",
        -9.178925167067437
      ],
      [
        "に配流となっ",
        -9.178926066100026
      ],
      [
        "解官、後白河",
        -9.178926191468205
      ],
      [
        "へ成長し",
        -9.178930164732026
      ],
      [
        "の拠点とし",
        -9.17894312624058
      ],
      [
        "が崩御し",
        -9.178944334281073
      ],
      [
        "見出しうると",
        -9.178944923229984
      ],
      [
        "を成立させ",
        -9.178948467160549
      ],
      [
        "に出自し",
        -9.178948841563328
      ],
      [
        "を強めてい",
        -9.178957280068552
      ],
      [
        "1573年",
        -9.178959513337709
      ],
      [
        "を強調して",
        -9.179005616354738
      ],
      [
        "』、中原",
        -9.179009296645457
      ],
      [
        "日本史上初",
        -9.179026839487097
      ],
      [
        "に反対であ",
        -9.179104137180268
      ],
      [
        "納言とな",
        -9.179110567390438
      ],
      [
        "部分もあ",
        -9.179179000749722
      ],
      [
        "、3代将軍義満",
        -9.17920109180379
      ],
      [
        "したとする見方",
        -9.179394496835318
      ],
      [
        "評価されて",
        -9.179546160208373
      ],
      [
        "あったが、領国",
        -9.180391637919863
      ],
      [
        "年(135",
        -9.180924233820098
      ],
      [
        "時代でもあ",
        -9.186657327724378
      ],
      [
        "優位に立った",
        -9.201081457185861
      ],
      [
        "面において",
        -9.242158989906358
      ],
      [
        "なっていく",
        -9.338281617935825
      ],
      [
        "5年・15",
        -9.378052852982174
      ],
      [
        "視",
        -9.412035668143899
      ],
      [
        "歴",
        -10.057898140036242
      ],
      [
        "促",
        -10.159133542081335
      ],
      [
        "至",
        -10.165105261458907
      ],
      [
        "備",
        -10.168806643542165
      ],
      [
        "材",
        -10.175848840715087
      ],
      [
        "畠",
        -10.177173637880815
      ],
      [
        "低",
        -10.177238228912517
      ],
      [
        "雲",
        -10.177387470842561
      ],
      [
        "紛",
        -10.177461416540984
      ],
      [
        "白",
        -10.1775891261707
      ],
      [
        "展",
        -10.177711476009172
      ],
      [
        "紀",
        -10.177842341650361
      ],
      [
        "徒",
        -10.177982257268503
      ],
      [
        "訴",
        -10.177982817496698
      ],
      [
        "賊",
        -10.17807473985901
      ],
      [
        "悪",
        -10.178126571554218
      ],
      [
        "割",
        -10.178131650706419
      ],
      [
        "介",
        -10.17820727960397
      ],
      [
        "付",
        -10.178257273041007
      ],
      [
        "語",
        -10.178281819192492
      ],
      [
        "狂",
        -10.178281871588311
      ],
      [
        "卿",
        -10.178359188969383
      ],
      [
        "昇",
        -10.178395411539661
      ],
      [
        "房",
        -10.178430047614073
      ],
      [
        "騒",
        -10.178430530516641
      ],
      [
        "員",
        -10.178430530516641
      ],
      [
        "士",
        -10.178439925411723
      ],
      [
        "姿",
        -10.178451925865973
      ],
      [
        "攻",
        -10.1785570521078
      ],
      [
        "次",
        -10.178579598122553
      ],
      [
        "角",
        -10.178653912801199
      ],
      [
        "衝",
        -10.178653912803986
      ],
      [
        "調",
        -10.178685693144681
      ],
      [
        "隠",
        -10.178778517518268
      ],
      [
        "模",
        -10.178801826943985
      ],
      [
        "豆",
        -10.178806812394017
      ],
      [
        "整",
        -10.17881038475835
      ],
      [
        "属",
        -10.178858963309574
      ],
      [
        "蓄",
        -10.1788691673407
      ],
      [
        "周",
        -10.17887368516648
      ],
      [
        "辺",
        -10.17887368516676
      ],
      [
        "宿",
        -10.17889129796169
      ],
      [
        "敷",
        -10.178891535507214
      ],
      [
        "列",
        -10.178898702368606
      ],
      [
        "非",
        -10.1789045210466
      ],
      [
        "並",
        -10.178907936949646
      ],
      [
        "燃",
        -10.178910628573135
      ],
      [
        "託",
        -10.178911611453405
      ],
      [
        "封",
        -10.178913834292262
      ],
      [
        "冊",
        -10.17891383429231
      ],
      [
        "躍",
        -10.178914282461502
      ],
      [
        "程",
        -10.178914295908498
      ],
      [
        "兼",
        -10.178914764127796
      ],
      [
        "林",
        -10.178915051199578
      ],
      [
        "蓮",
        -10.178915460203164
      ],
      [
        "弘",
        -10.178915485799807
      ],
      [
        "途",
        -10.178915499809932
      ],
      [
        "兆",
        -10.178915500298496
      ],
      [
        "急",
        -10.178915500525434
      ],
      [
        "寇",
        -10.178915500525623
      ],
      [
        "真",
        -10.178915501402924
      ],
      [
        "驚",
        -10.178915501548161
      ],
      [
        "捕",
        -10.178915501548161
      ],
      [
        "磁",
        -10.178915501548161
      ],
      [
        "充",
        -10.178915501548161
      ],
      [
        "魔",
        -10.178915501548161
      ],
      [
        "玉",
        -10.178915501548161
      ],
      [
        "縛",
        -10.178915501548161
      ],
      [
        "器",
        -10.178915501548161
      ],
      [
        "瀕",
        -10.178915501548184
      ],
      [
        "恨",
        -10.178915501548184
      ],
      [
        "麗",
        -10.178915501548184
      ],
      [
        "遇",
        -10.178915501548184
      ],
      [
        "楮",
        -10.178915501548184
      ],
      [
        "豪",
        -10.178915501548184
      ],
      [
        "胡",
        -10.178915501548184
      ],
      [
        "迅",
        -10.178915501548184
      ],
      [
        "厖",
        -10.178915501548184
      ],
      [
        "館",
        -10.178915501548184
      ],
      [
        "舞",
        -10.178915501548184
      ],
      [
        "ザ",
        -10.178915501548184
      ],
      [
        "協",
        -10.178915501548184
      ],
      [
        "壮",
        -10.178915501548184
      ],
      [
        "吸",
        -10.178915501548184
      ],
      [
        "麻",
        -10.178915501548184
      ],
      [
        "桑",
        -10.178915501548184
      ],
      [
        "#",
        -10.178915501548184
      ],
      [
        "箇",
        -10.178915501548232
      ],
      [
        "泊",
        -10.178915501548232
      ],
      [
        "槐",
        -10.178915501548232
      ],
      [
        "輪",
        -10.178915501548232
      ],
      [
        "寵",
        -10.178915501548232
      ],
      [
        "鱗",
        -10.178915501548232
      ],
      [
        "騨",
        -10.178915501548232
      ],
      [
        "饉",
        -10.178915501548232
      ],
      [
        "軽",
        -10.178915501548232
      ],
      [
        "朋",
        -10.178915501548232
      ],
      [
        "冬",
        -10.178915501548232
      ],
      [
        "釜",
        -10.178915501548232
      ],
      [
        "準",
        -10.178915501548232
      ],
      [
        "含",
        -10.178915501548232
      ],
      [
        "換",
        -10.178915501548232
      ],
      [
        "遠",
        -10.178915501548232
      ],
      [
        "故",
        -10.178915501548232
      ],
      [
        "厭",
        -10.178915501548232
      ],
      [
        "刑",
        -10.178915501548232
      ],
      [
        "ガ",
        -10.178915501548232
      ],
      [
        "熾",
        -10.178915501548232
      ],
      [
        "ぬ",
        -10.178915501548232
      ],
      [
        "隔",
        -10.178915501548232
      ],
      [
        "劣",
        -10.178915501548232
      ],
      [
        "猿",
        -10.178915501548232
      ],
      [
        "丸",
        -10.178915501548232
      ],
      [
        "截",
        -10.178915501548232
      ],
      [
        "桃",
        -10.178915501548232
      ],
      [
        "ブ",
        -10.178915501548232
      ],
      [
        "幡",
        -10.178915501548232
      ],
      [
        "励",
        -10.178915501548232
      ],
      [
        "略",
        -10.178915501548232
      ],
      [
        "旦",
        -10.178915501548232
      ],
      [
        "キ",
        -10.178915501548232
      ],
      [
        "晃",
        -10.178915501548232
      ],
      [
        "密",
        -10.178915501548232
      ],
      [
        "烈",
        -10.178915501548232
      ],
      [
        "抜",
        -10.178915501548232
      ],
      [
        "埼",
        -10.178915501548232
      ],
      [
        "湿",
        -10.178915501548232
      ],
      [
        "ユ",
        -10.178915501548232
      ],
      [
        "妻",
        -10.178915501548232
      ],
      [
        "但",
        -10.178915501548232
      ],
      [
        "恵",
        -10.178915501548232
      ],
      [
        "獄",
        -10.178915501548232
      ],
      [
        "ポ",
        -10.178915501548232
      ],
      [
        "蹴",
        -10.178915501548232
      ],
      [
        "帯",
        -10.178915501548232
      ],
      [
        "拉",
        -10.178915501548232
      ],
      [
        "障",
        -10.178915501548232
      ],
      [
        "誡",
        -10.178915501548232
      ],
      [
        "標",
        -10.178915501548232
      ],
      [
        "侵",
        -10.178915501548232
      ],
      [
        "根",
        -10.178915501548232
      ],
      [
        "リ",
        -10.178915501548232
      ],
      [
        "疎",
        -10.178915501548232
      ],
      [
        "鞠",
        -10.178915501548232
      ],
      [
        "湊",
        -10.178915501548232
      ],
      [
        "フ",
        -10.178915501548232
      ],
      [
        "嗣",
        -10.178915501548232
      ],
      [
        "呈",
        -10.178915501548232
      ],
      [
        "擢",
        -10.178915501548232
      ],
      [
        "カ",
        -10.178915501548232
      ],
      [
        "池",
        -10.178915501548325
      ],
      [
        "而",
        -10.178915501548325
      ],
      [
        "瞬",
        -10.178915501548325
      ],
      [
        "郊",
        -10.178915501548325
      ],
      [
        "ナ",
        -10.178915501548325
      ],
      [
        "贈",
        -10.178915501548325
      ],
      [
        "章",
        -10.178915501548325
      ],
      [
        "凱",
        -10.178915501548325
      ],
      [
        "育",
        -10.178915501548325
      ],
      [
        "跡",
        -10.178915501548325
      ],
      [
        "俊",
        -10.178915501548325
      ],
      [
        "計",
        -10.178915501548325
      ],
      [
        "濫",
        -10.178915501548325
      ],
      [
        "欠",
        -10.178915501548325
      ],
      [
        "菊",
        -10.178915501548325
      ],
      [
        "壇",
        -10.178915501548325
      ],
      [
        "宅",
        -10.178915501548325
      ],
      [
        "ヤ",
        -10.178915501548325
      ],
      [
        "財",
        -10.178915501548325
      ],
      [
        "寛",
        -10.178915501548325
      ],
      [
        "隣",
        -10.178915501548325
      ],
      [
        "愚",
        -10.178915501548325
      ],
      [
        "給",
        -10.178915501548325
      ],
      [
        "緯",
        -10.178915501548325
      ],
      [
        "グ",
        -10.178915501548325
      ],
      [
        "ケ",
        -10.178915501548325
      ],
      [
        "乃",
        -10.178915501548325
      ],
      [
        "狭",
        -10.178915501548325
      ],
      [
        "旋",
        -10.178915501548325
      ],
      [
        "互",
        -10.178915501548325
      ],
      [
        "粮",
        -10.178915501548325
      ],
      [
        "熟",
        -10.178915501548325
      ],
      [
        "勃",
        -10.178915501548325
      ],
      [
        "稲",
        -10.178915501548325
      ],
      [
        "専",
        -10.178915501548325
      ],
      [
        "頂",
        -10.178915501548325
      ],
      [
        "詣",
        -10.178915501548325
      ],
      [
        "趨",
        -10.178915501548325
      ],
      [
        "斉",
        -10.178915501548325
      ],
      [
        "ロ",
        -10.178915501548325
      ],
      [
        "横",
        -10.178915501548325
      ],
      [
        "ギ",
        -10.178915501548325
      ],
      [
        "籍",
        -10.178915501548325
      ],
      [
        "講",
        -10.178915501548325
      ],
      [
        "号",
        -10.178915501548325
      ],
      [
        "レ",
        -10.178915501548325
      ],
      [
        "慣",
        -10.178915501548325
      ],
      [
        "些",
        -10.178915501548325
      ],
      [
        "脅",
        -10.178915501548325
      ],
      [
        "驕",
        -10.178915501548325
      ],
      [
        "鋭",
        -10.178915501548325
      ],
      [
        "熊",
        -10.178915501548325
      ],
      [
        "峡",
        -10.178915501548325
      ],
      [
        "超",
        -10.178915501548325
      ],
      [
        "デ",
        -10.178915501548417
      ],
      [
        "昨",
        -10.178915501548419
      ],
      [
        "項",
        -10.178915501548419
      ],
      [
        "厩",
        -10.178915501548419
      ],
      [
        "盟",
        -10.178915501548419
      ],
      [
        "茨",
        -10.178915501548419
      ],
      [
        "科",
        -10.178915501548419
      ],
      [
        "隙",
        -10.178915501548419
      ],
      [
        "枠",
        -10.178915501548419
      ],
      [
        "委",
        -10.178915501548419
      ],
      [
        "禎",
        -10.178915501548419
      ],
      [
        "婚",
        -10.178915501548419
      ],
      [
        "店",
        -10.178915501548419
      ],
      [
        "棚",
        -10.178915501548419
      ],
      [
        "オ",
        -10.178915501548419
      ],
      [
        "偏",
        -10.178915501548419
      ],
      [
        "廻",
        -10.178915501548419
      ],
      [
        "欲",
        -10.178915501548419
      ],
      [
        "鑑",
        -10.178915501548419
      ],
      [
        "ゅ",
        -10.178915501548419
      ],
      [
        "做",
        -10.178915501548419
      ],
      [
        "核",
        -10.178915501548419
      ],
      [
        "百",
        -10.178915501548419
      ],
      [
        "友",
        -10.178915501548419
      ],
      [
        "貫",
        -10.178915501548419
      ],
      [
        "監",
        -10.178915501548419
      ],
      [
        "舗",
        -10.178915501548419
      ],
      [
        "践",
        -10.178915501548419
      ],
      [
        "看",
        -10.178915501548419
      ],
      [
        "ふ",
        -10.178915501548513
      ],
      [
        "萱",
        -10.178915501548513
      ],
      [
        "繋",
        -10.178915501548513
      ],
      [
        "皐",
        -10.178915501548513
      ],
      [
        "詳",
        -10.178915501548513
      ],
      [
        "裔",
        -10.178915501548513
      ],
      [
        "姻",
        -10.178915501548513
      ],
      [
        "閏",
        -10.178915501548513
      ],
      [
        "或",
        -10.178915501548513
      ],
      [
        "甄",
        -10.178915501548513
      ],
      [
        "儀",
        -10.178915501548513
      ],
      [
        "飯",
        -10.178915501548513
      ],
      [
        "撫",
        -10.178915501548605
      ],
      [
        "路",
        -10.178915501561509
      ],
      [
        "播",
        -10.17891550158713
      ],
      [
        "単",
        -10.178915501587163
      ],
      [
        "巻",
        -10.178915501587284
      ],
      [
        "誕",
        -10.178915501587351
      ],
      [
        "奇",
        -10.178915501587538
      ],
      [
        "健",
        -10.178915501587538
      ],
      [
        "傘",
        -10.178915501587724
      ],
      [
        "容",
        -10.178915501587724
      ],
      [
        "唱",
        -10.178915501587724
      ],
      [
        "鎖",
        -10.178915501587724
      ],
      [
        "枇",
        -10.178915501587817
      ],
      [
        "智",
        -10.178915501587817
      ],
      [
        "硬",
        -10.178915501587817
      ],
      [
        "照",
        -10.178915501587852
      ],
      [
        "杷",
        -10.178915501587865
      ],
      [
        "郷",
        -10.17891550158791
      ],
      [
        "許",
        -10.17891550158791
      ],
      [
        "妹",
        -10.17891550158791
      ],
      [
        "到",
        -10.17891550158791
      ],
      [
        "擾",
        -10.17891550158791
      ],
      [
        "酋",
        -10.17891550158791
      ],
      [
        "梨",
        -10.17891550158791
      ],
      [
        "謙",
        -10.17891550158791
      ],
      [
        "渇",
        -10.17891550158791
      ],
      [
        "辛",
        -10.17891550158791
      ],
      [
        "潰",
        -10.178915501587959
      ],
      [
        "剣",
        -10.178915501587959
      ],
      [
        "瓜",
        -10.178915501587959
      ],
      [
        "刀",
        -10.178915501587959
      ],
      [
        "鍔",
        -10.178915501587959
      ],
      [
        "帆",
        -10.178915501587959
      ],
      [
        "柿",
        -10.178915501587959
      ],
      [
        "袖",
        -10.178915501587959
      ],
      [
        "称",
        -10.178915501588005
      ],
      [
        "費",
        -10.178915501588005
      ],
      [
        "複",
        -10.178915501588005
      ],
      [
        "權",
        -10.178915501588005
      ],
      [
        "険",
        -10.178915501588005
      ],
      [
        "酬",
        -10.178915501588005
      ],
      [
        "玄",
        -10.178915501588005
      ],
      [
        "󠄁",
        -10.178915501588005
      ],
      [
        "弐",
        -10.178915501588005
      ],
      [
        "岐",
        -10.178915501588005
      ],
      [
        "選",
        -10.178915501588005
      ],
      [
        "訪",
        -10.178915501588005
      ],
      [
        "効",
        -10.178915501588005
      ],
      [
        "砂",
        -10.178915501588005
      ],
      [
        "女",
        -10.178915501588005
      ],
      [
        "勲",
        -10.178915501588005
      ],
      [
        "減",
        -10.178915501588005
      ],
      [
        "柴",
        -10.178915501588005
      ],
      [
        "勧",
        -10.178915501588005
      ],
      [
        "井",
        -10.178915501588005
      ],
      [
        "郁",
        -10.178915501588005
      ],
      [
        "糸",
        -10.178915501588005
      ],
      [
        "芳",
        -10.178915501588005
      ],
      [
        "爪",
        -10.178915501588005
      ],
      [
        "牙",
        -10.178915501588005
      ],
      [
        "輔",
        -10.178915501588005
      ],
      [
        "労",
        -10.178915501588005
      ],
      [
        "握",
        -10.17891550158804
      ],
      [
        "毎",
        -10.178915501588051
      ],
      [
        "腐",
        -10.178915501588051
      ],
      [
        "捉",
        -10.178915501588051
      ],
      [
        "騙",
        -10.178915501588051
      ],
      [
        "遊",
        -10.178915501588051
      ],
      [
        "拾",
        -10.178915501588051
      ],
      [
        "焦",
        -10.178915501588051
      ],
      [
        "沌",
        -10.178915501588051
      ],
      [
        "珠",
        -10.178915501588051
      ],
      [
        "嫌",
        -10.178915501588051
      ],
      [
        "骸",
        -10.178915501588051
      ],
      [
        "穫",
        -10.178915501588051
      ],
      [
        "怒",
        -10.178915501588051
      ],
      [
        "伽",
        -10.178915501588051
      ],
      [
        "季",
        -10.178915501588051
      ],
      [
        "了",
        -10.178915501588051
      ],
      [
        "訳",
        -10.178915501588051
      ],
      [
        "畳",
        -10.178915501588051
      ],
      [
        "鞍",
        -10.178915501588051
      ],
      [
        "罰",
        -10.178915501588051
      ],
      [
        "食",
        -10.178915501588051
      ],
      [
        "敬",
        -10.178915501588051
      ],
      [
        "籤",
        -10.178915501588051
      ],
      [
        "奥",
        -10.178915501588051
      ],
      [
        "虫",
        -10.178915501588051
      ],
      [
        "揃",
        -10.178915501588051
      ],
      [
        "柄",
        -10.178915501588051
      ],
      [
        "霊",
        -10.178915501588051
      ],
      [
        "塞",
        -10.178915501588051
      ],
      [
        "斬",
        -10.178915501588051
      ],
      [
        "逼",
        -10.178915501588051
      ],
      [
        "絶",
        -10.178915501588051
      ],
      [
        "爆",
        -10.178915501588051
      ],
      [
        "字",
        -10.178915501588051
      ],
      [
        "穏",
        -10.178915501588051
      ],
      [
        "旱",
        -10.178915501588051
      ],
      [
        "噌",
        -10.178915501588051
      ],
      [
        "何",
        -10.178915501588051
      ],
      [
        "番",
        -10.178915501588051
      ],
      [
        "漢",
        -10.178915501588051
      ],
      [
        "誘",
        -10.178915501588051
      ],
      [
        "訂",
        -10.178915501588051
      ],
      [
        "劇",
        -10.178915501588063
      ],
      [
        "話",
        -10.178915501588063
      ],
      [
        "ひ",
        -10.178915501588074
      ],
      [
        "請",
        -10.178915501588074
      ],
      [
        "孤",
        -10.178915501588074
      ],
      [
        "耳",
        -10.178915501588074
      ],
      [
        "盾",
        -10.178915501588097
      ],
      [
        "罷",
        -10.178915501588097
      ],
      [
        "悟",
        -10.178915501588097
      ],
      [
        "汰",
        -10.178915501588097
      ],
      [
        "校",
        -10.178915501588097
      ],
      [
        "喜",
        -10.178915501588097
      ],
      [
        "肩",
        -10.178915501588097
      ],
      [
        "祇",
        -10.178915501588097
      ],
      [
        "唄",
        -10.178915501588097
      ],
      [
        "冑",
        -10.178915501588097
      ],
      [
        "禄",
        -10.178915501588097
      ],
      [
        "縁",
        -10.178915501588097
      ],
      [
        "匹",
        -10.178915501588097
      ],
      [
        "尋",
        -10.178915501588097
      ],
      [
        "留",
        -10.178915501588097
      ],
      [
        "珍",
        -10.178915501588097
      ],
      [
        "蠣",
        -10.178915501588097
      ],
      [
        "柱",
        -10.178915501588097
      ],
      [
        "漆",
        -10.178915501588097
      ],
      [
        "幅",
        -10.178915501588097
      ],
      [
        "才",
        -10.178915501588097
      ],
      [
        "狄",
        -10.178915501588097
      ],
      [
        "胤",
        -10.178915501588097
      ],
      [
        "歩",
        -10.178915501588097
      ],
      [
        "ビ",
        -10.178915501588097
      ],
      [
        "苑",
        -10.178915501588097
      ],
      [
        "舟",
        -10.178915501588097
      ],
      [
        "耕",
        -10.178915501588097
      ],
      [
        "蜂",
        -10.178915501588097
      ],
      [
        "僕",
        -10.178915501588097
      ],
      [
        "刃",
        -10.178915501588097
      ],
      [
        "稷",
        -10.178915501588097
      ],
      [
        "ネ",
        -10.178915501588097
      ],
      [
        "批",
        -10.178915501588097
      ],
      [
        "査",
        -10.178915501588097
      ],
      [
        "エ",
        -10.178915501588097
      ],
      [
        "赴",
        -10.178915501588097
      ],
      [
        "愕",
        -10.178915501588097
      ],
      [
        "顧",
        -10.178915501588097
      ],
      [
        "挑",
        -10.178915501588097
      ],
      [
        "摘",
        -10.178915501588097
      ],
      [
        "適",
        -10.178915501588097
      ],
      [
        "曹",
        -10.178915501588097
      ],
      [
        "裁",
        -10.178915501588097
      ],
      [
        "救",
        -10.178915501588097
      ],
      [
        "ワ",
        -10.178915501588097
      ],
      [
        "奔",
        -10.178915501588097
      ],
      [
        "ク",
        -10.178915501588097
      ],
      [
        "冠",
        -10.178915501588097
      ],
      [
        "撰",
        -10.178915501588097
      ],
      [
        "祖",
        -10.178915501588097
      ],
      [
        "桓",
        -10.178915501588097
      ],
      [
        "膨",
        -10.178915501588097
      ],
      [
        "質",
        -10.178915501588097
      ],
      [
        "庵",
        -10.178915501588097
      ],
      [
        "傾",
        -10.178915501588097
      ],
      [
        "ゆ",
        -10.178915501588097
      ],
      [
        "屈",
        -10.178915501588097
      ],
      [
        "跋",
        -10.178915501588097
      ],
      [
        "試",
        -10.178915501588097
      ],
      [
        "精",
        -10.178915501588097
      ],
      [
        "塩",
        -10.178915501588097
      ],
      [
        "告",
        -10.178915501588097
      ],
      [
        "詮",
        -10.178915501588097
      ],
      [
        "輿",
        -10.178915501588097
      ],
      [
        "載",
        -10.178915501588097
      ],
      [
        "群",
        -10.178915501588097
      ],
      [
        "募",
        -10.178915501588097
      ],
      [
        "犯",
        -10.178915501588097
      ],
      [
        "淘",
        -10.178915501588097
      ],
      [
        "短",
        -10.178915501588097
      ],
      [
        "夫",
        -10.178915501588097
      ],
      [
        "秘",
        -10.178915501588097
      ],
      [
        "希",
        -10.178915501588097
      ],
      [
        "妙",
        -10.178915501588097
      ],
      [
        "ご",
        -10.178915501588097
      ],
      [
        "射",
        -10.178915501588097
      ],
      [
        "捻",
        -10.178915501588097
      ],
      [
        "雀",
        -10.178915501588097
      ],
      [
        "待",
        -10.178915501588097
      ],
      [
        "湛",
        -10.178915501588097
      ],
      [
        "閑",
        -10.178915501588097
      ],
      [
        "誉",
        -10.178915501588097
      ],
      [
        "額",
        -10.178915501588097
      ],
      [
        "我",
        -10.178915501588097
      ],
      [
        "授",
        -10.178915501588097
      ],
      [
        "版",
        -10.178915501588097
      ],
      [
        "歳",
        -10.178915501588097
      ],
      [
        "憤",
        -10.178915501588097
      ],
      [
        "迫",
        -10.178915501588097
      ],
      [
        "軒",
        -10.178915501588097
      ],
      [
        "証",
        -10.178915501588097
      ],
      [
        "侶",
        -10.178915501588097
      ],
      [
        "彩",
        -10.178915501588097
      ],
      [
        "耐",
        -10.178915501588097
      ],
      [
        "測",
        -10.178915501588097
      ],
      [
        "愛",
        -10.178915501588097
      ],
      [
        "摩",
        -10.178915501588097
      ],
      [
        "拙",
        -10.178915501588097
      ],
      [
        "錯",
        -10.178915501588097
      ],
      [
        "円",
        -10.178915501588097
      ],
      [
        "遡",
        -10.178915501588097
      ],
      [
        "剰",
        -10.178915501588097
      ],
      [
        "脆",
        -10.178915501588097
      ],
      [
        "雪",
        -10.178915501588097
      ],
      [
        "楼",
        -10.178915501588097
      ],
      [
        "違",
        -10.178915501588097
      ],
      [
        "輩",
        -10.178915501588097
      ],
      [
        "扈",
        -10.178915501588097
      ],
      [
        "境",
        -10.178915501588097
      ],
      [
        "怖",
        -10.178915501588097
      ],
      [
        "奴",
        -10.178915501588097
      ],
      [
        "惑",
        -10.178915501588097
      ],
      [
        "讒",
        -10.178915501588097
      ],
      [
        "吏",
        -10.178915501588097
      ],
      [
        "倶",
        -10.178915501588097
      ],
      [
        "桂",
        -10.178915501588097
      ],
      [
        "=",
        -10.178915501588097
      ],
      [
        "肉",
        -10.178915501588097
      ],
      [
        "顔",
        -10.178915501588097
      ],
      [
        "涵",
        -10.178915501588097
      ],
      [
        "侘",
        -10.178915501588097
      ],
      [
        "ていて、清盛",
        -10.178925363444252
      ],
      [
        "斯",
        -11.104591305319301
      ],
      [
        "鮮",
        -11.104691305319303
      ],
      [
        "得",
        -11.104791305319303
      ],
      [
        "衙",
        -11.104891305319303
      ],
      [
        "幽",
        -11.104991305319302
      ],
      [
        "渉",
        -11.105091305319302
      ],
      [
        "拡",
        -11.105191305319302
      ],
      [
        "鳥",
        -11.105291305319302
      ],
      [
        "岡",
        -11.105391305319301
      ],
      [
        "荒",
        -11.105491305319303
      ],
      [
        "影",
        -11.105591305319303
      ],
      [
        "撤",
        -11.105691305319302
      ],
      [
        "際",
        -11.105791305319302
      ],
      [
        "迭",
        -11.105891305319302
      ],
      [
        "価",
        -11.105991305319302
      ],
      [
        "題",
        -11.106091305319302
      ],
      [
        "響",
        -11.106191305319301
      ],
      [
        "ぞ",
        -11.106291305319303
      ],
      [
        "弥",
        -11.106391305319303
      ],
      [
        "由",
        -11.106491305319302
      ],
      [
        "裂",
        -11.106591305319302
      ],
      [
        "沿",
        -11.106691305319302
      ],
      [
        "摂",
        -11.106791305319302
      ],
      [
        "滋",
        -11.106891305319301
      ],
      [
        "想",
        -11.106991305319303
      ],
      [
        "羅",
        -11.107091305319303
      ],
      [
        "ヵ",
        -11.107191305319303
      ],
      [
        "蝦",
        -11.107291305319302
      ],
      [
        "示",
        -11.107391305319302
      ],
      [
        "考",
        -11.107491305319302
      ],
      [
        "漑",
        -11.107591305319302
      ],
      [
        "君",
        -11.107691305319301
      ],
      [
        "憲",
        -11.107791305319303
      ],
      [
        "及",
        -11.107891305319303
      ],
      [
        "走",
        -11.107991305319302
      ],
      [
        "倒",
        -11.108091305319302
      ],
      [
        "越",
        -11.108191305319302
      ],
      [
        "遺",
        -11.108291305319302
      ],
      [
        "囲",
        -11.108391305319302
      ],
      [
        "琉",
        -11.108491305319301
      ],
      [
        "盤",
        -11.108591305319303
      ],
      [
        "離",
        -11.108691305319303
      ],
      [
        "栽",
        -11.108791305319302
      ],
      [
        "貿",
        -11.108891305319302
      ],
      [
        "赤",
        -11.108991305319302
      ],
      [
        "繰",
        -11.109091305319302
      ],
      [
        "送",
        -11.109191305319301
      ],
      [
        "伐",
        -11.109291305319303
      ],
      [
        "楠",
        -11.109391305319303
      ],
      [
        "岸",
        -11.109491305319303
      ],
      [
        "醐",
        -11.109591305319302
      ],
      [
        "狩",
        -11.109691305319302
      ],
      [
        "陽",
        -11.109791305319302
      ],
      [
        "博",
        -11.109891305319302
      ],
      [
        "益",
        -11.109991305319301
      ],
      [
        "早",
        -11.110091305319303
      ],
      [
        "死",
        -11.110191305319303
      ],
      [
        "廷",
        -11.110291305319302
      ],
      [
        "込",
        -11.110391305319302
      ],
      [
        "庭",
        -11.110491305319302
      ],
      [
        "型",
        -11.110591305319302
      ],
      [
        "宰",
        -11.110691305319301
      ],
      [
        "儡",
        -11.110791305319301
      ],
      [
        "卸",
        -11.110891305319303
      ],
      [
        "息",
        -11.110991305319303
      ],
      [
        "ヌ",
        -11.111091305319302
      ],
      [
        "秩",
        -11.111191305319302
      ],
      [
        "幣",
        -11.111291305319302
      ],
      [
        "団",
        -11.111391305319302
      ],
      [
        "笠",
        -11.111491305319301
      ],
      [
        "拒",
        -11.111591305319303
      ],
      [
        "遷",
        -11.111691305319303
      ],
      [
        "技",
        -11.111791305319302
      ],
      [
        "段",
        -11.111891305319302
      ],
      [
        "綿",
        -11.111991305319302
      ],
      [
        "ジ",
        -11.112091305319302
      ],
      [
        "透",
        -11.112191305319302
      ],
      [
        "組",
        -11.112291305319301
      ],
      [
        "九",
        -11.112391305319303
      ],
      [
        "曽",
        -11.112491305319303
      ],
      [
        "脱",
        -11.112591305319302
      ],
      [
        "護",
        -11.112691305319302
      ],
      [
        "棄",
        -11.112791305319302
      ],
      [
        "礎",
        -11.112891305319302
      ],
      [
        "況",
        -11.112991305319301
      ],
      [
        "庶",
        -11.113091305319301
      ],
      [
        "佐",
        -11.113191305319303
      ],
      [
        "巡",
        -11.113291305319303
      ],
      [
        "庖",
        -11.113391305319302
      ],
      [
        "仕",
        -11.113491305319302
      ],
      [
        "醤",
        -11.113591305319302
      ],
      [
        "街",
        -11.113691305319302
      ],
      [
        "倭",
        -11.113791305319301
      ],
      [
        "鐚",
        -11.113891305319303
      ],
      [
        "干",
        -11.113991305319303
      ],
      [
        "預",
        -11.114091305319302
      ],
      [
        "尊",
        -11.114191305319302
      ],
      [
        "昭",
        -11.114291305319302
      ],
      [
        "灌",
        -11.114391305319302
      ],
      [
        "更",
        -11.114491305319302
      ],
      [
        "易",
        -11.114591305319301
      ],
      [
        "閥",
        -11.114691305319303
      ],
      [
        "ヨ",
        -11.114791305319303
      ],
      [
        "少",
        -11.114891305319302
      ],
      [
        "沈",
        -11.114991305319302
      ],
      [
        "払",
        -11.115091305319302
      ],
      [
        "嘉",
        -11.115191305319302
      ],
      [
        "美",
        -11.115291305319301
      ],
      [
        "怠",
        -11.115391305319303
      ],
      [
        "索",
        -11.115491305319303
      ],
      [
        "没",
        -11.115591305319303
      ],
      [
        "創",
        -11.115691305319302
      ],
      [
        "就",
        -11.115791305319302
      ],
      [
        "藤",
        -11.115891305319302
      ],
      [
        "願",
        -11.115991305319302
      ],
      [
        "枢",
        -11.116091305319301
      ],
      [
        "背",
        -11.116191305319303
      ],
      [
        "灰",
        -11.116291305319303
      ],
      [
        "般",
        -11.116391305319302
      ],
      [
        "迎",
        -11.116491305319302
      ],
      [
        "素",
        -11.116591305319302
      ],
      [
        "需",
        -11.116691305319302
      ],
      [
        "飾",
        -11.116791305319301
      ],
      [
        "寧",
        -11.116891305319301
      ],
      [
        "亀",
        -11.116991305319303
      ],
      [
        "浸",
        -11.117091305319303
      ],
      [
        "停",
        -11.117191305319302
      ],
      [
        "丁",
        -11.117291305319302
      ],
      [
        "遭",
        -11.117391305319302
      ],
      [
        "ベ",
        -11.117491305319302
      ],
      [
        "郭",
        -11.117591305319301
      ],
      [
        "矢",
        -11.117691305319303
      ],
      [
        "加",
        -11.117791305319303
      ],
      [
        "娘",
        -11.117891305319302
      ],
      [
        "轄",
        -11.117991305319302
      ],
      [
        "畿",
        -11.118091305319302
      ],
      [
        "乳",
        -11.118191305319302
      ],
      [
        "鎌",
        -11.118291305319302
      ],
      [
        "構",
        -11.118391305319301
      ],
      [
        "貴",
        -11.118491305319303
      ],
      [
        "確",
        -11.118591305319303
      ],
      [
        "吹",
        -11.118691305319302
      ],
      [
        "澄",
        -11.118791305319302
      ],
      [
        "惣",
        -11.118891305319302
      ],
      [
        "振",
        -11.118991305319302
      ],
      [
        "因",
        -11.119091305319301
      ],
      [
        "酒",
        -11.119191305319301
      ],
      [
        "廉",
        -11.119291305319303
      ],
      [
        "橋",
        -11.119391305319303
      ],
      [
        "敏",
        -11.119491305319302
      ],
      [
        "づ",
        -11.119591305319302
      ],
      [
        "遅",
        -11.119691305319302
      ],
      [
        "製",
        -11.119791305319302
      ],
      [
        "往",
        -11.119891305319301
      ],
      [
        "率",
        -11.119991305319303
      ],
      [
        "序",
        -11.120091305319303
      ],
      [
        "四",
        -11.120191305319302
      ],
      [
        "旨",
        -11.120291305319302
      ],
      [
        "醍",
        -11.120391305319302
      ],
      [
        "即",
        -11.120491305319302
      ],
      [
        "脚",
        -11.120591305319302
      ],
      [
        "濃",
        -11.120691305319301
      ],
      [
        "滅",
        -11.120791305319303
      ],
      [
        "替",
        -11.120891305319303
      ],
      [
        "受",
        -11.120991305319302
      ],
      [
        "目",
        -11.121091305319302
      ],
      [
        "可",
        -11.121191305319302
      ],
      [
        "売",
        -11.121291305319302
      ],
      [
        "獲",
        -11.121391305319301
      ],
      [
        "究",
        -11.121491305319301
      ],
      [
        "務",
        -11.121591305319303
      ],
      [
        "孫",
        -11.121691305319303
      ],
      [
        "融",
        -11.121791305319302
      ],
      [
        "梁",
        -11.121891305319302
      ],
      [
        "磨",
        -11.121991305319302
      ],
      [
        "招",
        -11.122091305319302
      ],
      [
        "油",
        -11.122191305319301
      ],
      [
        "追",
        -11.122291305319303
      ],
      [
        "克",
        -11.122391305319303
      ],
      [
        "貨",
        -11.122491305319302
      ],
      [
        "杉",
        -11.122591305319302
      ],
      [
        "揆",
        -11.122691305319302
      ],
      [
        "晴",
        -11.122791305319302
      ],
      [
        "っ",
        -11.122891305319301
      ],
      [
        "叡",
        -11.122991305319301
      ],
      [
        "党",
        -11.123091305319303
      ],
      [
        "州",
        -11.123191305319303
      ],
      [
        "ャ",
        -11.123291305319302
      ],
      [
        "晩",
        -11.123391305319302
      ],
      [
        "線",
        -11.123491305319302
      ],
      [
        "僅",
        -11.123591305319302
      ],
      [
        "景",
        -11.123691305319301
      ],
      [
        "個",
        -11.123791305319301
      ],
      [
        "検",
        -11.123891305319303
      ],
      [
        "築",
        -11.123991305319302
      ],
      [
        "級",
        -11.124091305319302
      ],
      [
        "叛",
        -11.124191305319302
      ],
      [
        "鉱",
        -11.124291305319302
      ],
      [
        "刻",
        -11.124391305319302
      ],
      [
        "墨",
        -11.124491305319301
      ],
      [
        "描",
        -11.124591305319303
      ],
      [
        "衰",
        -11.124691305319303
      ],
      [
        "纂",
        -11.124791305319302
      ],
      [
        "屏",
        -11.124891305319302
      ],
      [
        "壊",
        -11.124991305319302
      ],
      [
        "お",
        -11.125091305319302
      ],
      [
        "奈",
        -11.125191305319301
      ],
      [
        "業",
        -11.125291305319301
      ],
      [
        "間",
        -11.125391305319303
      ],
      [
        "暗",
        -11.125491305319303
      ],
      [
        "己",
        -11.125591305319302
      ],
      [
        "蒔",
        -11.125691305319302
      ],
      [
        "排",
        -11.125791305319302
      ],
      [
        "朱",
        -11.125891305319302
      ],
      [
        "呼",
        -11.125991305319301
      ],
      [
        "置",
        -11.126091305319303
      ],
      [
        "歌",
        -11.126191305319303
      ],
      [
        "察",
        -11.126291305319302
      ],
      [
        "依",
        -11.126391305319302
      ],
      [
        "状",
        -11.126491305319302
      ],
      [
        "湯",
        -11.126591305319302
      ],
      [
        "仇",
        -11.126691305319302
      ],
      [
        "懐",
        -11.126791305319301
      ],
      [
        "徴",
        -11.126891305319303
      ],
      [
        "彼",
        -11.126991305319303
      ],
      [
        "墜",
        -11.127091305319302
      ],
      [
        "傀",
        -11.127191305319302
      ],
      [
        "困",
        -11.127291305319302
      ],
      [
        "阪",
        -11.127391305319302
      ],
      [
        "司",
        -11.127491305319301
      ],
      [
        "触",
        -11.127591305319301
      ],
      [
        "茂",
        -11.127691305319303
      ],
      [
        "球",
        -11.127791305319302
      ],
      [
        "擁",
        -11.127891305319302
      ],
      [
        "挙",
        -11.127991305319302
      ],
      [
        "瀬",
        -11.128091305319302
      ],
      [
        "之",
        -11.128191305319302
      ],
      [
        "遣",
        -11.128291305319301
      ],
      [
        "曾",
        -11.128391305319303
      ],
      [
        "捨",
        -11.128491305319303
      ],
      [
        "抄",
        -11.128591305319302
      ],
      [
        "消",
        -11.128691305319302
      ],
      [
        "堵",
        -11.128791305319302
      ],
      [
        "戸",
        -11.128891305319302
      ],
      [
        "掌",
        -11.128991305319301
      ],
      [
        "販",
        -11.129091305319301
      ],
      [
        "符",
        -11.129191305319303
      ],
      [
        "契",
        -11.129291305319303
      ],
      [
        "著",
        -11.129391305319302
      ],
      [
        "福",
        -11.129491305319302
      ],
      [
        "慈",
        -11.129591305319302
      ],
      [
        "五",
        -11.129691305319302
      ],
      [
        "勘",
        -11.129791305319301
      ],
      [
        "努",
        -11.129891305319303
      ],
      [
        "崇",
        -11.129991305319303
      ],
      [
        "警",
        -11.130091305319302
      ],
      [
        "堀",
        -11.130191305319302
      ],
      [
        "央",
        -11.130291305319302
      ],
      [
        "較",
        -11.130391305319302
      ],
      [
        "徐",
        -11.130491305319302
      ],
      [
        "独",
        -11.130591305319301
      ],
      [
        "睦",
        -11.130691305319303
      ],
      [
        "裕",
        -11.130791305319303
      ],
      [
        "培",
        -11.130891305319302
      ],
      [
        "各",
        -11.130991305319302
      ],
      [
        "春",
        -11.131091305319302
      ],
      [
        "押",
        -11.131191305319302
      ],
      [
        "区",
        -11.131291305319301
      ],
      [
        "/",
        -11.131391305319301
      ],
      [
        "抵",
        -11.131491305319303
      ],
      [
        "始",
        -11.131591305319303
      ],
      [
        "奉",
        -11.131691305319302
      ],
      [
        "膠",
        -11.131791305319302
      ]
    ],
    "byte_fallback": false
  }
}