{
  "version": "1.0",
  "truncation": null,
  "padding": null,
  "added_tokens": [
    {
      "id": 0,
      "content": "<pad>",
      "single_word": false,
      "lstrip": false,
      "rstrip": false,
      "normalized": false,
      "special": true
    },
    {
      "id": 1,
      "content": "<bos>",
      "single_word": false,
      "lstrip": false,
      "rstrip": false,
      "normalized": false,
      "special": true
    },
    {
      "id": 2,
      "content": "<eos>",
      "single_word": false,
      "lstrip": false,
      "rstrip": false,
      "normalized": false,
      "special": true
    },
    {
      "id": 3,
      "content": "<unk>",
      "single_word": false,
      "lstrip": false,
      "rstrip": false,
      "normalized": false,
      "special": true
    },
    {
      "id": 4,
      "content": "<mask>",
      "single_word": false,
      "lstrip": false,
      "rstrip": false,
      "normalized": false,
      "special": true
    }
  ],
  "normalizer": null,
  "pre_tokenizer": {
    "type": "BertPreTokenizer"
  },
  "post_processor": null,
  "decoder": null,
  "model": {
    "type": "WordPiece",
    "unk_token": "<unk>",
    "continuing_subword_prefix": "##",
    "max_input_chars_per_word": 100,
    "vocab": {
      "<pad>": 0,
      "<bos>": 1,
      "<eos>": 2,
      "<unk>": 3,
      "<mask>": 4,
      "\b": 5,
      "\u001b": 6,
      "!": 7,
      "\"": 8,
      "#": 9,
      "%": 10,
      "&": 11,
      "'": 12,
      "(": 13,
      ")": 14,
      "*": 15,
      "+": 16,
      ",": 17,
      "-": 18,
      ".": 19,
      "/": 20,
      "0": 21,
      "1": 22,
      "2": 23,
      "3": 24,
      "4": 25,
      "5": 26,
      "6": 27,
      "7": 28,
      "8": 29,
      "9": 30,
      ":": 31,
      ";": 32,
      "<": 33,
      "=": 34,
      ">": 35,
      "?": 36,
      "@": 37,
      "A": 38,
      "B": 39,
      "C": 40,
      "D": 41,
      "E": 42,
      "F": 43,
      "G": 44,
      "H": 45,
      "I": 46,
      "J": 47,
      "K": 48,
      "L": 49,
      "M": 50,
      "N": 51,
      "O": 52,
      "P": 53,
      "Q": 54,
      "R": 55,
      "S": 56,
      "T": 57,
      "U": 58,
      "V": 59,
      "W": 60,
      "X": 61,
      "Y": 62,
      "Z": 63,
      "[": 64,
      "\\": 65,
      "]": 66,
      "^": 67,
      "_": 68,
      "`": 69,
      "a": 70,
      "b": 71,
      "c": 72,
      "d": 73,
      "e": 74,
      "f": 75,
      "g": 76,
      "h": 77,
      "i": 78,
      "j": 79,
      "k": 80,
      "l": 81,
      "m": 82,
      "n": 83,
      "o": 84,
      "p": 85,
      "q": 86,
      "r": 87,
      "s": 88,
      "t": 89,
      "u": 90,
      "v": 91,
      "w": 92,
      "x": 93,
      "y": 94,
      "z": 95,
      "~": 96,
      "¥": 97,
      "©": 98,
      "«": 99,
      "®": 100,
      "°": 101,
      "±": 102,
      "´": 103,
      "»": 104,
      "×": 105,
      "ō": 106,
      "̀": 107,
      "́": 108,
      "̈": 109,
      "Θ": 110,
      "Σ": 111,
      "Ψ": 112,
      "Ω": 113,
      "α": 114,
      "β": 115,
      "γ": 116,
      "ε": 117,
      "μ": 118,
      "ω": 119,
      "Д": 120,
      "О": 121,
      "д": 122,
      "ж": 123,
      "о": 124,
      "و": 125,
      "๑": 126,
      "ཀ": 127,
      "​": 128,
      "‐": 129,
      "–": 130,
      "—": 131,
      "―": 132,
      "‘": 133,
      "’": 134,
      "“": 135,
      "”": 136,
      "•": 137,
      "‥": 138,
      "…": 139,
      "″": 140,
      "※": 141,
      "‼": 142,
      "℃": 143,
      "™": 144,
      "Ⅱ": 145,
      "Ⅲ": 146,
      "Ⅶ": 147,
      "Ⅹ": 148,
      "ⅲ": 149,
      "ⅳ": 150,
      "←": 151,
      "↑": 152,
      "→": 153,
      "↓": 154,
      "⇒": 155,
      "⇔": 156,
      "∀": 157,
      "∇": 158,
      "−": 159,
      "∠": 160,
      "≦": 161,
      "≧": 162,
      "≫": 163,
      "⌒": 164,
      "①": 165,
      "②": 166,
      "③": 167,
      "④": 168,
      "⑤": 169,
      "⑦": 170,
      "⑧": 171,
      "⑩": 172,
      "⑪": 173,
      "─": 174,
      "━": 175,
      "█": 176,
      "■": 177,
      "□": 178,
      "▲": 179,
      "△": 180,
      "▷": 181,
      "▼": 182,
      "▽": 183,
      "◆": 184,
      "◇": 185,
      "○": 186,
      "◎": 187,
      "●": 188,
      "◡": 189,
      "◯": 190,
      "☀": 191,
      "★": 192,
      "☆": 193,
      "☺": 194,
      "♡": 195,
      "♥": 196,
      "♨": 197,
      "♪": 198,
      "♫": 199,
      "⚪": 200,
      "✔": 201,
      "✕": 202,
      "✧": 203,
      "✨": 204,
      "❤": 205,
      "⻑": 206,
      "⼀": 207,
      "⾏": 208,
      "⾵": 209,
      "、": 210,
      "。": 211,
      "〃": 212,
      "々": 213,
      "〆": 214,
      "〇": 215,
      "〈": 216,
      "〉": 217,
      "《": 218,
      "》": 219,
      "「": 220,
      "」": 221,
      "『": 222,
      "』": 223,
      "【": 224,
      "】": 225,
      "〔": 226,
      "〕": 227,
      "〜": 228,
      "〝": 229,
      "〟": 230,
      "ぁ": 231,
      "あ": 232,
      "ぃ": 233,
      "い": 234,
      "ぅ": 235,
      "う": 236,
      "ぇ": 237,
      "え": 238,
      "ぉ": 239,
      "お": 240,
      "か": 241,
      "が": 242,
      "き": 243,
      "ぎ": 244,
      "く": 245,
      "ぐ": 246,
      "け": 247,
      "げ": 248,
      "こ": 249,
      "ご": 250,
      "さ": 251,
      "ざ": 252,
      "し": 253,
      "じ": 254,
      "す": 255,
      "ず": 256,
      "せ": 257,
      "ぜ": 258,
      "そ": 259,
      "ぞ": 260,
      "た": 261,
      "だ": 262,
      "ち": 263,
      "っ": 264,
      "つ": 265,
      "づ": 266,
      "て": 267,
      "で": 268,
      "と": 269,
      "ど": 270,
      "な": 271,
      "に": 272,
      "ぬ": 273,
      "ね": 274,
      "の": 275,
      "は": 276,
      "ば": 277,
      "ぱ": 278,
      "ひ": 279,
      "び": 280,
      "ぴ": 281,
      "ふ": 282,
      "ぶ": 283,
      "ぷ": 284,
      "へ": 285,
      "べ": 286,
      "ぺ": 287,
      "ほ": 288,
      "ぼ": 289,
      "ぽ": 290,
      "ま": 291,
      "み": 292,
      "む": 293,
      "め": 294,
      "も": 295,
      "ゃ": 296,
      "や": 297,
      "ゅ": 298,
      "ゆ": 299,
      "ょ": 300,
      "よ": 301,
      "ら": 302,
      "り": 303,
      "る": 304,
      "れ": 305,
      "ろ": 306,
      "ゎ": 307,
      "わ": 308,
      "ゐ": 309,
      "を": 310,
      "ん": 311,
      "゙": 312,
      "゚": 313,
      "゜": 314,
      "ゝ": 315,
      "ゞ": 316,
      "ァ": 317,
      "ア": 318,
      "ィ": 319,
      "イ": 320,
      "ゥ": 321,
      "ウ": 322,
      "ェ": 323,
      "エ": 324,
      "ォ": 325,
      "オ": 326,
      "カ": 327,
      "ガ": 328,
      "キ": 329,
      "ギ": 330,
      "ク": 331,
      "グ": 332,
      "ケ": 333,
      "ゲ": 334,
      "コ": 335,
      "ゴ": 336,
      "サ": 337,
      "ザ": 338,
      "シ": 339,
      "ジ": 340,
      "ス": 341,
      "ズ": 342,
      "セ": 343,
      "ゼ": 344,
      "ソ": 345,
      "ゾ": 346,
      "タ": 347,
      "ダ": 348,
      "チ": 349,
      "ッ": 350,
      "ツ": 351,
      "テ": 352,
      "デ": 353,
      "ト": 354,
      "ド": 355,
      "ナ": 356,
      "ニ": 357,
      "ヌ": 358,
      "ネ": 359,
      "ノ": 360,
      "ハ": 361,
      "バ": 362,
      "パ": 363,
      "ヒ": 364,
      "ビ": 365,
      "ピ": 366,
      "フ": 367,
      "ブ": 368,
      "プ": 369,
      "ヘ": 370,
      "ベ": 371,
      "ペ": 372,
      "ホ": 373,
      "ボ": 374,
      "ポ": 375,
      "マ": 376,
      "ミ": 377,
      "ム": 378,
      "メ": 379,
      "モ": 380,
      "ャ": 381,
      "ヤ": 382,
      "ュ": 383,
      "ユ": 384,
      "ョ": 385,
      "ヨ": 386,
      "ラ": 387,
      "リ": 388,
      "ル": 389,
      "レ": 390,
      "ロ": 391,
      "ワ": 392,
      "ヱ": 393,
      "ヲ": 394,
      "ン": 395,
      "ヴ": 396,
      "ヵ": 397,
      "ヶ": 398,
      "・": 399,
      "ー": 400,
      "ヽ": 401,
      "ヾ": 402,
      "ㅂ": 403,
      "㈮": 404,
      "㈱": 405,
      "㎏": 406,
      "㎜": 407,
      "㎞": 408,
      "㎡": 409,
      "一": 410,
      "丁": 411,
      "七": 412,
      "万": 413,
      "丈": 414,
      "三": 415,
      "上": 416,
      "下": 417,
      "不": 418,
      "与": 419,
      "丑": 420,
      "且": 421,
      "世": 422,
      "丘": 423,
      "东": 424,
      "両": 425,
      "並": 426,
      "中": 427,
      "串": 428,
      "丸": 429,
      "丹": 430,
      "主": 431,
      "丼": 432,
      "丿": 433,
      "乃": 434,
      "久": 435,
      "之": 436,
      "乍": 437,
      "乎": 438,
      "乏": 439,
      "乖": 440,
      "乗": 441,
      "乙": 442,
      "九": 443,
      "乞": 444,
      "也": 445,
      "乱": 446,
      "乳": 447,
      "乾": 448,
      "亀": 449,
      "了": 450,
      "予": 451,
      "争": 452,
      "事": 453,
      "二": 454,
      "云": 455,
      "互": 456,
      "五": 457,
      "井": 458,
      "亘": 459,
      "些": 460,
      "亜": 461,
      "亡": 462,
      "亢": 463,
      "交": 464,
      "亦": 465,
      "享": 466,
      "京": 467,
      "亭": 468,
      "亮": 469,
      "人": 470,
      "什": 471,
      "仁": 472,
      "仄": 473,
      "仇": 474,
      "今": 475,
      "介": 476,
      "仏": 477,
      "仔": 478,
      "仕": 479,
      "他": 480,
      "付": 481,
      "仙": 482,
      "代": 483,
      "令": 484,
      "以": 485,
      "仮": 486,
      "仰": 487,
      "仲": 488,
      "件": 489,
      "任": 490,
      "企": 491,
      "伊": 492,
      "伎": 493,
      "伏": 494,
      "伐": 495,
      "休": 496,
      "会": 497,
      "伝": 498,
      "伯": 499,
      "伴": 500,
      "伸": 501,
      "伺": 502,
      "似": 503,
      "伽": 504,
      "但": 505,
      "佇": 506,
      "位": 507,
      "低": 508,
      "住": 509,
      "佐": 510,
      "佑": 511,
      "体": 512,
      "何": 513,
      "余": 514,
      "作": 515,
      "佳": 516,
      "併": 517,
      "佼": 518,
      "使": 519,
      "侃": 520,
      "例": 521,
      "侍": 522,
      "侘": 523,
      "供": 524,
      "依": 525,
      "侠": 526,
      "価": 527,
      "侭": 528,
      "侮": 529,
      "侯": 530,
      "侵": 531,
      "侶": 532,
      "便": 533,
      "係": 534,
      "促": 535,
      "俄": 536,
      "俊": 537,
      "俑": 538,
      "俗": 539,
      "保": 540,
      "信": 541,
      "俣": 542,
      "修": 543,
      "俯": 544,
      "俳": 545,
      "俵": 546,
      "俸": 547,
      "俺": 548,
      "倉": 549,
      "個": 550,
      "倍": 551,
      "倒": 552,
      "倖": 553,
      "候": 554,
      "借": 555,
      "倣": 556,
      "値": 557,
      "倦": 558,
      "倫": 559,
      "倭": 560,
      "偉": 561,
      "偏": 562,
      "偐": 563,
      "偕": 564,
      "做": 565,
      "停": 566,
      "健": 567,
      "偲": 568,
      "側": 569,
      "偵": 570,
      "偶": 571,
      "偽": 572,
      "傀": 573,
      "傍": 574,
      "傑": 575,
      "傘": 576,
      "備": 577,
      "催": 578,
      "傭": 579,
      "傲": 580,
      "傳": 581,
      "債": 582,
      "傷": 583,
      "傾": 584,
      "僅": 585,
      "働": 586,
      "像": 587,
      "僑": 588,
      "僕": 589,
      "僚": 590,
      "僥": 591,
      "僧": 592,
      "僭": 593,
      "儀": 594,
      "億": 595,
      "儒": 596,
      "儚": 597,
      "償": 598,
      "儡": 599,
      "優": 600,
      "儲": 601,
      "儺": 602,
      "允": 603,
      "元": 604,
      "兄": 605,
      "充": 606,
      "兆": 607,
      "先": 608,
      "光": 609,
      "克": 610,
      "兌": 611,
      "免": 612,
      "兎": 613,
      "児": 614,
      "党": 615,
      "兜": 616,
      "入": 617,
      "全": 618,
      "八": 619,
      "公": 620,
      "六": 621,
      "共": 622,
      "兵": 623,
      "具": 624,
      "典": 625,
      "兼": 626,
      "内": 627,
      "円": 628,
      "冊": 629,
      "再": 630,
      "冑": 631,
      "冒": 632,
      "冗": 633,
      "写": 634,
      "冠": 635,
      "冤": 636,
      "冥": 637,
      "冨": 638,
      "冪": 639,
      "冬": 640,
      "冲": 641,
      "冴": 642,
      "冷": 643,
      "凄": 644,
      "准": 645,
      "凉": 646,
      "凌": 647,
      "凍": 648,
      "凛": 649,
      "凝": 650,
      "几": 651,
      "凡": 652,
      "処": 653,
      "凪": 654,
      "凰": 655,
      "凱": 656,
      "凶": 657,
      "凸": 658,
      "凹": 659,
      "出": 660,
      "函": 661,
      "刀": 662,
      "刃": 663,
      "分": 664,
      "切": 665,
      "刈": 666,
      "刊": 667,
      "刑": 668,
      "列": 669,
      "初": 670,
      "判": 671,
      "別": 672,
      "利": 673,
      "到": 674,
      "制": 675,
      "刷": 676,
      "券": 677,
      "刹": 678,
      "刺": 679,
      "刻": 680,
      "剃": 681,
      "則": 682,
      "削": 683,
      "剋": 684,
      "前": 685,
      "剖": 686,
      "剛": 687,
      "剣": 688,
      "剤": 689,
      "剥": 690,
      "剪": 691,
      "副": 692,
      "剰": 693,
      "剱": 694,
      "割": 695,
      "創": 696,
      "劃": 697,
      "劇": 698,
      "劉": 699,
      "力": 700,
      "功": 701,
      "加": 702,
      "劣": 703,
      "助": 704,
      "努": 705,
      "劫": 706,
      "励": 707,
      "労": 708,
      "効": 709,
      "勁": 710,
      "勃": 711,
      "勅": 712,
      "勇": 713,
      "勉": 714,
      "動": 715,
      "勘": 716,
      "務": 717,
      "勝": 718,
      "募": 719,
      "勢": 720,
      "勤": 721,
      "勧": 722,
      "勲": 723,
      "勾": 724,
      "勿": 725,
      "匂": 726,
      "包": 727,
      "匈": 728,
      "化": 729,
      "北": 730,
      "匙": 731,
      "匠": 732,
      "匡": 733,
      "匣": 734,
      "匹": 735,
      "区": 736,
      "医": 737,
      "匿": 738,
      "十": 739,
      "千": 740,
      "升": 741,
      "午": 742,
      "半": 743,
      "卍": 744,
      "卑": 745,
      "卒": 746,
      "卓": 747,
      "協": 748,
      "南": 749,
      "単": 750,
      "博": 751,
      "卜": 752,
      "占": 753,
      "印": 754,
      "危": 755,
      "即": 756,
      "却": 757,
      "卵": 758,
      "卸": 759,
      "卿": 760,
      "厄": 761,
      "厘": 762,
      "厚": 763,
      "原": 764,
      "厠": 765,
      "厨": 766,
      "厭": 767,
      "厳": 768,
      "去": 769,
      "参": 770,
      "又": 771,
      "叉": 772,
      "及": 773,
      "友": 774,
      "双": 775,
      "反": 776,
      "収": 777,
      "叔": 778,
      "取": 779,
      "受": 780,
      "叙": 781,
      "叛": 782,
      "叡": 783,
      "口": 784,
      "古": 785,
      "句": 786,
      "叩": 787,
      "只": 788,
      "叫": 789,
      "召": 790,
      "叭": 791,
      "可": 792,
      "台": 793,
      "叱": 794,
      "史": 795,
      "右": 796,
      "叶": 797,
      "号": 798,
      "司": 799,
      "吃": 800,
      "各": 801,
      "合": 802,
      "吉": 803,
      "吊": 804,
      "同": 805,
      "名": 806,
      "后": 807,
      "吏": 808,
      "吐": 809,
      "向": 810,
      "君": 811,
      "吝": 812,
      "吟": 813,
      "吠": 814,
      "否": 815,
      "含": 816,
      "吸": 817,
      "吹": 818,
      "吻": 819,
      "吽": 820,
      "吾": 821,
      "呂": 822,
      "呆": 823,
      "呈": 824,
      "呉": 825,
      "告": 826,
      "呑": 827,
      "呟": 828,
      "周": 829,
      "呪": 830,
      "味": 831,
      "呻": 832,
      "呼": 833,
      "命": 834,
      "咀": 835,
      "和": 836,
      "咎": 837,
      "咤": 838,
      "咥": 839,
      "咫": 840,
      "咬": 841,
      "咲": 842,
      "咳": 843,
      "咸": 844,
      "咽": 845,
      "哀": 846,
      "品": 847,
      "哈": 848,
      "哉": 849,
      "員": 850,
      "哨": 851,
      "哭": 852,
      "哲": 853,
      "哺": 854,
      "唄": 855,
      "唆": 856,
      "唇": 857,
      "唐": 858,
      "唖": 859,
      "唯": 860,
      "唱": 861,
      "唸": 862,
      "唾": 863,
      "啄": 864,
      "商": 865,
      "問": 866,
      "啓": 867,
      "啜": 868,
      "啼": 869,
      "喀": 870,
      "善": 871,
      "喇": 872,
      "喉": 873,
      "喋": 874,
      "喘": 875,
      "喚": 876,
      "喜": 877,
      "喝": 878,
      "喧": 879,
      "喩": 880,
      "喪": 881,
      "喫": 882,
      "喬": 883,
      "喰": 884,
      "営": 885,
      "嗅": 886,
      "嗚": 887,
      "嗜": 888,
      "嗣": 889,
      "嘆": 890,
      "嘉": 891,
      "嘔": 892,
      "嘗": 893,
      "嘘": 894,
      "嘩": 895,
      "嘯": 896,
      "嘱": 897,
      "嘲": 898,
      "嘴": 899,
      "噂": 900,
      "噌": 901,
      "噛": 902,
      "噤": 903,
      "器": 904,
      "噴": 905,
      "噺": 906,
      "嚇": 907,
      "嚢": 908,
      "嚥": 909,
      "囁": 910,
      "囃": 911,
      "囚": 912,
      "四": 913,
      "回": 914,
      "因": 915,
      "団": 916,
      "囮": 917,
      "困": 918,
      "囲": 919,
      "図": 920,
      "固": 921,
      "国": 922,
      "圀": 923,
      "圃": 924,
      "國": 925,
      "圏": 926,
      "園": 927,
      "土": 928,
      "圧": 929,
      "在": 930,
      "圭": 931,
      "地": 932,
      "圳": 933,
      "坂": 934,
      "均": 935,
      "坊": 936,
      "坐": 937,
      "坑": 938,
      "坤": 939,
      "坦": 940,
      "坪": 941,
      "垂": 942,
      "型": 943,
      "垓": 944,
      "垠": 945,
      "垢": 946,
      "垣": 947,
      "埃": 948,
      "埋": 949,
      "城": 950,
      "域": 951,
      "埠": 952,
      "埴": 953,
      "執": 954,
      "培": 955,
      "基": 956,
      "埼": 957,
      "堀": 958,
      "堂": 959,
      "堅": 960,
      "堆": 961,
      "堕": 962,
      "堡": 963,
      "堤": 964,
      "堪": 965,
      "堯": 966,
      "堰": 967,
      "報": 968,
      "場": 969,
      "堵": 970,
      "堺": 971,
      "塀": 972,
      "塁": 973,
      "塊": 974,
      "塑": 975,
      "塔": 976,
      "塗": 977,
      "塘": 978,
      "塚": 979,
      "塞": 980,
      "塩": 981,
      "填": 982,
      "塵": 983,
      "塾": 984,
      "境": 985,
      "墓": 986,
      "増": 987,
      "墜": 988,
      "墟": 989,
      "墨": 990,
      "墳": 991,
      "墾": 992,
      "壁": 993,
      "壇": 994,
      "壊": 995,
      "壌": 996,
      "壕": 997,
      "士": 998,
      "壬": 999,
      "壮": 1000,
      "声": 1001,
      "売": 1002,
      "壷": 1003,
      "壺": 1004,
      "変": 1005,
      "夏": 1006,
      "夕": 1007,
      "外": 1008,
      "夙": 1009,
      "多": 1010,
      "夜": 1011,
      "夢": 1012,
      "大": 1013,
      "天": 1014,
      "太": 1015,
      "夫": 1016,
      "夭": 1017,
      "央": 1018,
      "失": 1019,
      "夷": 1020,
      "奇": 1021,
      "奈": 1022,
      "奉": 1023,
      "奏": 1024,
      "契": 1025,
      "奔": 1026,
      "套": 1027,
      "奘": 1028,
      "奚": 1029,
      "奠": 1030,
      "奢": 1031,
      "奥": 1032,
      "奧": 1033,
      "奨": 1034,
      "奪": 1035,
      "奮": 1036,
      "女": 1037,
      "奴": 1038,
      "好": 1039,
      "如": 1040,
      "妃": 1041,
      "妄": 1042,
      "妊": 1043,
      "妓": 1044,
      "妖": 1045,
      "妙": 1046,
      "妤": 1047,
      "妥": 1048,
      "妨": 1049,
      "妬": 1050,
      "妹": 1051,
      "妻": 1052,
      "妾": 1053,
      "姉": 1054,
      "始": 1055,
      "姑": 1056,
      "姓": 1057,
      "委": 1058,
      "姜": 1059,
      "姥": 1060,
      "姦": 1061,
      "姪": 1062,
      "姫": 1063,
      "姻": 1064,
      "姿": 1065,
      "威": 1066,
      "娘": 1067,
      "娜": 1068,
      "娠": 1069,
      "娩": 1070,
      "娯": 1071,
      "婆": 1072,
      "婉": 1073,
      "婕": 1074,
      "婚": 1075,
      "婦": 1076,
      "婿": 1077,
      "媒": 1078,
      "媚": 1079,
      "媛": 1080,
      "媽": 1081,
      "嫁": 1082,
      "嫉": 1083,
      "嫌": 1084,
      "嫡": 1085,
      "嬉": 1086,
      "嬌": 1087,
      "嬢": 1088,
      "嬰": 1089,
      "子": 1090,
      "孔": 1091,
      "字": 1092,
      "存": 1093,
      "孝": 1094,
      "季": 1095,
      "孤": 1096,
      "学": 1097,
      "孫": 1098,
      "孵": 1099,
      "宅": 1100,
      "宇": 1101,
      "守": 1102,
      "安": 1103,
      "宋": 1104,
      "完": 1105,
      "宏": 1106,
      "宗": 1107,
      "官": 1108,
      "宙": 1109,
      "定": 1110,
      "宛": 1111,
      "宜": 1112,
      "宝": 1113,
      "実": 1114,
      "客": 1115,
      "宣": 1116,
      "室": 1117,
      "宥": 1118,
      "宦": 1119,
      "宮": 1120,
      "宰": 1121,
      "害": 1122,
      "宴": 1123,
      "家": 1124,
      "宸": 1125,
      "容": 1126,
      "宿": 1127,
      "寂": 1128,
      "寄": 1129,
      "寅": 1130,
      "密": 1131,
      "寇": 1132,
      "富": 1133,
      "寒": 1134,
      "寓": 1135,
      "寛": 1136,
      "寝": 1137,
      "察": 1138,
      "寡": 1139,
      "實": 1140,
      "寧": 1141,
      "寨": 1142,
      "審": 1143,
      "寮": 1144,
      "寵": 1145,
      "寸": 1146,
      "寺": 1147,
      "対": 1148,
      "寿": 1149,
      "封": 1150,
      "専": 1151,
      "射": 1152,
      "将": 1153,
      "尉": 1154,
      "尊": 1155,
      "尋": 1156,
      "導": 1157,
      "小": 1158,
      "少": 1159,
      "尖": 1160,
      "尚": 1161,
      "尤": 1162,
      "就": 1163,
      "尹": 1164,
      "尺": 1165,
      "尻": 1166,
      "尼": 1167,
      "尽": 1168,
      "尾": 1169,
      "尿": 1170,
      "局": 1171,
      "屁": 1172,
      "居": 1173,
      "屈": 1174,
      "届": 1175,
      "屋": 1176,
      "屏": 1177,
      "屑": 1178,
      "屓": 1179,
      "展": 1180,
      "属": 1181,
      "屠": 1182,
      "層": 1183,
      "履": 1184,
      "屯": 1185,
      "山": 1186,
      "屹": 1187,
      "岐": 1188,
      "岑": 1189,
      "岡": 1190,
      "岩": 1191,
      "岬": 1192,
      "岱": 1193,
      "岳": 1194,
      "岸": 1195,
      "峙": 1196,
      "峠": 1197,
      "峡": 1198,
      "峨": 1199,
      "峯": 1200,
      "峰": 1201,
      "島": 1202,
      "崇": 1203,
      "崋": 1204,
      "崎": 1205,
      "崔": 1206,
      "崖": 1207,
      "崩": 1208,
      "嵌": 1209,
      "嵐": 1210,
      "嵜": 1211,
      "嵩": 1212,
      "嵯": 1213,
      "嶋": 1214,
      "嶌": 1215,
      "嶺": 1216,
      "嶼": 1217,
      "嶽": 1218,
      "巌": 1219,
      "川": 1220,
      "州": 1221,
      "巡": 1222,
      "巣": 1223,
      "工": 1224,
      "左": 1225,
      "巧": 1226,
      "巨": 1227,
      "巫": 1228,
      "差": 1229,
      "己": 1230,
      "已": 1231,
      "巳": 1232,
      "巴": 1233,
      "巷": 1234,
      "巻": 1235,
      "巾": 1236,
      "市": 1237,
      "布": 1238,
      "帆": 1239,
      "希": 1240,
      "帖": 1241,
      "帛": 1242,
      "帝": 1243,
      "帥": 1244,
      "師": 1245,
      "席": 1246,
      "帯": 1247,
      "帰": 1248,
      "帳": 1249,
      "帷": 1250,
      "常": 1251,
      "帽": 1252,
      "幀": 1253,
      "幅": 1254,
      "幌": 1255,
      "幕": 1256,
      "幡": 1257,
      "幣": 1258,
      "干": 1259,
      "平": 1260,
      "年": 1261,
      "幸": 1262,
      "幹": 1263,
      "幻": 1264,
      "幼": 1265,
      "幽": 1266,
      "幾": 1267,
      "庁": 1268,
      "広": 1269,
      "庄": 1270,
      "庇": 1271,
      "床": 1272,
      "序": 1273,
      "底": 1274,
      "店": 1275,
      "府": 1276,
      "度": 1277,
      "座": 1278,
      "庫": 1279,
      "庭": 1280,
      "庵": 1281,
      "庶": 1282,
      "康": 1283,
      "庸": 1284,
      "廃": 1285,
      "廉": 1286,
      "廊": 1287,
      "廓": 1288,
      "廟": 1289,
      "廠": 1290,
      "廣": 1291,
      "廬": 1292,
      "延": 1293,
      "廷": 1294,
      "建": 1295,
      "廻": 1296,
      "弁": 1297,
      "弄": 1298,
      "弊": 1299,
      "式": 1300,
      "弐": 1301,
      "弓": 1302,
      "引": 1303,
      "弘": 1304,
      "弛": 1305,
      "弟": 1306,
      "弥": 1307,
      "弦": 1308,
      "弧": 1309,
      "弩": 1310,
      "弱": 1311,
      "張": 1312,
      "強": 1313,
      "弾": 1314,
      "彌": 1315,
      "当": 1316,
      "彗": 1317,
      "彙": 1318,
      "彝": 1319,
      "彡": 1320,
      "形": 1321,
      "彦": 1322,
      "彩": 1323,
      "彫": 1324,
      "彬": 1325,
      "彰": 1326,
      "影": 1327,
      "彷": 1328,
      "役": 1329,
      "彼": 1330,
      "彿": 1331,
      "往": 1332,
      "征": 1333,
      "径": 1334,
      "待": 1335,
      "徊": 1336,
      "律": 1337,
      "後": 1338,
      "徐": 1339,
      "徒": 1340,
      "従": 1341,
      "得": 1342,
      "徘": 1343,
      "御": 1344,
      "徨": 1345,
      "復": 1346,
      "循": 1347,
      "微": 1348,
      "徳": 1349,
      "徴": 1350,
      "徹": 1351,
      "心": 1352,
      "必": 1353,
      "忌": 1354,
      "忍": 1355,
      "志": 1356,
      "忘": 1357,
      "忙": 1358,
      "応": 1359,
      "忠": 1360,
      "快": 1361,
      "念": 1362,
      "忽": 1363,
      "怒": 1364,
      "怖": 1365,
      "怜": 1366,
      "思": 1367,
      "怠": 1368,
      "怡": 1369,
      "急": 1370,
      "性": 1371,
      "怨": 1372,
      "怪": 1373,
      "怯": 1374,
      "恆": 1375,
      "恋": 1376,
      "恍": 1377,
      "恐": 1378,
      "恒": 1379,
      "恕": 1380,
      "恢": 1381,
      "恣": 1382,
      "恥": 1383,
      "恨": 1384,
      "恩": 1385,
      "恫": 1386,
      "恬": 1387,
      "恭": 1388,
      "息": 1389,
      "恰": 1390,
      "恵": 1391,
      "悉": 1392,
      "悍": 1393,
      "悔": 1394,
      "悟": 1395,
      "悠": 1396,
      "患": 1397,
      "悦": 1398,
      "悧": 1399,
      "悩": 1400,
      "悪": 1401,
      "悲": 1402,
      "悴": 1403,
      "悶": 1404,
      "悸": 1405,
      "悼": 1406,
      "情": 1407,
      "惇": 1408,
      "惑": 1409,
      "惚": 1410,
      "惜": 1411,
      "惟": 1412,
      "惣": 1413,
      "惧": 1414,
      "惨": 1415,
      "惰": 1416,
      "想": 1417,
      "惹": 1418,
      "愁": 1419,
      "愉": 1420,
      "意": 1421,
      "愕": 1422,
      "愚": 1423,
      "愛": 1424,
      "感": 1425,
      "愴": 1426,
      "慄": 1427,
      "慇": 1428,
      "慈": 1429,
      "態": 1430,
      "慌": 1431,
      "慎": 1432,
      "慕": 1433,
      "慟": 1434,
      "慢": 1435,
      "慣": 1436,
      "慧": 1437,
      "慨": 1438,
      "慮": 1439,
      "慰": 1440,
      "慶": 1441,
      "憂": 1442,
      "憎": 1443,
      "憐": 1444,
      "憑": 1445,
      "憔": 1446,
      "憚": 1447,
      "憤": 1448,
      "憧": 1449,
      "憩": 1450,
      "憬": 1451,
      "憮": 1452,
      "憲": 1453,
      "憶": 1454,
      "憺": 1455,
      "懃": 1456,
      "懇": 1457,
      "應": 1458,
      "懐": 1459,
      "懣": 1460,
      "懲": 1461,
      "懸": 1462,
      "懺": 1463,
      "戊": 1464,
      "成": 1465,
      "我": 1466,
      "戒": 1467,
      "或": 1468,
      "戚": 1469,
      "戟": 1470,
      "戦": 1471,
      "截": 1472,
      "戯": 1473,
      "戴": 1474,
      "戸": 1475,
      "戻": 1476,
      "房": 1477,
      "所": 1478,
      "扁": 1479,
      "扇": 1480,
      "扈": 1481,
      "扉": 1482,
      "手": 1483,
      "才": 1484,
      "打": 1485,
      "払": 1486,
      "托": 1487,
      "扱": 1488,
      "扶": 1489,
      "批": 1490,
      "承": 1491,
      "技": 1492,
      "抄": 1493,
      "把": 1494,
      "抑": 1495,
      "抒": 1496,
      "投": 1497,
      "抗": 1498,
      "折": 1499,
      "抜": 1500,
      "択": 1501,
      "披": 1502,
      "抱": 1503,
      "抵": 1504,
      "抹": 1505,
      "押": 1506,
      "抽": 1507,
      "担": 1508,
      "拉": 1509,
      "拌": 1510,
      "拍": 1511,
      "拒": 1512,
      "拓": 1513,
      "拗": 1514,
      "拘": 1515,
      "拙": 1516,
      "招": 1517,
      "拝": 1518,
      "拠": 1519,
      "拡": 1520,
      "括": 1521,
      "拭": 1522,
      "拳": 1523,
      "拵": 1524,
      "拶": 1525,
      "拷": 1526,
      "拾": 1527,
      "拿": 1528,
      "持": 1529,
      "指": 1530,
      "挑": 1531,
      "挙": 1532,
      "挟": 1533,
      "挨": 1534,
      "挪": 1535,
      "挫": 1536,
      "振": 1537,
      "挽": 1538,
      "挿": 1539,
      "捉": 1540,
      "捏": 1541,
      "捐": 1542,
      "捕": 1543,
      "捗": 1544,
      "捜": 1545,
      "捧": 1546,
      "捨": 1547,
      "捩": 1548,
      "据": 1549,
      "捲": 1550,
      "捷": 1551,
      "捺": 1552,
      "捻": 1553,
      "掃": 1554,
      "授": 1555,
      "掌": 1556,
      "排": 1557,
      "掘": 1558,
      "掛": 1559,
      "掟": 1560,
      "掠": 1561,
      "採": 1562,
      "探": 1563,
      "接": 1564,
      "控": 1565,
      "推": 1566,
      "掩": 1567,
      "措": 1568,
      "掬": 1569,
      "掲": 1570,
      "掴": 1571,
      "掻": 1572,
      "揃": 1573,
      "揄": 1574,
      "揆": 1575,
      "揉": 1576,
      "描": 1577,
      "提": 1578,
      "揖": 1579,
      "揚": 1580,
      "換": 1581,
      "握": 1582,
      "揮": 1583,
      "援": 1584,
      "揶": 1585,
      "揺": 1586,
      "損": 1587,
      "搦": 1588,
      "搬": 1589,
      "搭": 1590,
      "携": 1591,
      "搾": 1592,
      "摂": 1593,
      "摘": 1594,
      "摩": 1595,
      "摯": 1596,
      "摸": 1597,
      "摺": 1598,
      "撃": 1599,
      "撒": 1600,
      "撞": 1601,
      "撤": 1602,
      "撥": 1603,
      "撫": 1604,
      "播": 1605,
      "撮": 1606,
      "撰": 1607,
      "撲": 1608,
      "撼": 1609,
      "擁": 1610,
      "操": 1611,
      "擢": 1612,
      "擦": 1613,
      "擬": 1614,
      "擱": 1615,
      "擲": 1616,
      "攀": 1617,
      "攘": 1618,
      "攝": 1619,
      "攣": 1620,
      "攪": 1621,
      "攫": 1622,
      "攬": 1623,
      "支": 1624,
      "收": 1625,
      "改": 1626,
      "攻": 1627,
      "放": 1628,
      "政": 1629,
      "故": 1630,
      "敏": 1631,
      "救": 1632,
      "敗": 1633,
      "教": 1634,
      "敢": 1635,
      "散": 1636,
      "敦": 1637,
      "敬": 1638,
      "数": 1639,
      "敲": 1640,
      "整": 1641,
      "敵": 1642,
      "敷": 1643,
      "斂": 1644,
      "文": 1645,
      "斉": 1646,
      "斎": 1647,
      "斐": 1648,
      "斑": 1649,
      "斗": 1650,
      "料": 1651,
      "斜": 1652,
      "斡": 1653,
      "斤": 1654,
      "斥": 1655,
      "斧": 1656,
      "斬": 1657,
      "断": 1658,
      "斯": 1659,
      "新": 1660,
      "方": 1661,
      "於": 1662,
      "施": 1663,
      "旅": 1664,
      "旋": 1665,
      "族": 1666,
      "旗": 1667,
      "既": 1668,
      "日": 1669,
      "旦": 1670,
      "旧": 1671,
      "旨": 1672,
      "早": 1673,
      "旬": 1674,
      "旭": 1675,
      "旺": 1676,
      "昂": 1677,
      "昆": 1678,
      "昇": 1679,
      "昌": 1680,
      "明": 1681,
      "昏": 1682,
      "易": 1683,
      "昔": 1684,
      "星": 1685,
      "映": 1686,
      "春": 1687,
      "昧": 1688,
      "昨": 1689,
      "昭": 1690,
      "是": 1691,
      "昴": 1692,
      "昼": 1693,
      "晁": 1694,
      "時": 1695,
      "晋": 1696,
      "晒": 1697,
      "晟": 1698,
      "晦": 1699,
      "晩": 1700,
      "普": 1701,
      "景": 1702,
      "晰": 1703,
      "晴": 1704,
      "晶": 1705,
      "智": 1706,
      "暁": 1707,
      "暇": 1708,
      "暈": 1709,
      "暑": 1710,
      "暖": 1711,
      "暗": 1712,
      "暢": 1713,
      "暦": 1714,
      "暫": 1715,
      "暮": 1716,
      "暴": 1717,
      "曇": 1718,
      "曉": 1719,
      "曖": 1720,
      "曜": 1721,
      "曝": 1722,
      "曰": 1723,
      "曲": 1724,
      "更": 1725,
      "書": 1726,
      "曹": 1727,
      "曼": 1728,
      "曽": 1729,
      "曾": 1730,
      "替": 1731,
      "最": 1732,
      "月": 1733,
      "有": 1734,
      "服": 1735,
      "朗": 1736,
      "望": 1737,
      "朝": 1738,
      "期": 1739,
      "朦": 1740,
      "朧": 1741,
      "木": 1742,
      "未": 1743,
      "末": 1744,
      "本": 1745,
      "札": 1746,
      "朱": 1747,
      "朴": 1748,
      "机": 1749,
      "朽": 1750,
      "杉": 1751,
      "李": 1752,
      "杏": 1753,
      "材": 1754,
      "村": 1755,
      "杓": 1756,
      "杖": 1757,
      "杜": 1758,
      "杞": 1759,
      "束": 1760,
      "条": 1761,
      "杢": 1762,
      "来": 1763,
      "杮": 1764,
      "杯": 1765,
      "東": 1766,
      "杵": 1767,
      "杼": 1768,
      "松": 1769,
      "板": 1770,
      "析": 1771,
      "枕": 1772,
      "林": 1773,
      "枚": 1774,
      "果": 1775,
      "枝": 1776,
      "枠": 1777,
      "枡": 1778,
      "枢": 1779,
      "枯": 1780,
      "架": 1781,
      "柄": 1782,
      "柏": 1783,
      "某": 1784,
      "柑": 1785,
      "染": 1786,
      "柔": 1787,
      "柘": 1788,
      "柩": 1789,
      "柱": 1790,
      "柳": 1791,
      "柴": 1792,
      "柵": 1793,
      "査": 1794,
      "栂": 1795,
      "栃": 1796,
      "栄": 1797,
      "栓": 1798,
      "栖": 1799,
      "栗": 1800,
      "栞": 1801,
      "校": 1802,
      "栢": 1803,
      "株": 1804,
      "核": 1805,
      "根": 1806,
      "格": 1807,
      "栽": 1808,
      "桁": 1809,
      "桂": 1810,
      "桃": 1811,
      "框": 1812,
      "案": 1813,
      "桐": 1814,
      "桑": 1815,
      "桓": 1816,
      "桜": 1817,
      "桝": 1818,
      "桟": 1819,
      "桶": 1820,
      "梁": 1821,
      "梃": 1822,
      "梅": 1823,
      "梓": 1824,
      "梔": 1825,
      "梗": 1826,
      "條": 1827,
      "梢": 1828,
      "梨": 1829,
      "梯": 1830,
      "械": 1831,
      "梱": 1832,
      "梳": 1833,
      "梶": 1834,
      "棄": 1835,
      "棋": 1836,
      "棍": 1837,
      "棒": 1838,
      "棚": 1839,
      "棟": 1840,
      "森": 1841,
      "棲": 1842,
      "棺": 1843,
      "椅": 1844,
      "椋": 1845,
      "植": 1846,
      "椎": 1847,
      "椒": 1848,
      "椚": 1849,
      "検": 1850,
      "椿": 1851,
      "楊": 1852,
      "楓": 1853,
      "楔": 1854,
      "楕": 1855,
      "楚": 1856,
      "楠": 1857,
      "楡": 1858,
      "楫": 1859,
      "業": 1860,
      "極": 1861,
      "楼": 1862,
      "楽": 1863,
      "概": 1864,
      "榎": 1865,
      "榛": 1866,
      "榴": 1867,
      "槃": 1868,
      "構": 1869,
      "槌": 1870,
      "槍": 1871,
      "様": 1872,
      "槙": 1873,
      "槻": 1874,
      "槽": 1875,
      "槿": 1876,
      "樋": 1877,
      "樓": 1878,
      "標": 1879,
      "樟": 1880,
      "模": 1881,
      "権": 1882,
      "横": 1883,
      "樫": 1884,
      "樹": 1885,
      "樺": 1886,
      "樽": 1887,
      "橋": 1888,
      "橘": 1889,
      "橙": 1890,
      "機": 1891,
      "橿": 1892,
      "檀": 1893,
      "檄": 1894,
      "檜": 1895,
      "檬": 1896,
      "檸": 1897,
      "檻": 1898,
      "櫃": 1899,
      "櫓": 1900,
      "櫛": 1901,
      "欄": 1902,
      "權": 1903,
      "欒": 1904,
      "欝": 1905,
      "欠": 1906,
      "次": 1907,
      "欣": 1908,
      "欧": 1909,
      "欲": 1910,
      "欺": 1911,
      "欽": 1912,
      "款": 1913,
      "歌": 1914,
      "歎": 1915,
      "歓": 1916,
      "止": 1917,
      "正": 1918,
      "此": 1919,
      "武": 1920,
      "歩": 1921,
      "歪": 1922,
      "歯": 1923,
      "歳": 1924,
      "歴": 1925,
      "死": 1926,
      "殆": 1927,
      "殊": 1928,
      "残": 1929,
      "殖": 1930,
      "殯": 1931,
      "殲": 1932,
      "殴": 1933,
      "段": 1934,
      "殺": 1935,
      "殻": 1936,
      "殿": 1937,
      "毀": 1938,
      "毅": 1939,
      "母": 1940,
      "毎": 1941,
      "毒": 1942,
      "比": 1943,
      "毘": 1944,
      "毛": 1945,
      "毬": 1946,
      "氏": 1947,
      "民": 1948,
      "気": 1949,
      "氣": 1950,
      "水": 1951,
      "氷": 1952,
      "永": 1953,
      "氾": 1954,
      "汀": 1955,
      "汁": 1956,
      "求": 1957,
      "汎": 1958,
      "汗": 1959,
      "汚": 1960,
      "汝": 1961,
      "江": 1962,
      "池": 1963,
      "汰": 1964,
      "汲": 1965,
      "汶": 1966,
      "決": 1967,
      "汽": 1968,
      "沁": 1969,
      "沃": 1970,
      "沈": 1971,
      "沌": 1972,
      "沐": 1973,
      "沖": 1974,
      "沙": 1975,
      "没": 1976,
      "沢": 1977,
      "沫": 1978,
      "河": 1979,
      "沸": 1980,
      "油": 1981,
      "治": 1982,
      "沼": 1983,
      "沽": 1984,
      "沿": 1985,
      "況": 1986,
      "泄": 1987,
      "泉": 1988,
      "泊": 1989,
      "泌": 1990,
      "法": 1991,
      "泛": 1992,
      "泡": 1993,
      "波": 1994,
      "泣": 1995,
      "泥": 1996,
      "注": 1997,
      "泰": 1998,
      "泳": 1999,
      "洋": 2000,
      "洒": 2001,
      "洗": 2002,
      "洛": 2003,
      "洞": 2004,
      "津": 2005,
      "洩": 2006,
      "洪": 2007,
      "洲": 2008,
      "洵": 2009,
      "活": 2010,
      "洽": 2011,
      "派": 2012,
      "流": 2013,
      "浄": 2014,
      "浅": 2015,
      "浚": 2016,
      "浜": 2017,
      "浣": 2018,
      "浦": 2019,
      "浩": 2020,
      "浪": 2021,
      "浮": 2022,
      "浴": 2023,
      "海": 2024,
      "浸": 2025,
      "涅": 2026,
      "消": 2027,
      "涎": 2028,
      "涙": 2029,
      "涯": 2030,
      "液": 2031,
      "涸": 2032,
      "涼": 2033,
      "淘": 2034,
      "淡": 2035,
      "淫": 2036,
      "深": 2037,
      "淳": 2038,
      "淵": 2039,
      "混": 2040,
      "淹": 2041,
      "添": 2042,
      "清": 2043,
      "渇": 2044,
      "済": 2045,
      "渉": 2046,
      "渋": 2047,
      "渓": 2048,
      "渕": 2049,
      "減": 2050,
      "渝": 2051,
      "渡": 2052,
      "渣": 2053,
      "渥": 2054,
      "渦": 2055,
      "温": 2056,
      "渫": 2057,
      "測": 2058,
      "港": 2059,
      "游": 2060,
      "湊": 2061,
      "湖": 2062,
      "湘": 2063,
      "湧": 2064,
      "湯": 2065,
      "湾": 2066,
      "湿": 2067,
      "満": 2068,
      "源": 2069,
      "準": 2070,
      "溜": 2071,
      "溝": 2072,
      "溢": 2073,
      "溥": 2074,
      "溶": 2075,
      "滅": 2076,
      "滉": 2077,
      "滋": 2078,
      "滑": 2079,
      "滓": 2080,
      "滝": 2081,
      "滞": 2082,
      "滲": 2083,
      "滴": 2084,
      "滸": 2085,
      "滾": 2086,
      "漁": 2087,
      "漂": 2088,
      "漆": 2089,
      "漏": 2090,
      "漑": 2091,
      "演": 2092,
      "漕": 2093,
      "漠": 2094,
      "漢": 2095,
      "漫": 2096,
      "漬": 2097,
      "漱": 2098,
      "漲": 2099,
      "漸": 2100,
      "漿": 2101,
      "潔": 2102,
      "潘": 2103,
      "潜": 2104,
      "潟": 2105,
      "潤": 2106,
      "潮": 2107,
      "潰": 2108,
      "澁": 2109,
      "澄": 2110,
      "澤": 2111,
      "澪": 2112,
      "澱": 2113,
      "澹": 2114,
      "激": 2115,
      "濁": 2116,
      "濃": 2117,
      "濠": 2118,
      "濡": 2119,
      "濫": 2120,
      "濯": 2121,
      "濱": 2122,
      "瀆": 2123,
      "瀕": 2124,
      "瀞": 2125,
      "瀧": 2126,
      "瀬": 2127,
      "瀾": 2128,
      "灌": 2129,
      "灘": 2130,
      "火": 2131,
      "灯": 2132,
      "灰": 2133,
      "灸": 2134,
      "灼": 2135,
      "災": 2136,
      "炉": 2137,
      "炊": 2138,
      "炎": 2139,
      "炒": 2140,
      "炙": 2141,
      "炬": 2142,
      "炭": 2143,
      "点": 2144,
      "為": 2145,
      "烈": 2146,
      "烏": 2147,
      "烙": 2148,
      "烹": 2149,
      "烽": 2150,
      "焉": 2151,
      "焙": 2152,
      "焚": 2153,
      "無": 2154,
      "焦": 2155,
      "然": 2156,
      "焼": 2157,
      "煉": 2158,
      "煌": 2159,
      "煎": 2160,
      "煕": 2161,
      "煙": 2162,
      "煤": 2163,
      "煥": 2164,
      "照": 2165,
      "煩": 2166,
      "煮": 2167,
      "煽": 2168,
      "熊": 2169,
      "熔": 2170,
      "熙": 2171,
      "熟": 2172,
      "熱": 2173,
      "燃": 2174,
      "燐": 2175,
      "燕": 2176,
      "燥": 2177,
      "燦": 2178,
      "燭": 2179,
      "燵": 2180,
      "爆": 2181,
      "爛": 2182,
      "爪": 2183,
      "爬": 2184,
      "爵": 2185,
      "父": 2186,
      "爺": 2187,
      "爽": 2188,
      "爾": 2189,
      "片": 2190,
      "版": 2191,
      "牒": 2192,
      "牙": 2193,
      "牛": 2194,
      "牟": 2195,
      "牡": 2196,
      "牢": 2197,
      "牧": 2198,
      "物": 2199,
      "牲": 2200,
      "特": 2201,
      "牽": 2202,
      "犠": 2203,
      "犬": 2204,
      "犯": 2205,
      "状": 2206,
      "狂": 2207,
      "狄": 2208,
      "狐": 2209,
      "狙": 2210,
      "狛": 2211,
      "狡": 2212,
      "狩": 2213,
      "独": 2214,
      "狭": 2215,
      "狼": 2216,
      "猛": 2217,
      "猜": 2218,
      "猟": 2219,
      "猥": 2220,
      "猩": 2221,
      "猪": 2222,
      "猫": 2223,
      "献": 2224,
      "猶": 2225,
      "猷": 2226,
      "猾": 2227,
      "猿": 2228,
      "獄": 2229,
      "獅": 2230,
      "獣": 2231,
      "獰": 2232,
      "獲": 2233,
      "玄": 2234,
      "率": 2235,
      "玉": 2236,
      "王": 2237,
      "玩": 2238,
      "玲": 2239,
      "珂": 2240,
      "珈": 2241,
      "珊": 2242,
      "珍": 2243,
      "珠": 2244,
      "珪": 2245,
      "班": 2246,
      "現": 2247,
      "球": 2248,
      "理": 2249,
      "琉": 2250,
      "琢": 2251,
      "琲": 2252,
      "琳": 2253,
      "琴": 2254,
      "琵": 2255,
      "琶": 2256,
      "瑕": 2257,
      "瑚": 2258,
      "瑛": 2259,
      "瑞": 2260,
      "瑠": 2261,
      "瑣": 2262,
      "璃": 2263,
      "璋": 2264,
      "璧": 2265,
      "環": 2266,
      "璽": 2267,
      "瓜": 2268,
      "瓢": 2269,
      "瓦": 2270,
      "瓶": 2271,
      "甑": 2272,
      "甕": 2273,
      "甘": 2274,
      "甚": 2275,
      "甜": 2276,
      "生": 2277,
      "産": 2278,
      "甥": 2279,
      "用": 2280,
      "田": 2281,
      "由": 2282,
      "甲": 2283,
      "申": 2284,
      "男": 2285,
      "町": 2286,
      "画": 2287,
      "界": 2288,
      "畏": 2289,
      "畑": 2290,
      "畔": 2291,
      "留": 2292,
      "畜": 2293,
      "畝": 2294,
      "畠": 2295,
      "畢": 2296,
      "略": 2297,
      "畦": 2298,
      "番": 2299,
      "異": 2300,
      "畳": 2301,
      "當": 2302,
      "畿": 2303,
      "疇": 2304,
      "疋": 2305,
      "疎": 2306,
      "疑": 2307,
      "疣": 2308,
      "疫": 2309,
      "疱": 2310,
      "疲": 2311,
      "疵": 2312,
      "疹": 2313,
      "疼": 2314,
      "疽": 2315,
      "疾": 2316,
      "病": 2317,
      "症": 2318,
      "痍": 2319,
      "痒": 2320,
      "痕": 2321,
      "痘": 2322,
      "痙": 2323,
      "痛": 2324,
      "痢": 2325,
      "痣": 2326,
      "痩": 2327,
      "痰": 2328,
      "痴": 2329,
      "痺": 2330,
      "瘍": 2331,
      "瘡": 2332,
      "瘢": 2333,
      "瘤": 2334,
      "瘴": 2335,
      "瘻": 2336,
      "療": 2337,
      "癌": 2338,
      "癒": 2339,
      "癖": 2340,
      "癸": 2341,
      "発": 2342,
      "登": 2343,
      "白": 2344,
      "百": 2345,
      "的": 2346,
      "皆": 2347,
      "皇": 2348,
      "皐": 2349,
      "皓": 2350,
      "皮": 2351,
      "皺": 2352,
      "皿": 2353,
      "盂": 2354,
      "盆": 2355,
      "益": 2356,
      "盗": 2357,
      "盛": 2358,
      "盞": 2359,
      "盟": 2360,
      "監": 2361,
      "盤": 2362,
      "盧": 2363,
      "盪": 2364,
      "目": 2365,
      "盲": 2366,
      "直": 2367,
      "相": 2368,
      "盾": 2369,
      "省": 2370,
      "眈": 2371,
      "眉": 2372,
      "看": 2373,
      "県": 2374,
      "眞": 2375,
      "真": 2376,
      "眠": 2377,
      "眩": 2378,
      "眷": 2379,
      "眸": 2380,
      "眺": 2381,
      "眼": 2382,
      "着": 2383,
      "睡": 2384,
      "督": 2385,
      "睦": 2386,
      "睨": 2387,
      "睫": 2388,
      "瞑": 2389,
      "瞠": 2390,
      "瞬": 2391,
      "瞭": 2392,
      "瞰": 2393,
      "瞳": 2394,
      "矛": 2395,
      "矜": 2396,
      "矢": 2397,
      "知": 2398,
      "矧": 2399,
      "矩": 2400,
      "短": 2401,
      "矯": 2402,
      "石": 2403,
      "砂": 2404,
      "研": 2405,
      "砕": 2406,
      "砦": 2407,
      "砲": 2408,
      "破": 2409,
      "硝": 2410,
      "硫": 2411,
      "硬": 2412,
      "硯": 2413,
      "碁": 2414,
      "碇": 2415,
      "碌": 2416,
      "碍": 2417,
      "碑": 2418,
      "碓": 2419,
      "碩": 2420,
      "確": 2421,
      "磁": 2422,
      "磋": 2423,
      "磐": 2424,
      "磨": 2425,
      "磯": 2426,
      "礁": 2427,
      "礎": 2428,
      "礒": 2429,
      "礦": 2430,
      "礫": 2431,
      "礬": 2432,
      "示": 2433,
      "礼": 2434,
      "社": 2435,
      "祀": 2436,
      "祇": 2437,
      "祈": 2438,
      "祉": 2439,
      "祐": 2440,
      "祓": 2441,
      "祖": 2442,
      "祗": 2443,
      "祚": 2444,
      "祝": 2445,
      "神": 2446,
      "祠": 2447,
      "祥": 2448,
      "票": 2449,
      "祭": 2450,
      "祷": 2451,
      "禁": 2452,
      "禄": 2453,
      "禅": 2454,
      "禍": 2455,
      "禎": 2456,
      "福": 2457,
      "禮": 2458,
      "秀": 2459,
      "私": 2460,
      "秋": 2461,
      "科": 2462,
      "秒": 2463,
      "秘": 2464,
      "秤": 2465,
      "秦": 2466,
      "秩": 2467,
      "称": 2468,
      "移": 2469,
      "稀": 2470,
      "程": 2471,
      "税": 2472,
      "稙": 2473,
      "稚": 2474,
      "稜": 2475,
      "種": 2476,
      "稲": 2477,
      "稼": 2478,
      "稽": 2479,
      "稿": 2480,
      "穀": 2481,
      "穂": 2482,
      "穆": 2483,
      "積": 2484,
      "穏": 2485,
      "穢": 2486,
      "穣": 2487,
      "穫": 2488,
      "穴": 2489,
      "究": 2490,
      "穹": 2491,
      "空": 2492,
      "穽": 2493,
      "穿": 2494,
      "突": 2495,
      "窃": 2496,
      "窄": 2497,
      "窒": 2498,
      "窓": 2499,
      "窘": 2500,
      "窟": 2501,
      "窩": 2502,
      "窪": 2503,
      "窮": 2504,
      "窯": 2505,
      "窺": 2506,
      "竄": 2507,
      "竈": 2508,
      "立": 2509,
      "竜": 2510,
      "竟": 2511,
      "章": 2512,
      "竣": 2513,
      "童": 2514,
      "端": 2515,
      "競": 2516,
      "竹": 2517,
      "竺": 2518,
      "竿": 2519,
      "笈": 2520,
      "笑": 2521,
      "笛": 2522,
      "笠": 2523,
      "笥": 2524,
      "符": 2525,
      "第": 2526,
      "笹": 2527,
      "筆": 2528,
      "筈": 2529,
      "等": 2530,
      "筋": 2531,
      "筍": 2532,
      "筐": 2533,
      "筑": 2534,
      "筒": 2535,
      "答": 2536,
      "策": 2537,
      "筝": 2538,
      "筧": 2539,
      "箇": 2540,
      "箋": 2541,
      "箍": 2542,
      "箒": 2543,
      "箔": 2544,
      "箕": 2545,
      "算": 2546,
      "管": 2547,
      "箪": 2548,
      "箭": 2549,
      "箱": 2550,
      "箸": 2551,
      "節": 2552,
      "篁": 2553,
      "範": 2554,
      "篆": 2555,
      "篇": 2556,
      "築": 2557,
      "篝": 2558,
      "篠": 2559,
      "篤": 2560,
      "篩": 2561,
      "篭": 2562,
      "簒": 2563,
      "簗": 2564,
      "簡": 2565,
      "簿": 2566,
      "籃": 2567,
      "籍": 2568,
      "籐": 2569,
      "籔": 2570,
      "籟": 2571,
      "籠": 2572,
      "米": 2573,
      "籾": 2574,
      "粉": 2575,
      "粋": 2576,
      "粒": 2577,
      "粕": 2578,
      "粗": 2579,
      "粘": 2580,
      "粛": 2581,
      "粟": 2582,
      "粥": 2583,
      "粧": 2584,
      "粽": 2585,
      "精": 2586,
      "糊": 2587,
      "糖": 2588,
      "糞": 2589,
      "糧": 2590,
      "糸": 2591,
      "糺": 2592,
      "系": 2593,
      "糾": 2594,
      "紀": 2595,
      "約": 2596,
      "紅": 2597,
      "紋": 2598,
      "納": 2599,
      "紐": 2600,
      "純": 2601,
      "紗": 2602,
      "紙": 2603,
      "級": 2604,
      "紛": 2605,
      "素": 2606,
      "紡": 2607,
      "索": 2608,
      "紫": 2609,
      "累": 2610,
      "細": 2611,
      "紳": 2612,
      "紹": 2613,
      "終": 2614,
      "組": 2615,
      "絆": 2616,
      "経": 2617,
      "結": 2618,
      "絞": 2619,
      "絡": 2620,
      "絢": 2621,
      "絣": 2622,
      "給": 2623,
      "絨": 2624,
      "統": 2625,
      "絵": 2626,
      "絶": 2627,
      "継": 2628,
      "続": 2629,
      "綜": 2630,
      "綬": 2631,
      "維": 2632,
      "綱": 2633,
      "網": 2634,
      "綴": 2635,
      "綺": 2636,
      "綻": 2637,
      "綽": 2638,
      "綾": 2639,
      "綿": 2640,
      "緊": 2641,
      "総": 2642,
      "緑": 2643,
      "緒": 2644,
      "線": 2645,
      "緞": 2646,
      "締": 2647,
      "編": 2648,
      "緩": 2649,
      "緯": 2650,
      "練": 2651,
      "緻": 2652,
      "縁": 2653,
      "縄": 2654,
      "縋": 2655,
      "縛": 2656,
      "縞": 2657,
      "縦": 2658,
      "縫": 2659,
      "縮": 2660,
      "縷": 2661,
      "總": 2662,
      "績": 2663,
      "繁": 2664,
      "繊": 2665,
      "繋": 2666,
      "繍": 2667,
      "織": 2668,
      "繕": 2669,
      "繚": 2670,
      "繪": 2671,
      "繰": 2672,
      "繹": 2673,
      "纂": 2674,
      "纏": 2675,
      "纒": 2676,
      "线": 2677,
      "缶": 2678,
      "缺": 2679,
      "罔": 2680,
      "罠": 2681,
      "罪": 2682,
      "罫": 2683,
      "置": 2684,
      "罰": 2685,
      "署": 2686,
      "罵": 2687,
      "罷": 2688,
      "罹": 2689,
      "羂": 2690,
      "羅": 2691,
      "羊": 2692,
      "美": 2693,
      "羞": 2694,
      "群": 2695,
      "羨": 2696,
      "義": 2697,
      "羲": 2698,
      "羹": 2699,
      "羽": 2700,
      "翁": 2701,
      "翌": 2702,
      "習": 2703,
      "翔": 2704,
      "翦": 2705,
      "翻": 2706,
      "翼": 2707,
      "老": 2708,
      "考": 2709,
      "者": 2710,
      "耐": 2711,
      "耕": 2712,
      "耗": 2713,
      "耳": 2714,
      "耶": 2715,
      "耿": 2716,
      "聊": 2717,
      "聖": 2718,
      "聞": 2719,
      "聲": 2720,
      "聳": 2721,
      "聴": 2722,
      "職": 2723,
      "聾": 2724,
      "肆": 2725,
      "肇": 2726,
      "肉": 2727,
      "肋": 2728,
      "肌": 2729,
      "肖": 2730,
      "肘": 2731,
      "肝": 2732,
      "股": 2733,
      "肢": 2734,
      "肥": 2735,
      "肩": 2736,
      "肪": 2737,
      "肯": 2738,
      "育": 2739,
      "肺": 2740,
      "胃": 2741,
      "胆": 2742,
      "背": 2743,
      "胎": 2744,
      "胚": 2745,
      "胞": 2746,
      "胡": 2747,
      "胱": 2748,
      "胸": 2749,
      "能": 2750,
      "脂": 2751,
      "脅": 2752,
      "脆": 2753,
      "脇": 2754,
      "脈": 2755,
      "脊": 2756,
      "脚": 2757,
      "脱": 2758,
      "脳": 2759,
      "脹": 2760,
      "腎": 2761,
      "腐": 2762,
      "腑": 2763,
      "腔": 2764,
      "腕": 2765,
      "腫": 2766,
      "腰": 2767,
      "腱": 2768,
      "腸": 2769,
      "腹": 2770,
      "腺": 2771,
      "腿": 2772,
      "膀": 2773,
      "膏": 2774,
      "膚": 2775,
      "膜": 2776,
      "膝": 2777,
      "膠": 2778,
      "膨": 2779,
      "膳": 2780,
      "膵": 2781,
      "膾": 2782,
      "膿": 2783,
      "臀": 2784,
      "臆": 2785,
      "臍": 2786,
      "臓": 2787,
      "臚": 2788,
      "臣": 2789,
      "臥": 2790,
      "臨": 2791,
      "自": 2792,
      "臭": 2793,
      "至": 2794,
      "致": 2795,
      "臺": 2796,
      "臼": 2797,
      "舅": 2798,
      "與": 2799,
      "興": 2800,
      "舌": 2801,
      "舎": 2802,
      "舐": 2803,
      "舗": 2804,
      "舘": 2805,
      "舛": 2806,
      "舞": 2807,
      "舟": 2808,
      "航": 2809,
      "般": 2810,
      "舵": 2811,
      "舶": 2812,
      "舷": 2813,
      "船": 2814,
      "艇": 2815,
      "艘": 2816,
      "艤": 2817,
      "艦": 2818,
      "良": 2819,
      "艱": 2820,
      "色": 2821,
      "艶": 2822,
      "艸": 2823,
      "芋": 2824,
      "芝": 2825,
      "芦": 2826,
      "芭": 2827,
      "芯": 2828,
      "花": 2829,
      "芳": 2830,
      "芸": 2831,
      "芹": 2832,
      "芻": 2833,
      "芽": 2834,
      "苑": 2835,
      "苔": 2836,
      "苗": 2837,
      "苛": 2838,
      "若": 2839,
      "苦": 2840,
      "苫": 2841,
      "英": 2842,
      "苺": 2843,
      "茂": 2844,
      "茅": 2845,
      "茎": 2846,
      "茗": 2847,
      "茜": 2848,
      "茨": 2849,
      "茫": 2850,
      "茶": 2851,
      "茸": 2852,
      "茹": 2853,
      "草": 2854,
      "荊": 2855,
      "荒": 2856,
      "荘": 2857,
      "荷": 2858,
      "荻": 2859,
      "莞": 2860,
      "莢": 2861,
      "莫": 2862,
      "莵": 2863,
      "莽": 2864,
      "菅": 2865,
      "菊": 2866,
      "菌": 2867,
      "菓": 2868,
      "菜": 2869,
      "菟": 2870,
      "菩": 2871,
      "菫": 2872,
      "華": 2873,
      "菰": 2874,
      "菱": 2875,
      "萃": 2876,
      "萌": 2877,
      "萎": 2878,
      "萩": 2879,
      "萬": 2880,
      "萱": 2881,
      "萼": 2882,
      "落": 2883,
      "葉": 2884,
      "著": 2885,
      "葛": 2886,
      "董": 2887,
      "葬": 2888,
      "葭": 2889,
      "葵": 2890,
      "葺": 2891,
      "蒋": 2892,
      "蒐": 2893,
      "蒔": 2894,
      "蒙": 2895,
      "蒜": 2896,
      "蒟": 2897,
      "蒡": 2898,
      "蒲": 2899,
      "蒸": 2900,
      "蒻": 2901,
      "蒼": 2902,
      "蓄": 2903,
      "蓉": 2904,
      "蓋": 2905,
      "蓮": 2906,
      "蓼": 2907,
      "蔀": 2908,
      "蔑": 2909,
      "蔓": 2910,
      "蔡": 2911,
      "蔭": 2912,
      "蔵": 2913,
      "蔽": 2914,
      "蕉": 2915,
      "蕎": 2916,
      "蕨": 2917,
      "蕩": 2918,
      "蕪": 2919,
      "蕾": 2920,
      "薄": 2921,
      "薇": 2922,
      "薔": 2923,
      "薙": 2924,
      "薦": 2925,
      "薨": 2926,
      "薩": 2927,
      "薪": 2928,
      "薫": 2929,
      "薬": 2930,
      "薯": 2931,
      "藁": 2932,
      "藉": 2933,
      "藍": 2934,
      "藝": 2935,
      "藤": 2936,
      "藩": 2937,
      "藪": 2938,
      "藹": 2939,
      "藻": 2940,
      "蘇": 2941,
      "蘊": 2942,
      "蘭": 2943,
      "虎": 2944,
      "虐": 2945,
      "虔": 2946,
      "虚": 2947,
      "虜": 2948,
      "虞": 2949,
      "虫": 2950,
      "虹": 2951,
      "蚊": 2952,
      "蚕": 2953,
      "蛇": 2954,
      "蛋": 2955,
      "蛍": 2956,
      "蛎": 2957,
      "蛙": 2958,
      "蛤": 2959,
      "蛭": 2960,
      "蛮": 2961,
      "蛸": 2962,
      "蛹": 2963,
      "蛾": 2964,
      "蜀": 2965,
      "蜂": 2966,
      "蜃": 2967,
      "蜜": 2968,
      "蝋": 2969,
      "蝕": 2970,
      "蝶": 2971,
      "蝿": 2972,
      "螂": 2973,
      "融": 2974,
      "螺": 2975,
      "蟄": 2976,
      "蟇": 2977,
      "蟠": 2978,
      "蟷": 2979,
      "蟹": 2980,
      "蠍": 2981,
      "蠢": 2982,
      "蠣": 2983,
      "血": 2984,
      "衆": 2985,
      "行": 2986,
      "衒": 2987,
      "術": 2988,
      "街": 2989,
      "衛": 2990,
      "衝": 2991,
      "衞": 2992,
      "衡": 2993,
      "衢": 2994,
      "衣": 2995,
      "表": 2996,
      "衰": 2997,
      "衷": 2998,
      "衿": 2999,
      "袈": 3000,
      "袋": 3001,
      "袍": 3002,
      "袖": 3003,
      "袢": 3004,
      "被": 3005,
      "袱": 3006,
      "袴": 3007,
      "裁": 3008,
      "裂": 3009,
      "装": 3010,
      "裏": 3011,
      "裕": 3012,
      "補": 3013,
      "裟": 3014,
      "裸": 3015,
      "製": 3016,
      "裾": 3017,
      "複": 3018,
      "褌": 3019,
      "褐": 3020,
      "褒": 3021,
      "褪": 3022,
      "褶": 3023,
      "褻": 3024,
      "襟": 3025,
      "襦": 3026,
      "襲": 3027,
      "西": 3028,
      "要": 3029,
      "覆": 3030,
      "覇": 3031,
      "見": 3032,
      "規": 3033,
      "視": 3034,
      "覗": 3035,
      "覚": 3036,
      "覧": 3037,
      "親": 3038,
      "観": 3039,
      "角": 3040,
      "解": 3041,
      "触": 3042,
      "言": 3043,
      "訂": 3044,
      "訃": 3045,
      "計": 3046,
      "訊": 3047,
      "討": 3048,
      "訓": 3049,
      "託": 3050,
      "記": 3051,
      "訝": 3052,
      "訟": 3053,
      "訣": 3054,
      "訥": 3055,
      "訪": 3056,
      "設": 3057,
      "許": 3058,
      "訳": 3059,
      "訴": 3060,
      "診": 3061,
      "註": 3062,
      "証": 3063,
      "詈": 3064,
      "詐": 3065,
      "詔": 3066,
      "評": 3067,
      "詞": 3068,
      "詠": 3069,
      "詣": 3070,
      "試": 3071,
      "詩": 3072,
      "詫": 3073,
      "詭": 3074,
      "詮": 3075,
      "詰": 3076,
      "話": 3077,
      "該": 3078,
      "詳": 3079,
      "誂": 3080,
      "誄": 3081,
      "誅": 3082,
      "誇": 3083,
      "誉": 3084,
      "誌": 3085,
      "認": 3086,
      "誓": 3087,
      "誕": 3088,
      "誘": 3089,
      "語": 3090,
      "誠": 3091,
      "誤": 3092,
      "説": 3093,
      "読": 3094,
      "誰": 3095,
      "課": 3096,
      "誹": 3097,
      "誼": 3098,
      "調": 3099,
      "談": 3100,
      "請": 3101,
      "諌": 3102,
      "諍": 3103,
      "諏": 3104,
      "論": 3105,
      "諡": 3106,
      "諤": 3107,
      "諦": 3108,
      "諧": 3109,
      "諭": 3110,
      "諮": 3111,
      "諱": 3112,
      "諸": 3113,
      "諺": 3114,
      "諾": 3115,
      "謀": 3116,
      "謁": 3117,
      "謂": 3118,
      "謄": 3119,
      "謎": 3120,
      "謐": 3121,
      "謗": 3122,
      "謙": 3123,
      "講": 3124,
      "謝": 3125,
      "謡": 3126,
      "謬": 3127,
      "謳": 3128,
      "謹": 3129,
      "證": 3130,
      "識": 3131,
      "譚": 3132,
      "譜": 3133,
      "警": 3134,
      "譬": 3135,
      "議": 3136,
      "譲": 3137,
      "護": 3138,
      "讃": 3139,
      "讐": 3140,
      "讓": 3141,
      "谷": 3142,
      "豆": 3143,
      "豊": 3144,
      "豚": 3145,
      "象": 3146,
      "豪": 3147,
      "貌": 3148,
      "貝": 3149,
      "貞": 3150,
      "負": 3151,
      "財": 3152,
      "貢": 3153,
      "貧": 3154,
      "貨": 3155,
      "販": 3156,
      "貪": 3157,
      "貫": 3158,
      "責": 3159,
      "貯": 3160,
      "貰": 3161,
      "貴": 3162,
      "貶": 3163,
      "買": 3164,
      "貸": 3165,
      "費": 3166,
      "貼": 3167,
      "貿": 3168,
      "賀": 3169,
      "賂": 3170,
      "賃": 3171,
      "賄": 3172,
      "資": 3173,
      "賊": 3174,
      "賑": 3175,
      "賓": 3176,
      "賛": 3177,
      "賜": 3178,
      "賞": 3179,
      "賠": 3180,
      "賢": 3181,
      "賤": 3182,
      "賦": 3183,
      "質": 3184,
      "賭": 3185,
      "賴": 3186,
      "購": 3187,
      "賽": 3188,
      "贅": 3189,
      "贈": 3190,
      "贋": 3191,
      "贔": 3192,
      "贖": 3193,
      "赤": 3194,
      "赦": 3195,
      "走": 3196,
      "赴": 3197,
      "起": 3198,
      "超": 3199,
      "越": 3200,
      "趣": 3201,
      "趨": 3202,
      "足": 3203,
      "跋": 3204,
      "跏": 3205,
      "跛": 3206,
      "距": 3207,
      "跡": 3208,
      "跨": 3209,
      "跪": 3210,
      "路": 3211,
      "跳": 3212,
      "践": 3213,
      "踊": 3214,
      "踏": 3215,
      "踞": 3216,
      "踪": 3217,
      "踵": 3218,
      "蹂": 3219,
      "蹄": 3220,
      "蹊": 3221,
      "蹙": 3222,
      "蹲": 3223,
      "蹴": 3224,
      "蹶": 3225,
      "躇": 3226,
      "躊": 3227,
      "躍": 3228,
      "躙": 3229,
      "身": 3230,
      "躯": 3231,
      "躰": 3232,
      "躾": 3233,
      "軀": 3234,
      "車": 3235,
      "軋": 3236,
      "軌": 3237,
      "軍": 3238,
      "軒": 3239,
      "軛": 3240,
      "軟": 3241,
      "転": 3242,
      "軸": 3243,
      "軽": 3244,
      "較": 3245,
      "載": 3246,
      "輔": 3247,
      "輝": 3248,
      "輩": 3249,
      "輪": 3250,
      "輸": 3251,
      "輿": 3252,
      "轄": 3253,
      "轍": 3254,
      "轟": 3255,
      "轡": 3256,
      "轢": 3257,
      "辛": 3258,
      "辜": 3259,
      "辞": 3260,
      "辟": 3261,
      "辣": 3262,
      "辰": 3263,
      "辱": 3264,
      "農": 3265,
      "辺": 3266,
      "辻": 3267,
      "込": 3268,
      "辿": 3269,
      "迂": 3270,
      "迄": 3271,
      "迅": 3272,
      "迎": 3273,
      "近": 3274,
      "返": 3275,
      "迢": 3276,
      "迦": 3277,
      "迫": 3278,
      "迭": 3279,
      "述": 3280,
      "迷": 3281,
      "迹": 3282,
      "追": 3283,
      "退": 3284,
      "送": 3285,
      "逃": 3286,
      "逅": 3287,
      "逆": 3288,
      "逍": 3289,
      "透": 3290,
      "逐": 3291,
      "途": 3292,
      "這": 3293,
      "通": 3294,
      "逝": 3295,
      "逞": 3296,
      "速": 3297,
      "造": 3298,
      "逡": 3299,
      "逢": 3300,
      "連": 3301,
      "逮": 3302,
      "週": 3303,
      "進": 3304,
      "逸": 3305,
      "逼": 3306,
      "遁": 3307,
      "遂": 3308,
      "遅": 3309,
      "遇": 3310,
      "遊": 3311,
      "運": 3312,
      "遍": 3313,
      "過": 3314,
      "道": 3315,
      "達": 3316,
      "違": 3317,
      "遙": 3318,
      "遜": 3319,
      "遠": 3320,
      "遡": 3321,
      "遣": 3322,
      "遥": 3323,
      "適": 3324,
      "遭": 3325,
      "遮": 3326,
      "遵": 3327,
      "遷": 3328,
      "選": 3329,
      "遺": 3330,
      "遼": 3331,
      "遽": 3332,
      "避": 3333,
      "邁": 3334,
      "邂": 3335,
      "邃": 3336,
      "還": 3337,
      "邇": 3338,
      "邉": 3339,
      "邊": 3340,
      "那": 3341,
      "邦": 3342,
      "邪": 3343,
      "邱": 3344,
      "邸": 3345,
      "郁": 3346,
      "郊": 3347,
      "郎": 3348,
      "郡": 3349,
      "部": 3350,
      "郭": 3351,
      "郵": 3352,
      "郷": 3353,
      "都": 3354,
      "鄙": 3355,
      "鄧": 3356,
      "酈": 3357,
      "酊": 3358,
      "酌": 3359,
      "配": 3360,
      "酎": 3361,
      "酒": 3362,
      "酔": 3363,
      "酢": 3364,
      "酩": 3365,
      "酪": 3366,
      "酬": 3367,
      "酵": 3368,
      "酷": 3369,
      "酸": 3370,
      "醇": 3371,
      "醍": 3372,
      "醐": 3373,
      "醒": 3374,
      "醜": 3375,
      "醤": 3376,
      "醫": 3377,
      "醸": 3378,
      "采": 3379,
      "釈": 3380,
      "里": 3381,
      "重": 3382,
      "野": 3383,
      "量": 3384,
      "金": 3385,
      "釘": 3386,
      "釜": 3387,
      "針": 3388,
      "釣": 3389,
      "釧": 3390,
      "鈍": 3391,
      "鈑": 3392,
      "鈕": 3393,
      "鈴": 3394,
      "鉄": 3395,
      "鉉": 3396,
      "鉛": 3397,
      "鉢": 3398,
      "鉤": 3399,
      "鉱": 3400,
      "銀": 3401,
      "銃": 3402,
      "銅": 3403,
      "銘": 3404,
      "銛": 3405,
      "銭": 3406,
      "鋏": 3407,
      "鋒": 3408,
      "鋭": 3409,
      "鋲": 3410,
      "鋼": 3411,
      "錆": 3412,
      "錘": 3413,
      "錚": 3414,
      "錠": 3415,
      "錦": 3416,
      "錨": 3417,
      "錬": 3418,
      "錮": 3419,
      "錯": 3420,
      "録": 3421,
      "鍋": 3422,
      "鍍": 3423,
      "鍔": 3424,
      "鍛": 3425,
      "鍬": 3426,
      "鍮": 3427,
      "鍵": 3428,
      "鍼": 3429,
      "鍾": 3430,
      "鎌": 3431,
      "鎖": 3432,
      "鎚": 3433,
      "鎬": 3434,
      "鎭": 3435,
      "鎮": 3436,
      "鏃": 3437,
      "鏡": 3438,
      "鐘": 3439,
      "鐸": 3440,
      "鑑": 3441,
      "鑚": 3442,
      "鑼": 3443,
      "鑽": 3444,
      "長": 3445,
      "門": 3446,
      "閂": 3447,
      "閃": 3448,
      "閉": 3449,
      "開": 3450,
      "閑": 3451,
      "間": 3452,
      "閘": 3453,
      "関": 3454,
      "閣": 3455,
      "閤": 3456,
      "閥": 3457,
      "閨": 3458,
      "閩": 3459,
      "閲": 3460,
      "閻": 3461,
      "闇": 3462,
      "闊": 3463,
      "闖": 3464,
      "闘": 3465,
      "阜": 3466,
      "阪": 3467,
      "防": 3468,
      "阻": 3469,
      "阿": 3470,
      "陀": 3471,
      "附": 3472,
      "降": 3473,
      "限": 3474,
      "陛": 3475,
      "陝": 3476,
      "院": 3477,
      "陣": 3478,
      "除": 3479,
      "陥": 3480,
      "陰": 3481,
      "陳": 3482,
      "陵": 3483,
      "陶": 3484,
      "陸": 3485,
      "険": 3486,
      "陽": 3487,
      "隅": 3488,
      "隆": 3489,
      "隈": 3490,
      "隊": 3491,
      "階": 3492,
      "随": 3493,
      "隔": 3494,
      "隕": 3495,
      "隘": 3496,
      "隙": 3497,
      "際": 3498,
      "障": 3499,
      "隠": 3500,
      "隣": 3501,
      "隷": 3502,
      "隻": 3503,
      "隼": 3504,
      "雀": 3505,
      "雄": 3506,
      "雅": 3507,
      "集": 3508,
      "雇": 3509,
      "雉": 3510,
      "雑": 3511,
      "雕": 3512,
      "雛": 3513,
      "離": 3514,
      "難": 3515,
      "雨": 3516,
      "雪": 3517,
      "雫": 3518,
      "雰": 3519,
      "雲": 3520,
      "零": 3521,
      "雷": 3522,
      "電": 3523,
      "需": 3524,
      "震": 3525,
      "霊": 3526,
      "霍": 3527,
      "霖": 3528,
      "霜": 3529,
      "霞": 3530,
      "霧": 3531,
      "霰": 3532,
      "露": 3533,
      "霹": 3534,
      "靂": 3535,
      "靄": 3536,
      "青": 3537,
      "靖": 3538,
      "静": 3539,
      "非": 3540,
      "面": 3541,
      "革": 3542,
      "靫": 3543,
      "靭": 3544,
      "靴": 3545,
      "鞄": 3546,
      "鞆": 3547,
      "鞍": 3548,
      "鞘": 3549,
      "鞠": 3550,
      "鞭": 3551,
      "韓": 3552,
      "韮": 3553,
      "音": 3554,
      "韻": 3555,
      "響": 3556,
      "頂": 3557,
      "頃": 3558,
      "項": 3559,
      "順": 3560,
      "須": 3561,
      "預": 3562,
      "頑": 3563,
      "頒": 3564,
      "頓": 3565,
      "頗": 3566,
      "領": 3567,
      "頤": 3568,
      "頬": 3569,
      "頭": 3570,
      "頴": 3571,
      "頷": 3572,
      "頸": 3573,
      "頻": 3574,
      "頼": 3575,
      "顆": 3576,
      "題": 3577,
      "額": 3578,
      "顎": 3579,
      "顔": 3580,
      "顕": 3581,
      "願": 3582,
      "類": 3583,
      "顧": 3584,
      "顰": 3585,
      "風": 3586,
      "颯": 3587,
      "飄": 3588,
      "飛": 3589,
      "食": 3590,
      "飢": 3591,
      "飯": 3592,
      "飲": 3593,
      "飴": 3594,
      "飼": 3595,
      "飽": 3596,
      "飾": 3597,
      "餃": 3598,
      "餅": 3599,
      "餉": 3600,
      "養": 3601,
      "餌": 3602,
      "餐": 3603,
      "餓": 3604,
      "餞": 3605,
      "餡": 3606,
      "館": 3607,
      "饅": 3608,
      "饉": 3609,
      "饗": 3610,
      "首": 3611,
      "馗": 3612,
      "香": 3613,
      "馨": 3614,
      "馬": 3615,
      "馮": 3616,
      "馳": 3617,
      "馴": 3618,
      "駁": 3619,
      "駄": 3620,
      "駅": 3621,
      "駆": 3622,
      "駈": 3623,
      "駐": 3624,
      "駒": 3625,
      "駕": 3626,
      "駿": 3627,
      "騎": 3628,
      "騒": 3629,
      "験": 3630,
      "騙": 3631,
      "騨": 3632,
      "騰": 3633,
      "驚": 3634,
      "骨": 3635,
      "骸": 3636,
      "髄": 3637,
      "體": 3638,
      "高": 3639,
      "髙": 3640,
      "髣": 3641,
      "髪": 3642,
      "髭": 3643,
      "髴": 3644,
      "髷": 3645,
      "鬆": 3646,
      "鬨": 3647,
      "鬱": 3648,
      "鬼": 3649,
      "魁": 3650,
      "魂": 3651,
      "魅": 3652,
      "魍": 3653,
      "魎": 3654,
      "魏": 3655,
      "魔": 3656,
      "魚": 3657,
      "鮭": 3658,
      "鮮": 3659,
      "鯉": 3660,
      "鯖": 3661,
      "鯛": 3662,
      "鯰": 3663,
      "鯵": 3664,
      "鰓": 3665,
      "鰻": 3666,
      "鱈": 3667,
      "鱒": 3668,
      "鱗": 3669,
      "鳥": 3670,
      "鳩": 3671,
      "鳳": 3672,
      "鳴": 3673,
      "鴉": 3674,
      "鴨": 3675,
      "鴻": 3676,
      "鵜": 3677,
      "鶉": 3678,
      "鶏": 3679,
      "鶴": 3680,
      "鷗": 3681,
      "鷲": 3682,
      "鷹": 3683,
      "鷺": 3684,
      "鸞": 3685,
      "鹸": 3686,
      "鹿": 3687,
      "麓": 3688,
      "麗": 3689,
      "麦": 3690,
      "麩": 3691,
      "麹": 3692,
      "麺": 3693,
      "麻": 3694,
      "黄": 3695,
      "黍": 3696,
      "黒": 3697,
      "黙": 3698,
      "鼎": 3699,
      "鼓": 3700,
      "鼻": 3701,
      "齊": 3702,
      "齋": 3703,
      "齎": 3704,
      "齟": 3705,
      "齢": 3706,
      "齧": 3707,
      "齬": 3708,
      "龍": 3709,
      "배": 3710,
      "": 3711,
      "": 3712,
      "": 3713,
      "": 3714,
      "": 3715,
      "類": 3716,
      "﨑": 3717,
      "︎": 3718,
      "️": 3719,
      "﻿": 3720,
      "！": 3721,
      "＃": 3722,
      "＄": 3723,
      "％": 3724,
      "＆": 3725,
      "（": 3726,
      "）": 3727,
      "＊": 3728,
      "＋": 3729,
      "，": 3730,
      "－": 3731,
      "．": 3732,
      "／": 3733,
      "０": 3734,
      "１": 3735,
      "２": 3736,
      "３": 3737,
      "４": 3738,
      "５": 3739,
      "６": 3740,
      "７": 3741,
      "８": 3742,
      "９": 3743,
      "：": 3744,
      "；": 3745,
      "＜": 3746,
      "＝": 3747,
      "＞": 3748,
      "？": 3749,
      "＠": 3750,
      "Ａ": 3751,
      "Ｂ": 3752,
      "Ｃ": 3753,
      "Ｄ": 3754,
      "Ｅ": 3755,
      "Ｆ": 3756,
      "Ｇ": 3757,
      "Ｈ": 3758,
      "Ｉ": 3759,
      "Ｊ": 3760,
      "Ｋ": 3761,
      "Ｌ": 3762,
      "Ｍ": 3763,
      "Ｎ": 3764,
      "Ｏ": 3765,
      "Ｐ": 3766,
      "Ｑ": 3767,
      "Ｒ": 3768,
      "Ｓ": 3769,
      "Ｔ": 3770,
      "Ｕ": 3771,
      "Ｖ": 3772,
      "Ｗ": 3773,
      "Ｘ": 3774,
      "Ｙ": 3775,
      "Ｚ": 3776,
      "［": 3777,
      "＼": 3778,
      "］": 3779,
      "＾": 3780,
      "＿": 3781,
      "｀": 3782,
      "ａ": 3783,
      "ｂ": 3784,
      "ｃ": 3785,
      "ｄ": 3786,
      "ｅ": 3787,
      "ｆ": 3788,
      "ｇ": 3789,
      "ｈ": 3790,
      "ｉ": 3791,
      "ｋ": 3792,
      "ｌ": 3793,
      "ｍ": 3794,
      "ｎ": 3795,
      "ｏ": 3796,
      "ｐ": 3797,
      "ｒ": 3798,
      "ｓ": 3799,
      "ｔ": 3800,
      "ｗ": 3801,
      "ｘ": 3802,
      "ｙ": 3803,
      "｜": 3804,
      "～": 3805,
      "｡": 3806,
      "｢": 3807,
      "｣": 3808,
      "､": 3809,
      "･": 3810,
      "ｨ": 3811,
      "ｩ": 3812,
      "ｬ": 3813,
      "ｯ": 3814,
      "ｰ": 3815,
      "ｱ": 3816,
      "ｲ": 3817,
      "ｳ": 3818,
      "ｵ": 3819,
      "ｶ": 3820,
      "ｷ": 3821,
      "ｸ": 3822,
      "ｹ": 3823,
      "ｺ": 3824,
      "ｻ": 3825,
      "ｼ": 3826,
      "ｿ": 3827,
      "ﾀ": 3828,
      "ﾃ": 3829,
      "ﾄ": 3830,
      "ﾆ": 3831,
      "ﾉ": 3832,
      "ﾊ": 3833,
      "ﾋ": 3834,
      "ﾌ": 3835,
      "ﾍ": 3836,
      "ﾒ": 3837,
      "ﾖ": 3838,
      "ﾗ": 3839,
      "ﾘ": 3840,
      "ﾙ": 3841,
      "ﾚ": 3842,
      "ﾛ": 3843,
      "ﾝ": 3844,
      "ﾞ": 3845,
      "ﾟ": 3846,
      "￣": 3847,
      "￥": 3848,
      "�": 3849,
      "🌙": 3850,
      "🌸": 3851,
      "🍀": 3852,
      "🎶": 3853,
      "👍": 3854,
      "💤": 3855,
      "💦": 3856,
      "😉": 3857,
      "😊": 3858,
      "😌": 3859,
      "😕": 3860,
      "😢": 3861,
      "😭": 3862,
      "😰": 3863,
      "##分": 3864,
      "##た": 3865,
      "##ち": 3866,
      "##の": 3867,
      "##目": 3868,
      "##標": 3869,
      "##と": 3870,
      "##合": 3871,
      "##致": 3872,
      "##す": 3873,
      "##る": 3874,
      "##可": 3875,
      "##能": 3876,
      "##性": 3877,
      "##が": 3878,
      "##見": 3879,
      "##い": 3880,
      "##だ": 3881,
      "##せ": 3882,
      "##で": 3883,
      "##開": 3884,
      "##発": 3885,
      "##を": 3886,
      "##始": 3887,
      "##め": 3888,
      "##ま": 3889,
      "##し": 3890,
      "##本": 3891,
      "##は": 3892,
      "##も": 3893,
      "##よ": 3894,
      "##り": 3895,
      "##世": 3896,
      "##界": 3897,
      "##１": 3898,
      "##５": 3899,
      "##国": 3900,
      "##地": 3901,
      "##域": 3902,
      "##出": 3903,
      "##版": 3904,
      "##さ": 3905,
      "##れ": 3906,
      "##木": 3907,
      "##城": 3908,
      "##ゆ": 3909,
      "##き": 3910,
      "##原": 3911,
      "##作": 3912,
      "##に": 3913,
      "##伝": 3914,
      "##説": 3915,
      "##漫": 3916,
      "##画": 3917,
      "##際": 3918,
      "##輿": 3919,
      "##論": 3920,
      "##イ": 3921,
      "##ン": 3922,
      "##ト": 3923,
      "##っ": 3924,
      "##方": 3925,
      "##法": 3926,
      "##あ": 3927,
      "##ー": 3928,
      "##な": 3929,
      "##重": 3930,
      "##要": 3931,
      "##か": 3932,
      "##わ": 3933,
      "##言": 3934,
      "##え": 3935,
      "##ょ": 3936,
      "##う": 3937,
      "##局": 3938,
      "##3": 3939,
      "##間": 3940,
      "##両": 3941,
      "##者": 3942,
      "##譲": 3943,
      "##ら": 3944,
      "##ず": 3945,
      "##ど": 3946,
      "##当": 3947,
      "##時": 3948,
      "##日": 3949,
      "##人": 3950,
      "##導": 3951,
      "##学": 3952,
      "##ん": 3953,
      "##ガ": 3954,
      "##ル": 3955,
      "##事": 3956,
      "##実": 3957,
      "##隠": 3958,
      "##蔽": 3959,
      "##０": 3960,
      "##万": 3961,
      "##円": 3962,
      "##以": 3963,
      "##上": 3964,
      "##興": 3965,
      "##家": 3966,
      "##部": 3967,
      "##連": 3968,
      "##絡": 3969,
      "##取": 3970,
      "##く": 3971,
      "##て": 3972,
      "##良": 3973,
      "##休": 3974,
      "##憩": 3975,
      "##高": 3976,
      "##気": 3977,
      "##圧": 3978,
      "##対": 3979,
      "##応": 3980,
      "##5": 3981,
      "##8": 3982,
      "##0": 3983,
      "##m": 3984,
      "##度": 3985,
      "##線": 3986,
      "##南": 3987,
      "##下": 3988,
      "##キ": 3989,
      "##グ": 3990,
      "##伺": 3991,
      "##こ": 3992,
      "##サ": 3993,
      "##紹": 3994,
      "##介": 3995,
      "##今": 3996,
      "##会": 3997,
      "##心": 3998,
      "##的": 3999,
      "##系": 4000,
      "##ア": 4001,
      "##プ": 4002,
      "##リ": 4003,
      "##ば": 4004,
      "##セ": 4005,
      "##ッ": 4006,
      "##ク": 4007,
      "##ス": 4008,
      "##○": 4009,
      "##飢": 4010,
      "##生": 4011,
      "##中": 4012,
      "##女": 4013,
      "##子": 4014,
      "##全": 4015,
      "##数": 4016,
      "##百": 4017,
      "##単": 4018,
      "##位": 4019,
      "##大": 4020,
      "##量": 4021,
      "##登": 4022,
      "##録": 4023,
      "##通": 4024,
      "##お": 4025,
      "##安": 4026,
      "##義": 4027,
      "##羽": 4028,
      "##皇": 4029,
      "##崇": 4030,
      "##徳": 4031,
      "##や": 4032,
      "##誘": 4033,
      "##C": 4034,
      "##D": 4035,
      "##購": 4036,
      "##入": 4037,
      "##付": 4038,
      "##自": 4039,
      "##体": 4040,
      "##ほ": 4041,
      "##思": 4042,
      "##象": 4043,
      "##情": 4044,
      "##報": 4045,
      "##手": 4046,
      "##倒": 4047,
      "##調": 4048,
      "##雑": 4049,
      "##用": 4050,
      "##み": 4051,
      "##感": 4052,
      "##じ": 4053,
      "##利": 4054,
      "##参": 4055,
      "##加": 4056,
      "##無": 4057,
      "##課": 4058,
      "##金": 4059,
      "##場": 4060,
      "##姿": 4061,
      "##店": 4062,
      "##つ": 4063,
      "##け": 4064,
      "##水": 4065,
      "##飲": 4066,
      "##秋": 4067,
      "##季": 4068,
      "##例": 4069,
      "##祭": 4070,
      "##品": 4071,
      "##書": 4072,
      "##頃": 4073,
      "##母": 4074,
      "##関": 4075,
      "##係": 4076,
      "##制": 4077,
      "##g": 4078,
      "##ラ": 4079,
      "##フ": 4080,
      "##ニ": 4081,
      "##診": 4082,
      "##断": 4083,
      "##受": 4084,
      "##限": 4085,
      "##貯": 4086,
      "##考": 4087,
      "##ね": 4088,
      "##判": 4089,
      "##決": 4090,
      "##少": 4091,
      "##狭": 4092,
      "##焦": 4093,
      "##向": 4094,
      "##構": 4095,
      "##身": 4096,
      "##想": 4097,
      "##譜": 4098,
      "##研": 4099,
      "##究": 4100,
      "##声": 4101,
      "##耳": 4102,
      "##傾": 4103,
      "##ャ": 4104,
      "##ズ": 4105,
      "##器": 4106,
      "##育": 4107,
      "##仮": 4108,
      "##貨": 4109,
      "##知": 4110,
      "##姫": 4111,
      "##様": 4112,
      "##扱": 4113,
      "##ハ": 4114,
      "##マ": 4115,
      "##デ": 4116,
      "##バ": 4117,
      "##ぎ": 4118,
      "##囲": 4119,
      "##職": 4120,
      "##食": 4121,
      "##べ": 4122,
      "##物": 4123,
      "##混": 4124,
      "##溶": 4125,
      "##液": 4126,
      "##定": 4127,
      "##優": 4128,
      "##明": 4129,
      "##回": 4130,
      "##初": 4131,
      "##レ": 4132,
      "##コ": 4133,
      "##美": 4134,
      "##容": 4135,
      "##成": 4136,
      "##践": 4137,
      "##環": 4138,
      "##境": 4139,
      "##立": 4140,
      "##ノ": 4141,
      "##ウ": 4142,
      "##変": 4143,
      "##仕": 4144,
      "##降": 4145,
      "##ィ": 4146,
      "##ネ": 4147,
      "##何": 4148,
      "##ド": 4149,
      "##G": 4150,
      "##探": 4151,
      "##偵": 4152,
      "##担": 4153,
      "##査": 4154,
      "##テ": 4155,
      "##２": 4156,
      "##年": 4157,
      "##８": 4158,
      "##紀": 4159,
      "##漏": 4160,
      "##ァ": 4161,
      "##オ": 4162,
      "##校": 4163,
      "##名": 4164,
      "##球": 4165,
      "##シ": 4166,
      "##ョ": 4167,
      "##役": 4168,
      "##割": 4169,
      "##洗": 4170,
      "##増": 4171,
      "##殖": 4172,
      "##指": 4173,
      "##揮": 4174,
      "##モ": 4175,
      "##管": 4176,
      "##弦": 4177,
      "##楽": 4178,
      "##団": 4179,
      "##共": 4180,
      "##演": 4181,
      "##交": 4182,
      "##響": 4183,
      "##曲": 4184,
      "##第": 4185,
      "##2": 4186,
      "##番": 4187,
      "##音": 4188,
      "##否": 4189,
      "##料": 4190,
      "##配": 4191,
      "##給": 4192,
      "##穂": 4193,
      "##乃": 4194,
      "##果": 4195,
      "##ゃ": 4196,
      "##舐": 4197,
      "##動": 4198,
      "##釣": 4199,
      "##強": 4200,
      "##づ": 4201,
      "##形": 4202,
      "##景": 4203,
      "##邪": 4204,
      "##魔": 4205,
      "##綺": 4206,
      "##麗": 4207,
      "##ム": 4208,
      "##硬": 4209,
      "##樹": 4210,
      "##脂": 4211,
      "##理": 4212,
      "##由": 4213,
      "##暇": 4214,
      "##捉": 4215,
      "##次": 4216,
      "##阪": 4217,
      "##そ": 4218,
      "##一": 4219,
      "##表": 4220,
      "##記": 4221,
      "##憶": 4222,
      "##函": 4223,
      "##館": 4224,
      "##旅": 4225,
      "##行": 4226,
      "##彼": 4227,
      "##メ": 4228,
      "##カ": 4229,
      "##非": 4230,
      "##常": 4231,
      "##許": 4232,
      "##持": 4233,
      "##勧": 4234,
      "##買": 4235,
      "##込": 4236,
      "##輸": 4237,
      "##前": 4238,
      "##提": 4239,
      "##都": 4240,
      "##緊": 4241,
      "##題": 4242,
      "##頭": 4243,
      "##並": 4244,
      "##タ": 4245,
      "##認": 4246,
      "##識": 4247,
      "##造": 4248,
      "##ジ": 4249,
      "##ナ": 4250,
      "##結": 4251,
      "##訳": 4252,
      "##繊": 4253,
      "##維": 4254,
      "##摂": 4255,
      "##引": 4256,
      "##光": 4257,
      "##産": 4258,
      "##業": 4259,
      "##力": 4260,
      "##戸": 4261,
      "##期": 4262,
      "##相": 4263,
      "##命": 4264,
      "##宮": 4265,
      "##県": 4266,
      "##岩": 4267,
      "##沼": 4268,
      "##市": 4269,
      "##旨": 4270,
      "##員": 4271,
      "##経": 4272,
      "##験": 4273,
      "##必": 4274,
      "##ビ": 4275,
      "##ォ": 4276,
      "##族": 4277,
      "##絆": 4278,
      "##深": 4279,
      "##S": 4280,
      "##浄": 4281,
      "##ツ": 4282,
      "##傷": 4283,
      "##不": 4284,
      "##失": 4285,
      "##基": 4286,
      "##策": 4287,
      "##新": 4288,
      "##ご": 4289,
      "##ボ": 4290,
      "##操": 4291,
      "##追": 4292,
      "##ブ": 4293,
      "##揉": 4294,
      "##ぱ": 4295,
      "##計": 4296,
      "##検": 4297,
      "##討": 4298,
      "##確": 4299,
      "##頂": 4300,
      "##後": 4301,
      "##私": 4302,
      "##異": 4303,
      "##十": 4304,
      "##儀": 4305,
      "##使": 4306,
      "##豊": 4307,
      "##岡": 4308,
      "##障": 4309,
      "##害": 4310,
      "##福": 4311,
      "##祉": 4312,
      "##1": 4313,
      "##届": 4314,
      "##件": 4315,
      "##針": 4316,
      "##他": 4317,
      "##規": 4318,
      "##範": 4319,
      "##遵": 4320,
      "##守": 4321,
      "##所": 4322,
      "##蒔": 4323,
      "##３": 4324,
      "##月": 4325,
      "##び": 4326,
      "##週": 4327,
      "##内": 4328,
      "##忘": 4329,
      "##色": 4330,
      "##山": 4331,
      "##文": 4332,
      "##化": 4333,
      "##精": 4334,
      "##神": 4335,
      "##病": 4336,
      "##薬": 4337,
      "##抗": 4338,
      "##議": 4339,
      "##送": 4340,
      "##信": 4341,
      "##ろ": 4342,
      "##達": 4343,
      "##々": 4344,
      "##述": 4345,
      "##差": 4346,
      "##政": 4347,
      "##府": 4348,
      "##真": 4349,
      "##匂": 4350,
      "##僕": 4351,
      "##掃": 4352,
      "##除": 4353,
      "##ユ": 4354,
      "##ザ": 4355,
      "##話": 4356,
      "##既": 4357,
      "##ェ": 4358,
      "##勝": 4359,
      "##終": 4360,
      "##流": 4361,
      "##乗": 4362,
      "##到": 4363,
      "##裁": 4364,
      "##7": 4365,
      "##藤": 4366,
      "##状": 4367,
      "##態": 4368,
      "##春": 4369,
      "##周": 4370,
      "##渡": 4371,
      "##６": 4372,
      "##撮": 4373,
      "##影": 4374,
      "##臨": 4375,
      "##床": 4376,
      "##試": 4377,
      "##賜": 4378,
      "##ぞ": 4379,
      "##俺": 4380,
      "##猫": 4381,
      "##飼": 4382,
      "##ざ": 4383,
      "##携": 4384,
      "##帯": 4385,
      "##折": 4386,
      "##廃": 4387,
      "##棄": 4388,
      "##ゲ": 4389,
      "##招": 4390,
      "##パ": 4391,
      "##工": 4392,
      "##得": 4393,
      "##収": 4394,
      "##般": 4395,
      "##寝": 4396,
      "##室": 4397,
      "##歳": 4398,
      "##近": 4399,
      "##況": 4400,
      "##N": 4401,
      "##適": 4402,
      "##価": 4403,
      "##値": 4404,
      "##廟": 4405,
      "##運": 4406,
      "##林": 4407,
      "##監": 4408,
      "##督": 4409,
      "##随": 4410,
      "##企": 4411,
      "##働": 4412,
      "##式": 4413,
      "##親": 4414,
      "##味": 4415,
      "##衛": 4416,
      "##権": 4417,
      "##口": 4418,
      "##父": 4419,
      "##供": 4420,
      "##外": 4421,
      "##遊": 4422,
      "##丸": 4423,
      "##坊": 4424,
      "##主": 4425,
      "##欠": 4426,
      "##乳": 4427,
      "##腺": 4428,
      "##玄": 4429,
      "##米": 4430,
      "##粉": 4431,
      "##悔": 4432,
      "##敗": 4433,
      "##熱": 4434,
      "##雨": 4435,
      "##寸": 4436,
      "##邦": 4437,
      "##有": 4438,
      "##証": 4439,
      "##券": 4440,
      "##種": 4441,
      "##社": 4442,
      "##承": 4443,
      "##民": 4444,
      "##営": 4445,
      "##率": 4446,
      "##低": 4447,
      "##訪": 4448,
      "##問": 4449,
      "##抵": 4450,
      "##げ": 4451,
      "##ベ": 4452,
      "##争": 4453,
      "##超": 4454,
      "##ぼ": 4455,
      "##宅": 4456,
      "##帰": 4457,
      "##刻": 4458,
      "##早": 4459,
      "##去": 4460,
      "##賢": 4461,
      "##吸": 4462,
      "##速": 4463,
      "##遅": 4464,
      "##ダ": 4465,
      "##エ": 4466,
      "##ポ": 4467,
      "##極": 4468,
      "##男": 4469,
      "##臭": 4470,
      "##映": 4471,
      "##門": 4472,
      "##領": 4473,
      "##点": 4474,
      "##直": 4475,
      "##墓": 4476,
      "##寄": 4477,
      "##へ": 4478,
      "##ロ": 4479,
      "##ギ": 4480,
      "##格": 4481,
      "##製": 4482,
      "##最": 4483,
      "##津": 4484,
      "##波": 4485,
      "##東": 4486,
      "##北": 4487,
      "##与": 4488,
      "##R": 4489,
      "##o": 4490,
      "##t": 4491,
      "##稼": 4492,
      "##H": 4493,
      "##T": 4494,
      "##V": 4495,
      "##解": 4496,
      "##像": 4497,
      "##起": 4498,
      "##泊": 4499,
      "##練": 4500,
      "##習": 4501,
      "##弥": 4502,
      "##慮": 4503,
      "##装": 4504,
      "##備": 4505,
      "##小": 4506,
      "##我": 4507,
      "##慢": 4508,
      "##危": 4509,
      "##惧": 4510,
      "##謝": 4511,
      "##貝": 4512,
      "##油": 4513,
      "##科": 4514,
      "##専": 4515,
      "##医": 4516,
      "##施": 4517,
      "##設": 4518,
      "##ミ": 4519,
      "##ゴ": 4520,
      "##犬": 4521,
      "##荷": 4522,
      "##ュ": 4523,
      "##窓": 4524,
      "##磨": 4525,
      "##怯": 4526,
      "##夜": 4527,
      "##客": 4528,
      "##玉": 4529,
      "##同": 4530,
      "##野": 4531,
      "##順": 4532,
      "##予": 4533,
      "##勿": 4534,
      "##朝": 4535,
      "##6": 4536,
      "##半": 4537,
      "##戻": 4538,
      "##ホ": 4539,
      "##丁": 4540,
      "##火": 4541,
      "##晴": 4542,
      "##代": 4543,
      "##友": 4544,
      "##護": 4545,
      "##士": 4546,
      "##務": 4547,
      "##従": 4548,
      "##支": 4549,
      "##払": 4550,
      "##京": 4551,
      "##移": 4552,
      "##電": 4553,
      "##面": 4554,
      "##描": 4555,
      "##教": 4556,
      "##屋": 4557,
      "##過": 4558,
      "##薄": 4559,
      "##車": 4560,
      "##額": 4561,
      "##現": 4562,
      "##橋": 4563,
      "##公": 4564,
      "##園": 4565,
      "##整": 4566,
      "##平": 4567,
      "##均": 4568,
      "##寿": 4569,
      "##沿": 4570,
      "##ソ": 4571,
      "##眠": 4572,
      "##個": 4573,
      "##拡": 4574,
      "##換": 4575,
      "##奥": 4576,
      "##歯": 4577,
      "##痛": 4578,
      "##販": 4579,
      "##売": 4580,
      "##農": 4581,
      "##聞": 4582,
      "##悪": 4583,
      "##騙": 4584,
      "##為": 4585,
      "##懸": 4586,
      "##劣": 4587,
      "##称": 4588,
      "##号": 4589,
      "##授": 4590,
      "##覗": 4591,
      "##来": 4592,
      "##類": 4593,
      "##仙": 4594,
      "##台": 4595,
      "##院": 4596,
      "##密": 4597,
      "##多": 4598,
      "##広": 4599,
      "##尾": 4600,
      "##採": 4601,
      "##ぐ": 4602,
      "##チ": 4603,
      "##倫": 4604,
      "##転": 4605,
      "##戦": 4606,
      "##闘": 4607,
      "##待": 4608,
      "##避": 4609,
      "##首": 4610,
      "##顧": 4611,
      "##i": 4612,
      "##I": 4613,
      "##示": 4614,
      "##兆": 4615,
      "##候": 4616,
      "##残": 4617,
      "##陽": 4618,
      "##奴": 4619,
      "##誰": 4620,
      "##弾": 4621,
      "##険": 4622,
      "##惹": 4623,
      "##観": 4624,
      "##察": 4625,
      "##純": 4626,
      "##n": 4627,
      "##正": 4628,
      "##及": 4629,
      "##停": 4630,
      "##止": 4631,
      "##請": 4632,
      "##求": 4633,
      "##歴": 4634,
      "##史": 4635,
      "##席": 4636,
      "##別": 4637,
      "##端": 4638,
      "##夫": 4639,
      "##好": 4640,
      "##恋": 4641,
      "##龍": 4642,
      "##馬": 4643,
      "##飛": 4644,
      "##住": 4645,
      "##ヨ": 4646,
      "##ペ": 4647,
      "##選": 4648,
      "##側": 4649,
      "##活": 4650,
      "##続": 4651,
      "##保": 4652,
      "##柄": 4653,
      "##存": 4654,
      "##堪": 4655,
      "##株": 4656,
      "##島": 4657,
      "##４": 4658,
      "##炉": 4659,
      "##答": 4660,
      "##9": 4661,
      "##素": 4662,
      "##寧": 4663,
      "##程": 4664,
      "##冷": 4665,
      "##静": 4666,
      "##組": 4667,
      "##機": 4668,
      "##革": 4669,
      "##む": 4670,
      "##望": 4671,
      "##駄": 4672,
      "##抱": 4673,
      "##繋": 4674,
      "##再": 4675,
      "##喜": 4676,
      "##ワ": 4677,
      "##切": 4678,
      "##捨": 4679,
      "##商": 4680,
      "##置": 4681,
      "##測": 4682,
      "##賞": 4683,
      "##鉄": 4684,
      "##節": 4685,
      "##労": 4686,
      "##治": 4687,
      "##ヶ": 4688,
      "##緑": 4689,
      "##枠": 4690,
      "##満": 4691,
      "##A": 4692,
      "##z": 4693,
      "##u": 4694,
      "##r": 4695,
      "##e": 4696,
      "##捕": 4697,
      "##材": 4698,
      "##略": 4699,
      "##核": 4700,
      "##術": 4701,
      "##編": 4702,
      "##狙": 4703,
      "##語": 4704,
      "##ぬ": 4705,
      "##誠": 4706,
      "##算": 4707,
      "##在": 4708,
      "##西": 4709,
      "##欧": 4710,
      "##ぶ": 4711,
      "##蓄": 4712,
      "##積": 4713,
      "##快": 4714,
      "##削": 4715,
      "##ヴ": 4716,
      "##覚": 4717,
      "##服": 4718,
      "##念": 4719,
      "##Ｈ": 4720,
      "##Ｋ": 4721,
      "##質": 4722,
      "##集": 4723,
      "##x": 4724,
      "##a": 4725,
      "##b": 4726,
      "##y": 4727,
      "##症": 4728,
      "##械": 4729,
      "##聴": 4730,
      "##績": 4731,
      "##児": 4732,
      "##v": 4733,
      "##d": 4734,
      "##意": 4735,
      "##任": 4736,
      "##湾": 4737,
      "##獅": 4738,
      "##舞": 4739,
      "##普": 4740,
      "##段": 4741,
      "##雰": 4742,
      "##協": 4743,
      "##着": 4744,
      "##雄": 4745,
      "##浮": 4746,
      "##醍": 4747,
      "##醐": 4748,
      "##天": 4749,
      "##栗": 4750,
      "##潜": 4751,
      "##鋒": 4752,
      "##三": 4753,
      "##覧": 4754,
      "##烈": 4755,
      "##批": 4756,
      "##延": 4757,
      "##ケ": 4758,
      "##雲": 4759,
      "##具": 4760,
      "##婚": 4761,
      "##帳": 4762,
      "##絵": 4763,
      "##ピ": 4764,
      "##投": 4765,
      "##資": 4766,
      "##宣": 4767,
      "##褒": 4768,
      "##二": 4769,
      "##違": 4770,
      "##癖": 4771,
      "##居": 4772,
      "##孫": 4773,
      "##傑": 4774,
      "##死": 4775,
      "##濃": 4776,
      "##青": 4777,
      "##獲": 4778,
      "##鑑": 4779,
      "##斬": 4780,
      "##準": 4781,
      "##餌": 4782,
      "##軽": 4783,
      "##幹": 4784,
      "##王": 4785,
      "##刑": 4786,
      "##希": 4787,
      "##穏": 4788,
      "##和": 4789,
      "##浸": 4790,
      "##透": 4791,
      "##裏": 4792,
      "##級": 4793,
      "##塗": 4794,
      "##珠": 4795,
      "##攻": 4796,
      "##撃": 4797,
      "##掛": 4798,
      "##巡": 4799,
      "##♪": 4800,
      "##Q": 4801,
      "##L": 4802,
      "##l": 4803,
      "##c": 4804,
      "##h": 4805,
      "##注": 4806,
      "##夢": 4807,
      "##ぜ": 4808,
      "##ひ": 4809,
      "##統": 4810,
      "##済": 4811,
      "##根": 4812,
      "##階": 4813,
      "##伸": 4814,
      "##訓": 4815,
      "##P": 4816,
      "##細": 4817,
      "##胞": 4818,
      "##臓": 4819,
      "##技": 4820,
      "##泥": 4821,
      "##棒": 4822,
      "##約": 4823,
      "##束": 4824,
      "##因": 4825,
      "##還": 4826,
      "##暦": 4827,
      "##然": 4828,
      "##顔": 4829,
      "##河": 4830,
      "##億": 4831,
      "##4": 4832,
      "##減": 4833,
      "##厳": 4834,
      "##酸": 4835,
      "##返": 4836,
      "##土": 4837,
      "##妖": 4838,
      "##牛": 4839,
      "##麦": 4840,
      "##索": 4841,
      "##貿": 4842,
      "##易": 4843,
      "##軍": 4844,
      "##需": 4845,
      "##疑": 4846,
      "##逮": 4847,
      "##頑": 4848,
      "##張": 4849,
      "##絶": 4850,
      "##已": 4851,
      "##沈": 4852,
      "##黙": 4853,
      "##消": 4854,
      "##癌": 4855,
      "##握": 4856,
      "##改": 4857,
      "##善": 4858,
      "##択": 4859,
      "##肢": 4860,
      "##氏": 4861,
      "##途": 4862,
      "##札": 4863,
      "##又": 4864,
      "##載": 4865,
      "##先": 4866,
      "##四": 4867,
      "##皆": 4868,
      "##勘": 4869,
      "##白": 4870,
      "##浣": 4871,
      "##腸": 4872,
      "##松": 4873,
      "##息": 4874,
      "##把": 4875,
      "##w": 4876,
      "##９": 4877,
      "##幸": 4878,
      "##逃": 4879,
      "##災": 4880,
      "##豪": 4881,
      "##効": 4882,
      "##温": 4883,
      "##昇": 4884,
      "##゙": 4885,
      "##棟": 4886,
      "##看": 4887,
      "##師": 4888,
      "##毎": 4889,
      "##勉": 4890,
      "##等": 4891,
      "##恐": 4892,
      "##駅": 4893,
      "##徒": 4894,
      "##歩": 4895,
      "##案": 4896,
      "##末": 4897,
      "##永": 4898,
      "##剣": 4899,
      "##璽": 4900,
      "##昭": 4901,
      "##伊": 4902,
      "##勢": 4903,
      "##拝": 4904,
      "##陛": 4905,
      "##未": 4906,
      "##越": 4907,
      "##悩": 4908,
      "##特": 4909,
      "##典": 4910,
      "##写": 4911,
      "##舗": 4912,
      "##珍": 4913,
      "##壁": 4914,
      "##汚": 4915,
      "##託": 4916,
      "##震": 4917,
      "##推": 4918,
      "##含": 4919,
      "##角": 4920,
      "##菜": 4921,
      "##衣": 4922,
      "##揚": 4923,
      "##黒": 4924,
      "##肌": 4925,
      "##富": 4926,
      "##祖": 4927,
      "##賃": 4928,
      "##風": 4929,
      "##読": 4930,
      "##字": 4931,
      "##列": 4932,
      "##独": 4933,
      "##奨": 4934,
      "##丈": 4935,
      "##源": 4936,
      "##枯": 4937,
      "##渇": 4938,
      "##辞": 4939,
      "##憲": 4940,
      "##緒": 4941,
      "##僚": 4942,
      "##突": 4943,
      "##婆": 4944,
      "##諸": 4945,
      "##放": 4946,
      "##困": 4947,
      "##難": 4948,
      "##反": 4949,
      "##ヘ": 4950,
      "##B": 4951,
      "##k": 4952,
      "##区": 4953,
      "##談": 4954,
      "##弁": 4955,
      "##呼": 4956,
      "##粟": 4957,
      "##凱": 4958,
      "##滅": 4959,
      "##委": 4960,
      "##ヤ": 4961,
      "##頼": 4962,
      "##礼": 4963,
      "##却": 4964,
      "##視": 4965,
      "##復": 4966,
      "##縁": 4967,
      "##怒": 4968,
      "##脚": 4969,
      "##香": 4970,
      "##弘": 4971,
      "##陸": 4972,
      "##駆": 4973,
      "##抜": 4974,
      "##M": 4975,
      "##田": 4976,
      "##騒": 4977,
      "##圏": 4978,
      "##留": 4979,
      "##完": 4980,
      "##戴": 4981,
      "##嬉": 4982,
      "##総": 4983,
      "##海": 4984,
      "##韓": 4985,
      "##邱": 4986,
      "##微": 4987,
      "##熟": 4988,
      "##暴": 4989,
      "##走": 4990,
      "##長": 4991,
      "##創": 4992,
      "##馴": 4993,
      "##染": 4994,
      "##至": 4995,
      "##昔": 4996,
      "##ヒ": 4997,
      "##搬": 4998,
      "##葬": 4999,
      "##救": 5000,
      "##姓": 5001,
      "##云": 5002,
      "##功": 5003,
      "##則": 5004,
      "##循": 5005,
      "##輩": 5006,
      "##誉": 5007,
      "##図": 5008,
      "##修": 5009,
      "##元": 5010,
      "##網": 5011,
      "##鎖": 5012,
      "##幕": 5013,
      "##薩": 5014,
      "##藩": 5015,
      "##占": 5016,
      "##隷": 5017,
      "##軛": 5018,
      "##噌": 5019,
      "##醤": 5020,
      "##〆": 5021,
      "##助": 5022,
      "##横": 5023,
      "##芸": 5024,
      "##療": 5025,
      "##契": 5026,
      "##挟": 5027,
      "##賠": 5028,
      "##償": 5029,
      "##詳": 5030,
      "##房": 5031,
      "##魅": 5032,
      "##若": 5033,
      "##没": 5034,
      "##依": 5035,
      "##ゥ": 5036,
      "##告": 5037,
      "##肪": 5038,
      "##杯": 5039,
      "##畜": 5040,
      "##卿": 5041,
      "##左": 5042,
      "##臣": 5043,
      "##条": 5044,
      "##忠": 5045,
      "##挙": 5046,
      "##糧": 5047,
      "##道": 5048,
      "##謹": 5049,
      "##慎": 5050,
      "##紙": 5051,
      "##愛": 5052,
      "##氷": 5053,
      "##植": 5054,
      "##瀕": 5055,
      "##耐": 5056,
      "##破": 5057,
      "##街": 5058,
      "##足": 5059,
      "##眺": 5060,
      "##渋": 5061,
      "##滞": 5062,
      "##葉": 5063,
      "##掴": 5064,
      "##艦": 5065,
      "##ヌ": 5066,
      "##～": 5067,
      "##崎": 5068,
      "##齢": 5069,
      "##肉": 5070,
      "##鶏": 5071,
      "##激": 5072,
      "##鑽": 5073,
      "##笑": 5074,
      "##菓": 5075,
      "##比": 5076,
      "##較": 5077,
      "##羊": 5078,
      "##毛": 5079,
      "##於": 5080,
      "##睦": 5081,
      "##派": 5082,
      "##花": 5083,
      "##稿": 5084,
      "##猶": 5085,
      "##縮": 5086,
      "##願": 5087,
      "##叶": 5088,
      "##f": 5089,
      "##Ｉ": 5090,
      "##Ｂ": 5091,
      "##Ｊ": 5092,
      "##蘇": 5093,
      "##締": 5094,
      "##閲": 5095,
      "##五": 5096,
      "##座": 5097,
      "##振": 5098,
      "##浅": 5099,
      "##遺": 5100,
      "##犠": 5101,
      "##牲": 5102,
      "##幌": 5103,
      "##兄": 5104,
      "##謗": 5105,
      "##援": 5106,
      "##如": 5107,
      "##矛": 5108,
      "##盾": 5109,
      "##須": 5110,
      "##賀": 5111,
      "##奏": 5112,
      "##空": 5113,
      "##港": 5114,
      "##塀": 5115,
      "##路": 5116,
      "##建": 5117,
      "##養": 5118,
      "##摩": 5119,
      "##川": 5120,
      "##省": 5121,
      "##辛": 5122,
      "##央": 5123,
      "##競": 5124,
      "##諭": 5125,
      "##誤": 5126,
      "##酔": 5127,
      "##坐": 5128,
      "##将": 5129,
      "##毒": 5130,
      "##悟": 5131,
      "##Y": 5132,
      "##昨": 5133,
      "##浴": 5134,
      "##露": 5135,
      "##呂": 5136,
      "##苑": 5137,
      "##御": 5138,
      "##宿": 5139,
      "##湿": 5140,
      "##丘": 5141,
      "##寒": 5142,
      "##千": 5143,
      "##暗": 5144,
      "##刺": 5145,
      "##酵": 5146,
      "##亜": 5147,
      "##模": 5148,
      "##倣": 5149,
      "##錬": 5150,
      "##了": 5151,
      "##尽": 5152,
      "##打": 5153,
      "##岐": 5154,
      "##潟": 5155,
      "##預": 5156,
      "##急": 5157,
      "##里": 5158,
      "##蹄": 5159,
      "##峰": 5160,
      "##離": 5161,
      "##謀": 5162,
      "##肝": 5163,
      "##卒": 5164,
      "##航": 5165,
      "##隊": 5166,
      "##襲": 5167,
      "##肯": 5168,
      "##畳": 5169,
      "##武": 5170,
      "##缶": 5171,
      "##赤": 5172,
      "##ゅ": 5173,
      "##底": 5174,
      "##固": 5175,
      "##ゾ": 5176,
      "##鍵": 5177,
      "##防": 5178,
      "##脱": 5179,
      "##包": 5180,
      "##板": 5181,
      "##垣": 5182,
      "##旦": 5183,
      "##蔑": 5184,
      "##鮮": 5185,
      "##贅": 5186,
      "##努": 5187,
      "##兵": 5188,
      "##健": 5189,
      "##型": 5190,
      "##星": 5191,
      "##猛": 5192,
      "##腹": 5193,
      "##誇": 5194,
      "##燃": 5195,
      "##搭": 5196,
      "##照": 5197,
      "##柔": 5198,
      "##頬": 5199,
      "##膨": 5200,
      "##責": 5201,
      "##衆": 5202,
      "##古": 5203,
      "##ぁ": 5204,
      "##処": 5205,
      "##右": 5206,
      "##亀": 5207,
      "##更": 5208,
      "##亡": 5209,
      "##英": 5210,
      "##康": 5211,
      "##璧": 5212,
      "##迎": 5213,
      "##融": 5214,
      "##黄": 5215,
      "##昏": 5216,
      "##葵": 5217,
      "##敵": 5218,
      "##脅": 5219,
      "##遥": 5220,
      "##替": 5221,
      "##桜": 5222,
      "##O": 5223,
      "##E": 5224,
      "##酒": 5225,
      "##咳": 5226,
      "##歌": 5227,
      "##塚": 5228,
      "##恩": 5229,
      "##恵": 5230,
      "##趣": 5231,
      "##秘": 5232,
      "##峠": 5233,
      "##瞬": 5234,
      "##仲": 5235,
      "##緯": 5236,
      "##撫": 5237,
      "##胃": 5238,
      "##村": 5239,
      "##訴": 5240,
      "##掲": 5241,
      "##秩": 5242,
      "##序": 5243,
      "##費": 5244,
      "##膿": 5245,
      "##槻": 5246,
      "##郡": 5247,
      "##町": 5248,
      "##墳": 5249,
      "##昼": 5250,
      "##森": 5251,
      "##髪": 5252,
      "##迷": 5253,
      "##惑": 5254,
      "##貰": 5255,
      "##募": 5256,
      "##鮭": 5257,
      "##展": 5258,
      "##浜": 5259,
      "##罪": 5260,
      "##犯": 5261,
      "##講": 5262,
      "##借": 5263,
      "##ゼ": 5264,
      "##辿": 5265,
      "##財": 5266,
      "##布": 5267,
      "##威": 5268,
      "##沢": 5269,
      "##繰": 5270,
      "##冤": 5271,
      "##暮": 5272,
      "##簡": 5273,
      "##進": 5274,
      "##遭": 5275,
      "##遇": 5276,
      "##Ｔ": 5277,
      "##君": 5278,
      "##怪": 5279,
      "##s": 5280,
      "##納": 5281,
      "##欲": 5282,
      "##７": 5283,
      "##幣": 5284,
      "##継": 5285,
      "##Ｇ": 5286,
      "##干": 5287,
      "##渉": 5288,
      "##虐": 5289,
      "##遷": 5290,
      "##概": 5291,
      "##披": 5292,
      "##槽": 5293,
      "##坂": 5294,
      "##寅": 5295,
      "##倍": 5296,
      "##晋": 5297,
      "##紛": 5298,
      "##縛": 5299,
      "##径": 5300,
      "##ｍ": 5301,
      "##偶": 5302,
      "##鼻": 5303,
      "##閣": 5304,
      "##弱": 5305,
      "##那": 5306,
      "##石": 5307,
      "##怨": 5308,
      "##故": 5309,
      "##穴": 5310,
      "##掘": 5311,
      "##浪": 5312,
      "##夏": 5313,
      "##儲": 5314,
      "##濡": 5315,
      "##靴": 5316,
      "##幅": 5317,
      "##覆": 5318,
      "##ヵ": 5319,
      "##劇": 5320,
      "##詰": 5321,
      "##K": 5322,
      "##U": 5323,
      "##ぷ": 5324,
      "##殆": 5325,
      "##糸": 5326,
      "##飾": 5327,
      "##嫌": 5328,
      "##粗": 5329,
      "##J": 5330,
      "##弊": 5331,
      "##催": 5332,
      "##余": 5333,
      "##庫": 5334,
      "##條": 5335,
      "##揃": 5336,
      "##梱": 5337,
      "##旬": 5338,
      "##尋": 5339,
      "##郵": 5340,
      "##慣": 5341,
      "##痩": 5342,
      "##乾": 5343,
      "##燥": 5344,
      "##漠": 5345,
      "##虚": 5346,
      "##補": 5347,
      "##散": 5348,
      "##乱": 5349,
      "##摘": 5350,
      "##忙": 5351,
      "##短": 5352,
      "##疾": 5353,
      "##患": 5354,
      "##偏": 5355,
      "##泣": 5356,
      "##ｗ": 5357,
      "##遡": 5358,
      "##税": 5359,
      "##刊": 5360,
      "##訟": 5361,
      "##谷": 5362,
      "##捗": 5363,
      "##ぺ": 5364,
      "##堅": 5365,
      "##署": 5366,
      "##踏": 5367,
      "##躊": 5368,
      "##躇": 5369,
      "##似": 5370,
      "##幼": 5371,
      "##繍": 5372,
      "##迫": 5373,
      "##括": 5374,
      "##巻": 5375,
      "##鉛": 5376,
      "##属": 5377,
      "##ぽ": 5378,
      "##逡": 5379,
      "##逆": 5380,
      "##釈": 5381,
      "##吹": 5382,
      "##且": 5383,
      "##岸": 5384,
      "##腔": 5385,
      "##訣": 5386,
      "##疫": 5387,
      "##抹": 5388,
      "##嘉": 5389,
      "##郎": 5390,
      "##輪": 5391,
      "##＾": 5392,
      "##綻": 5393,
      "##帝": 5394,
      "##鏡": 5395,
      "##哲": 5396,
      "##悲": 5397,
      "##閉": 5398,
      "##耗": 5399,
      "##苦": 5400,
      "##八": 5401,
      "##盤": 5402,
      "##﨑": 5403,
      "##郷": 5404,
      "##隆": 5405,
      "##盛": 5406,
      "##吉": 5407,
      "##諱": 5408,
      "##之": 5409,
      "##才": 5410,
      "##封": 5411,
      "##箱": 5412,
      "##眼": 5413,
      "##欄": 5414,
      "##宗": 5415,
      "##夕": 5416,
      "##焼": 5417,
      "##揺": 5418,
      "##F": 5419,
      "##副": 5420,
      "##班": 5421,
      "##警": 5422,
      "##戒": 5423,
      "##筋": 5424,
      "##涯": 5425,
      "##貸": 5426,
      "##司": 5427,
      "##炎": 5428,
      "##尿": 5429,
      "##娘": 5430,
      "##剤": 5431,
      "##阻": 5432,
      "##句": 5433,
      "##析": 5434,
      "##著": 5435,
      "##呈": 5436,
      "##喉": 5437,
      "##紐": 5438,
      "##各": 5439,
      "##仏": 5440,
      "##泉": 5441,
      "##脳": 5442,
      "##落": 5443,
      "##毀": 5444,
      "##損": 5445,
      "##是": 5446,
      "##塾": 5447,
      "##庭": 5448,
      "##凄": 5449,
      "##佳": 5450,
      "##拭": 5451,
      "##蓉": 5452,
      "##債": 5453,
      "##堀": 5454,
      "##囮": 5455,
      "##菌": 5456,
      "##喫": 5457,
      "##茶": 5458,
      "##蛍": 5459,
      "##椅": 5460,
      "##斉": 5461,
      "##曜": 5462,
      "##ﾒ": 5463,
      "##ﾃ": 5464,
      "##ﾞ": 5465,
      "##ｨ": 5466,
      "##ｱ": 5467,
      "##懇": 5468,
      "##冥": 5469,
      "##祈": 5470,
      "##X": 5471,
      "##徴": 5472,
      "##貢": 5473,
      "##献": 5474,
      "##貧": 5475,
      "##怖": 5476,
      "##舟": 5477,
      "##接": 5478,
      "##穢": 5479,
      "##滸": 5480,
      "##評": 5481,
      "##詐": 5482,
      "##欺": 5483,
      "##該": 5484,
      "##井": 5485,
      "##庁": 5486,
      "##掻": 5487,
      "##暑": 5488,
      "##杉": 5489,
      "##磁": 5490,
      "##織": 5491,
      "##軟": 5492,
      "##甘": 5493,
      "##睡": 5494,
      "##濯": 5495,
      "##隙": 5496,
      "##覇": 5497,
      "##謳": 5498,
      "##捜": 5499,
      "##促": 5500,
      "##潔": 5501,
      "##p": 5502,
      "##塁": 5503,
      "##唐": 5504,
      "##審": 5505,
      "##秀": 5506,
      "##奉": 5507,
      "##挨": 5508,
      "##拶": 5509,
      "##触": 5510,
      "##勇": 5511,
      "##粧": 5512,
      "##ｃ": 5513,
      "##祝": 5514,
      "##唱": 5515,
      "##霞": 5516,
      "##雪": 5517,
      "##猿": 5518,
      "##叫": 5519,
      "##蟹": 5520,
      "##貫": 5521,
      "##粒": 5522,
      "##尊": 5523,
      "##躍": 5524,
      "##偽": 5525,
      "##仰": 5526,
      "##徹": 5527,
      "##久": 5528,
      "##壊": 5529,
      "##旗": 5530,
      "##煽": 5531,
      "##ぇ": 5532,
      "##拠": 5533,
      "##排": 5534,
      "##魂": 5535,
      "##洩": 5536,
      "##孤": 5537,
      "##射": 5538,
      "##扉": 5539,
      "##叩": 5540,
      "##宙": 5541,
      "##膚": 5542,
      "##佐": 5543,
      "##殺": 5544,
      "##粋": 5545,
      "##就": 5546,
      "##宇": 5547,
      "##奇": 5548,
      "##跡": 5549,
      "##儚": 5550,
      "##符": 5551,
      "##益": 5552,
      "##憎": 5553,
      "##負": 5554,
      "##紫": 5555,
      "##輔": 5556,
      "##退": 5557,
      "##盗": 5558,
      "##縦": 5559,
      "##陳": 5560,
      "##血": 5561,
      "##竜": 5562,
      "##°": 5563,
      "##娠": 5564,
      "##召": 5565,
      "##辺": 5566,
      "##九": 5567,
      "##律": 5568,
      "##申": 5569,
      "##貼": 5570,
      "##繁": 5571,
      "##呑": 5572,
      "##志": 5573,
      "##豆": 5574,
      "##抽": 5575,
      "##誌": 5576,
      "##午": 5577,
      "##弟": 5578,
      "##賑": 5579,
      "##累": 5580,
      "##顎": 5581,
      "##髭": 5582,
      "##滑": 5583,
      "##舌": 5584,
      "##据": 5585,
      "##＞": 5586,
      "##壌": 5587,
      "##Ｗ": 5588,
      "##ｅ": 5589,
      "##ｂ": 5590,
      "##拍": 5591,
      "##塩": 5592,
      "##煮": 5593,
      "##棲": 5594,
      "##q": 5595,
      "##ぃ": 5596,
      "##肩": 5597,
      "##婦": 5598,
      "##媒": 5599,
      "##励": 5600,
      "##印": 5601,
      "##刷": 5602,
      "##憤": 5603,
      "##懣": 5604,
      "##冊": 5605,
      "##灯": 5606,
      "##酬": 5607,
      "##曇": 5608,
      "##洒": 5609,
      "##☆": 5610,
      "##腫": 5611,
      "##礁": 5612,
      "##太": 5613,
      "##浦": 5614,
      "##箇": 5615,
      "##蓮": 5616,
      "##彦": 5617,
      "##鎌": 5618,
      "##駐": 5619,
      "##貴": 5620,
      "##敬": 5621,
      "##遠": 5622,
      "##嵌": 5623,
      "##庶": 5624,
      "##幻": 5625,
      "##懐": 5626,
      "##被": 5627,
      "##妄": 5628,
      "##宜": 5629,
      "##瀬": 5630,
      "##ふ": 5631,
      "##添": 5632,
      "##撼": 5633,
      "##令": 5634,
      "##官": 5635,
      "##鳴": 5636,
      "##伎": 5637,
      "##江": 5638,
      "##贈": 5639,
      "##炭": 5640,
      "##己": 5641,
      "##便": 5642,
      "##誓": 5643,
      "##魚": 5644,
      "##互": 5645,
      "##阿": 5646,
      "##池": 5647,
      "##貪": 5648,
      "##狼": 5649,
      "##籍": 5650,
      "##赴": 5651,
      "##喝": 5652,
      "##涙": 5653,
      "##ｋ": 5654,
      "##博": 5655,
      "##翻": 5656,
      "##骨": 5657,
      "##壺": 5658,
      "##咲": 5659,
      "##隻": 5660,
      "##票": 5661,
      "##挑": 5662,
      "##矧": 5663,
      "##嫁": 5664,
      "##皿": 5665,
      "##勤": 5666,
      "##蟄": 5667,
      "##栄": 5668,
      "##皮": 5669,
      "##脆": 5670,
      "##歪": 5671,
      "##賛": 5672,
      "##遣": 5673,
      "##聖": 5674,
      "##厄": 5675,
      "##訂": 5676,
      "##痕": 5677,
      "##傲": 5678,
      "##Ｎ": 5679,
      "##Ｓ": 5680,
      "##餃": 5681,
      "##→": 5682,
      "##彙": 5683,
      "##恨": 5684,
      "##陣": 5685,
      "##狐": 5686,
      "##謎": 5687,
      "##★": 5688,
      "##鹿": 5689,
      "##樽": 5690,
      "##州": 5691,
      "##杏": 5692,
      "##ぴ": 5693,
      "##裾": 5694,
      "##閑": 5695,
      "##蟷": 5696,
      "##螂": 5697,
      "##滴": 5698,
      "##雅": 5699,
      "##絢": 5700,
      "##爛": 5701,
      "##華": 5702,
      "##厚": 5703,
      "##酢": 5704,
      "##禁": 5705,
      "##乞": 5706,
      "##彩": 5707,
      "##漢": 5708,
      "##拳": 5709,
      "##邸": 5710,
      "##媛": 5711,
      "##暢": 5712,
      "##涅": 5713,
      "##槃": 5714,
      "##竟": 5715,
      "##Ｌ": 5716,
      "##Ｅ": 5717,
      "##疲": 5718,
      "##漂": 5719,
      "##ﾊ": 5720,
      "##ﾉ": 5721,
      "##ヽ": 5722,
      "##也": 5723,
      "##虎": 5724,
      "##苗": 5725,
      "##驚": 5726,
      "##朱": 5727,
      "##湊": 5728,
      "##秒": 5729,
      "##窮": 5730,
      "##屈": 5731,
      "##卑": 5732,
      "##顕": 5733,
      "##清": 5734,
      "##猷": 5735,
      "##厨": 5736,
      "##゚": 5737,
      "##闇": 5738,
      "##憂": 5739,
      "##免": 5740,
      "##即": 5741,
      "##矩": 5742,
      "##卜": 5743,
      "##當": 5744,
      "##匙": 5745,
      "##梅": 5746,
      "##敏": 5747,
      "##Z": 5748,
      "##鍛": 5749,
      "##層": 5750,
      "##隣": 5751,
      "##控": 5752,
      "##宴": 5753,
      "##遂": 5754,
      "##陥": 5755,
      "##措": 5756,
      "##渣": 5757,
      "##搾": 5758,
      "##輝": 5759,
      "##堂": 5760,
      "##洋": 5761,
      "##遍": 5762,
      "##瓦": 5763,
      "##斯": 5764,
      "##潰": 5765,
      "##築": 5766,
      "##霊": 5767,
      "##瘍": 5768,
      "##銀": 5769,
      "##諦": 5770,
      "##矢": 5771,
      "##絞": 5772,
      "##腕": 5773,
      "##頻": 5774,
      "##袖": 5775,
      "##瘻": 5776,
      "##Ａ": 5777,
      "##Ｐ": 5778,
      "##Ｙ": 5779,
      "##淡": 5780,
      "##蚕": 5781,
      "##俳": 5782,
      "##j": 5783,
      "##酷": 5784,
      "##巨": 5785,
      "##軒": 5786,
      "##妙": 5787,
      "##敷": 5788,
      "##礫": 5789,
      "##項": 5790,
      "##船": 5791,
      "##碁": 5792,
      "##嘘": 5793,
      "##遼": 5794,
      "##幡": 5795,
      "##賊": 5796,
      "##侵": 5797,
      "##匠": 5798,
      "##Ｍ": 5799,
      "##腰": 5800,
      "##詣": 5801,
      "##Ｏ": 5802,
      "##漁": 5803,
      "##礎": 5804,
      "##双": 5805,
      "##舎": 5806,
      "##歓": 5807,
      "##吐": 5808,
      "##裂": 5809,
      "##昆": 5810,
      "##虫": 5811,
      "##堵": 5812,
      "##W": 5813,
      "##稚": 5814,
      "##醒": 5815,
      "##Σ": 5816,
      "##草": 5817,
      "##餓": 5818,
      "##伯": 5819,
      "##祐": 5820,
      "##帽": 5821,
      "##卵": 5822,
      "##孵": 5823,
      "##栽": 5824,
      "##培": 5825,
      "##噴": 5826,
      "##衝": 5827,
      "##逐": 5828,
      "##沖": 5829,
      "##飯": 5830,
      "##茸": 5831,
      "##剱": 5832,
      "##岳": 5833,
      "##殊": 5834,
      "##押": 5835,
      "##醸": 5836,
      "##沙": 5837,
      "##汰": 5838,
      "##惨": 5839,
      "##姉": 5840,
      "##寺": 5841,
      "##背": 5842,
      "##怠": 5843,
      "##剛": 5844,
      "##梗": 5845,
      "##塞": 5846,
      "##枚": 5847,
      "##騎": 5848,
      "##袋": 5849,
      "##童": 5850,
      "##宝": 5851,
      "##紅": 5852,
      "##肺": 5853,
      "##桃": 5854,
      "##陵": 5855,
      "##稜": 5856,
      "##埼": 5857,
      "##暖": 5858,
      "##涼": 5859,
      "##晩": 5860,
      "##渓": 5861,
      "##沸": 5862,
      "##篩": 5863,
      "##薙": 5864,
      "##Ⅱ": 5865,
      "##ヲ": 5866,
      "##蔵": 5867,
      "##謂": 5868,
      "##▼": 5869,
      "##裕": 5870,
      "##啓": 5871,
      "##稽": 5872,
      "##董": 5873,
      "##籐": 5874,
      "##烙": 5875,
      "##姦": 5876,
      "##鬼": 5877,
      "##片": 5878,
      "##畑": 5879,
      "##諧": 5880,
      "##毅": 5881,
      "##吾": 5882,
      "##稙": 5883,
      "##︎": 5884,
      "##臆": 5885,
      "##賭": 5886,
      "##飴": 5887,
      "##詞": 5888,
      "##奪": 5889,
      "##脇": 5890,
      "##孝": 5891,
      "##允": 5892,
      "##馨": 5893,
      "##煙": 5894,
      "##嚇": 5895,
      "##喧": 5896,
      "##嘩": 5897,
      "##陰": 5898,
      "##剖": 5899,
      "##酩": 5900,
      "##酊": 5901,
      "##槍": 5902,
      "##妹": 5903,
      "##拒": 5904,
      "##−": 5905,
      "##腐": 5906,
      "##溜": 5907,
      "##辟": 5908,
      "##複": 5909,
      "##殿": 5910,
      "##": 5911,
      "##赦": 5912,
      "##慰": 5913,
      "##痢": 5914,
      "##嘔": 5915,
      "##六": 5916,
      "##悸": 5917,
      "##蒸": 5918,
      "##併": 5919,
      "##惜": 5920,
      "##鳥": 5921,
      "##唯": 5922,
      "##體": 5923,
      "##辱": 5924,
      "##Ｃ": 5925,
      "##Ｆ": 5926,
      "##閘": 5927,
      "##蒟": 5928,
      "##蒻": 5929,
      "##ｒ": 5930,
      "##ｎ": 5931,
      "##筆": 5932,
      "##膝": 5933,
      "##恒": 5934,
      "##冒": 5935,
      "##瘤": 5936,
      "##芽": 5937,
      "##籠": 5938,
      "##窒": 5939,
      "##崩": 5940,
      "##擦": 5941,
      "##榛": 5942,
      "##砲": 5943,
      "##湯": 5944,
      "##燭": 5945,
      "##ｇ": 5946,
      "##暫": 5947,
      "##飽": 5948,
      "##忍": 5949,
      "##陀": 5950,
      "##傍": 5951,
      "##鵜": 5952,
      "##唄": 5953,
      "##Ω": 5954,
      "##煕": 5955,
      "##鋭": 5956,
      "##抑": 5957,
      "##隔": 5958,
      "##緩": 5959,
      "##餡": 5960,
      "##蹴": 5961,
      "##党": 5962,
      "##忌": 5963,
      "##倉": 5964,
      "##瑞": 5965,
      "##Ｕ": 5966,
      "##軸": 5967,
      "##詩": 5968,
      "##瀞": 5969,
      "##祥": 5970,
      "##執": 5971,
      "##淳": 5972,
      "##彫": 5973,
      "##笠": 5974,
      "##悦": 5975,
      "##汁": 5976,
      "##群": 5977,
      "##宰": 5978,
      "##刀": 5979,
      "##履": 5980,
      "##揶": 5981,
      "##揄": 5982,
      "##縄": 5983,
      "##糖": 5984,
      "##叡": 5985,
      "##遽": 5986,
      "##狩": 5987,
      "##猟": 5988,
      "##茎": 5989,
      "##妊": 5990,
      "##徐": 5991,
      "##桂": 5992,
      "##纒": 5993,
      "##距": 5994,
      "##☺": 5995,
      "##️": 5996,
      "##樋": 5997,
      "##漲": 5998,
      "##尚": 5999,
      "##炒": 6000,
      "##袴": 6001,
      "##聊": 6002,
      "##炬": 6003,
      "##燵": 6004,
      "##岱": 6005,
      "##狂": 6006,
      "##壮": 6007,
      "##甚": 6008,
      "##枝": 6009,
      "##垂": 6010,
      "##戚": 6011,
      "##靄": 6012,
      "##踊": 6013,
      "##詔": 6014,
      "##薦": 6015,
      "##剰": 6016,
      "##噂": 6017,
      "##老": 6018,
      "##蛋": 6019,
      "##綾": 6020,
      "##澪": 6021,
      "##埋": 6022,
      "##章": 6023,
      "##闊": 6024,
      "##諾": 6025,
      "##匹": 6026,
      "##伴": 6027,
      "##鞘": 6028,
      "##嗅": 6029,
      "##貞": 6030,
      "##伽": 6031,
      "##藍": 6032,
      "##卸": 6033,
      "##爆": 6034,
      "##兼": 6035,
      "##凍": 6036,
      "##愚": 6037,
      "##痴": 6038,
      "##｜": 6039,
      "##柳": 6040,
      "##讐": 6041,
      "##慌": 6042,
      "##凝": 6043,
      "##框": 6044,
      "##冬": 6045,
      "##蓋": 6046,
      "##脈": 6047,
      "##＝": 6048,
      "##猜": 6049,
      "##巣": 6050,
      "##窟": 6051,
      "##塔": 6052,
      "##浩": 6053,
      "##銭": 6054,
      "##溢": 6055,
      "##糺": 6056,
      "##殴": 6057,
      "##只": 6058,
      "##斐": 6059,
      "##駿": 6060,
      "##渦": 6061,
      "##聾": 6062,
      "##吠": 6063,
      "##楓": 6064,
      "##侍": 6065,
      "##廷": 6066,
      "##蛇": 6067,
      "##潤": 6068,
      "##挫": 6069,
      "##璋": 6070,
      "##僑": 6071,
      "##后": 6072,
      "##甲": 6073,
      "##旧": 6074,
      "##蔭": 6075,
      "##肥": 6076,
      "##憧": 6077,
      "##轄": 6078,
      "##李": 6079,
      "##竹": 6080,
      "##罔": 6081,
      "##媚": 6082,
      "##＜": 6083,
      "##銃": 6084,
      "##荒": 6085,
      "##泳": 6086,
      "##Ｄ": 6087,
      "##棚": 6088,
      "##焉": 6089,
      "##桐": 6090,
      "##煎": 6091,
      "##Ｖ": 6092,
      "##獣": 6093,
      "##幾": 6094,
      "##丑": 6095,
      "##傘": 6096,
      "##豚": 6097,
      "##澄": 6098,
      "##尻": 6099,
      "##叱": 6100,
      "##咤": 6101,
      "##咎": 6102,
      "##盟": 6103,
      "##湧": 6104,
      "##恢": 6105,
      "##↓": 6106,
      "##牽": 6107,
      "##侯": 6108,
      "##跋": 6109,
      "##扈": 6110,
      "##拓": 6111,
      "##哉": 6112,
      "##罰": 6113,
      "##糾": 6114,
      "##呟": 6115,
      "##庇": 6116,
      "##閤": 6117,
      "##旺": 6118,
      "##霖": 6119,
      "##瞑": 6120,
      "##恬": 6121,
      "##雇": 6122,
      "##畿": 6123,
      "##磋": 6124,
      "##琢": 6125,
      "##鍼": 6126,
      "##灸": 6127,
      "##逢": 6128,
      "##慶": 6129,
      "##曰": 6130,
      "##荘": 6131,
      "##筈": 6132,
      "##嵯": 6133,
      "##峨": 6134,
      "##砂": 6135,
      "##㎡": 6136,
      "##邊": 6137,
      "##吟": 6138,
      "##翌": 6139,
      "##鞄": 6140,
      "##癒": 6141,
      "##帖": 6142,
      "##銘": 6143,
      "##掠": 6144,
      "##湘": 6145,
      "##焙": 6146,
      "##珈": 6147,
      "##琲": 6148,
      "##＄": 6149,
      "##槙": 6150,
      "##妥": 6151,
      "##逝": 6152,
      "##做": 6153,
      "##柵": 6154,
      "##穀": 6155,
      "##枕": 6156,
      "##吽": 6157,
      "##瓶": 6158,
      "##浚": 6159,
      "##渫": 6160,
      "##妨": 6161,
      "##擬": 6162,
      "##斜": 6163,
      "##寂": 6164,
      "##鬱": 6165,
      "##滝": 6166,
      "##誕": 6167,
      "##誹": 6168,
      "##碍": 6169,
      "##碑": 6170,
      "##殻": 6171,
      "##逸": 6172,
      "##謐": 6173,
      "##奈": 6174,
      "##枡": 6175,
      "##禅": 6176,
      "##橘": 6177,
      "##娩": 6178,
      "##祀": 6179,
      "##唇": 6180,
      "##😭": 6181,
      "##衰": 6182,
      "##椒": 6183,
      "##胸": 6184,
      "##附": 6185,
      "##頓": 6186,
      "##亮": 6187,
      "##憐": 6188,
      "##刈": 6189,
      "##唾": 6190,
      "##錮": 6191,
      "##懲": 6192,
      "##盆": 6193,
      "##架": 6194,
      "##往": 6195,
      "##鈍": 6196,
      "##翔": 6197,
      "##☀": 6198,
      "##蜂": 6199,
      "##粘": 6200,
      "##慈": 6201,
      "##昂": 6202,
      "##眩": 6203,
      "##杞": 6204,
      "##銅": 6205,
      "##迅": 6206,
      "##滋": 6207,
      "##机": 6208,
      "##蛤": 6209,
      "##寛": 6210,
      "##蛮": 6211,
      "##笹": 6212,
      "##箪": 6213,
      "##笥": 6214,
      "##朴": 6215,
      "##蔓": 6216,
      "##菱": 6217,
      "##霧": 6218,
      "##莫": 6219,
      "##瑕": 6220,
      "##疵": 6221,
      "##罠": 6222,
      "##奮": 6223,
      "##紳": 6224,
      "##禄": 6225,
      "##捐": 6226,
      "##疎": 6227,
      "##寨": 6228,
      "##溝": 6229,
      "##湖": 6230,
      "##朦": 6231,
      "##朧": 6232,
      "##悠": 6233,
      "##挿": 6234,
      "##蛙": 6235,
      "##罵": 6236,
      "##詈": 6237,
      "##侮": 6238,
      "##愉": 6239,
      "##廊": 6240,
      "##爽": 6241,
      "##栖": 6242,
      "##墨": 6243,
      "##鱗": 6244,
      "##🌸": 6245,
      "##迦": 6246,
      "##洛": 6247,
      "##刃": 6248,
      "##💦": 6249,
      "##瑠": 6250,
      "##璃": 6251,
      "##閥": 6252,
      "##❤": 6253,
      "##灼": 6254,
      "##嶺": 6255,
      "##妻": 6256,
      "##潮": 6257,
      "##充": 6258,
      "##瞳": 6259,
      "##俗": 6260,
      "##柩": 6261,
      "##牧": 6262,
      "##唆": 6263,
      "##麺": 6264,
      "##炊": 6265,
      "##諏": 6266,
      "##菅": 6267,
      "##恥": 6268,
      "##纂": 6269,
      "##粛": 6270,
      "##爪": 6271,
      "##麻": 6272,
      "##嫉": 6273,
      "##妬": 6274,
      "##釜": 6275,
      "##綿": 6276,
      "##攪": 6277,
      "##拌": 6278,
      "##泄": 6279,
      "##軋": 6280,
      "##芯": 6281,
      "##埃": 6282,
      "##轢": 6283,
      "##捻": 6284,
      "##瀧": 6285,
      "##ｉ": 6286,
      "##箭": 6287,
      "##亘": 6288,
      "##尼": 6289,
      "##ｌ": 6290,
      "##抄": 6291,
      "##渕": 6292,
      "##秦": 6293,
      "##遮": 6294,
      "##漱": 6295,
      "##伏": 6296,
      "##慨": 6297,
      "##葺": 6298,
      "##漬": 6299,
      "##巷": 6300,
      "##崔": 6301,
      "##巴": 6302,
      "##錯": 6303,
      "##灰": 6304,
      "##仁": 6305,
      "##詫": 6306,
      "##彌": 6307,
      "##截": 6308,
      "##℃": 6309,
      "##嗣": 6310,
      "##囚": 6311,
      "##✨": 6312,
      "##坤": 6313,
      "##擲": 6314,
      "##萌": 6315,
      "##僧": 6316,
      "##七": 6317,
      "##拘": 6318,
      "##謬": 6319,
      "##奢": 6320,
      "##×": 6321,
      "##硯": 6322,
      "##瞭": 6323,
      "##泌": 6324,
      "##螺": 6325,
      "##旋": 6326,
      "##卓": 6327,
      "##虔": 6328,
      "##秤": 6329,
      "##嶌": 6330,
      "##捏": 6331,
      "##讃": 6332,
      "##趨": 6333,
      "##僅": 6334,
      "##乖": 6335,
      "##鎮": 6336,
      "##鑚": 6337,
      "##鴨": 6338,
      "##偉": 6339,
      "##悧": 6340,
      "##宸": 6341,
      "##哀": 6342,
      "##匈": 6343,
      "##酌": 6344,
      "##羅": 6345,
      "##訃": 6346,
      "##嶋": 6347,
      "##錠": 6348,
      "##囁": 6349,
      "##ぉ": 6350,
      "##ｔ": 6351,
      "##騰": 6352,
      "##慕": 6353,
      "##朗": 6354,
      "##胆": 6355,
      "##痺": 6356,
      "##洲": 6357,
      "##樺": 6358,
      "##柱": 6359,
      "##鈴": 6360,
      "##桑": 6361,
      "##壇": 6362,
      "##泰": 6363,
      "##雷": 6364,
      "##靫": 6365,
      "##雛": 6366,
      "##享": 6367,
      "##捩": 6368,
      "##曾": 6369,
      "##邇": 6370,
      "##⼀": 6371,
      "##鶉": 6372,
      "##棍": 6373,
      "##跳": 6374,
      "##播": 6375,
      "##撒": 6376,
      "##鎚": 6377,
      "##杼": 6378,
      "##堆": 6379,
      "##涎": 6380,
      "##錨": 6381,
      "##屏": 6382,
      "##鍮": 6383,
      "##粕": 6384,
      "##峡": 6385,
      "##斑": 6386,
      "##徘": 6387,
      "##徊": 6388,
      "##籃": 6389,
      "##熊": 6390,
      "##戊": 6391,
      "##辰": 6392,
      "##勃": 6393,
      "##喪": 6394,
      "##ཀ": 6395,
      "##軌": 6396,
      "##塵": 6397,
      "##魏": 6398,
      "##倭": 6399,
      "##窃": 6400,
      "##匿": 6401,
      "##畠": 6402,
      "##丹": 6403,
      "##艤": 6404,
      "##鍋": 6405,
      "##綱": 6406,
      "##疱": 6407,
      "##疹": 6408,
      "##哺": 6409,
      "##篭": 6410,
      "##漕": 6411,
      "##賄": 6412,
      "##斤": 6413,
      "##眈": 6414,
      "##竿": 6415,
      "##櫛": 6416,
      "##勁": 6417,
      "##​": 6418,
      "##摺": 6419,
      "##煩": 6420,
      "##阜": 6421,
      "##ﾟ": 6422,
      "##▽": 6423,
      "##扶": 6424,
      "##馳": 6425,
      "##瓜": 6426,
      "##■": 6427,
      "##疣": 6428,
      "##蒙": 6429,
      "##痒": 6430,
      "##撲": 6431,
      "##穹": 6432,
      "##啜": 6433,
      "##妾": 6434,
      "##菩": 6435,
      "##拉": 6436,
      "##轡": 6437,
      "##坦": 6438,
      "##捷": 6439,
      "##蕎": 6440,
      "##憑": 6441,
      "##鷺": 6442,
      "##謙": 6443,
      "##濠": 6444,
      "##妃": 6445,
      "##杜": 6446,
      "##攀": 6447,
      "##侠": 6448,
      "##虹": 6449,
      "##←": 6450,
      "##砕": 6451,
      "##筒": 6452,
      "##勾": 6453,
      "##肋": 6454,
      "##呪": 6455,
      "##齎": 6456,
      "##拾": 6457,
      "##亭": 6458,
      "##畝": 6459,
      "##剥": 6460,
      "##昌": 6461,
      "##泡": 6462,
      "##竣": 6463,
      "##搦": 6464,
      "##Ｒ": 6465,
      "##獄": 6466,
      "##智": 6467,
      "##芝": 6468,
      "##鱈": 6469,
      "##ｆ": 6470,
      "##頴": 6471,
      "##萎": 6472,
      "##Ⅶ": 6473,
      "##梨": 6474,
      "##嬌": 6475,
      "##曹": 6476,
      "##愕": 6477,
      "##♡": 6478,
      "##穿": 6479,
      "##尖": 6480,
      "##耶": 6481,
      "##鉱": 6482,
      "##奚": 6483,
      "##詮": 6484,
      "##蔡": 6485,
      "##躯": 6486,
      "##愁": 6487,
      "##鼓": 6488,
      "##郊": 6489,
      "##艸": 6490,
      "##｀": 6491,
      "##澤": 6492,
      "##郁": 6493,
      "##誼": 6494,
      "##鉤": 6495,
      "##寓": 6496,
      "##錘": 6497,
      "##杖": 6498,
      "##甥": 6499,
      "##叉": 6500,
      "##填": 6501,
      "##餅": 6502,
      "##呆": 6503,
      "##畏": 6504,
      "##帆": 6505,
      "##惚": 6506,
      "##霜": 6507,
      "##噛": 6508,
      "##礬": 6509,
      "##塊": 6510,
      "##Ｘ": 6511,
      "##寮": 6512,
      "##毘": 6513,
      "##帥": 6514,
      "##宛": 6515,
      "##凛": 6516,
      "##茂": 6517,
      "##◯": 6518,
      "##彡": 6519,
      "##撤": 6520,
      "##鼎": 6521,
      "##掌": 6522,
      "##侶": 6523,
      "##訝": 6524,
      "##翼": 6525,
      "##鯰": 6526,
      "##侘": 6527,
      "##薯": 6528,
      "##胡": 6529,
      "##某": 6530,
      "##桟": 6531,
      "##彷": 6532,
      "##彿": 6533,
      "##瀾": 6534,
      "##纏": 6535,
      "##ａ": 6536,
      "##庵": 6537,
      "##羞": 6538,
      "##撰": 6539,
      "##篁": 6540,
      "##凌": 6541,
      "##駕": 6542,
      "##類": 6543,
      "##隈": 6544,
      "##蹊": 6545,
      "##楼": 6546,
      "##剃": 6547,
      "##乏": 6548,
      "##與": 6549,
      "##婿": 6550,
      "##鷲": 6551,
      "##袍": 6552,
      "##魁": 6553,
      "##夷": 6554,
      "##Ｑ": 6555,
      "##股": 6556,
      "##藉": 6557,
      "##贖": 6558,
      "##宥": 6559,
      "##槌": 6560,
      "##宏": 6561,
      "##頷": 6562,
      "##盲": 6563,
      "##灘": 6564,
      "##穫": 6565,
      "##ﾄ": 6566,
      "##ﾝ": 6567,
      "##鸞": 6568,
      "##稲": 6569,
      "##茹": 6570,
      "##氾": 6571,
      "##濫": 6572,
      "##廻": 6573,
      "##茜": 6574,
      "##膜": 6575,
      "##＋": 6576,
      "##坪": 6577,
      "##嬰": 6578,
      "##斥": 6579,
      "##弄": 6580,
      "##ﾌ": 6581,
      "##奘": 6582,
      "##①": 6583,
      "##乙": 6584,
      "##駁": 6585,
      "##昧": 6586,
      "##∀": 6587,
      "##Ⅹ": 6588,
      "##ｶ": 6589,
      "##ｰ": 6590,
      "##錦": 6591,
      "##鯉": 6592,
      "##髷": 6593,
      "##惰": 6594,
      "##碓": 6595,
      "##憬": 6596,
      "##墟": 6597,
      "##憮": 6598,
      "##瓢": 6599,
      "##斗": 6600,
      "##─": 6601,
      "##鐸": 6602,
      "##爬": 6603,
      "##顰": 6604,
      "##蹙": 6605,
      "##絨": 6606,
      "##汗": 6607,
      "##頗": 6608,
      "##嵐": 6609,
      "##勅": 6610,
      "##囃": 6611,
      "##賂": 6612,
      "##凪": 6613,
      "##梢": 6614,
      "##柏": 6615,
      "##栂": 6616,
      "##弓": 6617,
      "##晒": 6618,
      "##嘴": 6619,
      "##玩": 6620,
      "##胱": 6621,
      "##謡": 6622,
      "##嘗": 6623,
      "##紗": 6624,
      "##蒼": 6625,
      "##墜": 6626,
      "##蘊": 6627,
      "##冗": 6628,
      "##娯": 6629,
      "##汲": 6630,
      "##鋲": 6631,
      "##侭": 6632,
      "##摯": 6633,
      "##腑": 6634,
      "##縫": 6635,
      "##俊": 6636,
      "##牒": 6637,
      "##凶": 6638,
      "##敢": 6639,
      "##瞠": 6640,
      "##埴": 6641,
      "##呻": 6642,
      "##●": 6643,
      "##辻": 6644,
      "##閻": 6645,
      "##呉": 6646,
      "##鳳": 6647,
      "##凰": 6648,
      "##砦": 6649,
      "##翦": 6650,
      "##瘢": 6651,
      "##藝": 6652,
      "##堰": 6653,
      "##淵": 6654,
      "##羨": 6655,
      "##�": 6656,
      "##俸": 6657,
      "##拗": 6658,
      "##糊": 6659,
      "##藻": 6660,
      "##嵩": 6661,
      "##耕": 6662,
      "##喘": 6663,
      "##掬": 6664,
      "##陶": 6665,
      "##鋼": 6666,
      "##鎭": 6667,
      "##蹲": 6668,
      "##踞": 6669,
      "##戯": 6670,
      "##詠": 6671,
      "##劫": 6672,
      "##克": 6673,
      "##柴": 6674,
      "##鶴": 6675,
      "##⇔": 6676,
      "##斎": 6677,
      "##繹": 6678,
      "##舅": 6679,
      "##佼": 6680,
      "##捲": 6681,
      "##註": 6682,
      "##叙": 6683,
      "##肘": 6684,
      "##踵": 6685,
      "##滲": 6686,
      "##麓": 6687,
      "##ｈ": 6688,
      "##慧": 6689,
      "##窄": 6690,
      "##跛": 6691,
      "##葛": 6692,
      "##孔": 6693,
      "##曖": 6694,
      "##衡": 6695,
      "##辜": 6696,
      "##蹂": 6697,
      "##躙": 6698,
      "##盧": 6699,
      "##鉉": 6700,
      "##紋": 6701,
      "##捧": 6702,
      "##征": 6703,
      "##筐": 6704,
      "##抒": 6705,
      "##桁": 6706,
      "##懃": 6707,
      "##栃": 6708,
      "##采": 6709,
      "##ぅ": 6710,
      "##姻": 6711,
      "##菰": 6712,
      "##筑": 6713,
      "##曼": 6714,
      "##衢": 6715,
      "##叛": 6716,
      "##茨": 6717,
      "##丼": 6718,
      "##淘": 6719,
      "##廉": 6720,
      "##俯": 6721,
      "##瞰": 6722,
      "##薫": 6723,
      "##萼": 6724,
      "##隘": 6725,
      "##≦": 6726,
      "##脊": 6727,
      "##髄": 6728,
      "##艘": 6729,
      "##楔": 6730,
      "##ｿ": 6731,
      "##桝": 6732,
      "##貶": 6733,
      "##串": 6734,
      "##⇒": 6735,
      "##楊": 6736,
      "##祓": 6737,
      "##尺": 6738,
      "##邁": 6739,
      "##骸": 6740,
      "##戟": 6741,
      "##椎": 6742,
      "##褌": 6743,
      "##帛": 6744,
      "##冠": 6745,
      "##躰": 6746,
      "##凡": 6747,
      "##彰": 6748,
      "##誅": 6749,
      "##伐": 6750,
      "##´": 6751,
      "##攘": 6752,
      "##芋": 6753,
      "##擁": 6754,
      "##零": 6755,
      "##遜": 6756,
      "##〇": 6757,
      "##愴": 6758,
      "##檄": 6759,
      "##糞": 6760,
      "##雀": 6761,
      "##洞": 6762,
      "##蝋": 6763,
      "##贋": 6764,
      "##縋": 6765,
      "##乍": 6766,
      "##㎞": 6767,
      "##縷": 6768,
      "##汎": 6769,
      "##兌": 6770,
      "##嵜": 6771,
      "##崖": 6772,
      "##蚊": 6773,
      "##罹": 6774,
      "##坑": 6775,
      "##蕪": 6776,
      "##墾": 6777,
      "##樓": 6778,
      "##旭": 6779,
      "##踪": 6780,
      "##髙": 6781,
      "##收": 6782,
      "##淹": 6783,
      "##樫": 6784,
      "##虜": 6785,
      "##洪": 6786,
      "##隅": 6787,
      "##屑": 6788,
      "##嬢": 6789,
      "##仄": 6790,
      "##菊": 6791,
      "##惣": 6792,
      "##蟇": 6793,
      "##峙": 6794,
      "##鞠": 6795,
      "##肖": 6796,
      "##薨": 6797,
      "##鉢": 6798,
      "##箍": 6799,
      "##笛": 6800,
      "##楠": 6801,
      "##Ψ": 6802,
      "##勲": 6803,
      "##鷹": 6804,
      "##↑": 6805,
      "##恕": 6806,
      "##疋": 6807,
      "##聳": 6808,
      "##簒": 6809,
      "##脹": 6810,
      "##攫": 6811,
      "##邂": 6812,
      "##逅": 6813,
      "##弐": 6814,
      "##贔": 6815,
      "##屓": 6816,
      "##②": 6817,
      "##煥": 6818,
      "##喚": 6819,
      "##鐘": 6820,
      "##馗": 6821,
      "##俑": 6822,
      "##ｹ": 6823,
      "##ｻ": 6824,
      "##攣": 6825,
      "##廠": 6826,
      "##琴": 6827,
      "##¥": 6828,
      "##妓": 6829,
      "##悉": 6830,
      "##蒲": 6831,
      "##薪": 6832,
      "##蹶": 6833,
      "##喰": 6834,
      "##綴": 6835,
      "##稀": 6836,
      "##嘯": 6837,
      "##嚥": 6838,
      "##痍": 6839,
      "##欽": 6840,
      "##爵": 6841,
      "##胎": 6842,
      "##吏": 6843,
      "##烏": 6844,
      "##橙": 6845,
      "##茅": 6846,
      "##😉": 6847,
      "##篆": 6848,
      "##惇": 6849,
      "##晶": 6850,
      "##燦": 6851,
      "##朽": 6852,
      "##臀": 6853,
      "##醜": 6854,
      "##鞭": 6855,
      "##ﾖ": 6856,
      "##ﾛ": 6857,
      "##巫": 6858,
      "##裸": 6859,
      "##峯": 6860,
      "##蓼": 6861,
      "##盪": 6862,
      "##漆": 6863,
      "##暁": 6864,
      "##錆": 6865,
      "##篤": 6866,
      "##奔": 6867,
      "##些": 6868,
      "##羂": 6869,
      "##巳": 6870,
      "##蘭": 6871,
      "##鍬": 6872,
      "##簿": 6873,
      "##肇": 6874,
      "##腎": 6875,
      "##款": 6876,
      "##叔": 6877,
      "##曝": 6878,
      "##嘆": 6879,
      "##凹": 6880,
      "##蟠": 6881,
      "##訊": 6882,
      "##恫": 6883,
      "##竄": 6884,
      "##拵": 6885,
      "##膳": 6886,
      "##弛": 6887,
      "##杵": 6888,
      "##臼": 6889,
      "##厭": 6890,
      "##矯": 6891,
      "##芻": 6892,
      "##楕": 6893,
      "##狛": 6894,
      "##芳": 6895,
      "##醇": 6896,
      "##暈": 6897,
      "##壷": 6898,
      "##袈": 6899,
      "##裟": 6900,
      "##垢": 6901,
      "##萱": 6902,
      "##柘": 6903,
      "##萩": 6904,
      "##姪": 6905,
      "##滓": 6906,
      "##遙": 6907,
      "##憺": 6908,
      "##閃": 6909,
      "##雕": 6910,
      "##硫": 6911,
      "##祚": 6912,
      "##蛹": 6913,
      "##窩": 6914,
      "##憔": 6915,
      "##悴": 6916,
      "##崋": 6917,
      "##俵": 6918,
      "##諤": 6919,
      "##蒡": 6920,
      "##檀": 6921,
      "##炙": 6922,
      "##襦": 6923,
      "##袢": 6924,
      "##齧": 6925,
      "##斂": 6926,
      "##篠": 6927,
      "##嗜": 6928,
      "##ｼ": 6929,
      "##ﾗ": 6930,
      "##ｲ": 6931,
      "##ｸ": 6932,
      "##杢": 6933,
      "##恣": 6934,
      "##俣": 6935,
      "##鹸": 6936,
      "##楚": 6937,
      "##儒": 6938,
      "##怜": 6939,
      "##緻": 6940,
      "##珂": 6941,
      "##嚢": 6942,
      "##帷": 6943,
      "##ｺ": 6944,
      "##ﾘ": 6945,
      "##恍": 6946,
      "##芦": 6947,
      "##鈑": 6948,
      "##籾": 6949,
      "##粽": 6950,
      "##迄": 6951,
      "##笈": 6952,
      "##蕩": 6953,
      "##蜀": 6954,
      "##黍": 6955,
      "##濁": 6956,
      "##佇": 6957,
      "##媽": 6958,
      "##✧": 6959,
      "##猥": 6960,
      "##褻": 6961,
      "##什": 6962,
      "##蒋": 6963,
      "##ｯ": 6964,
      "##渝": 6965,
      "##◎": 6966,
      "##蕉": 6967,
      "##圃": 6968,
      "##喋": 6969,
      "##鍔": 6970,
      "##岑": 6971,
      "##💤": 6972,
      "##牙": 6973,
      "##扁": 6974,
      "##迭": 6975,
      "##堺": 6976,
      "##劃": 6977,
      "##詭": 6978,
      "##蛭": 6979,
      "##栢": 6980,
      "##ﾚ": 6981,
      "##О": 6982,
      "##迢": 6983,
      "##篇": 6984,
      "##邉": 6985,
      "##酎": 6986,
      "##γ": 6987,
      "##准": 6988,
      "##頒": 6989,
      "##魎": 6990,
      "##匣": 6991,
      "##屁": 6992,
      "##套": 6993,
      "##蝶": 6994,
      "##膀": 6995,
      "##③": 6996,
      "##艇": 6997,
      "##ｙ": 6998,
      "##碌": 6999,
      "##寵": 7000,
      "##厘": 7001,
      "##祠": 7002,
      "##蒐": 7003,
      "##疇": 7004,
      "##穽": 7005,
      "##楡": 7006,
      "##斡": 7007,
      "##槿": 7008,
      "##貌": 7009,
      "##喩": 7010,
      "##謄": 7011,
      "##巧": 7012,
      "##д": 7013,
      "##筍": 7014,
      "##煉": 7015,
      "##弩": 7016,
      "##橿": 7017,
      "##宋": 7018,
      "##蜜": 7019,
      "##琵": 7020,
      "##琶": 7021,
      "##絣": 7022,
      "##饉": 7023,
      "##廣": 7024,
      "##拿": 7025,
      "##屹": 7026,
      "##禮": 7027,
      "##梁": 7028,
      "##疽": 7029,
      "##Ｚ": 7030,
      "##蜃": 7031,
      "##ヱ": 7032,
      "##唸": 7033,
      "##誄": 7034,
      "##冲": 7035,
      "##仔": 7036,
      "##遁": 7037,
      "##膾": 7038,
      "##堯": 7039,
      "##ゐ": 7040,
      "##竈": 7041,
      "##沃": 7042,
      "##猩": 7043,
      "##鬨": 7044,
      "##挽": 7045,
      "##銛": 7046,
      "##﻿": 7047,
      "##": 7048,
      "##齊": 7049,
      "##冴": 7050,
      "##蔀": 7051,
      "##悶": 7052,
      "##縞": 7053,
      "##ō": 7054,
      "##廬": 7055,
      "##卍": 7056,
      "##莞": 7057,
      "##晰": 7058,
      "##鑼": 7059,
      "##猪": 7060,
      "##灌": 7061,
      "##燕": 7062,
      "##沁": 7063,
      "##⻑": 7064,
      "##頸": 7065,
      "##±": 7066,
      "##琳": 7067,
      "##眞": 7068,
      "##眷": 7069,
      "##磯": 7070,
      "##箒": 7071,
      "##郭": 7072,
      "##閨": 7073,
      "##喀": 7074,
      "##痰": 7075,
      "##吻": 7076,
      "##穣": 7077,
      "##櫓": 7078,
      "##屠": 7079,
      "##汀": 7080,
      "##圭": 7081,
      "##斧": 7082,
      "##閂": 7083,
      "##熙": 7084,
      "##⾵": 7085,
      "##⾏": 7086,
      "##檸": 7087,
      "##檬": 7088,
      "##沽": 7089,
      "##譚": 7090,
      "##巾": 7091,
      "##游": 7092,
      "##线": 7093,
      "##堤": 7094,
      "##祇": 7095,
      "##盂": 7096,
      "##權": 7097,
      "##釘": 7098,
      "##飄": 7099,
      "##棺": 7100,
      "##栓": 7101,
      "##礦": 7102,
      "##μ": 7103,
      "##塑": 7104,
      "##躾": 7105,
      "##饗": 7106,
      "##衞": 7107,
      "##拙": 7108,
      "##屯": 7109,
      "##禎": 7110,
      "##ゎ": 7111,
      "##剋": 7112,
      "##窺": 7113,
      "##鴉": 7114,
      "##鞍": 7115,
      "##餞": 7116,
      "##亢": 7117,
      "##葭": 7118,
      "##吊": 7119,
      "##ｏ": 7120,
      "##檻": 7121,
      "##賓": 7122,
      "##咫": 7123,
      "##尤": 7124,
      "##拷": 7125,
      "##膏": 7126,
      "##蝕": 7127,
      "##鴻": 7128,
      "##臚": 7129,
      "##瑚": 7130,
      "##隼": 7131,
      "##♫": 7132,
      "##瑛": 7133,
      "##禍": 7134,
      "##ｓ": 7135,
      "##賤": 7136,
      "##礒": 7137,
      "##β": 7138,
      "##揆": 7139,
      "##謁": 7140,
      "##彬": 7141,
      "##祷": 7142,
      "##誂": 7143,
      "##霹": 7144,
      "##靂": 7145,
      "##尹": 7146,
      "##鏃": 7147,
      "##鍾": 7148,
      "##檜": 7149,
      "##扇": 7150,
      "##梶": 7151,
      "##睨": 7152,
      "##褪": 7153,
      "##漿": 7154,
      "##塘": 7155,
      "##僥": 7156,
      "##倖": 7157,
      "##椿": 7158,
      "##鯛": 7159,
      "##寇": 7160,
      "##舷": 7161,
      "##叭": 7162,
      "##緞": 7163,
      "##爺": 7164,
      "##婉": 7165,
      "##徨": 7166,
      "##鞆": 7167,
      "##漑": 7168,
      "##掩": 7169,
      "##壕": 7170,
      "##痘": 7171,
      "##饅": 7172,
      "##煤": 7173,
      "##窪": 7174,
      "##簗": 7175,
      "##🌙": 7176,
      "##牡": 7177,
      "##蠣": 7178,
      "##捺": 7179,
      "##😊": 7180,
      "##杓": 7181,
      "##嗚": 7182,
      "##咽": 7183,
      "##苛": 7184,
      "##嶽": 7185,
      "##繕": 7186,
      "##α": 7187,
      "##臺": 7188,
      "##椋": 7189,
      "##鳩": 7190,
      "##紡": 7191,
      "##慄": 7192,
      "##畔": 7193,
      "##睫": 7194,
      "##升": 7195,
      "##齋": 7196,
      "##汶": 7197,
      "##虞": 7198,
      "##膠": 7199,
      "##瑣": 7200,
      "##齟": 7201,
      "##齬": 7202,
      "##跪": 7203,
      "##晁": 7204,
      "##棋": 7205,
      "##堡": 7206,
      "##庸": 7207,
      "##顆": 7208,
      "##廓": 7209,
      "##奠": 7210,
      "##洽": 7211,
      "##這": 7212,
      "##衷": 7213,
      "##蒜": 7214,
      "##庄": 7215,
      "##蛾": 7216,
      "##攬": 7217,
      "##楫": 7218,
      "##￥": 7219,
      "##悍": 7220,
      "##畢": 7221,
      "##袱": 7222,
      "##傀": 7223,
      "##儡": 7224,
      "##敦": 7225,
      "##毬": 7226,
      "##ﾆ": 7227,
      "##澹": 7228,
      "##祗": 7229,
      "##薇": 7230,
      "##藪": 7231,
      "##錚": 7232,
      "##筝": 7233,
      "##弧": 7234,
      "##④": 7235,
      "##辣": 7236,
      "##冑": 7237,
      "##椚": 7238,
      "##啄": 7239,
      "##衒": 7240,
      "##甑": 7241,
      "##萃": 7242,
      "##栞": 7243,
      "##Д": 7244,
      "##姥": 7245,
      "##牟": 7246,
      "##眉": 7247,
      "##雉": 7248,
      "##爾": 7249,
      "##噺": 7250,
      "##溥": 7251,
      "##麹": 7252,
      "##艶": 7253,
      "##箋": 7254,
      "##擢": 7255,
      "##鍍": 7256,
      "##幽": 7257,
      "##哈": 7258,
      "##譬": 7259,
      "##△": 7260,
      "##韮": 7261,
      "##腿": 7262,
      "##韻": 7263,
      "##轍": 7264,
      "##唖": 7265,
      "##硝": 7266,
      "##應": 7267,
      "##涸": 7268,
      "##瘴": 7269,
      "##嶼": 7270,
      "##榴": 7271,
      "##證": 7272,
      "##掟": 7273,
      "##🍀": 7274,
      "##垓": 7275,
      "##蕨": 7276,
      "##窯": 7277,
      "##◇": 7278,
      "##欒": 7279,
      "##ω": 7280,
      "##怡": 7281,
      "##敲": 7282,
      "##鱒": 7283,
      "##靖": 7284,
      "##壬": 7285,
      "##鈕": 7286,
      "##憚": 7287,
      "##穆": 7288,
      "##僭": 7289,
      "##⑩": 7290,
      "##姜": 7291,
      "##乎": 7292,
      "##蛎": 7293,
      "##恰": 7294,
      "##罫": 7295,
      "##😌": 7296,
      "##櫃": 7297,
      "##梔": 7298,
      "##諡": 7299,
      "##茫": 7300,
      "##酪": 7301,
      "##婕": 7302,
      "##妤": 7303,
      "##儺": 7304,
      "##㈱": 7305,
      "##█": 7306,
      "##舵": 7307,
      "##嘲": 7308,
      "##駒": 7309,
      "##®": 7310,
      "##凉": 7311,
      "##￣": 7312,
      "##柑": 7313,
      "##偲": 7314,
      "##諺": 7315,
      "##劉": 7316,
      "##Θ": 7317,
      "##蛸": 7318,
      "##匡": 7319,
      "##逞": 7320,
      "##圀": 7321,
      "##噤": 7322,
      "##碩": 7323,
      "##恭": 7324,
      "##Ⅲ": 7325,
      "##綜": 7326,
      "##㎜": 7327,
      "##佑": 7328,
      "##舘": 7329,
      "##\u001b": 7330,
      "##總": 7331,
      "##曉": 7332,
      "##傭": 7333,
      "##箸": 7334,
      "##夭": 7335,
      "##篝": 7336,
      "##托": 7337,
      "##鯵": 7338,
      "##茗": 7339,
      "##啼": 7340,
      "##靭": 7341,
      "##牢": 7342,
      "##賦": 7343,
      "##訥": 7344,
      "##皓": 7345,
      "##哨": 7346,
      "##猾": 7347,
      "##悼": 7348,
      "##駈": 7349,
      "##沫": 7350,
      "##皺": 7351,
      "##矜": 7352,
      "##凸": 7353,
      "##\b": 7354,
      "##衿": 7355,
      "##痣": 7356,
      "##霍": 7357,
      "##ㅂ": 7358,
      "##實": 7359,
      "##嘱": 7360,
      "##惟": 7361,
      "##喬": 7362,
      "##ｩ": 7363,
      "##◡": 7364,
      "##̈": 7365,
      "##芭": 7366,
      "##™": 7367,
      "##但": 7368,
      "##ゝ": 7369,
      "##东": 7370,
      "##挪": 7371,
      "##✕": 7372,
      "##杮": 7373,
      "##揖": 7374,
      "##倦": 7375,
      "##摸": 7376,
      "##幀": 7377,
      "##迹": 7378,
      "##疼": 7379,
      "##曽": 7380,
      "##翁": 7381,
      "##蠢": 7382,
      "##巌": 7383,
      "##枢": 7384,
      "##咥": 7385,
      "##滉": 7386,
      "##㈮": 7387,
      "##垠": 7388,
      "##鋏": 7389,
      "##晦": 7390,
      "##籟": 7391,
      "##罷": 7392,
      "##傳": 7393,
      "##濱": 7394,
      "##褶": 7395,
      "##粥": 7396,
      "##晟": 7397,
      "##綽": 7398,
      "##餉": 7399,
      "##箔": 7400,
      "##彝": 7401,
      "##軀": 7402,
      "##苺": 7403,
      "##仇": 7404,
      "##獰": 7405,
      "##圳": 7406,
      "##俄": 7407,
      "##騨": 7408,
      "##瘡": 7409,
      "##繚": 7410,
      "##缺": 7411,
      "##籔": 7412,
      "##堕": 7413,
      "##桶": 7414,
      "##此": 7415,
      "##😰": 7416,
      "##ｘ": 7417,
      "##欣": 7418,
      "##殲": 7419,
      "##肆": 7420,
      "##偕": 7421,
      "##ヾ": 7422,
      "##舶": 7423,
      "##梯": 7424,
      "##": 7425,
      "##昴": 7426,
      "##竺": 7427,
      "##髣": 7428,
      "##髴": 7429,
      "##跨": 7430,
      "##胚": 7431,
      "##盞": 7432,
      "##皐": 7433,
      "##ﾙ": 7434,
      "##ｄ": 7435,
      "##藁": 7436,
      "##岬": 7437,
      "##畦": 7438,
      "##♨": 7439,
      "##莽": 7440,
      "##瀆": 7441,
      "##夙": 7442,
      "##跏": 7443,
      "##咀": 7444,
      "##綬": 7445,
      "##窘": 7446,
      "##♥": 7447,
      "##鬆": 7448,
      "##娜": 7449,
      "##梳": 7450,
      "##藹": 7451,
      "##汽": 7452,
      "##頤": 7453,
      "##ｷ": 7454,
      "##ﾀ": 7455,
      "##━": 7456,
      "##ゞ": 7457,
      "##繪": 7458,
      "##諌": 7459,
      "##眸": 7460,
      "##狄": 7461,
      "##閩": 7462,
      "##🎶": 7463,
      "##尉": 7464,
      "##鷗": 7465,
      "##烹": 7466,
      "##ｬ": 7467,
      "##沐": 7468,
      "##荻": 7469,
      "##澱": 7470,
      "##殯": 7471,
      "##慟": 7472,
      "##哭": 7473,
      "##😢": 7474,
      "##吝": 7475,
      "##膵": 7476,
      "##兎": 7477,
      "##鄙": 7478,
      "##磐": 7479,
      "##菫": 7480,
      "##諮": 7481,
      "##酈": 7482,
      "##彗": 7483,
      "##㎏": 7484,
      "##沌": 7485,
      "##ます": 7486,
      "##てい": 7487,
      "##です": 7488,
      "##した": 7489,
      "##こと": 7490,
      "##して": 7491,
      "##ない": 7492,
      "##った": 7493,
      "##って": 7494,
      "##する": 7495,
      "##ている": 7496,
      "##から": 7497,
      "##よう": 7498,
      "##あり": 7499,
      "##ました": 7500,
      "##ので": 7501,
      "##いう": 7502,
      "##ある": 7503,
      "##にな": 7504,
      "##ています": 7505,
      "##され": 7506,
      "##には": 7507,
      "##でき": 7508,
      "##あります": 7509,
      "##と思": 7510,
      "##では": 7511,
      "それ": 7512,
      "##ませ": 7513,
      "##という": 7514,
      "##いて": 7515,
      "##ません": 7516,
      "##います": 7517,
      "##しょ": 7518,
      "##しょう": 7519,
      "##のです": 7520,
      "##しい": 7521,
      "##ことが": 7522,
      "##られ": 7523,
      "##っている": 7524,
      "その": 7525,
      "##しま": 7526,
      "##れば": 7527,
      "この": 7528,
      "##なく": 7529,
      "##だけ": 7530,
      "##ていた": 7531,
      "##もの": 7532,
      "##ため": 7533,
      "##している": 7534,
      "##いい": 7535,
      "##さん": 7536,
      "##ですか": 7537,
      "##ット": 7538,
      "##でも": 7539,
      "##そう": 7540,
      "##いた": 7541,
      "##んな": 7542,
      "##ります": 7543,
      "##のは": 7544,
      "##など": 7545,
      "##ような": 7546,
      "##かった": 7547,
      "##につ": 7548,
      "##のか": 7549,
      "##んで": 7550,
      "##ありますか": 7551,
      "##さい": 7552,
      "##しています": 7553,
      "##たい": 7554,
      "##ように": 7555,
      "##ると": 7556,
      "##んだ": 7557,
      "##まで": 7558,
      "##します": 7559,
      "##として": 7560,
      "##ール": 7561,
      "##えて": 7562,
      "##について": 7563,
      "##れる": 7564,
      "これ": 7565,
      "##にも": 7566,
      "##と思います": 7567,
      "##ですね": 7568,
      "##くだ": 7569,
      "それは": 7570,
      "##ック": 7571,
      "##える": 7572,
      "##はありますか": 7573,
      "##でしょう": 7574,
      "##ング": 7575,
      "##ート": 7576,
      "##っと": 7577,
      "##どう": 7578,
      "##ント": 7579,
      "##できる": 7580,
      "##ください": 7581,
      "##がある": 7582,
      "##かな": 7583,
      "##場合": 7584,
      "という": 7585,
      "##的な": 7586,
      "##を見": 7587,
      "##ーム": 7588,
      "##ても": 7589,
      "##スト": 7590,
      "##ろう": 7591,
      "##ことは": 7592,
      "##なら": 7593,
      "##のですが": 7594,
      "##っています": 7595,
      "##ショ": 7596,
      "##によ": 7597,
      "##だった": 7598,
      "##かり": 7599,
      "##ことを": 7600,
      "##考え": 7601,
      "##させ": 7602,
      "##われ": 7603,
      "##である": 7604,
      "##イン": 7605,
      "##とは": 7606,
      "##必要": 7607,
      "##たち": 7608,
      "##くな": 7609,
      "##を探": 7610,
      "##のが": 7611,
      "##日本": 7612,
      "また": 7613,
      "自分": 7614,
      "##になる": 7615,
      "##ですが": 7616,
      "##ってい": 7617,
      "##時間": 7618,
      "##してい": 7619,
      "##感じ": 7620,
      "##ころ": 7621,
      "##方法": 7622,
      "##ター": 7623,
      "##ける": 7624,
      "##ード": 7625,
      "##その": 7626,
      "日本": 7627,
      "##いる": 7628,
      "##でした": 7629,
      "##的に": 7630,
      "##自分": 7631,
      "##の中": 7632,
      "##とな": 7633,
      "##ありません": 7634,
      "##かも": 7635,
      "##された": 7636,
      "##ラン": 7637,
      "##ティ": 7638,
      "##なかった": 7639,
      "##めて": 7640,
      "##ション": 7641,
      "##イト": 7642,
      "##より": 7643,
      "##この": 7644,
      "##のだ": 7645,
      "##リー": 7646,
      "##しまう": 7647,
      "##ために": 7648,
      "##があります": 7649,
      "##ップ": 7650,
      "##ほど": 7651,
      "##は何": 7652,
      "##れた": 7653,
      "##良い": 7654,
      "##ージ": 7655,
      "##あった": 7656,
      "##00": 7657,
      "##の人": 7658,
      "##しました": 7659,
      "##取り": 7660,
      "##しく": 7661,
      "##きな": 7662,
      "##けて": 7663,
      "##と言": 7664,
      "##に行": 7665,
      "##にお": 7666,
      "そう": 7667,
      "##される": 7668,
      "##きました": 7669,
      "##情報": 7670,
      "##ース": 7671,
      "##可能": 7672,
      "##の方": 7673,
      "##らい": 7674,
      "##できます": 7675,
      "そして": 7676,
      "##かし": 7677,
      "##を探しています": 7678,
      "##のお": 7679,
      "##っても": 7680,
      "##しれ": 7681,
      "##まり": 7682,
      "##れて": 7683,
      "##める": 7684,
      "##問題": 7685,
      "##きます": 7686,
      "##を使": 7687,
      "##人の": 7688,
      "##ライ": 7689,
      "##のような": 7690,
      "##がら": 7691,
      "##きた": 7692,
      "##を持": 7693,
      "##んです": 7694,
      "##になり": 7695,
      "私は": 7696,
      "##ところ": 7697,
      "##られる": 7698,
      "##01": 7699,
      "##のでは": 7700,
      "##ことも": 7701,
      "##ことで": 7702,
      "##しても": 7703,
      "##とも": 7704,
      "##いました": 7705,
      "##していた": 7706,
      "##違い": 7707,
      "##っていた": 7708,
      "##けど": 7709,
      "##になって": 7710,
      "##ちゃ": 7711,
      "##多い": 7712,
      "##と思う": 7713,
      "##になります": 7714,
      "何か": 7715,
      "##のに": 7716,
      "##とき": 7717,
      "##ながら": 7718,
      "##利用": 7719,
      "しかし": 7720,
      "##に入": 7721,
      "どう": 7722,
      "##との": 7723,
      "##してみ": 7724,
      "##教えて": 7725,
      "##かもしれ": 7726,
      "ここ": 7727,
      "##人が": 7728,
      "##らない": 7729,
      "##事を": 7730,
      "##でしょうか": 7731,
      "##ければ": 7732,
      "##での": 7733,
      "##出来": 7734,
      "##を作": 7735,
      "##への": 7736,
      "##じゃ": 7737,
      "##したい": 7738,
      "##してお": 7739,
      "##ータ": 7740,
      "##べき": 7741,
      "##はどう": 7742,
      "##すれば": 7743,
      "##のでしょう": 7744,
      "##を受": 7745,
      "##されている": 7746,
      "##そうですね": 7747,
      "##なん": 7748,
      "##多く": 7749,
      "##ーク": 7750,
      "##それ": 7751,
      "##をする": 7752,
      "##ちら": 7753,
      "##わけ": 7754,
      "##気の": 7755,
      "##人は": 7756,
      "##に対": 7757,
      "##えば": 7758,
      "##は何ですか": 7759,
      "201": 7760,
      "##たり": 7761,
      "##紹介": 7762,
      "##しか": 7763,
      "##前に": 7764,
      "##食べ": 7765,
      "##スタ": 7766,
      "##を行": 7767,
      "##持ち": 7768,
      "##になった": 7769,
      "##なた": 7770,
      "##サー": 7771,
      "##サイト": 7772,
      "##プリ": 7773,
      "##くらい": 7774,
      "##コン": 7775,
      "そんな": 7776,
      "##ーション": 7777,
      "##やす": 7778,
      "##しない": 7779,
      "##よく": 7780,
      "##ディ": 7781,
      "##に関": 7782,
      "##してく": 7783,
      "##によって": 7784,
      "##方が": 7785,
      "##同じ": 7786,
      "##なる": 7787,
      "##ではない": 7788,
      "##のように": 7789,
      "##りの": 7790,
      "##だろう": 7791,
      "##とか": 7792,
      "##ファ": 7793,
      "ただ": 7794,
      "##とい": 7795,
      "でも": 7796,
      "##ましょう": 7797,
      "##ことに": 7798,
      "##をお": 7799,
      "##ログ": 7800,
      "そこ": 7801,
      "##以上": 7802,
      "##することが": 7803,
      "##たら": 7804,
      "##世界": 7805,
      "##ものが": 7806,
      "##ュー": 7807,
      "##メリ": 7808,
      "##状態": 7809,
      "##よね": 7810,
      "##当に": 7811,
      "##教えてください": 7812,
      "##なければ": 7813,
      "##楽し": 7814,
      "##ることが": 7815,
      "##つも": 7816,
      "##んでいる": 7817,
      "##のア": 7818,
      "##しまった": 7819,
      "##のでしょうか": 7820,
      "##わせ": 7821,
      "##したら": 7822,
      "##場合は": 7823,
      "##生活": 7824,
      "##だけど": 7825,
      "##あれば": 7826,
      "##興味": 7827,
      "##ンド": 7828,
      "##プレ": 7829,
      "##日の": 7830,
      "##者の": 7831,
      "##思い": 7832,
      "##られた": 7833,
      "##相談": 7834,
      "##しよう": 7835,
      "##言葉": 7836,
      "##のも": 7837,
      "##のではない": 7838,
      "##みたい": 7839,
      "新しい": 7840,
      "##はい": 7841,
      "##スを": 7842,
      "##と思っています": 7843,
      "##かに": 7844,
      "今回": 7845,
      "##の一": 7846,
      "##くる": 7847,
      "##ステ": 7848,
      "##からない": 7849,
      "##フォ": 7850,
      "##気が": 7851,
      "##ャン": 7852,
      "##だけで": 7853,
      "##じゃない": 7854,
      "##上げ": 7855,
      "##さんの": 7856,
      "##関係": 7857,
      "##かもしれません": 7858,
      "##仕事": 7859,
      "自分の": 7860,
      "##りたい": 7861,
      "##おり": 7862,
      "##らしい": 7863,
      "##ロー": 7864,
      "##べて": 7865,
      "##が必要": 7866,
      "##イル": 7867,
      "##ょっと": 7868,
      "##んど": 7869,
      "##なり": 7870,
      "##れない": 7871,
      "##会社": 7872,
      "##始め": 7873,
      "##ましたが": 7874,
      "##リア": 7875,
      "##高い": 7876,
      "##ござ": 7877,
      "##にと": 7878,
      "##なので": 7879,
      "##そうだ": 7880,
      "##どんな": 7881,
      "もう": 7882,
      "##にある": 7883,
      "##影響": 7884,
      "##意味": 7885,
      "##自分の": 7886,
      "##だと": 7887,
      "##内容": 7888,
      "##が出": 7889,
      "##こう": 7890,
      "##すると": 7891,
      "##可能性": 7892,
      "##日は": 7893,
      "##ようです": 7894,
      "##えた": 7895,
      "##できない": 7896,
      "これは": 7897,
      "##に出": 7898,
      "##やって": 7899,
      "##好き": 7900,
      "##されて": 7901,
      "##ための": 7902,
      "##かる": 7903,
      "##けた": 7904,
      "##シー": 7905,
      "##れている": 7906,
      "##データ": 7907,
      "##結果": 7908,
      "##言う": 7909,
      "##オン": 7910,
      "##がない": 7911,
      "##があり": 7912,
      "##変わ": 7913,
      "##まま": 7914,
      "##のですか": 7915,
      "##写真": 7916,
      "##ーツ": 7917,
      "##時に": 7918,
      "##けない": 7919,
      "##えます": 7920,
      "私の": 7921,
      "##スの": 7922,
      "##ネット": 7923,
      "##ことです": 7924,
      "##たく": 7925,
      "##場所": 7926,
      "##活動": 7927,
      "##んと": 7928,
      "##フィ": 7929,
      "##リン": 7930,
      "現在": 7931,
      "##会い": 7932,
      "##をつ": 7933,
      "##際に": 7934,
      "##時代": 7935,
      "##などの": 7936,
      "##確認": 7937,
      "##後の": 7938,
      "##重要": 7939,
      "##何か": 7940,
      "##少し": 7941,
      "どんな": 7942,
      "##作品": 7943,
      "##ではなく": 7944,
      "##タイ": 7945,
      "##効果": 7946,
      "##合わせ": 7947,
      "##われる": 7948,
      "##サービ": 7949,
      "あなた": 7950,
      "##らず": 7951,
      "##からの": 7952,
      "##なのか": 7953,
      "##参加": 7954,
      "##よりも": 7955,
      "##ナー": 7956,
      "最近": 7957,
      "##きたい": 7958,
      "##女性": 7959,
      "##大き": 7960,
      "##つの": 7961,
      "##えない": 7962,
      "##アップ": 7963,
      "##立ち": 7964,
      "##カー": 7965,
      "##あって": 7966,
      "##ったり": 7967,
      "##イデ": 7968,
      "##部分": 7969,
      "##気持ち": 7970,
      "##起こ": 7971,
      "##そうです": 7972,
      "##いている": 7973,
      "##ンの": 7974,
      "##大きな": 7975,
      "##力を": 7976,
      "##めの": 7977,
      "##らに": 7978,
      "##バー": 7979,
      "##イク": 7980,
      "##らの": 7981,
      "##がと": 7982,
      "##があった": 7983,
      "##っかり": 7984,
      "##方は": 7985,
      "##これ": 7986,
      "##年の": 7987,
      "##状況": 7988,
      "##による": 7989,
      "##イデア": 7990,
      "##すす": 7991,
      "##国の": 7992,
      "##されています": 7993,
      "##に行く": 7994,
      "##をして": 7995,
      "##ゲーム": 7996,
      "こう": 7997,
      "##んだけど": 7998,
      "##10": 7999,
      "##したり": 8000,
      "##なくな": 8001,
      "##を教えてください": 8002,
      "##りに": 8003,
      "##人も": 8004,
      "##にとって": 8005,
      "##にか": 8006,
      "##について学": 8007,
      "##メリカ": 8008,
      "##ンター": 8009,
      "##事が": 8010,
      "##生き": 8011,
      "##客様": 8012,
      "##にして": 8013,
      "##子供": 8014,
      "##月2": 8015,
      "##簡単": 8016,
      "##ばかり": 8017,
      "##旅行": 8018,
      "##々な": 8019,
      "##だと思います": 8020,
      "##を開": 8021,
      "##させて": 8022,
      "##になりました": 8023,
      "##理解": 8024,
      "##させる": 8025,
      "##りました": 8026,
      "##っぱ": 8027,
      "##上が": 8028,
      "##日に": 8029,
      "##ルの": 8030,
      "##理由": 8031,
      "##をご": 8032,
      "##まだ": 8033,
      "##人間": 8034,
      "##新しい": 8035,
      "##晴らしい": 8036,
      "それを": 8037,
      "それはいい": 8038,
      "##やすい": 8039,
      "##プロ": 8040,
      "##はどうですか": 8041,
      "##クリ": 8042,
      "##ほう": 8043,
      "まず": 8044,
      "##とんど": 8045,
      "##はず": 8046,
      "##かけ": 8047,
      "##常に": 8048,
      "##8年": 8049,
      "##環境": 8050,
      "##商品": 8051,
      "##なくて": 8052,
      "##にする": 8053,
      "##ろん": 8054,
      "##存在": 8055,
      "##のために": 8056,
      "##社会": 8057,
      "##ならない": 8058,
      "##はど": 8059,
      "##ンジ": 8060,
      "##ルー": 8061,
      "##心配": 8062,
      "##計画": 8063,
      "##アプリ": 8064,
      "##スポ": 8065,
      "##コミ": 8066,
      "##とする": 8067,
      "##もある": 8068,
      "##ってお": 8069,
      "##しまいます": 8070,
      "##ていただ": 8071,
      "##ランド": 8072,
      "##ちろん": 8073,
      "##くり": 8074,
      "##を受け": 8075,
      "##料理": 8076,
      "##であり": 8077,
      "##わかり": 8078,
      "##者が": 8079,
      "##考えて": 8080,
      "##前の": 8081,
      "##願い": 8082,
      "##ものを": 8083,
      "##のだろう": 8084,
      "です": 8085,
      "##ずに": 8086,
      "##研究": 8087,
      "いい": 8088,
      "と言": 8089,
      "##めた": 8090,
      "##というのは": 8091,
      "##くの": 8092,
      "##ッチ": 8093,
      "##購入": 8094,
      "##予定": 8095,
      "##気のある": 8096,
      "##を出": 8097,
      "##すぎ": 8098,
      "##ンを": 8099,
      "##大切": 8100,
      "##シャ": 8101,
      "##メント": 8102,
      "##相手": 8103,
      "##話を": 8104,
      "##さんが": 8105,
      "もし": 8106,
      "##また": 8107,
      "##込み": 8108,
      "##かない": 8109,
      "##ていない": 8110,
      "それが": 8111,
      "##表示": 8112,
      "##機能": 8113,
      "##の違い": 8114,
      "##わない": 8115,
      "##うち": 8116,
      "##レー": 8117,
      "##ございます": 8118,
      "##られている": 8119,
      "##いろ": 8120,
      "##せる": 8121,
      "##ってみ": 8122,
      "##いただ": 8123,
      "##んでいます": 8124,
      "##コツ": 8125,
      "##ケーション": 8126,
      "##ってく": 8127,
      "特に": 8128,
      "##れど": 8129,
      "##結婚": 8130,
      "##選択": 8131,
      "##を感じ": 8132,
      "##もので": 8133,
      "##みに": 8134,
      "##ページ": 8135,
      "本当に": 8136,
      "##程度": 8137,
      "##の中で": 8138,
      "私が": 8139,
      "##0年": 8140,
      "##ニング": 8141,
      "##終わ": 8142,
      "##ものです": 8143,
      "##に向": 8144,
      "##ラー": 8145,
      "##引き": 8146,
      "##ブル": 8147,
      "##緒に": 8148,
      "では": 8149,
      "と思": 8150,
      "##原因": 8151,
      "##マン": 8152,
      "##使用": 8153,
      "##のある": 8154,
      "##が見": 8155,
      "##を知": 8156,
      "##で": 8157,
      "##理に": 8158,
      "##になっている": 8159,
      "世界": 8160,
      "##説明": 8161,
      "##後に": 8162,
      "##整理": 8163,
      "ある": 8164,
      "ちょっと": 8165,
      "学校": 8166,
      "##もあります": 8167,
      "##れます": 8168,
      "##学校": 8169,
      "##してもら": 8170,
      "なん": 8171,
      "##あまり": 8172,
      "##家族": 8173,
      "##月1": 8174,
      "##パー": 8175,
      "##ませんが": 8176,
      "##しましょう": 8177,
      "##なんて": 8178,
      "##がとう": 8179,
      "##だから": 8180,
      "##やり": 8181,
      "##技術": 8182,
      "##により": 8183,
      "##たちは": 8184,
      "##レス": 8185,
      "##一番": 8186,
      "##をも": 8187,
      "##てる": 8188,
      "##ってる": 8189,
      "##すること": 8190,
      "##ほうが": 8191,
      "子供": 8192,
      "##合い": 8193,
      "##すぐ": 8194,
      "##を得": 8195,
      "##を読": 8196,
      "##時の": 8197,
      "##アル": 8198,
      "##ライン": 8199,
      "##レビ": 8200,
      "##ブログ": 8201,
      "##までの": 8202,
      "ここでは": 8203,
      "##に対して": 8204,
      "##スク": 8205,
      "##バイ": 8206,
      "##ケット": 8207,
      "##注意": 8208,
      "##ってしまう": 8209,
      "##人に": 8210,
      "##的には": 8211,
      "##組み": 8212,
      "##かなか": 8213,
      "##でお": 8214,
      "##意識": 8215,
      "##先生": 8216,
      "##さんは": 8217,
      "##われた": 8218,
      "##ステム": 8219,
      "##いった": 8220,
      "##以外": 8221,
      "##つか": 8222,
      "##勉強": 8223,
      "##られない": 8224,
      "##付け": 8225,
      "##からは": 8226,
      "##なくても": 8227,
      "##の方が": 8228,
      "##のを": 8229,
      "##わからない": 8230,
      "##自身": 8231,
      "##金を": 8232,
      "##er": 8233,
      "##られて": 8234,
      "##たちの": 8235,
      "こんな": 8236,
      "##目的": 8237,
      "##と同じ": 8238,
      "##下さい": 8239,
      "##に興味": 8240,
      "##なんだ": 8241,
      "##好きな": 8242,
      "##ということ": 8243,
      "##くなる": 8244,
      "##ちゃん": 8245,
      "##いで": 8246,
      "##まれ": 8247,
      "##００": 8248,
      "##万円": 8249,
      "##物の": 8250,
      "##物を": 8251,
      "##ベル": 8252,
      "##ませんでした": 8253,
      "##を見て": 8254,
      "##と言う": 8255,
      "19": 8256,
      "まだ": 8257,
      "##とした": 8258,
      "##間に": 8259,
      "##対応": 8260,
      "##映画": 8261,
      "##面白": 8262,
      "##られます": 8263,
      "##きて": 8264,
      "さらに": 8265,
      "##開催": 8266,
      "##中に": 8267,
      "##種類": 8268,
      "##悪い": 8269,
      "##ではありません": 8270,
      "##目の": 8271,
      "##アク": 8272,
      "##大学": 8273,
      "##入れ": 8274,
      "##音楽": 8275,
      "##ュニ": 8276,
      "##違う": 8277,
      "##ったら": 8278,
      "##となる": 8279,
      "##サービス": 8280,
      "##地域": 8281,
      "それは理に": 8282,
      "##に関する": 8283,
      "それは理にかな": 8284,
      "彼女": 8285,
      "##だね": 8286,
      "##イント": 8287,
      "##において": 8288,
      "そういう": 8289,
      "##オンズ": 8290,
      "それは理にかなっている": 8291,
      "少し": 8292,
      "##上で": 8293,
      "##登録": 8294,
      "##いいのか": 8295,
      "2018年": 8296,
      "って": 8297,
      "##を取": 8298,
      "##を買": 8299,
      "##フェ": 8300,
      "##ていく": 8301,
      "##たくさん": 8302,
      "家族": 8303,
      "##とても": 8304,
      "##をしている": 8305,
      "##イズ": 8306,
      "##ンス": 8307,
      "##ネル": 8308,
      "##何ですか": 8309,
      "##ライオンズ": 8310,
      "##かもしれない": 8311,
      "こちら": 8312,
      "##まる": 8313,
      "##者は": 8314,
      "##いたい": 8315,
      "##と考え": 8316,
      "##はない": 8317,
      "##間の": 8318,
      "##管理": 8319,
      "##メージ": 8320,
      "##ベント": 8321,
      "##ていました": 8322,
      "##としても": 8323,
      "##については": 8324,
      "日本の": 8325,
      "そこで": 8326,
      "##いく": 8327,
      "##り返": 8328,
      "##出会い": 8329,
      "##良さ": 8330,
      "##こそ": 8331,
      "##通り": 8332,
      "##手に": 8333,
      "##西武": 8334,
      "##かなり": 8335,
      "##を見つ": 8336,
      "もっと": 8337,
      "##だと思う": 8338,
      "##ラム": 8339,
      "##ウェ": 8340,
      "##経験": 8341,
      "##していく": 8342,
      "だから": 8343,
      "埼玉": 8344,
      "##人で": 8345,
      "##ッド": 8346,
      "##調査": 8347,
      "##無料": 8348,
      "##受け": 8349,
      "##一緒に": 8350,
      "##護士": 8351,
      "一般": 8352,
      "##すべき": 8353,
      "##を与": 8354,
      "##どのような": 8355,
      "##事に": 8356,
      "##リング": 8357,
      "##デザ": 8358,
      "##行動": 8359,
      "##勧め": 8360,
      "##るほど": 8361,
      "##よい": 8362,
      "##頑張": 8363,
      "##コツはありますか": 8364,
      "##はり": 8365,
      "##えている": 8366,
      "##らく": 8367,
      "##すすめ": 8368,
      "##本当に": 8369,
      "##もっと": 8370,
      "##アイデア": 8371,
      "##企業": 8372,
      "##のかも": 8373,
      "なぜ": 8374,
      "##発生": 8375,
      "##りが": 8376,
      "##ギー": 8377,
      "##電話": 8378,
      "##ていて": 8379,
      "##されます": 8380,
      "##ためには": 8381,
      "##西武ライオンズ": 8382,
      "など": 8383,
      "##キャ": 8384,
      "##無い": 8385,
      "##メール": 8386,
      "##過ぎ": 8387,
      "##ヶ月": 8388,
      "##しまいました": 8389,
      "人気のある": 8390,
      "##に見": 8391,
      "##あげ": 8392,
      "##連絡": 8393,
      "##大変": 8394,
      "##体の": 8395,
      "##ほとんど": 8396,
      "##初めて": 8397,
      "##一般": 8398,
      "##提供": 8399,
      "##続き": 8400,
      "##ックス": 8401,
      "##させていただ": 8402,
      "##たちが": 8403,
      "##を使って": 8404,
      "##しております": 8405,
      "とても": 8406,
      "簡単": 8407,
      "##をし": 8408,
      "##事務": 8409,
      "##キング": 8410,
      "##運動": 8411,
      "##チャ": 8412,
      "東京": 8413,
      "##さま": 8414,
      "##安全": 8415,
      "##判断": 8416,
      "##々の": 8417,
      "アメリカ": 8418,
      "##あなた": 8419,
      "##中で": 8420,
      "##主な": 8421,
      "##保険": 8422,
      "##しまい": 8423,
      "200": 8424,
      "いつも": 8425,
      "どこ": 8426,
      "もちろん": 8427,
      "##を変": 8428,
      "##事は": 8429,
      "##続け": 8430,
      "##素晴らしい": 8431,
      "##と思っている": 8432,
      "##ことができる": 8433,
      "##事の": 8434,
      "##下の": 8435,
      "##じめ": 8436,
      "##ことができます": 8437,
      "このような": 8438,
      "##どうか": 8439,
      "他の": 8440,
      "##が増": 8441,
      "##ニック": 8442,
      "##年に": 8443,
      "##方法は": 8444,
      "参考": 8445,
      "面白": 8446,
      "##せて": 8447,
      "##かか": 8448,
      "##フト": 8449,
      "##チーム": 8450,
      "##準備": 8451,
      "##ってきた": 8452,
      "##のではないでしょうか": 8453,
      "##いに": 8454,
      "##発表": 8455,
      "##を取り": 8456,
      "##もう": 8457,
      "##オー": 8458,
      "##カード": 8459,
      "##過ご": 8460,
      "##聞いた": 8461,
      "##いいですか": 8462,
      "##の上": 8463,
      "##目を": 8464,
      "##をした": 8465,
      "##まった": 8466,
      "##ンプ": 8467,
      "##部屋": 8468,
      "##くと": 8469,
      "##クラ": 8470,
      "##おう": 8471,
      "##変化": 8472,
      "##システム": 8473,
      "##ピー": 8474,
      "##になると": 8475,
      "##されました": 8476,
      "##にはどんな": 8477,
      "##っていました": 8478,
      "##事件": 8479,
      "##くれる": 8480,
      "##スマ": 8481,
      "##コー": 8482,
      "##希望": 8483,
      "##申し": 8484,
      "##ときに": 8485,
      "##してくれる": 8486,
      "じゃ": 8487,
      "##がありますか": 8488,
      "##リスト": 8489,
      "##けば": 8490,
      "##けれど": 8491,
      "##メン": 8492,
      "##落ち": 8493,
      "##ことができ": 8494,
      "##スポーツ": 8495,
      "##しゃ": 8496,
      "##ども": 8497,
      "##基本": 8498,
      "##ェック": 8499,
      "##最も": 8500,
      "##in": 8501,
      "##ことがある": 8502,
      "つまり": 8503,
      "実は": 8504,
      "##っき": 8505,
      "##方の": 8506,
      "##心者": 8507,
      "##クト": 8508,
      "##期待": 8509,
      "##ポイント": 8510,
      "##販売": 8511,
      "##としては": 8512,
      "##日本の": 8513,
      "##プレイ": 8514,
      "##であ": 8515,
      "##まと": 8516,
      "##イベント": 8517,
      "##っくり": 8518,
      "##らか": 8519,
      "##中心": 8520,
      "##メラ": 8521,
      "##ブランド": 8522,
      "##ひと": 8523,
      "##欲しい": 8524,
      "##してしまう": 8525,
      "##30": 8526,
      "##深い": 8527,
      "##私の": 8528,
      "##内の": 8529,
      "##選手": 8530,
      "##してください": 8531,
      "実際": 8532,
      "##人を": 8533,
      "##ここ": 8534,
      "##ッシ": 8535,
      "##おります": 8536,
      "##定の": 8537,
      "##強い": 8538,
      "##経済": 8539,
      "##歴史": 8540,
      "##eb": 8541,
      "##ットを": 8542,
      "##を使う": 8543,
      "個人": 8544,
      "##の大": 8545,
      "##ること": 8546,
      "##が多い": 8547,
      "##見て": 8548,
      "##であった": 8549,
      "##くて": 8550,
      "##立て": 8551,
      "##ウン": 8552,
      "##比較": 8553,
      "##評価": 8554,
      "##重要な": 8555,
      "よく": 8556,
      "##事実": 8557,
      "##ほしい": 8558,
      "##一度": 8559,
      "##いたします": 8560,
      "10": 8561,
      "相手": 8562,
      "##はありません": 8563,
      "##くない": 8564,
      "##書いて": 8565,
      "##などを": 8566,
      "##情報を": 8567,
      "##ものがありますか": 8568,
      "##させて頂": 8569,
      "なるほど": 8570,
      "私も": 8571,
      "##りを": 8572,
      "##イメージ": 8573,
      "##時期": 8574,
      "##アの": 8575,
      "##他の": 8576,
      "##治療": 8577,
      "今回は": 8578,
      "学校で": 8579,
      "##事務所": 8580,
      "##ちょっと": 8581,
      "##のない": 8582,
      "##合う": 8583,
      "##わか": 8584,
      "##気を": 8585,
      "##5年": 8586,
      "##生の": 8587,
      "##テル": 8588,
      "##文化": 8589,
      "##健康": 8590,
      "##ありますが": 8591,
      "##時間が": 8592,
      "##っぱり": 8593,
      "##しながら": 8594,
      "##に乗": 8595,
      "##ーン": 8596,
      "##考える": 8597,
      "##ジュ": 8598,
      "##不安": 8599,
      "##呼ば": 8600,
      "##するのは": 8601,
      "##くなって": 8602,
      "##多くの": 8603,
      "##を行う": 8604,
      "より": 8605,
      "##性の": 8606,
      "##を計画": 8607,
      "##かが": 8608,
      "##かれ": 8609,
      "##事業": 8610,
      "##対策": 8611,
      "##するために": 8612,
      "それは良さ": 8613,
      "##てもら": 8614,
      "##できますか": 8615,
      "##だけでなく": 8616,
      "最初": 8617,
      "札幌": 8618,
      "##時は": 8619,
      "##キー": 8620,
      "##立つ": 8621,
      "##々に": 8622,
      "##ポート": 8623,
      "##on": 8624,
      "##支援": 8625,
      "##からです": 8626,
      "オー": 8627,
      "コン": 8628,
      "スト": 8629,
      "##まく": 8630,
      "##心が": 8631,
      "##自由": 8632,
      "##用意": 8633,
      "##知りたい": 8634,
      "##われている": 8635,
      "##のではないか": 8636,
      "埼玉西武ライオンズ": 8637,
      "##のご": 8638,
      "##ーズ": 8639,
      "##んですか": 8640,
      "##思います": 8641,
      "##テー": 8642,
      "##現在": 8643,
      "##来た": 8644,
      "##ワーク": 8645,
      "##ヒー": 8646,
      "##を持つ": 8647,
      "実際に": 8648,
      "##が入": 8649,
      "##出す": 8650,
      "##らは": 8651,
      "##中の": 8652,
      "##じて": 8653,
      "##することで": 8654,
      "##などで": 8655,
      "同じ": 8656,
      "##いを": 8657,
      "##しろ": 8658,
      "##さえ": 8659,
      "##作業": 8660,
      "##方も": 8661,
      "##事で": 8662,
      "##みて": 8663,
      "##成功": 8664,
      "##そんな": 8665,
      "##々と": 8666,
      "##ザー": 8667,
      "##と思った": 8668,
      "##そうな": 8669,
      "##われています": 8670,
      "##ティー": 8671,
      "##くらいの": 8672,
      "今回の": 8673,
      "##のこと": 8674,
      "##さに": 8675,
      "##伝え": 8676,
      "##かどうか": 8677,
      "##対象": 8678,
      "##体験": 8679,
      "##用の": 8680,
      "##検索": 8681,
      "##政府": 8682,
      "##東京": 8683,
      "##ですよ": 8684,
      "##していない": 8685,
      "##でしたが": 8686,
      "##となります": 8687,
      "##ほどの": 8688,
      "##タイプ": 8689,
      "プロ": 8690,
      "##が大": 8691,
      "##がお": 8692,
      "##んじゃない": 8693,
      "##金の": 8694,
      "##行為": 8695,
      "##ジェ": 8696,
      "##十分": 8697,
      "##ぞれ": 8698,
      "##主義": 8699,
      "##聞いて": 8700,
      "##ものは": 8701,
      "##出来る": 8702,
      "##フォーム": 8703,
      "##であれば": 8704,
      "##をか": 8705,
      "##を選": 8706,
      "##を利用": 8707,
      "##出て": 8708,
      "##イド": 8709,
      "##っち": 8710,
      "##らせ": 8711,
      "##テレビ": 8712,
      "##都市": 8713,
      "##価格": 8714,
      "##ベース": 8715,
      "##ミング": 8716,
      "##質問": 8717,
      "##特徴": 8718,
      "##できた": 8719,
      "これから": 8720,
      "##のだが": 8721,
      "##メリット": 8722,
      "##コミュニ": 8723,
      "##わかりません": 8724,
      "ネット": 8725,
      "今週": 8726,
      "結婚": 8727,
      "##分か": 8728,
      "##いつ": 8729,
      "##で見": 8730,
      "##を実": 8731,
      "##全て": 8732,
      "##物が": 8733,
      "##私は": 8734,
      "##男性": 8735,
      "##le": 8736,
      "##しては": 8737,
      "##されていた": 8738,
      "##ものの": 8739,
      "##していました": 8740,
      "##ってもら": 8741,
      "##に対する": 8742,
      "どのような": 8743,
      "やはり": 8744,
      "今日は": 8745,
      "##が行": 8746,
      "##が高い": 8747,
      "##いない": 8748,
      "##はある": 8749,
      "##セス": 8750,
      "##センター": 8751,
      "##大な": 8752,
      "##自然": 8753,
      "##限り": 8754,
      "##仕事を": 8755,
      "##ネス": 8756,
      "##買い": 8757,
      "##機会": 8758,
      "##天皇": 8759,
      "##改善": 8760,
      "##等の": 8761,
      "##ティング": 8762,
      "##わけです": 8763,
      "あまり": 8764,
      "##のみ": 8765,
      "##ができる": 8766,
      "##開発": 8767,
      "##サイズ": 8768,
      "##バス": 8769,
      "##成長": 8770,
      "##201": 8771,
      "##そこ": 8772,
      "##カメラ": 8773,
      "##ボール": 8774,
      "##有名": 8775,
      "##ダー": 8776,
      "##求め": 8777,
      "##丈夫": 8778,
      "##だけの": 8779,
      "これらの": 8780,
      "##っていて": 8781,
      "それはいいですね": 8782,
      "じゃあ": 8783,
      "今の": 8784,
      "##の子": 8785,
      "##トラ": 8786,
      "##中央": 8787,
      "##付き": 8788,
      "##表現": 8789,
      "##追加": 8790,
      "##パン": 8791,
      "##難しい": 8792,
      "##を探している": 8793,
      "##を解": 8794,
      "##もない": 8795,
      "##にした": 8796,
      "##なんです": 8797,
      "##家の": 8798,
      "##数の": 8799,
      "##ニュ": 8800,
      "##撮影": 8801,
      "##近く": 8802,
      "##来る": 8803,
      "##ありがとう": 8804,
      "##といった": 8805,
      "##度も": 8806,
      "##体を": 8807,
      "##ラス": 8808,
      "##コメント": 8809,
      "##価値": 8810,
      "##と思いますが": 8811,
      "##っていく": 8812,
      "##なければならない": 8813,
      "##に興味があります": 8814,
      "##デザイン": 8815,
      "人間": 8816,
      "##に戻": 8817,
      "##どこ": 8818,
      "##12": 8819,
      "##危険": 8820,
      "##観光": 8821,
      "##ワー": 8822,
      "##弁護士": 8823,
      "##になっています": 8824,
      "##ならば": 8825,
      "##必要な": 8826,
      "##リーズ": 8827,
      "##大きく": 8828,
      "##について学んでいます": 8829,
      "どの": 8830,
      "例えば": 8831,
      "##分かり": 8832,
      "##までは": 8833,
      "##イエ": 8834,
      "##事故": 8835,
      "##上の": 8836,
      "##全く": 8837,
      "##書き": 8838,
      "##様子": 8839,
      "##様々な": 8840,
      "##ワード": 8841,
      "##責任": 8842,
      "##するのが": 8843,
      "その後": 8844,
      "##場合には": 8845,
      "##のかもしれ": 8846,
      "彼は": 8847,
      "##すご": 8848,
      "##いは": 8849,
      "##まれた": 8850,
      "##に立ち": 8851,
      "##気に": 8852,
      "##安心": 8853,
      "##テン": 8854,
      "##シピ": 8855,
      "##動物": 8856,
      "##非常に": 8857,
      "##力が": 8858,
      "##チェック": 8859,
      "##ケース": 8860,
      "##ないと": 8861,
      "##時間を": 8862,
      "##の中に": 8863,
      "##における": 8864,
      "##すればいい": 8865,
      "##スタイル": 8866,
      "いろ": 8867,
      "健康": 8868,
      "##としている": 8869,
      "##いています": 8870,
      "##込んで": 8871,
      "##期間": 8872,
      "##流れ": 8873,
      "##としての": 8874,
      "##していて": 8875,
      "ファ": 8876,
      "今年": 8877,
      "社会": 8878,
      "##の手": 8879,
      "##すべて": 8880,
      "##を考え": 8881,
      "##わず": 8882,
      "##者に": 8883,
      "##毎日": 8884,
      "##放送": 8885,
      "##印象": 8886,
      "##する方法": 8887,
      "##とは何ですか": 8888,
      "##ともに": 8889,
      "さて": 8890,
      "平成": 8891,
      "##きる": 8892,
      "##こちら": 8893,
      "##知識": 8894,
      "##使い": 8895,
      "##社の": 8896,
      "##来て": 8897,
      "##資格": 8898,
      "##くなった": 8899,
      "##を作る": 8900,
      "まずは": 8901,
      "ぜひ": 8902,
      "基本": 8903,
      "多くの": 8904,
      "##りと": 8905,
      "##イス": 8906,
      "##方を": 8907,
      "##言い": 8908,
      "##ッフ": 8909,
      "##使う": 8910,
      "##障害": 8911,
      "##設定": 8912,
      "##機関": 8913,
      "##契約": 8914,
      "##条件": 8915,
      "##睡眠": 8916,
      "##さんに": 8917,
      "##までに": 8918,
      "##ときは": 8919,
      "##ファン": 8920,
      "##かもしれませんが": 8921,
      "いつ": 8922,
      "##性を": 8923,
      "##だが": 8924,
      "##ルを": 8925,
      "##良かった": 8926,
      "##スキ": 8927,
      "##彼女": 8928,
      "##7年": 8929,
      "##施設": 8930,
      "##症状": 8931,
      "##ヒント": 8932,
      "##してきた": 8933,
      "##ってしまった": 8934,
      "##ようになった": 8935,
      "##を見る": 8936,
      "##となった": 8937,
      "##で行": 8938,
      "##を通": 8939,
      "##までも": 8940,
      "##に住": 8941,
      "##良く": 8942,
      "##思う": 8943,
      "##変更": 8944,
      "##名前": 8945,
      "##20": 8946,
      "##提案": 8947,
      "##専門": 8948,
      "##丁目": 8949,
      "##ソコン": 8950,
      "##個人": 8951,
      "##雰囲": 8952,
      "##われて": 8953,
      "##ループ": 8954,
      "##選択肢": 8955,
      "##ネルギー": 8956,
      "あの": 8957,
      "データ": 8958,
      "##だと思": 8959,
      "##3年": 8960,
      "##らし": 8961,
      "##お願い": 8962,
      "##メディ": 8963,
      "##月に": 8964,
      "##内に": 8965,
      "##ホーム": 8966,
      "##来の": 8967,
      "##われます": 8968,
      "##っていない": 8969,
      "あり": 8970,
      "良い": 8971,
      "##目に": 8972,
      "##出し": 8973,
      "##学習": 8974,
      "##50": 8975,
      "##アー": 8976,
      "##アド": 8977,
      "##位置": 8978,
      "##ウト": 8979,
      "##げる": 8980,
      "##意見": 8981,
      "##のである": 8982,
      "それでも": 8983,
      "##楽しみ": 8984,
      "##生活を": 8985,
      "まあ": 8986,
      "他に": 8987,
      "##の情報": 8988,
      "##をと": 8989,
      "##なのです": 8990,
      "##なみに": 8991,
      "##くれ": 8992,
      "##報告": 8993,
      "##番組": 8994,
      "##勧めの": 8995,
      "##精神": 8996,
      "##特別": 8997,
      "##借り": 8998,
      "##ということは": 8999,
      "##ことがあります": 9000,
      "##しており": 9001,
      "##ございました": 9002,
      "##簡単に": 9003,
      "面白そうですね": 9004,
      "札幌市": 9005,
      "ちなみに": 9006,
      "どれ": 9007,
      "##のパ": 9008,
      "##と感じ": 9009,
      "##いの": 9010,
      "##を保": 9011,
      "##はお": 9012,
      "##方で": 9013,
      "##人気": 9014,
      "##事も": 9015,
      "##こんな": 9016,
      "##ッグ": 9017,
      "##レシピ": 9018,
      "##動き": 9019,
      "##認識": 9020,
      "##1年": 9021,
      "##最初": 9022,
      "##チャン": 9023,
      "##切り": 9024,
      "##読み": 9025,
      "##条西": 9026,
      "##くださ": 9027,
      "##があるので": 9028,
      "##ランス": 9029,
      "##そうだね": 9030,
      "##えますか": 9031,
      "何を": 9032,
      "確かに": 9033,
      "##分からない": 9034,
      "##の主な": 9035,
      "##がる": 9036,
      "##ンは": 9037,
      "##人と": 9038,
      "##キャン": 9039,
      "##スペ": 9040,
      "##お勧め": 9041,
      "##参考": 9042,
      "##場の": 9043,
      "##後は": 9044,
      "##100": 9045,
      "##してる": 9046,
      "それは素晴らしい": 9047,
      "##くなります": 9048,
      "##ライフ": 9049,
      "##のではなく": 9050,
      "今週末": 9051,
      "##中央区": 9052,
      "なかなか": 9053,
      "一番": 9054,
      "今日": 9055,
      "初心者": 9056,
      "##が一": 9057,
      "##が好き": 9058,
      "##いです": 9059,
      "##を守": 9060,
      "##もら": 9061,
      "##にて": 9062,
      "##っちゃ": 9063,
      "##かの": 9064,
      "##実に": 9065,
      "##やる": 9066,
      "##手に入": 9067,
      "##少ない": 9068,
      "##不足": 9069,
      "##点で": 9070,
      "##oo": 9071,
      "##朝鮮": 9072,
      "##ホテル": 9073,
      "これが": 9074,
      "##言葉を": 9075,
      "現在の": 9076,
      "##はどこ": 9077,
      "##心配です": 9078,
      "彼の": 9079,
      "##の話": 9080,
      "##が生": 9081,
      "##しっかり": 9082,
      "##はその": 9083,
      "##１０": 9084,
      "##っしゃ": 9085,
      "##ずっと": 9086,
      "##人気の": 9087,
      "##サイク": 9088,
      "##プラン": 9089,
      "##リエ": 9090,
      "##金が": 9091,
      "##場で": 9092,
      "##ニュー": 9093,
      "##強く": 9094,
      "##記載": 9095,
      "##ピング": 9096,
      "##ってくる": 9097,
      "##られています": 9098,
      "##んだよ": 9099,
      "自分が": 9100,
      "##を持っている": 9101,
      "##してみて": 9102,
      "##のアイデア": 9103,
      "##すすめの": 9104,
      "##のだろうか": 9105,
      "たと": 9106,
      "以前": 9107,
      "写真": 9108,
      "普通": 9109,
      "##がいい": 9110,
      "##を入": 9111,
      "##きましょう": 9112,
      "##わる": 9113,
      "##ずれ": 9114,
      "##学生": 9115,
      "##大事": 9116,
      "##動画": 9117,
      "##早く": 9118,
      "##へと": 9119,
      "##解析": 9120,
      "##ケー": 9121,
      "##4年": 9122,
      "##繰り返": 9123,
      "それに": 9124,
      "##以上の": 9125,
      "##シーズ": 9126,
      "あなたの": 9127,
      "2018年0": 9128,
      "##目指": 9129,
      "##を中心": 9130,
      "##まれる": 9131,
      "##作り": 9132,
      "##間違い": 9133,
      "##生産": 9134,
      "##みの": 9135,
      "##決め": 9136,
      "##バル": 9137,
      "##ナル": 9138,
      "##必ず": 9139,
      "##証拠": 9140,
      "##活用": 9141,
      "##委員": 9142,
      "##掲載": 9143,
      "##っており": 9144,
      "##しくは": 9145,
      "##にとっては": 9146,
      "よし": 9147,
      "##たし": 9148,
      "##を一": 9149,
      "##を始め": 9150,
      "##地の": 9151,
      "##んでも": 9152,
      "##んですが": 9153,
      "##以降": 9154,
      "##気づ": 9155,
      "##マー": 9156,
      "##2年": 9157,
      "##ジャ": 9158,
      "##病院": 9159,
      "##製品": 9160,
      "##支払": 9161,
      "##it": 9162,
      "##存知": 9163,
      "##完全": 9164,
      "##打ち": 9165,
      "##処理": 9166,
      "##することは": 9167,
      "##する必要": 9168,
      "##できません": 9169,
      "##などが": 9170,
      "##についてはどうですか": 9171,
      "##だったので": 9172,
      "##日本人": 9173,
      "##の人が": 9174,
      "##を受ける": 9175,
      "##が高": 9176,
      "##始める": 9177,
      "##に影響": 9178,
      "##なもの": 9179,
      "##なかなか": 9180,
      "##うまく": 9181,
      "##みを": 9182,
      "##つけ": 9183,
      "##1日": 9184,
      "##授業": 9185,
      "##頻度": 9186,
      "##ことだ": 9187,
      "##ようになる": 9188,
      "##ティブ": 9189,
      "##が出て": 9190,
      "##合わせて": 9191,
      "次の": 9192,
      "自宅": 9193,
      "##ンク": 9194,
      "##わらず": 9195,
      "##どれ": 9196,
      "##部の": 9197,
      "##ッション": 9198,
      "##レン": 9199,
      "##タル": 9200,
      "##習慣": 9201,
      "##ar": 9202,
      "##犯罪": 9203,
      "##ですよね": 9204,
      "##なくなる": 9205,
      "##しましたが": 9206,
      "##していただ": 9207,
      "無料": 9208,
      "素晴らしい": 9209,
      "結果": 9210,
      "##とに": 9211,
      "##があって": 9212,
      "##にご": 9213,
      "##なし": 9214,
      "##体が": 9215,
      "##金額": 9216,
      "##響き": 9217,
      "##200": 9218,
      "##ビル": 9219,
      "##予約": 9220,
      "##公開": 9221,
      "##続ける": 9222,
      "##ですから": 9223,
      "##って何": 9224,
      "##くなり": 9225,
      "##ログラム": 9226,
      "かなり": 9227,
      "ところ": 9228,
      "今は": 9229,
      "女性": 9230,
      "時間": 9231,
      "通常": 9232,
      "##見た": 9233,
      "##を食べ": 9234,
      "##が": 9235,
      "##わり": 9236,
      "##くい": 9237,
      "##アメリカ": 9238,
      "##無理": 9239,
      "##向上": 9240,
      "##買取": 9241,
      "##産業": 9242,
      "##ビジ": 9243,
      "##検討": 9244,
      "##11": 9245,
      "##乗り": 9246,
      "##友達": 9247,
      "##いただけ": 9248,
      "##可能な": 9249,
      "##を持って": 9250,
      "ここで": 9251,
      "##の一つ": 9252,
      "##簡単な": 9253,
      "##アクセス": 9254,
      "いく": 9255,
      "やっぱり": 9256,
      "インター": 9257,
      "##国民": 9258,
      "##出した": 9259,
      "##さな": 9260,
      "##わかる": 9261,
      "##中国": 9262,
      "##向け": 9263,
      "##様に": 9264,
      "##物は": 9265,
      "##回の": 9266,
      "##指導": 9267,
      "##ベスト": 9268,
      "##移動": 9269,
      "##教育": 9270,
      "##魅力": 9271,
      "##被害": 9272,
      "##ようで": 9273,
      "##にはどのような": 9274,
      "##んですけど": 9275,
      "##することができます": 9276,
      "##写真を": 9277,
      "##旅行を計画": 9278,
      "##ッシュ": 9279,
      "すぐ": 9280,
      "どちら": 9281,
      "スマ": 9282,
      "役に立ち": 9283,
      "結局": 9284,
      "##の場合": 9285,
      "##るのは": 9286,
      "##がい": 9287,
      "##が悪": 9288,
      "##ができ": 9289,
      "##があれば": 9290,
      "##にあ": 9291,
      "##法律": 9292,
      "##ーチ": 9293,
      "##かれた": 9294,
      "##らす": 9295,
      "##スメ": 9296,
      "##担当": 9297,
      "##そも": 9298,
      "##近い": 9299,
      "##ロード": 9300,
      "##最高": 9301,
      "##練習": 9302,
      "##代表": 9303,
      "##普通": 9304,
      "##浮気": 9305,
      "##韓国": 9306,
      "##んだろう": 9307,
      "##自分が": 9308,
      "##の方は": 9309,
      "ただし": 9310,
      "##っきり": 9311,
      "から": 9312,
      "##のことを": 9313,
      "##法人": 9314,
      "##者を": 9315,
      "##ッセ": 9316,
      "##感謝": 9317,
      "##書いた": 9318,
      "##知り": 9319,
      "##エネルギー": 9320,
      "##最大": 9321,
      "##趣味": 9322,
      "##についてもっと": 9323,
      "##紹介します": 9324,
      "##んどん": 9325,
      "##イエット": 9326,
      "ありがとう": 9327,
      "あれ": 9328,
      "しかも": 9329,
      "すご": 9330,
      "##目標": 9331,
      "##を飲": 9332,
      "##まい": 9333,
      "##きている": 9334,
      "##なのに": 9335,
      "##5日": 9336,
      "##ッピング": 9337,
      "##クール": 9338,
      "##思議": 9339,
      "##みると": 9340,
      "##つつ": 9341,
      "##レベル": 9342,
      "##内で": 9343,
      "##解決": 9344,
      "##ピック": 9345,
      "##特に": 9346,
      "##依頼": 9347,
      "##挙げ": 9348,
      "##費用": 9349,
      "##してから": 9350,
      "##というと": 9351,
      "##さんも": 9352,
      "##していますが": 9353,
      "##となり": 9354,
      "##のお客様": 9355,
      "##うちに": 9356,
      "全て": 9357,
      "明日": 9358,
      "##の本": 9359,
      "##を超": 9360,
      "##なあ": 9361,
      "##かせ": 9362,
      "##えず": 9363,
      "##らなかった": 9364,
      "##デル": 9365,
      "##レンジ": 9366,
      "##カウ": 9367,
      "##基準": 9368,
      "##流行": 9369,
      "##試験": 9370,
      "##6年": 9371,
      "##困っています": 9372,
      "##ヤー": 9373,
      "##ようになりました": 9374,
      "##ませんか": 9375,
      "##取りを": 9376,
      "##してみましょう": 9377,
      "##ンプル": 9378,
      "##コミュニケーション": 9379,
      "11": 9380,
      "お客様": 9381,
      "ほとんど": 9382,
      "今まで": 9383,
      "##のと": 9384,
      "##の日": 9385,
      "##の例": 9386,
      "##が多": 9387,
      "##いし": 9388,
      "##いてい": 9389,
      "##を楽し": 9390,
      "##よかった": 9391,
      "##に取り": 9392,
      "##ーカー": 9393,
      "##かで": 9394,
      "##会員": 9395,
      "##お店": 9396,
      "##レイ": 9397,
      "##一人": 9398,
      "##問い": 9399,
      "##最近": 9400,
      "##野球": 9401,
      "##戦争": 9402,
      "##替え": 9403,
      "##ますか": 9404,
      "##するには": 9405,
      "##と思い": 9406,
      "##の違いは何ですか": 9407,
      "いろいろ": 9408,
      "札幌市中央区": 9409,
      "インターネット": 9410,
      "食料": 9411,
      "##の記": 9412,
      "##と一緒に": 9413,
      "##がつ": 9414,
      "##だよ": 9415,
      "##を上げ": 9416,
      "##りで": 9417,
      "##ゆる": 9418,
      "##に置": 9419,
      "##っかけ": 9420,
      "##方に": 9421,
      "##取引": 9422,
      "##気で": 9423,
      "##シリーズ": 9424,
      "##込む": 9425,
      "##不倫": 9426,
      "##働き": 9427,
      "##教え": 9428,
      "##ぐらい": 9429,
      "##転車": 9430,
      "##保護": 9431,
      "##元の": 9432,
      "##ってた": 9433,
      "##ありました": 9434,
      "そのため": 9435,
      "##を作成": 9436,
      "##プレゼ": 9437,
      "##リンク": 9438,
      "##バイス": 9439,
      "##させて頂きました": 9440,
      "##ヒントはありますか": 9441,
      "情報": 9442,
      "本当": 9443,
      "##の国": 9444,
      "##のため": 9445,
      "##発見": 9446,
      "##まず": 9447,
      "##さが": 9448,
      "##れません": 9449,
      "##にいる": 9450,
      "##ーザー": 9451,
      "##なぁ": 9452,
      "##ッカー": 9453,
      "##何も": 9454,
      "##15": 9455,
      "##神経": 9456,
      "##医療": 9457,
      "##段階": 9458,
      "##を見た": 9459,
      "##きましたが": 9460,
      "##してみる": 9461,
      "##に対応": 9462,
      "##フォー": 9463,
      "##なりません": 9464,
      "##の違いは": 9465,
      "##に向か": 9466,
      "##呼ばれる": 9467,
      "12": 9468,
      "とか": 9469,
      "みんな": 9470,
      "今後": 9471,
      "初めて": 9472,
      "##をや": 9473,
      "##まって": 9474,
      "##さを": 9475,
      "##さない": 9476,
      "##きっかけ": 9477,
      "##ンチ": 9478,
      "##かげ": 9479,
      "##サン": 9480,
      "##調べて": 9481,
      "##関連": 9482,
      "##ハウ": 9483,
      "##行く": 9484,
      "##認め": 9485,
      "##維持": 9486,
      "##信頼": 9487,
      "##過去": 9488,
      "##具体": 9489,
      "##努力": 9490,
      "##にならない": 9491,
      "日本人": 9492,
      "##をつけ": 9493,
      "##アプリケーション": 9494,
      "##サイクル": 9495,
      "たく": 9496,
      "##のなら": 9497,
      "##の場合は": 9498,
      "##を含": 9499,
      "##は一": 9500,
      "##に合": 9501,
      "##ずつ": 9502,
      "##家庭": 9503,
      "##サート": 9504,
      "##子の": 9505,
      "##フレ": 9506,
      "##診断": 9507,
      "##物質": 9508,
      "##交流": 9509,
      "##前から": 9510,
      "##検査": 9511,
      "##19": 9512,
      "##適な": 9513,
      "##点を": 9514,
      "##投資": 9515,
      "##ですし": 9516,
      "##ですので": 9517,
      "##するという": 9518,
      "##するため": 9519,
      "##から始め": 9520,
      "自分で": 9521,
      "##方法はありますか": 9522,
      "##こともある": 9523,
      "##興味深い": 9524,
      "##が必要です": 9525,
      "##について学んでいる": 9526,
      "##っております": 9527,
      "それは良さそうだ": 9528,
      "もしか": 9529,
      "様々な": 9530,
      "##が心配です": 9531,
      "##でに": 9532,
      "##はや": 9533,
      "##もなく": 9534,
      "##もちろん": 9535,
      "##伝統": 9536,
      "##らっしゃ": 9537,
      "##当て": 9538,
      "##度は": 9539,
      "##プラ": 9540,
      "##ススメ": 9541,
      "##登場": 9542,
      "##体に": 9543,
      "##手を": 9544,
      "##感情": 9545,
      "##ニー": 9546,
      "##ニメ": 9547,
      "##少なく": 9548,
      "##知らない": 9549,
      "##バック": 9550,
      "##食料": 9551,
      "##２０": 9552,
      "##動産": 9553,
      "##業者": 9554,
      "##7日": 9555,
      "##外国": 9556,
      "##ロール": 9557,
      "##ソフト": 9558,
      "##投稿": 9559,
      "##展開": 9560,
      "##することを": 9561,
      "##ていただけ": 9562,
      "##がありました": 9563,
      "こういう": 9564,
      "##シャル": 9565,
      "##テーマ": 9566,
      "##を中心に": 9567,
      "うん": 9568,
      "と言う": 9569,
      "イン": 9570,
      "今日の": 9571,
      "毎日": 9572,
      "美味": 9573,
      "自然": 9574,
      "##ちんと": 9575,
      "##の問題": 9576,
      "##が多く": 9577,
      "##本当": 9578,
      "##りする": 9579,
      "##ょう": 9580,
      "##サポート": 9581,
      "##会議": 9582,
      "##アウト": 9583,
      "##自信": 9584,
      "##構造": 9585,
      "##オリン": 9586,
      "##役割": 9587,
      "##週間": 9588,
      "##主張": 9589,
      "##ロッ": 9590,
      "##予想": 9591,
      "##代の": 9592,
      "##ケア": 9593,
      "##細胞": 9594,
      "##読んで": 9595,
      "##卒業": 9596,
      "##のかな": 9597,
      "何かお勧め": 9598,
      "##出来ない": 9599,
      "##に関しては": 9600,
      "##させていただきます": 9601,
      "##有名な": 9602,
      "何かお勧めはありますか": 9603,
      "なお": 9604,
      "キャ": 9605,
      "スタ": 9606,
      "僕は": 9607,
      "具体": 9608,
      "利用": 9609,
      "##がって": 9610,
      "##いると": 9611,
      "##まな": 9612,
      "##まっている": 9613,
      "##まれて": 9614,
      "##に参加": 9615,
      "##方向": 9616,
      "##ーパー": 9617,
      "##人たち": 9618,
      "##プログラム": 9619,
      "##お客様": 9620,
      "##みました": 9621,
      "##フル": 9622,
      "##想像": 9623,
      "##楽しい": 9624,
      "##買取りを": 9625,
      "##市の": 9626,
      "##ビュー": 9627,
      "##ボード": 9628,
      "##予防": 9629,
      "##為に": 9630,
      "##ヨーク": 9631,
      "##統領": 9632,
      "##進め": 9633,
      "##苦労": 9634,
      "##のであれば": 9635,
      "##んでしょう": 9636,
      "##時間は": 9637,
      "##していきます": 9638,
      "##を使った": 9639,
      "##ることができます": 9640,
      "いま": 9641,
      "しっかり": 9642,
      "ずっと": 9643,
      "睡眠": 9644,
      "##とし": 9645,
      "##発売": 9646,
      "##もあり": 9647,
      "##りあ": 9648,
      "##り難": 9649,
      "##作成": 9650,
      "##なの": 9651,
      "##かを": 9652,
      "##かしい": 9653,
      "##3日": 9654,
      "##当たり": 9655,
      "##会の": 9656,
      "##自己": 9657,
      "##みる": 9658,
      "##店舗": 9659,
      "##ついて": 9660,
      "##ラク": 9661,
      "##レジ": 9662,
      "##指摘": 9663,
      "##そらく": 9664,
      "##ジア": 9665,
      "##操作": 9666,
      "##所の": 9667,
      "##々が": 9668,
      "##政治": 9669,
      "##ロック": 9670,
      "##待ち": 9671,
      "##ペット": 9672,
      "##ヴァ": 9673,
      "##an": 9674,
      "##氏の": 9675,
      "##氏は": 9676,
      "##先に": 9677,
      "##反応": 9678,
      "##詳しく": 9679,
      "##展示": 9680,
      "##誕生": 9681,
      "##ということで": 9682,
      "##ればいい": 9683,
      "##どうしたら": 9684,
      "##自分で": 9685,
      "##の中には": 9686,
      "##に行って": 9687,
      "##可能です": 9688,
      "どうすれば": 9689,
      "##レーニング": 9690,
      "##以外の": 9691,
      "##ットを飼": 9692,
      "##買取りをさせて頂きました": 9693,
      "中国": 9694,
      "普段": 9695,
      "過去": 9696,
      "##分の": 9697,
      "##ただ": 9698,
      "##だ": 9699,
      "##いか": 9700,
      "##を書": 9701,
      "##まれている": 9702,
      "##しの": 9703,
      "##世話": 9704,
      "##ーリー": 9705,
      "##なのですが": 9706,
      "##かく": 9707,
      "##どの": 9708,
      "##報道": 9709,
      "##場に": 9710,
      "##品の": 9711,
      "##デオ": 9712,
      "##査定": 9713,
      "##記念": 9714,
      "##メモ": 9715,
      "##私が": 9716,
      "##使える": 9717,
      "##文字": 9718,
      "##パソコン": 9719,
      "##運転": 9720,
      "##現実": 9721,
      "##満足": 9722,
      "##疑問": 9723,
      "##敵な": 9724,
      "##いますが": 9725,
      "##などに": 9726,
      "これを": 9727,
      "##ストラン": 9728,
      "##方がいい": 9729,
      "##オンライン": 9730,
      "##程度の": 9731,
      "だが": 9732,
      "とは": 9733,
      "ゲーム": 9734,
      "デザ": 9735,
      "一度": 9736,
      "地域": 9737,
      "海外": 9738,
      "##があ": 9739,
      "##が続": 9740,
      "##だって": 9741,
      "##りは": 9742,
      "##画面": 9743,
      "##ーター": 9744,
      "##実験": 9745,
      "##気分": 9746,
      "##キュ": 9747,
      "##アイ": 9748,
      "##調べ": 9749,
      "##つき": 9750,
      "##育て": 9751,
      "##シェ": 9752,
      "##記録": 9753,
      "##低い": 9754,
      "##6日": 9755,
      "##公園": 9756,
      "##注目": 9757,
      "##幸せ": 9758,
      "##便利": 9759,
      "##ことから": 9760,
      "##してしまった": 9761,
      "##と思いました": 9762,
      "##ことが多い": 9763,
      "##しまって": 9764,
      "##がありますが": 9765,
      "##を持ち": 9766,
      "##しかない": 9767,
      "##をお買取りをさせて頂きました": 9768,
      "##ることができる": 9769,
      "##を与える": 9770,
      "##ひとつ": 9771,
      "##くらいの頻度": 9772,
      "##ジェクト": 9773,
      "すぐに": 9774,
      "18": 9775,
      "うち": 9776,
      "男性": 9777,
      "##分野": 9778,
      "##の仕事": 9779,
      "##が出来": 9780,
      "##いていた": 9781,
      "##をは": 9782,
      "##を訪": 9783,
      "##を引き": 9784,
      "##を目指": 9785,
      "##イツ": 9786,
      "##トン": 9787,
      "##らが": 9788,
      "##的にも": 9789,
      "##リティ": 9790,
      "##子が": 9791,
      "##手伝": 9792,
      "##コレ": 9793,
      "##果た": 9794,
      "##異なる": 9795,
      "##範囲": 9796,
      "##信じ": 9797,
      "##試合": 9798,
      "##ざる": 9799,
      "##ざまな": 9800,
      "##or": 9801,
      "##車場": 9802,
      "##痛み": 9803,
      "##活躍": 9804,
      "##at": 9805,
      "##4日": 9806,
      "##御座": 9807,
      "##Web": 9808,
      "##するように": 9809,
      "##ようになって": 9810,
      "##できました": 9811,
      "それも": 9812,
      "それから": 9813,
      "##なども": 9814,
      "##しまうと": 9815,
      "##食べる": 9816,
      "##することができる": 9817,
      "##はずです": 9818,
      "なんて": 9819,
      "##すぐに": 9820,
      "##を読む": 9821,
      "彼女は": 9822,
      "一般的な": 9823,
      "参考になり": 9824,
      "##にはどんなものがありますか": 9825,
      "##メディア": 9826,
      "##についてもっと知りたい": 9827,
      "フィ": 9828,
      "初春": 9829,
      "浮気": 9830,
      "納得": 9831,
      "##の高": 9832,
      "##を求": 9833,
      "##を起こ": 9834,
      "##まして": 9835,
      "##しかった": 9836,
      "##っぽ": 9837,
      "##言って": 9838,
      "##学の": 9839,
      "##実施": 9840,
      "##クション": 9841,
      "##スは": 9842,
      "##大丈夫": 9843,
      "##みな": 9844,
      "##金融": 9845,
      "##ラマ": 9846,
      "##決定": 9847,
      "##一つ": 9848,
      "##経営": 9849,
      "##エンジ": 9850,
      "##ミン": 9851,
      "##チベ": 9852,
      "##en": 9853,
      "##協力": 9854,
      "##絶対": 9855,
      "##焼き": 9856,
      "##ようと": 9857,
      "そのような": 9858,
      "##だけではなく": 9859,
      "##ートを": 9860,
      "##を使用": 9861,
      "##んですよ": 9862,
      "##だろうか": 9863,
      "##思い出": 9864,
      "##始めた": 9865,
      "##サービスを": 9866,
      "##人もいる": 9867,
      "それはいい考え": 9868,
      "##にはどのようなものがありますか": 9869,
      "##りあえず": 9870,
      "20": 9871,
      "そも": 9872,
      "サー": 9873,
      "何も": 9874,
      "地球": 9875,
      "最も": 9876,
      "##分かる": 9877,
      "##たる": 9878,
      "##たな": 9879,
      "##だという": 9880,
      "##せば": 9881,
      "##を紹介": 9882,
      "##に通": 9883,
      "##法の": 9884,
      "##らかに": 9885,
      "##当然": 9886,
      "##くべき": 9887,
      "##グループ": 9888,
      "##セミ": 9889,
      "##スケ": 9890,
      "##おすすめ": 9891,
      "##感覚": 9892,
      "##様の": 9893,
      "##コース": 9894,
      "##年間": 9895,
      "##交換": 9896,
      "##行き": 9897,
      "##業界": 9898,
      "##失敗": 9899,
      "##終了": 9900,
      "##答え": 9901,
      "##積極": 9902,
      "##長い": 9903,
      "##英語": 9904,
      "それぞれ": 9905,
      "##りますが": 9906,
      "これまで": 9907,
      "それは面白": 9908,
      "##ストレ": 9909,
      "##000": 9910,
      "##ファイル": 9911,
      "##みたいな": 9912,
      "##の一部": 9913,
      "##が必要ですか": 9914,
      "##時代の": 9915,
      "##なくなった": 9916,
      "##クリニック": 9917,
      "##心がけ": 9918,
      "問題": 9919,
      "大きな": 9920,
      "韓国": 9921,
      "##のための": 9922,
      "##が発生": 9923,
      "##を抱": 9924,
      "##っこ": 9925,
      "##なのだ": 9926,
      "##う御座": 9927,
      "##気に入": 9928,
      "##会う": 9929,
      "##系サイト": 9930,
      "##やら": 9931,
      "##自動": 9932,
      "##思った": 9933,
      "##向か": 9934,
      "##傾向": 9935,
      "##マス": 9936,
      "##食事": 9937,
      "##モデル": 9938,
      "##結構": 9939,
      "##引っ": 9940,
      "##新聞": 9941,
      "##ブラ": 9942,
      "##月の": 9943,
      "##述べ": 9944,
      "##収入": 9945,
      "##運営": 9946,
      "##証明": 9947,
      "##ダウン": 9948,
      "##聞く": 9949,
      "##止め": 9950,
      "##機械": 9951,
      "##集中": 9952,
      "##ac": 9953,
      "##土地": 9954,
      "##破壊": 9955,
      "##苦手": 9956,
      "##なくとも": 9957,
      "##ような気が": 9958,
      "##ストレス": 9959,
      "##こともあります": 9960,
      "##違いは何ですか": 9961,
      "##やすく": 9962,
      "##してくれ": 9963,
      "##を出す": 9964,
      "##であろう": 9965,
      "##レジット": 9966,
      "そもそも": 9967,
      "お勧めの": 9968,
      "オン": 9969,
      "残念": 9970,
      "逆に": 9971,
      "##致します": 9972,
      "##が起": 9973,
      "##が減": 9974,
      "##いが": 9975,
      "##いけない": 9976,
      "##を学": 9977,
      "##作用": 9978,
      "##に加": 9979,
      "##かれている": 9980,
      "##人気のある": 9981,
      "##導入": 9982,
      "##家に": 9983,
      "##連れて": 9984,
      "##気になる": 9985,
      "##度の": 9986,
      "##リス": 9987,
      "##およ": 9988,
      "##手続き": 9989,
      "##ズム": 9990,
      "##年も": 9991,
      "##ョン": 9992,
      "##2日": 9993,
      "##業務": 9994,
      "##確か": 9995,
      "##ロン": 9996,
      "##務整理": 9997,
      "##車の": 9998,
      "##9日": 9999
    }
  }
}